{
  "vocab_size": 10000,
  "vocab": {
    "!": 0,
    "!</w>": 1,
    "!_</w>": 2,
    "!\u2014": 3,
    "!\u2014</w>": 4,
    "!\u2019</w>": 5,
    "!\u201d</w>": 6,
    "\"": 7,
    "#": 8,
    "$": 9,
    "%": 10,
    "&": 11,
    "'": 12,
    "(": 13,
    "(_": 14,
    "(for</w>": 15,
    ")": 16,
    "),</w>": 17,
    ")</w>": 18,
    "*": 19,
    "*</w>": 20,
    "+": 21,
    ",": 22,
    ",)</w>": 23,
    ",--": 24,
    ",--</w>": 25,
    ",</w>": 26,
    ",\u2014": 27,
    ",\u2014</w>": 28,
    ",\u2019</w>": 29,
    ",\u201d</w>": 30,
    "-": 31,
    "--": 32,
    "----": 33,
    "--</w>": 34,
    "-</w>": 35,
    "-in-": 36,
    "-like</w>": 37,
    ".": 38,
    ".)</w>": 39,
    ".</w>": 40,
    ".]</w>": 41,
    "._": 42,
    "._</w>": 43,
    "._]</w>": 44,
    ".org": 45,
    ".s.</w>": 46,
    ".\u2014": 47,
    ".\u2014</w>": 48,
    ".\u2019</w>": 49,
    ".\u201d</w>": 50,
    "/": 51,
    "0": 52,
    "00": 53,
    "00:": 54,
    "00:0": 55,
    "00:01": 56,
    "00:01:": 57,
    "0:": 58,
    "0:1": 59,
    "0</w>": 60,
    "1": 61,
    "1.": 62,
    "1.</w>": 63,
    "1.e.": 64,
    "1.f": 65,
    "1.f.": 66,
    "10": 67,
    "10:": 68,
    "10:1": 69,
    "11": 70,
    "119:": 71,
    "119:1": 72,
    "11:": 73,
    "11:1": 74,
    "12": 75,
    "12:": 76,
    "12:1": 77,
    "13": 78,
    "13:": 79,
    "13:1": 80,
    "14": 81,
    "14:": 82,
    "14:1": 83,
    "15": 84,
    "15:": 85,
    "15:1": 86,
    "16": 87,
    "16:": 88,
    "16:1": 89,
    "17": 90,
    "17:": 91,
    "17:1": 92,
    "18": 93,
    "18:": 94,
    "18:1": 95,
    "19": 96,
    "19:": 97,
    "19:1": 98,
    "1:": 99,
    "1:1": 100,
    "1:10</w>": 101,
    "1:11</w>": 102,
    "1:12</w>": 103,
    "1:13</w>": 104,
    "1:14</w>": 105,
    "1:15</w>": 106,
    "1:16</w>": 107,
    "1:17</w>": 108,
    "1:18</w>": 109,
    "1:19</w>": 110,
    "1:1</w>": 111,
    "1:2</w>": 112,
    "1:3</w>": 113,
    "1:4</w>": 114,
    "1:5</w>": 115,
    "1:6</w>": 116,
    "1:7</w>": 117,
    "1:8</w>": 118,
    "1:9</w>": 119,
    "1</w>": 120,
    "2": 121,
    "2.</w>": 122,
    "20": 123,
    "20:": 124,
    "20:1": 125,
    "21": 126,
    "21:": 127,
    "21:1": 128,
    "22": 129,
    "22:": 130,
    "22:1": 131,
    "23": 132,
    "23:": 133,
    "23:1": 134,
    "24": 135,
    "24:": 136,
    "24:1": 137,
    "25": 138,
    "25:": 139,
    "25:1": 140,
    "26": 141,
    "26:": 142,
    "26:1": 143,
    "27": 144,
    "27:": 145,
    "27:1": 146,
    "28": 147,
    "28:": 148,
    "28:1": 149,
    "29": 150,
    "29:": 151,
    "29:1": 152,
    "2:": 153,
    "2:1": 154,
    "2:10</w>": 155,
    "2:11</w>": 156,
    "2:12</w>": 157,
    "2:13</w>": 158,
    "2:14</w>": 159,
    "2:15</w>": 160,
    "2:16</w>": 161,
    "2:17</w>": 162,
    "2:18</w>": 163,
    "2:19</w>": 164,
    "2:1</w>": 165,
    "2:20</w>": 166,
    "2:21</w>": 167,
    "2:2</w>": 168,
    "2:3</w>": 169,
    "2:4</w>": 170,
    "2:5</w>": 171,
    "2:6</w>": 172,
    "2:7</w>": 173,
    "2:8</w>": 174,
    "2:9</w>": 175,
    "2</w>": 176,
    "3": 177,
    "3.</w>": 178,
    "30": 179,
    "30:": 180,
    "30:1": 181,
    "31": 182,
    "31:": 183,
    "31:1": 184,
    "32": 185,
    "32:1": 186,
    "33": 187,
    "33:1": 188,
    "34": 189,
    "34:1": 190,
    "35": 191,
    "35:1": 192,
    "36": 193,
    "36:1": 194,
    "37": 195,
    "37:1": 196,
    "38": 197,
    "38:1": 198,
    "39": 199,
    "39:1": 200,
    "3:": 201,
    "3:1": 202,
    "3:10</w>": 203,
    "3:11</w>": 204,
    "3:12</w>": 205,
    "3:13</w>": 206,
    "3:14</w>": 207,
    "3:15</w>": 208,
    "3:16</w>": 209,
    "3:17</w>": 210,
    "3:18</w>": 211,
    "3:1</w>": 212,
    "3:2</w>": 213,
    "3:3</w>": 214,
    "3:4</w>": 215,
    "3:5</w>": 216,
    "3:6</w>": 217,
    "3:7</w>": 218,
    "3:8</w>": 219,
    "3:9</w>": 220,
    "3</w>": 221,
    "4": 222,
    "4.</w>": 223,
    "40": 224,
    "40:": 225,
    "40:1": 226,
    "40</w>": 227,
    "41": 228,
    "41</w>": 229,
    "42</w>": 230,
    "43</w>": 231,
    "44": 232,
    "44</w>": 233,
    "45</w>": 234,
    "46</w>": 235,
    "47</w>": 236,
    "48": 237,
    "48</w>": 238,
    "49": 239,
    "49</w>": 240,
    "4:": 241,
    "4:1": 242,
    "4:10</w>": 243,
    "4:11</w>": 244,
    "4:12</w>": 245,
    "4:13</w>": 246,
    "4:14</w>": 247,
    "4:15</w>": 248,
    "4:16</w>": 249,
    "4:17</w>": 250,
    "4:18</w>": 251,
    "4:1</w>": 252,
    "4:2</w>": 253,
    "4:3</w>": 254,
    "4:4</w>": 255,
    "4:5</w>": 256,
    "4:6</w>": 257,
    "4:7</w>": 258,
    "4:8</w>": 259,
    "4:9</w>": 260,
    "4</w>": 261,
    "5": 262,
    "5.</w>": 263,
    "50": 264,
    "50</w>": 265,
    "51</w>": 266,
    "52</w>": 267,
    "53</w>": 268,
    "54</w>": 269,
    "55</w>": 270,
    "56</w>": 271,
    "5:": 272,
    "5:1": 273,
    "5:10</w>": 274,
    "5:11</w>": 275,
    "5:12</w>": 276,
    "5:13</w>": 277,
    "5:14</w>": 278,
    "5:15</w>": 279,
    "5:16</w>": 280,
    "5:17</w>": 281,
    "5:1</w>": 282,
    "5:2</w>": 283,
    "5:3</w>": 284,
    "5:4</w>": 285,
    "5:5</w>": 286,
    "5:6</w>": 287,
    "5:7</w>": 288,
    "5:8</w>": 289,
    "5:9</w>": 290,
    "5</w>": 291,
    "6": 292,
    "6.</w>": 293,
    "60</w>": 294,
    "6:": 295,
    "6:1": 296,
    "6:10</w>": 297,
    "6:11</w>": 298,
    "6:12</w>": 299,
    "6:13</w>": 300,
    "6:14</w>": 301,
    "6:1</w>": 302,
    "6:2</w>": 303,
    "6:3</w>": 304,
    "6:4</w>": 305,
    "6:5</w>": 306,
    "6:6</w>": 307,
    "6:7</w>": 308,
    "6:8</w>": 309,
    "6:9</w>": 310,
    "6</w>": 311,
    "7": 312,
    "7.</w>": 313,
    "7:": 314,
    "7:1": 315,
    "7:10</w>": 316,
    "7:11</w>": 317,
    "7:12</w>": 318,
    "7:13</w>": 319,
    "7:14</w>": 320,
    "7:1</w>": 321,
    "7:2</w>": 322,
    "7:3</w>": 323,
    "7:4</w>": 324,
    "7:5</w>": 325,
    "7:6</w>": 326,
    "7:7</w>": 327,
    "7:8</w>": 328,
    "7:9</w>": 329,
    "7</w>": 330,
    "8": 331,
    "8.</w>": 332,
    "8:": 333,
    "8:1": 334,
    "8:10</w>": 335,
    "8:11</w>": 336,
    "8:12</w>": 337,
    "8:13</w>": 338,
    "8:14</w>": 339,
    "8:1</w>": 340,
    "8:2</w>": 341,
    "8:3</w>": 342,
    "8:4</w>": 343,
    "8:5</w>": 344,
    "8:6</w>": 345,
    "8:7</w>": 346,
    "8:8</w>": 347,
    "8:9</w>": 348,
    "8</w>": 349,
    "9": 350,
    "9.</w>": 351,
    "9:": 352,
    "9:1": 353,
    "9:10</w>": 354,
    "9:11</w>": 355,
    "9:12</w>": 356,
    "9:13</w>": 357,
    "9:14</w>": 358,
    "9:15</w>": 359,
    "9:1</w>": 360,
    "9:2</w>": 361,
    "9:3</w>": 362,
    "9:4</w>": 363,
    "9:5</w>": 364,
    "9:6</w>": 365,
    "9:7</w>": 366,
    "9:8</w>": 367,
    "9:9</w>": 368,
    "9</w>": 369,
    ":": 370,
    ":1": 371,
    ":2": 372,
    ":20</w>": 373,
    ":21</w>": 374,
    ":22</w>": 375,
    ":23</w>": 376,
    ":24</w>": 377,
    ":25</w>": 378,
    ":26</w>": 379,
    ":27</w>": 380,
    ":28</w>": 381,
    ":29</w>": 382,
    ":2</w>": 383,
    ":3": 384,
    ":30</w>": 385,
    ":31</w>": 386,
    ":32</w>": 387,
    ":33</w>": 388,
    ":34</w>": 389,
    ":35</w>": 390,
    ":36</w>": 391,
    ":37</w>": 392,
    ":38</w>": 393,
    ":39</w>": 394,
    ":3</w>": 395,
    ":</w>": 396,
    ";": 397,
    ";)</w>": 398,
    ";</w>": 399,
    ";\u2014": 400,
    "<": 401,
    "</w>": 402,
    ">": 403,
    "?": 404,
    "?</w>": 405,
    "?_</w>": 406,
    "?\u2014": 407,
    "?\u2019</w>": 408,
    "?\u201d</w>": 409,
    "[": 410,
    "[_": 411,
    "[_a": 412,
    "[_a</w>": 413,
    "[_aside": 414,
    "[_aside._]</w>": 415,
    "[_aside</w>": 416,
    "[_aside_.]</w>": 417,
    "[_ex": 418,
    "[_exeun": 419,
    "[_exeunt._]</w>": 420,
    "[_exeunt</w>": 421,
    "[_exit": 422,
    "[_exit._]</w>": 423,
    "[_exit</w>": 424,
    "[_he</w>": 425,
    "[_read": 426,
    "[_sing": 427,
    "[_the</w>": 428,
    "[_they</w>": 429,
    "[_to</w>": 430,
    "[illustra": 431,
    "[illustration": 432,
    "[illustration:</w>": 433,
    "[illustration]</w>": 434,
    "]": 435,
    "]</w>": 436,
    "^": 437,
    "_": 438,
    "_,</w>": 439,
    "_.</w>": 440,
    "_.]</w>": 441,
    "_</w>": 442,
    "_]</w>": 443,
    "_i": 444,
    "_that": 445,
    "_the</w>": 446,
    "_you": 447,
    "a": 448,
    "a,</w>": 449,
    "a-": 450,
    "a.</w>": 451,
    "a._]</w>": 452,
    "a:</w>": 453,
    "a;</w>": 454,
    "a</w>": 455,
    "a?</w>": 456,
    "aar": 457,
    "aaron,</w>": 458,
    "aaron.</w>": 459,
    "aaron</w>": 460,
    "ab": 461,
    "abhor": 462,
    "abi": 463,
    "abide</w>": 464,
    "ability</w>": 465,
    "abimele": 466,
    "able,</w>": 467,
    "able.</w>": 468,
    "able;</w>": 469,
    "able</w>": 470,
    "ably</w>": 471,
    "abner</w>": 472,
    "abo": 473,
    "abode</w>": 474,
    "abomin": 475,
    "abomination</w>": 476,
    "abominations</w>": 477,
    "about": 478,
    "about,</w>": 479,
    "about.</w>": 480,
    "about</w>": 481,
    "above,</w>": 482,
    "above</w>": 483,
    "abra": 484,
    "abraham,</w>": 485,
    "abraham</w>": 486,
    "abro": 487,
    "abroad</w>": 488,
    "abs": 489,
    "absal": 490,
    "absalom</w>": 491,
    "absence</w>": 492,
    "absolu": 493,
    "absolute</w>": 494,
    "abu": 495,
    "abund": 496,
    "abundance</w>": 497,
    "ac": 498,
    "accep": 499,
    "accept</w>": 500,
    "accepted</w>": 501,
    "acces": 502,
    "access</w>": 503,
    "accid": 504,
    "accompani": 505,
    "accompanied</w>": 506,
    "accompli": 507,
    "accor": 508,
    "according</w>": 509,
    "accoun": 510,
    "account</w>": 511,
    "accu": 512,
    "accur": 513,
    "accursed</w>": 514,
    "accuse</w>": 515,
    "accustom": 516,
    "accustomed</w>": 517,
    "ace</w>": 518,
    "ach": 519,
    "ach</w>": 520,
    "acha": 521,
    "ache": 522,
    "ached</w>": 523,
    "acher": 524,
    "aches</w>": 525,
    "acheth</w>": 526,
    "achi": 527,
    "achill": 528,
    "achilles.</w>": 529,
    "achimo": 530,
    "acknowledg": 531,
    "acknowledge</w>": 532,
    "acquain": 533,
    "acquaint": 534,
    "acquaintance</w>": 535,
    "acquainted</w>": 536,
    "across</w>": 537,
    "act</w>": 538,
    "acti": 539,
    "action</w>": 540,
    "active</w>": 541,
    "acts</w>": 542,
    "ad": 543,
    "ad,</w>": 544,
    "ad</w>": 545,
    "ada": 546,
    "add</w>": 547,
    "added,</w>": 548,
    "added</w>": 549,
    "addi": 550,
    "addition</w>": 551,
    "additional</w>": 552,
    "addre": 553,
    "address</w>": 554,
    "addressed</w>": 555,
    "ade": 556,
    "aded</w>": 557,
    "adi": 558,
    "adieu": 559,
    "adieu.</w>": 560,
    "admi": 561,
    "admira": 562,
    "ado": 563,
    "ador": 564,
    "adri": 565,
    "adriana.</w>": 566,
    "adul": 567,
    "adulter": 568,
    "adv": 569,
    "advan": 570,
    "advance</w>": 571,
    "advanced</w>": 572,
    "advanta": 573,
    "advantage</w>": 574,
    "advent": 575,
    "adventure</w>": 576,
    "adver": 577,
    "advers": 578,
    "advi": 579,
    "advice</w>": 580,
    "advise</w>": 581,
    "aen": 582,
    "aenea": 583,
    "aeneas.</w>": 584,
    "af": 585,
    "afar</w>": 586,
    "aff": 587,
    "affair": 588,
    "affairs</w>": 589,
    "affe": 590,
    "affec": 591,
    "affected</w>": 592,
    "affection": 593,
    "affection</w>": 594,
    "affli": 595,
    "afflict</w>": 596,
    "affliction</w>": 597,
    "affor": 598,
    "afford</w>": 599,
    "afra": 600,
    "afrai": 601,
    "afraid,</w>": 602,
    "afraid</w>": 603,
    "after": 604,
    "after,</w>": 605,
    "after</w>": 606,
    "afterno": 607,
    "afterward</w>": 608,
    "afterwards</w>": 609,
    "ag": 610,
    "again": 611,
    "again,</w>": 612,
    "again.</w>": 613,
    "again:</w>": 614,
    "again;</w>": 615,
    "again</w>": 616,
    "against</w>": 617,
    "agame": 618,
    "agamemn": 619,
    "agamemnon.</w>": 620,
    "age": 621,
    "age,</w>": 622,
    "age.</w>": 623,
    "age;</w>": 624,
    "age</w>": 625,
    "aged</w>": 626,
    "ages,</w>": 627,
    "ages</w>": 628,
    "agger": 629,
    "agit": 630,
    "ago,</w>": 631,
    "ago</w>": 632,
    "agon": 633,
    "agre": 634,
    "agree": 635,
    "agree</w>": 636,
    "agreeable</w>": 637,
    "agreed</w>": 638,
    "agreement,</w>": 639,
    "agreement</w>": 640,
    "agrip": 641,
    "agrippa": 642,
    "ah": 643,
    "ah,</w>": 644,
    "ah.</w>": 645,
    "ah:</w>": 646,
    "ah</w>": 647,
    "aha": 648,
    "ahab": 649,
    "ahab,</w>": 650,
    "ahab</w>": 651,
    "ahab\u2019s</w>": 652,
    "ahaz": 653,
    "ahaz</w>": 654,
    "ahi": 655,
    "ai": 656,
    "ai,</w>": 657,
    "ai</w>": 658,
    "aid</w>": 659,
    "aim</w>": 660,
    "ain": 661,
    "ain</w>": 662,
    "air": 663,
    "air,</w>": 664,
    "air.</w>": 665,
    "air;</w>": 666,
    "air</w>": 667,
    "aja": 668,
    "ajax.</w>": 669,
    "al": 670,
    "al,</w>": 671,
    "al.</w>": 672,
    "al;</w>": 673,
    "al</w>": 674,
    "al?</w>": 675,
    "alac": 676,
    "alack,</w>": 677,
    "alar": 678,
    "alaru": 679,
    "alas!</w>": 680,
    "alas,</w>": 681,
    "alban": 682,
    "albany.</w>": 683,
    "alci": 684,
    "alcibi": 685,
    "alcibia": 686,
    "ale": 687,
    "ale</w>": 688,
    "aled</w>": 689,
    "alen": 690,
    "alen\u00e7": 691,
    "alex": 692,
    "alexand": 693,
    "alexandri": 694,
    "ali": 695,
    "alice,</w>": 696,
    "alice.</w>": 697,
    "alice</w>": 698,
    "alike</w>": 699,
    "ality</w>": 700,
    "alive,</w>": 701,
    "alive.</w>": 702,
    "alive</w>": 703,
    "all": 704,
    "all,</w>": 705,
    "all-": 706,
    "all.</w>": 707,
    "all;</w>": 708,
    "all</w>": 709,
    "allow": 710,
    "allow</w>": 711,
    "allowed</w>": 712,
    "allu": 713,
    "ally,</w>": 714,
    "ally</w>": 715,
    "all\u2019s</w>": 716,
    "almost</w>": 717,
    "alo": 718,
    "aloft</w>": 719,
    "alon": 720,
    "alone,</w>": 721,
    "alone.</w>": 722,
    "alone;</w>": 723,
    "alone</w>": 724,
    "along": 725,
    "along,</w>": 726,
    "along</w>": 727,
    "alou": 728,
    "alread": 729,
    "already.</w>": 730,
    "already</w>": 731,
    "als,</w>": 732,
    "als</w>": 733,
    "also,</w>": 734,
    "also.</w>": 735,
    "also</w>": 736,
    "alt": 737,
    "altar": 738,
    "altar,</w>": 739,
    "altar.</w>": 740,
    "altar</w>": 741,
    "alter": 742,
    "although</w>": 743,
    "altogether</w>": 744,
    "always</w>": 745,
    "al\u2019s</w>": 746,
    "am": 747,
    "am,</w>": 748,
    "am.</w>": 749,
    "am</w>": 750,
    "ama": 751,
    "amale": 752,
    "amaz": 753,
    "amb": 754,
    "ambassa": 755,
    "ambassad": 756,
    "ambi": 757,
    "ame": 758,
    "amemn": 759,
    "amen": 760,
    "amen.</w>": 761,
    "ameri": 762,
    "american</w>": 763,
    "ami": 764,
    "amiable</w>": 765,
    "ammon": 766,
    "amon": 767,
    "amon</w>": 768,
    "among</w>": 769,
    "amongst</w>": 770,
    "amor": 771,
    "amorites,</w>": 772,
    "amp": 773,
    "amu": 774,
    "an": 775,
    "an,</w>": 776,
    "an.</w>": 777,
    "an;</w>": 778,
    "an</w>": 779,
    "ana.</w>": 780,
    "anc": 781,
    "ance,</w>": 782,
    "ance.</w>": 783,
    "ance;</w>": 784,
    "ance</w>": 785,
    "anced</w>": 786,
    "ances": 787,
    "ances,</w>": 788,
    "ances</w>": 789,
    "anch": 790,
    "anci": 791,
    "ancient</w>": 792,
    "ancing</w>": 793,
    "and": 794,
    "and,</w>": 795,
    "and-": 796,
    "and.</w>": 797,
    "and</w>": 798,
    "andre": 799,
    "andrew.</w>": 800,
    "androni": 801,
    "ands</w>": 802,
    "ane": 803,
    "ang": 804,
    "ang</w>": 805,
    "angel": 806,
    "angel</w>": 807,
    "angelo.</w>": 808,
    "angels</w>": 809,
    "anger,</w>": 810,
    "anger.</w>": 811,
    "anger</w>": 812,
    "angry</w>": 813,
    "angu": 814,
    "anguish</w>": 815,
    "ani": 816,
    "anim": 817,
    "anio.</w>": 818,
    "ann": 819,
    "anne.</w>": 820,
    "anne</w>": 821,
    "ano": 822,
    "anoin": 823,
    "anointed</w>": 824,
    "anon.</w>": 825,
    "anon</w>": 826,
    "another": 827,
    "another,</w>": 828,
    "another.</w>": 829,
    "another</w>": 830,
    "another\u2019s</w>": 831,
    "ans": 832,
    "ans,</w>": 833,
    "ans.</w>": 834,
    "ans</w>": 835,
    "ansom</w>": 836,
    "answer": 837,
    "answer,</w>": 838,
    "answer.</w>": 839,
    "answer</w>": 840,
    "answered,</w>": 841,
    "answered</w>": 842,
    "answering</w>": 843,
    "ant": 844,
    "ant,</w>": 845,
    "ant.</w>": 846,
    "ant;</w>": 847,
    "ant</w>": 848,
    "anti": 849,
    "antic</w>": 850,
    "antio": 851,
    "antip": 852,
    "antiphol": 853,
    "antipholus</w>": 854,
    "antly</w>": 855,
    "anton": 856,
    "antoni": 857,
    "antonio.</w>": 858,
    "antony,</w>": 859,
    "antony.</w>": 860,
    "antony</w>": 861,
    "ants,</w>": 862,
    "ants</w>": 863,
    "antz": 864,
    "anxi": 865,
    "anxious</w>": 866,
    "any": 867,
    "any,</w>": 868,
    "any</w>": 869,
    "anyone</w>": 870,
    "anything</w>": 871,
    "an\u2019s</w>": 872,
    "ap": 873,
    "apart": 874,
    "ape": 875,
    "apeman": 876,
    "apemantus.</w>": 877,
    "apo": 878,
    "apost": 879,
    "appar": 880,
    "appe": 881,
    "appear": 882,
    "appear</w>": 883,
    "appearance</w>": 884,
    "appeared</w>": 885,
    "appears</w>": 886,
    "appli": 887,
    "appoint</w>": 888,
    "appointed</w>": 889,
    "apprehen": 890,
    "appro": 891,
    "approa": 892,
    "approach</w>": 893,
    "apt</w>": 894,
    "ar": 895,
    "ar,</w>": 896,
    "ar.</w>": 897,
    "ar</w>": 898,
    "arch": 899,
    "archbish": 900,
    "archi": 901,
    "archive</w>": 902,
    "arcit": 903,
    "arcite.</w>": 904,
    "ard": 905,
    "ard,</w>": 906,
    "ard.</w>": 907,
    "ard</w>": 908,
    "ards,</w>": 909,
    "ards</w>": 910,
    "are,</w>": 911,
    "are.</w>": 912,
    "are</w>": 913,
    "ared</w>": 914,
    "argu": 915,
    "argument</w>": 916,
    "ari": 917,
    "ariel.</w>": 918,
    "aries</w>": 919,
    "arily</w>": 920,
    "aring</w>": 921,
    "arise,</w>": 922,
    "arise</w>": 923,
    "ark</w>": 924,
    "arm": 925,
    "arm,</w>": 926,
    "arm</w>": 927,
    "arma": 928,
    "armado.</w>": 929,
    "armed</w>": 930,
    "armi": 931,
    "armour": 932,
    "armour</w>": 933,
    "arms,</w>": 934,
    "arms.</w>": 935,
    "arms</w>": 936,
    "army</w>": 937,
    "aro": 938,
    "arose,</w>": 939,
    "arose</w>": 940,
    "around</w>": 941,
    "arra": 942,
    "arrang": 943,
    "array</w>": 944,
    "arri": 945,
    "arrived</w>": 946,
    "ars,</w>": 947,
    "ars</w>": 948,
    "art,</w>": 949,
    "art</w>": 950,
    "arthur": 951,
    "arthur</w>": 952,
    "arti": 953,
    "arvi": 954,
    "arvirag": 955,
    "arviragus.</w>": 956,
    "ary,</w>": 957,
    "ary.</w>": 958,
    "ary</w>": 959,
    "as": 960,
    "as!</w>": 961,
    "as,</w>": 962,
    "as.</w>": 963,
    "as</w>": 964,
    "asa": 965,
    "asa</w>": 966,
    "ascen": 967,
    "ased</w>": 968,
    "ash": 969,
    "ash</w>": 970,
    "asha": 971,
    "ashamed</w>": 972,
    "ashe": 973,
    "ashes</w>": 974,
    "asi": 975,
    "aside</w>": 976,
    "asing</w>": 977,
    "ask</w>": 978,
    "asked</w>": 979,
    "asle": 980,
    "asleep": 981,
    "asmuch</w>": 982,
    "aspe": 983,
    "aspect</w>": 984,
    "ass,</w>": 985,
    "ass</w>": 986,
    "assa": 987,
    "asse": 988,
    "assembled</w>": 989,
    "assi": 990,
    "associ": 991,
    "associated</w>": 992,
    "assu": 993,
    "assur": 994,
    "assure</w>": 995,
    "assured</w>": 996,
    "assyri": 997,
    "assyria</w>": 998,
    "ast": 999,
    "ast</w>": 1000,
    "aston": 1001,
    "astoni": 1002,
    "astonished</w>": 1003,
    "asure</w>": 1004,
    "at": 1005,
    "at,</w>": 1006,
    "at.</w>": 1007,
    "at;</w>": 1008,
    "at</w>": 1009,
    "ate,</w>": 1010,
    "ate.</w>": 1011,
    "ate;</w>": 1012,
    "ate</w>": 1013,
    "ated,</w>": 1014,
    "ated.</w>": 1015,
    "ated</w>": 1016,
    "ately</w>": 1017,
    "ates</w>": 1018,
    "ath": 1019,
    "ath</w>": 1020,
    "athan": 1021,
    "athan,</w>": 1022,
    "athan</w>": 1023,
    "athar": 1024,
    "atheni": 1025,
    "athens.</w>": 1026,
    "athens</w>": 1027,
    "ati": 1028,
    "ating</w>": 1029,
    "atio.</w>": 1030,
    "ation,</w>": 1031,
    "ation.</w>": 1032,
    "ation;</w>": 1033,
    "ation</w>": 1034,
    "ations,</w>": 1035,
    "ations</w>": 1036,
    "ative</w>": 1037,
    "atone": 1038,
    "atonement</w>": 1039,
    "ator": 1040,
    "ator</w>": 1041,
    "ats,</w>": 1042,
    "ats</w>": 1043,
    "atta": 1044,
    "attached</w>": 1045,
    "attemp": 1046,
    "attempt</w>": 1047,
    "atten": 1048,
    "attend": 1049,
    "attend</w>": 1050,
    "attendant": 1051,
    "attendants.</w>": 1052,
    "attended</w>": 1053,
    "attending</w>": 1054,
    "attention</w>": 1055,
    "attra": 1056,
    "au": 1057,
    "audi": 1058,
    "aufidi": 1059,
    "aufidius.</w>": 1060,
    "aug": 1061,
    "aught</w>": 1062,
    "aumer": 1063,
    "aumerle.</w>": 1064,
    "aun": 1065,
    "aunt</w>": 1066,
    "auth": 1067,
    "author": 1068,
    "authority</w>": 1069,
    "auto": 1070,
    "autoly": 1071,
    "autolycus.</w>": 1072,
    "ava": 1073,
    "aveng": 1074,
    "avoi": 1075,
    "avoid</w>": 1076,
    "aw": 1077,
    "awa": 1078,
    "awake,</w>": 1079,
    "awake</w>": 1080,
    "away!</w>": 1081,
    "away,</w>": 1082,
    "away.</w>": 1083,
    "away:</w>": 1084,
    "away;</w>": 1085,
    "away</w>": 1086,
    "awful</w>": 1087,
    "awo": 1088,
    "ax": 1089,
    "ay,</w>": 1090,
    "ay</w>": 1091,
    "aye,</w>": 1092,
    "az": 1093,
    "azari": 1094,
    "a\u2019s</w>": 1095,
    "b": 1096,
    "b,</w>": 1097,
    "b.</w>": 1098,
    "b</w>": 1099,
    "ba": 1100,
    "ba,</w>": 1101,
    "ba</w>": 1102,
    "baal": 1103,
    "bab": 1104,
    "baby": 1105,
    "babyl": 1106,
    "babylon": 1107,
    "babylon,</w>": 1108,
    "babylon</w>": 1109,
    "bac": 1110,
    "back": 1111,
    "back,</w>": 1112,
    "back.</w>": 1113,
    "back</w>": 1114,
    "bad": 1115,
    "bad</w>": 1116,
    "bade</w>": 1117,
    "bag": 1118,
    "bal": 1119,
    "bala": 1120,
    "ball": 1121,
    "balth": 1122,
    "balthas": 1123,
    "balthasar.</w>": 1124,
    "ban": 1125,
    "band": 1126,
    "bani": 1127,
    "banish": 1128,
    "banished</w>": 1129,
    "banqu": 1130,
    "banquet</w>": 1131,
    "bap": 1132,
    "bapti": 1133,
    "baptist": 1134,
    "baptista.</w>": 1135,
    "baptized</w>": 1136,
    "bar": 1137,
    "barbar": 1138,
    "bardol": 1139,
    "bardolph.</w>": 1140,
    "bare</w>": 1141,
    "barnar": 1142,
    "barr": 1143,
    "barren</w>": 1144,
    "bas": 1145,
    "base</w>": 1146,
    "bash": 1147,
    "baske": 1148,
    "bass": 1149,
    "bassani": 1150,
    "bassanio.</w>": 1151,
    "bassian": 1152,
    "bastar": 1153,
    "bastard.</w>": 1154,
    "bastard</w>": 1155,
    "basti": 1156,
    "bat": 1157,
    "batt": 1158,
    "batter": 1159,
    "battle,</w>": 1160,
    "battle.</w>": 1161,
    "battle</w>": 1162,
    "baw": 1163,
    "bawd.</w>": 1164,
    "bb": 1165,
    "bba": 1166,
    "bbed</w>": 1167,
    "bbl": 1168,
    "be": 1169,
    "be,</w>": 1170,
    "be.</w>": 1171,
    "be;</w>": 1172,
    "be</w>": 1173,
    "be?</w>": 1174,
    "bea": 1175,
    "beam": 1176,
    "bear": 1177,
    "bear,</w>": 1178,
    "bear</w>": 1179,
    "beard</w>": 1180,
    "bearing</w>": 1181,
    "bears</w>": 1182,
    "beast": 1183,
    "beast,</w>": 1184,
    "beast</w>": 1185,
    "beasts,</w>": 1186,
    "beasts</w>": 1187,
    "beat": 1188,
    "beat</w>": 1189,
    "beaten</w>": 1190,
    "beatri": 1191,
    "beatrice.</w>": 1192,
    "beau": 1193,
    "beauteous</w>": 1194,
    "beauti": 1195,
    "beautiful</w>": 1196,
    "beauty,</w>": 1197,
    "beauty</w>": 1198,
    "became</w>": 1199,
    "because</w>": 1200,
    "become</w>": 1201,
    "becomes</w>": 1202,
    "bed": 1203,
    "bed,</w>": 1204,
    "bed.</w>": 1205,
    "bed</w>": 1206,
    "been,</w>": 1207,
    "been</w>": 1208,
    "befor": 1209,
    "before": 1210,
    "before,</w>": 1211,
    "before.</w>": 1212,
    "before</w>": 1213,
    "beg": 1214,
    "beg</w>": 1215,
    "began</w>": 1216,
    "begat</w>": 1217,
    "beggar": 1218,
    "begin": 1219,
    "begin</w>": 1220,
    "beginning</w>": 1221,
    "begins</w>": 1222,
    "begun</w>": 1223,
    "beh": 1224,
    "beha": 1225,
    "behavi": 1226,
    "behaviour</w>": 1227,
    "beheld</w>": 1228,
    "behin": 1229,
    "behind</w>": 1230,
    "beho": 1231,
    "behold": 1232,
    "behold,</w>": 1233,
    "behold</w>": 1234,
    "beholding</w>": 1235,
    "being</w>": 1236,
    "beit</w>": 1237,
    "bel": 1238,
    "bel</w>": 1239,
    "belari": 1240,
    "belarius.</w>": 1241,
    "beli": 1242,
    "belie": 1243,
    "believ": 1244,
    "believe,</w>": 1245,
    "believe</w>": 1246,
    "believed</w>": 1247,
    "belin": 1248,
    "bell": 1249,
    "bella.</w>": 1250,
    "belly</w>": 1251,
    "belong": 1252,
    "beloved,</w>": 1253,
    "beloved</w>": 1254,
    "below": 1255,
    "below.</w>": 1256,
    "below</w>": 1257,
    "ben": 1258,
    "bend</w>": 1259,
    "benea": 1260,
    "beneath</w>": 1261,
    "benedi": 1262,
    "benedick.</w>": 1263,
    "benef": 1264,
    "benefit</w>": 1265,
    "benjam": 1266,
    "benjamin": 1267,
    "benjamin,</w>": 1268,
    "benjamin</w>": 1269,
    "benne": 1270,
    "bennet,</w>": 1271,
    "bennet</w>": 1272,
    "bent</w>": 1273,
    "benvolio.</w>": 1274,
    "ber": 1275,
    "ber</w>": 1276,
    "berown": 1277,
    "berowne.</w>": 1278,
    "bertra": 1279,
    "bertram.</w>": 1280,
    "bes": 1281,
    "bes,</w>": 1282,
    "bes</w>": 1283,
    "bese": 1284,
    "beseech</w>": 1285,
    "besi": 1286,
    "beside</w>": 1287,
    "besides,</w>": 1288,
    "besides</w>": 1289,
    "besought</w>": 1290,
    "best,</w>": 1291,
    "best.</w>": 1292,
    "best</w>": 1293,
    "bestow": 1294,
    "bestow</w>": 1295,
    "bestowed</w>": 1296,
    "bet": 1297,
    "beth": 1298,
    "bethe": 1299,
    "bethle": 1300,
    "bethlehe": 1301,
    "betra": 1302,
    "betray</w>": 1303,
    "betrayed</w>": 1304,
    "better": 1305,
    "better,</w>": 1306,
    "better.</w>": 1307,
    "better</w>": 1308,
    "betwe": 1309,
    "between</w>": 1310,
    "betwixt</w>": 1311,
    "beware</w>": 1312,
    "beyond</w>": 1313,
    "bi": 1314,
    "bian": 1315,
    "bianca": 1316,
    "bianca.</w>": 1317,
    "bid</w>": 1318,
    "bids</w>": 1319,
    "big</w>": 1320,
    "bil": 1321,
    "bilda": 1322,
    "bili": 1323,
    "bility</w>": 1324,
    "bin": 1325,
    "bind</w>": 1326,
    "bingle": 1327,
    "bingley,</w>": 1328,
    "bingley</w>": 1329,
    "bingley\u2019s</w>": 1330,
    "bionde": 1331,
    "biondello.</w>": 1332,
    "bir": 1333,
    "bird</w>": 1334,
    "birds</w>": 1335,
    "birth,</w>": 1336,
    "birth</w>": 1337,
    "bish": 1338,
    "bishop</w>": 1339,
    "bit": 1340,
    "bit</w>": 1341,
    "bite</w>": 1342,
    "bitter": 1343,
    "bitter</w>": 1344,
    "bl": 1345,
    "bla": 1346,
    "black": 1347,
    "black,</w>": 1348,
    "black</w>": 1349,
    "blame</w>": 1350,
    "blan": 1351,
    "blasphe": 1352,
    "ble": 1353,
    "ble,</w>": 1354,
    "ble.</w>": 1355,
    "ble;</w>": 1356,
    "ble</w>": 1357,
    "bled</w>": 1358,
    "blemi": 1359,
    "bles": 1360,
    "bles</w>": 1361,
    "bless": 1362,
    "bless</w>": 1363,
    "blessed</w>": 1364,
    "blessing</w>": 1365,
    "bli": 1366,
    "blin": 1367,
    "blind,</w>": 1368,
    "blind</w>": 1369,
    "blo": 1370,
    "bloo": 1371,
    "blood": 1372,
    "blood,</w>": 1373,
    "blood.</w>": 1374,
    "blood;</w>": 1375,
    "blood</w>": 1376,
    "bloody</w>": 1377,
    "blow": 1378,
    "blow</w>": 1379,
    "blown</w>": 1380,
    "blows</w>": 1381,
    "blu": 1382,
    "blue,</w>": 1383,
    "blue</w>": 1384,
    "blun": 1385,
    "blush</w>": 1386,
    "bly</w>": 1387,
    "bo": 1388,
    "boam</w>": 1389,
    "boar": 1390,
    "board</w>": 1391,
    "boast": 1392,
    "boast</w>": 1393,
    "boat": 1394,
    "boat,</w>": 1395,
    "boat</w>": 1396,
    "boats</w>": 1397,
    "bod": 1398,
    "bodi": 1399,
    "bodies</w>": 1400,
    "bodily</w>": 1401,
    "body,</w>": 1402,
    "body.</w>": 1403,
    "body</w>": 1404,
    "bol": 1405,
    "bold": 1406,
    "bold</w>": 1407,
    "boling": 1408,
    "bolingbro": 1409,
    "bolingbroke.</w>": 1410,
    "bon": 1411,
    "bond": 1412,
    "bond</w>": 1413,
    "bonda": 1414,
    "bone</w>": 1415,
    "bones,</w>": 1416,
    "bones</w>": 1417,
    "boo": 1418,
    "book,</w>": 1419,
    "book.</w>": 1420,
    "book</w>": 1421,
    "books</w>": 1422,
    "bor": 1423,
    "borachi": 1424,
    "borachio.</w>": 1425,
    "border</w>": 1426,
    "bore</w>": 1427,
    "born,</w>": 1428,
    "born.</w>": 1429,
    "born</w>": 1430,
    "borne</w>": 1431,
    "borrow": 1432,
    "bos": 1433,
    "bosom": 1434,
    "bosom,</w>": 1435,
    "bosom.</w>": 1436,
    "bosom</w>": 1437,
    "both,</w>": 1438,
    "both.</w>": 1439,
    "both</w>": 1440,
    "bott": 1441,
    "bottle</w>": 1442,
    "bottom": 1443,
    "bottom.</w>": 1444,
    "bottom</w>": 1445,
    "bou": 1446,
    "bought</w>": 1447,
    "boul": 1448,
    "boun": 1449,
    "bound</w>": 1450,
    "bour": 1451,
    "bow": 1452,
    "bow,</w>": 1453,
    "bow.</w>": 1454,
    "bow</w>": 1455,
    "bowed</w>": 1456,
    "bowels</w>": 1457,
    "bows</w>": 1458,
    "box</w>": 1459,
    "boy": 1460,
    "boy,</w>": 1461,
    "boy.</w>": 1462,
    "boy</w>": 1463,
    "boyet.</w>": 1464,
    "boys,</w>": 1465,
    "boys</w>": 1466,
    "br": 1467,
    "bra": 1468,
    "braban": 1469,
    "brai": 1470,
    "brain</w>": 1471,
    "brake</w>": 1472,
    "bran": 1473,
    "branch</w>": 1474,
    "branches</w>": 1475,
    "brass,</w>": 1476,
    "brass</w>": 1477,
    "brave</w>": 1478,
    "braw": 1479,
    "bre": 1480,
    "brea": 1481,
    "breach</w>": 1482,
    "bread": 1483,
    "bread,</w>": 1484,
    "bread.</w>": 1485,
    "bread</w>": 1486,
    "breadth</w>": 1487,
    "break": 1488,
    "break</w>": 1489,
    "breaking</w>": 1490,
    "breast": 1491,
    "breast,</w>": 1492,
    "breast</w>": 1493,
    "breath": 1494,
    "breath,</w>": 1495,
    "breath</w>": 1496,
    "breathe</w>": 1497,
    "bred</w>": 1498,
    "bree": 1499,
    "breed</w>": 1500,
    "brethr": 1501,
    "brethren,</w>": 1502,
    "brethren.</w>": 1503,
    "brethren</w>": 1504,
    "bri": 1505,
    "brid": 1506,
    "bride": 1507,
    "brief": 1508,
    "brief</w>": 1509,
    "bright": 1510,
    "bright</w>": 1511,
    "bring": 1512,
    "bring</w>": 1513,
    "bringeth</w>": 1514,
    "bringing</w>": 1515,
    "brings</w>": 1516,
    "bro": 1517,
    "broad</w>": 1518,
    "broke</w>": 1519,
    "broken</w>": 1520,
    "broo": 1521,
    "brook,</w>": 1522,
    "brook</w>": 1523,
    "brother": 1524,
    "brother,</w>": 1525,
    "brother.</w>": 1526,
    "brother</w>": 1527,
    "brother\u2019s</w>": 1528,
    "brought</w>": 1529,
    "brow": 1530,
    "brow,</w>": 1531,
    "brow</w>": 1532,
    "bru": 1533,
    "brutu": 1534,
    "brutus,</w>": 1535,
    "brutus.</w>": 1536,
    "brutus</w>": 1537,
    "bs,</w>": 1538,
    "bs</w>": 1539,
    "bu": 1540,
    "buck": 1541,
    "bucking": 1542,
    "buckingham,</w>": 1543,
    "buckingham.</w>": 1544,
    "bui": 1545,
    "buil": 1546,
    "build": 1547,
    "build</w>": 1548,
    "built</w>": 1549,
    "bul": 1550,
    "bull": 1551,
    "bullo": 1552,
    "bullock,</w>": 1553,
    "bullock</w>": 1554,
    "bulwar": 1555,
    "bun": 1556,
    "bur": 1557,
    "burden": 1558,
    "burden</w>": 1559,
    "burg": 1560,
    "burgund": 1561,
    "buri": 1562,
    "buried</w>": 1563,
    "burn": 1564,
    "burn</w>": 1565,
    "burned</w>": 1566,
    "burning</w>": 1567,
    "burnt</w>": 1568,
    "burst</w>": 1569,
    "bury.</w>": 1570,
    "bury</w>": 1571,
    "busin": 1572,
    "business,</w>": 1573,
    "business.</w>": 1574,
    "business</w>": 1575,
    "busy</w>": 1576,
    "but": 1577,
    "but,</w>": 1578,
    "but</w>": 1579,
    "butt": 1580,
    "buy</w>": 1581,
    "by": 1582,
    "by,</w>": 1583,
    "by.</w>": 1584,
    "by</w>": 1585,
    "c": 1586,
    "c,</w>": 1587,
    "c.</w>": 1588,
    "c</w>": 1589,
    "ca": 1590,
    "cab": 1591,
    "cable</w>": 1592,
    "cade.</w>": 1593,
    "caes": 1594,
    "caesar": 1595,
    "caesar,</w>": 1596,
    "caesar.</w>": 1597,
    "caesar</w>": 1598,
    "caesar\u2019s</w>": 1599,
    "cai": 1600,
    "caius.</w>": 1601,
    "caius</w>": 1602,
    "cal": 1603,
    "cal,</w>": 1604,
    "cal</w>": 1605,
    "calib": 1606,
    "caliban.</w>": 1607,
    "call": 1608,
    "call</w>": 1609,
    "called,</w>": 1610,
    "called</w>": 1611,
    "calling</w>": 1612,
    "calls</w>": 1613,
    "cally</w>": 1614,
    "call\u2019d</w>": 1615,
    "calm</w>": 1616,
    "cam": 1617,
    "came,</w>": 1618,
    "came</w>": 1619,
    "camel": 1620,
    "cami": 1621,
    "camillo.</w>": 1622,
    "camp": 1623,
    "camp,</w>": 1624,
    "camp.</w>": 1625,
    "camp</w>": 1626,
    "can": 1627,
    "can,</w>": 1628,
    "can.</w>": 1629,
    "can</w>": 1630,
    "cana": 1631,
    "canaan": 1632,
    "cand": 1633,
    "candles": 1634,
    "candlesti": 1635,
    "cannot</w>": 1636,
    "canst</w>": 1637,
    "canter": 1638,
    "can\u2019t</w>": 1639,
    "cap": 1640,
    "cap</w>": 1641,
    "capable</w>": 1642,
    "cape</w>": 1643,
    "capit": 1644,
    "captain": 1645,
    "captain,</w>": 1646,
    "captain.</w>": 1647,
    "captain</w>": 1648,
    "captains</w>": 1649,
    "capti": 1650,
    "captive</w>": 1651,
    "captivit": 1652,
    "captivity</w>": 1653,
    "capu": 1654,
    "capulet.</w>": 1655,
    "capulet\u2019s</w>": 1656,
    "car": 1657,
    "cardin": 1658,
    "cardinal.</w>": 1659,
    "cardinal</w>": 1660,
    "care": 1661,
    "care</w>": 1662,
    "careful</w>": 1663,
    "cares</w>": 1664,
    "carp": 1665,
    "carri": 1666,
    "carriage</w>": 1667,
    "carried</w>": 1668,
    "carries</w>": 1669,
    "carry</w>": 1670,
    "carrying</w>": 1671,
    "cas</w>": 1672,
    "casca": 1673,
    "case,</w>": 1674,
    "case</w>": 1675,
    "cassi": 1676,
    "cassio.</w>": 1677,
    "cassio</w>": 1678,
    "cassius.</w>": 1679,
    "cast": 1680,
    "cast</w>": 1681,
    "caster.</w>": 1682,
    "castle.</w>": 1683,
    "castle</w>": 1684,
    "cat": 1685,
    "cat</w>": 1686,
    "catch</w>": 1687,
    "cate</w>": 1688,
    "cated</w>": 1689,
    "cater": 1690,
    "cates": 1691,
    "cather": 1692,
    "catherine</w>": 1693,
    "cation,</w>": 1694,
    "cation.</w>": 1695,
    "cation</w>": 1696,
    "cations</w>": 1697,
    "cattle,</w>": 1698,
    "cattle</w>": 1699,
    "cau": 1700,
    "caught</w>": 1701,
    "cause,</w>": 1702,
    "cause.</w>": 1703,
    "cause</w>": 1704,
    "caused</w>": 1705,
    "cave</w>": 1706,
    "ce": 1707,
    "ce!</w>": 1708,
    "ce,</w>": 1709,
    "ce-": 1710,
    "ce.</w>": 1711,
    "ce.\u201d</w>": 1712,
    "ce:</w>": 1713,
    "ce;</w>": 1714,
    "ce</w>": 1715,
    "ce?</w>": 1716,
    "cea": 1717,
    "cease</w>": 1718,
    "ceased</w>": 1719,
    "ced": 1720,
    "ced,</w>": 1721,
    "ced</w>": 1722,
    "cedar": 1723,
    "cedar</w>": 1724,
    "cei": 1725,
    "cel": 1726,
    "celia.</w>": 1727,
    "cell": 1728,
    "cely</w>": 1729,
    "cement</w>": 1730,
    "cen": 1731,
    "cend</w>": 1732,
    "cense</w>": 1733,
    "cent": 1734,
    "cent</w>": 1735,
    "centuri": 1736,
    "cep": 1737,
    "cept</w>": 1738,
    "cer": 1739,
    "cere": 1740,
    "ceremon": 1741,
    "certain": 1742,
    "certain,</w>": 1743,
    "certain</w>": 1744,
    "certainly</w>": 1745,
    "ces": 1746,
    "ces,</w>": 1747,
    "ces.</w>": 1748,
    "ces;</w>": 1749,
    "ces</w>": 1750,
    "cess</w>": 1751,
    "ce\u2019s</w>": 1752,
    "ch": 1753,
    "ch!</w>": 1754,
    "ch,</w>": 1755,
    "ch-": 1756,
    "ch.</w>": 1757,
    "ch;</w>": 1758,
    "ch</w>": 1759,
    "cha": 1760,
    "chain</w>": 1761,
    "chal": 1762,
    "chalde": 1763,
    "challeng": 1764,
    "chamb": 1765,
    "chamber": 1766,
    "chamber,</w>": 1767,
    "chamber.</w>": 1768,
    "chamber</w>": 1769,
    "chamberla": 1770,
    "chamberlain.</w>": 1771,
    "chambers</w>": 1772,
    "chan": 1773,
    "chance,</w>": 1774,
    "chance</w>": 1775,
    "chang": 1776,
    "change</w>": 1777,
    "changed</w>": 1778,
    "chap": 1779,
    "chapter</w>": 1780,
    "char": 1781,
    "charac": 1782,
    "character": 1783,
    "character,</w>": 1784,
    "character</w>": 1785,
    "charg": 1786,
    "charge,</w>": 1787,
    "charge</w>": 1788,
    "charged</w>": 1789,
    "chario": 1790,
    "chariot</w>": 1791,
    "chariots,</w>": 1792,
    "chariots</w>": 1793,
    "charity</w>": 1794,
    "charles.</w>": 1795,
    "charles</w>": 1796,
    "charlo": 1797,
    "charlotte</w>": 1798,
    "charm</w>": 1799,
    "charmi": 1800,
    "charmian.</w>": 1801,
    "chase</w>": 1802,
    "chast": 1803,
    "che": 1804,
    "check</w>": 1805,
    "ched,</w>": 1806,
    "ched</w>": 1807,
    "chee": 1808,
    "cheek</w>": 1809,
    "cheeks</w>": 1810,
    "cheer": 1811,
    "cheer</w>": 1812,
    "cheerful</w>": 1813,
    "cher": 1814,
    "cher</w>": 1815,
    "cheri": 1816,
    "cheru": 1817,
    "cherubi": 1818,
    "ches,</w>": 1819,
    "ches.</w>": 1820,
    "ches</w>": 1821,
    "chest</w>": 1822,
    "cheth</w>": 1823,
    "chi": 1824,
    "chide</w>": 1825,
    "chief": 1826,
    "chief</w>": 1827,
    "chiefly</w>": 1828,
    "child": 1829,
    "child,</w>": 1830,
    "child.</w>": 1831,
    "child</w>": 1832,
    "childr": 1833,
    "children,</w>": 1834,
    "children.</w>": 1835,
    "children</w>": 1836,
    "child\u2019s</w>": 1837,
    "chill": 1838,
    "chilling": 1839,
    "chim": 1840,
    "chin": 1841,
    "ching</w>": 1842,
    "chir": 1843,
    "cho": 1844,
    "choi": 1845,
    "choice</w>": 1846,
    "chol": 1847,
    "choo": 1848,
    "choose</w>": 1849,
    "chor": 1850,
    "chose</w>": 1851,
    "chosen</w>": 1852,
    "chri": 1853,
    "christ": 1854,
    "christ,</w>": 1855,
    "christ.</w>": 1856,
    "christ</w>": 1857,
    "christi": 1858,
    "christian</w>": 1859,
    "chroni": 1860,
    "chur": 1861,
    "church": 1862,
    "church,</w>": 1863,
    "church</w>": 1864,
    "ch\u2019d</w>": 1865,
    "ci": 1866,
    "cial</w>": 1867,
    "cid": 1868,
    "cident</w>": 1869,
    "cili": 1870,
    "cin": 1871,
    "cing</w>": 1872,
    "cious</w>": 1873,
    "cip": 1874,
    "cipl": 1875,
    "cir": 1876,
    "circle</w>": 1877,
    "circu": 1878,
    "circum": 1879,
    "circumci": 1880,
    "circumstan": 1881,
    "circumstance</w>": 1882,
    "circumstances</w>": 1883,
    "cised</w>": 1884,
    "cit": 1885,
    "citi": 1886,
    "cities,</w>": 1887,
    "cities.</w>": 1888,
    "cities</w>": 1889,
    "citiz": 1890,
    "citizen.</w>": 1891,
    "city,</w>": 1892,
    "city.</w>": 1893,
    "city</w>": 1894,
    "civi": 1895,
    "civil</w>": 1896,
    "civili": 1897,
    "ck": 1898,
    "ck,</w>": 1899,
    "ck-": 1900,
    "ck.</w>": 1901,
    "ck;</w>": 1902,
    "ck</w>": 1903,
    "ck?</w>": 1904,
    "cked</w>": 1905,
    "cken</w>": 1906,
    "cking</w>": 1907,
    "ckle</w>": 1908,
    "cks,</w>": 1909,
    "cks.</w>": 1910,
    "cks</w>": 1911,
    "ck\u2019d</w>": 1912,
    "cl": 1913,
    "cla": 1914,
    "clai": 1915,
    "claim": 1916,
    "claim</w>": 1917,
    "claimed</w>": 1918,
    "clar": 1919,
    "clarence,</w>": 1920,
    "clarence.</w>": 1921,
    "clasp": 1922,
    "claudi": 1923,
    "claudio.</w>": 1924,
    "cle": 1925,
    "cle</w>": 1926,
    "clean": 1927,
    "clean</w>": 1928,
    "clear": 1929,
    "clear</w>": 1930,
    "cleop": 1931,
    "cleopat": 1932,
    "cleopatra": 1933,
    "cleopatra.</w>": 1934,
    "cler": 1935,
    "clergy": 1936,
    "cles</w>": 1937,
    "cli": 1938,
    "clif": 1939,
    "clifford,</w>": 1940,
    "clifford.</w>": 1941,
    "clifford</w>": 1942,
    "climb": 1943,
    "clo": 1944,
    "cloa": 1945,
    "close</w>": 1946,
    "closed</w>": 1947,
    "cloten.</w>": 1948,
    "cloth": 1949,
    "cloth</w>": 1950,
    "clothed</w>": 1951,
    "clothes,</w>": 1952,
    "clothes</w>": 1953,
    "clou": 1954,
    "cloud</w>": 1955,
    "clouds</w>": 1956,
    "clown.</w>": 1957,
    "clu": 1958,
    "co": 1959,
    "co.</w>": 1960,
    "coa": 1961,
    "coast": 1962,
    "coast</w>": 1963,
    "coasts</w>": 1964,
    "coat</w>": 1965,
    "cock</w>": 1966,
    "coff": 1967,
    "col": 1968,
    "cold": 1969,
    "cold,</w>": 1970,
    "cold</w>": 1971,
    "cole": 1972,
    "coll": 1973,
    "colle": 1974,
    "collin": 1975,
    "collins,</w>": 1976,
    "collins</w>": 1977,
    "colon": 1978,
    "colonel</w>": 1979,
    "colou": 1980,
    "colour</w>": 1981,
    "colours</w>": 1982,
    "com": 1983,
    "comb": 1984,
    "come,</w>": 1985,
    "come.</w>": 1986,
    "come;</w>": 1987,
    "come</w>": 1988,
    "come?</w>": 1989,
    "comes.</w>": 1990,
    "comes</w>": 1991,
    "cometh</w>": 1992,
    "comfor": 1993,
    "comfort,</w>": 1994,
    "comfort</w>": 1995,
    "comfortable</w>": 1996,
    "coming.</w>": 1997,
    "coming</w>": 1998,
    "cominius.</w>": 1999,
    "comm": 2000,
    "comman": 2001,
    "command": 2002,
    "command,</w>": 2003,
    "command</w>": 2004,
    "commanded</w>": 2005,
    "commandment</w>": 2006,
    "commandments,</w>": 2007,
    "commandments</w>": 2008,
    "commen": 2009,
    "commend</w>": 2010,
    "commenda": 2011,
    "commit": 2012,
    "commit</w>": 2013,
    "committed</w>": 2014,
    "commo": 2015,
    "common": 2016,
    "common</w>": 2017,
    "commun": 2018,
    "communi": 2019,
    "comp": 2020,
    "compan": 2021,
    "compani": 2022,
    "companion</w>": 2023,
    "company,</w>": 2024,
    "company.</w>": 2025,
    "company</w>": 2026,
    "compar": 2027,
    "comparis": 2028,
    "compas": 2029,
    "compass</w>": 2030,
    "compassed</w>": 2031,
    "compassion</w>": 2032,
    "compe": 2033,
    "compla": 2034,
    "complain": 2035,
    "comple": 2036,
    "complet": 2037,
    "complete</w>": 2038,
    "completely</w>": 2039,
    "complexi": 2040,
    "compli": 2041,
    "compliance</w>": 2042,
    "comply</w>": 2043,
    "compo": 2044,
    "comprehen": 2045,
    "compu": 2046,
    "con": 2047,
    "conce": 2048,
    "conceal</w>": 2049,
    "concei": 2050,
    "conceit</w>": 2051,
    "concer": 2052,
    "concerning</w>": 2053,
    "conci": 2054,
    "conclu": 2055,
    "concluded</w>": 2056,
    "condem": 2057,
    "condemned</w>": 2058,
    "condi": 2059,
    "condition</w>": 2060,
    "condu": 2061,
    "conduct</w>": 2062,
    "conf": 2063,
    "confes": 2064,
    "confess</w>": 2065,
    "confi": 2066,
    "confidence</w>": 2067,
    "confin": 2068,
    "confir": 2069,
    "confoun": 2070,
    "confu": 2071,
    "confusion</w>": 2072,
    "congre": 2073,
    "congrega": 2074,
    "congregation,</w>": 2075,
    "congregation.</w>": 2076,
    "congregation</w>": 2077,
    "conne": 2078,
    "connected</w>": 2079,
    "conqu": 2080,
    "conquer": 2081,
    "cons": 2082,
    "consci": 2083,
    "conscience,</w>": 2084,
    "conscience</w>": 2085,
    "conscious</w>": 2086,
    "conse": 2087,
    "consecr": 2088,
    "consent</w>": 2089,
    "consequ": 2090,
    "consi": 2091,
    "consider": 2092,
    "consider</w>": 2093,
    "considerable</w>": 2094,
    "considered</w>": 2095,
    "considering</w>": 2096,
    "conso": 2097,
    "conspi": 2098,
    "const": 2099,
    "constable.</w>": 2100,
    "constant</w>": 2101,
    "constra": 2102,
    "consu": 2103,
    "consume</w>": 2104,
    "consumed</w>": 2105,
    "cont": 2106,
    "conta": 2107,
    "contact</w>": 2108,
    "contain</w>": 2109,
    "contemp": 2110,
    "conten": 2111,
    "content": 2112,
    "content.</w>": 2113,
    "content</w>": 2114,
    "contents</w>": 2115,
    "contin": 2116,
    "continu": 2117,
    "continual</w>": 2118,
    "continually</w>": 2119,
    "continue</w>": 2120,
    "continued</w>": 2121,
    "contr": 2122,
    "contra": 2123,
    "contrary</w>": 2124,
    "contri": 2125,
    "contro": 2126,
    "conve": 2127,
    "conveni": 2128,
    "conver": 2129,
    "conversa": 2130,
    "conversation</w>": 2131,
    "convey</w>": 2132,
    "convin": 2133,
    "convinced</w>": 2134,
    "coo": 2135,
    "cool</w>": 2136,
    "cop": 2137,
    "copies</w>": 2138,
    "copy": 2139,
    "copy,</w>": 2140,
    "copy</w>": 2141,
    "copyright</w>": 2142,
    "cor": 2143,
    "cordeli": 2144,
    "corio": 2145,
    "coriolan": 2146,
    "coriolanus.</w>": 2147,
    "corn": 2148,
    "corn,</w>": 2149,
    "corn</w>": 2150,
    "corne": 2151,
    "corner</w>": 2152,
    "cornwall.</w>": 2153,
    "corp": 2154,
    "corpor": 2155,
    "corre": 2156,
    "corrup": 2157,
    "corrupt</w>": 2158,
    "cost</w>": 2159,
    "costard.</w>": 2160,
    "cotta": 2161,
    "cou": 2162,
    "could": 2163,
    "could</w>": 2164,
    "coun": 2165,
    "counci": 2166,
    "counsel": 2167,
    "counsel,</w>": 2168,
    "counsel</w>": 2169,
    "counsell": 2170,
    "count</w>": 2171,
    "counted</w>": 2172,
    "counten": 2173,
    "countenance</w>": 2174,
    "counter": 2175,
    "counterfe": 2176,
    "countes": 2177,
    "countess.</w>": 2178,
    "countr": 2179,
    "countri": 2180,
    "country": 2181,
    "country,</w>": 2182,
    "country.</w>": 2183,
    "country</w>": 2184,
    "countryman.</w>": 2185,
    "country\u2019s</w>": 2186,
    "cour": 2187,
    "coura": 2188,
    "courage": 2189,
    "courage</w>": 2190,
    "course,</w>": 2191,
    "course</w>": 2192,
    "court,</w>": 2193,
    "court.</w>": 2194,
    "court</w>": 2195,
    "courtes": 2196,
    "courti": 2197,
    "cous": 2198,
    "cousin": 2199,
    "cousin,</w>": 2200,
    "cousin.</w>": 2201,
    "cousin</w>": 2202,
    "cove": 2203,
    "coven": 2204,
    "covenant,</w>": 2205,
    "covenant</w>": 2206,
    "cover": 2207,
    "cover</w>": 2208,
    "covered</w>": 2209,
    "covering</w>": 2210,
    "cow": 2211,
    "cowar": 2212,
    "coward</w>": 2213,
    "coz": 2214,
    "cr": 2215,
    "cra": 2216,
    "craf": 2217,
    "craft</w>": 2218,
    "cran": 2219,
    "crant": 2220,
    "crave</w>": 2221,
    "cre": 2222,
    "crea": 2223,
    "creat": 2224,
    "created</w>": 2225,
    "creating</w>": 2226,
    "creature": 2227,
    "creature,</w>": 2228,
    "creature</w>": 2229,
    "creatures</w>": 2230,
    "cred": 2231,
    "credit</w>": 2232,
    "creeping</w>": 2233,
    "crept</w>": 2234,
    "cressi": 2235,
    "cressida.</w>": 2236,
    "crew</w>": 2237,
    "cri": 2238,
    "cried,</w>": 2239,
    "cried</w>": 2240,
    "cries</w>": 2241,
    "crim": 2242,
    "cro": 2243,
    "crom": 2244,
    "croo": 2245,
    "cross": 2246,
    "cross</w>": 2247,
    "crossed</w>": 2248,
    "crow": 2249,
    "crown": 2250,
    "crown,</w>": 2251,
    "crown.</w>": 2252,
    "crown</w>": 2253,
    "crowned</w>": 2254,
    "cru": 2255,
    "cruci": 2256,
    "cruel": 2257,
    "cruel</w>": 2258,
    "cry": 2259,
    "cry,</w>": 2260,
    "cry</w>": 2261,
    "crying</w>": 2262,
    "cs</w>": 2263,
    "ct": 2264,
    "ct,</w>": 2265,
    "ct.</w>": 2266,
    "ct</w>": 2267,
    "cted,</w>": 2268,
    "cted</w>": 2269,
    "cti": 2270,
    "cting</w>": 2271,
    "ction,</w>": 2272,
    "ction.</w>": 2273,
    "ction</w>": 2274,
    "ctions</w>": 2275,
    "ctly</w>": 2276,
    "ctor": 2277,
    "ctor\u2019s</w>": 2278,
    "cts</w>": 2279,
    "cu": 2280,
    "cub": 2281,
    "cubit": 2282,
    "cubits,</w>": 2283,
    "cubits</w>": 2284,
    "cuck": 2285,
    "cul": 2286,
    "culi": 2287,
    "cun": 2288,
    "cunning</w>": 2289,
    "cup": 2290,
    "cup</w>": 2291,
    "cupi": 2292,
    "cur": 2293,
    "cure</w>": 2294,
    "curi": 2295,
    "curio": 2296,
    "curiosity</w>": 2297,
    "curious</w>": 2298,
    "current</w>": 2299,
    "curse</w>": 2300,
    "cursed</w>": 2301,
    "cus,</w>": 2302,
    "cus.</w>": 2303,
    "cus</w>": 2304,
    "cust": 2305,
    "custom": 2306,
    "custom</w>": 2307,
    "cut</w>": 2308,
    "cutting</w>": 2309,
    "cy": 2310,
    "cy,</w>": 2311,
    "cy.</w>": 2312,
    "cy</w>": 2313,
    "cym": 2314,
    "cymbe": 2315,
    "cymbelin": 2316,
    "cymbeline.</w>": 2317,
    "cyp": 2318,
    "cypru": 2319,
    "c\u2019d</w>": 2320,
    "d": 2321,
    "d!</w>": 2322,
    "d,</w>": 2323,
    "d,\u201d</w>": 2324,
    "d-": 2325,
    "d.</w>": 2326,
    "d._]</w>": 2327,
    "d.\u201d</w>": 2328,
    "d:</w>": 2329,
    "d;</w>": 2330,
    "d</w>": 2331,
    "d?</w>": 2332,
    "da": 2333,
    "da,</w>": 2334,
    "da.</w>": 2335,
    "dag": 2336,
    "dagg": 2337,
    "daily</w>": 2338,
    "dain": 2339,
    "dale</w>": 2340,
    "dam": 2341,
    "dama": 2342,
    "damag": 2343,
    "damasc": 2344,
    "damn": 2345,
    "damned</w>": 2346,
    "dan": 2347,
    "dan</w>": 2348,
    "dance</w>": 2349,
    "dancing</w>": 2350,
    "dang": 2351,
    "danger": 2352,
    "danger</w>": 2353,
    "dangerous</w>": 2354,
    "dani": 2355,
    "daniel</w>": 2356,
    "dar": 2357,
    "darc": 2358,
    "darcy,</w>": 2359,
    "darcy</w>": 2360,
    "dare</w>": 2361,
    "dared</w>": 2362,
    "dares</w>": 2363,
    "dark": 2364,
    "dark,</w>": 2365,
    "dark</w>": 2366,
    "darkness,</w>": 2367,
    "darkness</w>": 2368,
    "dat": 2369,
    "date</w>": 2370,
    "daugh": 2371,
    "daughter": 2372,
    "daughter,</w>": 2373,
    "daughter.</w>": 2374,
    "daughter</w>": 2375,
    "daughters,</w>": 2376,
    "daughters</w>": 2377,
    "dauph": 2378,
    "dav": 2379,
    "davi": 2380,
    "david,</w>": 2381,
    "david.</w>": 2382,
    "david</w>": 2383,
    "david\u2019s</w>": 2384,
    "day": 2385,
    "day!</w>": 2386,
    "day,</w>": 2387,
    "day.</w>": 2388,
    "day:</w>": 2389,
    "day;</w>": 2390,
    "day</w>": 2391,
    "day?</w>": 2392,
    "days,</w>": 2393,
    "days.</w>": 2394,
    "days</w>": 2395,
    "day\u2019s</w>": 2396,
    "dd": 2397,
    "dden": 2398,
    "dden</w>": 2399,
    "dding</w>": 2400,
    "ddle</w>": 2401,
    "de": 2402,
    "de,</w>": 2403,
    "de.</w>": 2404,
    "de;</w>": 2405,
    "de</w>": 2406,
    "dea": 2407,
    "dead": 2408,
    "dead,</w>": 2409,
    "dead.</w>": 2410,
    "dead;</w>": 2411,
    "dead</w>": 2412,
    "dead?</w>": 2413,
    "deadly</w>": 2414,
    "deal": 2415,
    "deal</w>": 2416,
    "dealt</w>": 2417,
    "dear": 2418,
    "dear,</w>": 2419,
    "dear</w>": 2420,
    "dearest</w>": 2421,
    "death": 2422,
    "death,</w>": 2423,
    "death.</w>": 2424,
    "death:</w>": 2425,
    "death;</w>": 2426,
    "death</w>": 2427,
    "deav": 2428,
    "deb": 2429,
    "deca": 2430,
    "dece": 2431,
    "decei": 2432,
    "deceit": 2433,
    "deceive</w>": 2434,
    "deceived</w>": 2435,
    "deci": 2436,
    "deck,</w>": 2437,
    "deck</w>": 2438,
    "decl": 2439,
    "declare</w>": 2440,
    "declared</w>": 2441,
    "decre": 2442,
    "ded,</w>": 2443,
    "ded.</w>": 2444,
    "ded;</w>": 2445,
    "ded</w>": 2446,
    "dedi": 2447,
    "deed": 2448,
    "deed</w>": 2449,
    "deeds</w>": 2450,
    "deep": 2451,
    "deep,</w>": 2452,
    "deep</w>": 2453,
    "deeper</w>": 2454,
    "deeply</w>": 2455,
    "def": 2456,
    "defec": 2457,
    "defect</w>": 2458,
    "defend</w>": 2459,
    "defi": 2460,
    "defiled</w>": 2461,
    "degre": 2462,
    "degree</w>": 2463,
    "dela": 2464,
    "deli": 2465,
    "delicate</w>": 2466,
    "delight": 2467,
    "delight</w>": 2468,
    "delighted</w>": 2469,
    "deliver": 2470,
    "deliver</w>": 2471,
    "delivered</w>": 2472,
    "dem": 2473,
    "deman": 2474,
    "demand</w>": 2475,
    "deme": 2476,
    "demetri": 2477,
    "demetrius.</w>": 2478,
    "demon": 2479,
    "den": 2480,
    "den,</w>": 2481,
    "den</w>": 2482,
    "dence</w>": 2483,
    "deni": 2484,
    "denied</w>": 2485,
    "dent</w>": 2486,
    "deny</w>": 2487,
    "dep": 2488,
    "depar": 2489,
    "depart,</w>": 2490,
    "depart</w>": 2491,
    "departed,</w>": 2492,
    "departed</w>": 2493,
    "depen": 2494,
    "depu": 2495,
    "der": 2496,
    "der,</w>": 2497,
    "der.</w>": 2498,
    "der</w>": 2499,
    "dered</w>": 2500,
    "deri": 2501,
    "dering</w>": 2502,
    "ders,</w>": 2503,
    "ders</w>": 2504,
    "des": 2505,
    "des,</w>": 2506,
    "des.</w>": 2507,
    "des</w>": 2508,
    "descen": 2509,
    "descend</w>": 2510,
    "descended</w>": 2511,
    "descri": 2512,
    "descrip": 2513,
    "desdemon": 2514,
    "desdemona.</w>": 2515,
    "deser": 2516,
    "desert</w>": 2517,
    "deserve</w>": 2518,
    "deserved</w>": 2519,
    "desi": 2520,
    "desig": 2521,
    "desire": 2522,
    "desire,</w>": 2523,
    "desire</w>": 2524,
    "desired</w>": 2525,
    "desires</w>": 2526,
    "desol": 2527,
    "desola": 2528,
    "desolate,</w>": 2529,
    "desolate</w>": 2530,
    "desp": 2531,
    "despa": 2532,
    "despair</w>": 2533,
    "desper": 2534,
    "desperate</w>": 2535,
    "despi": 2536,
    "despise</w>": 2537,
    "despised</w>": 2538,
    "despite</w>": 2539,
    "dest</w>": 2540,
    "destin": 2541,
    "destro": 2542,
    "destroy</w>": 2543,
    "destroyed</w>": 2544,
    "destru": 2545,
    "destruction</w>": 2546,
    "deta": 2547,
    "deter": 2548,
    "determin": 2549,
    "determine</w>": 2550,
    "determined</w>": 2551,
    "detes": 2552,
    "deth</w>": 2553,
    "dev": 2554,
    "devi": 2555,
    "devil": 2556,
    "devil,</w>": 2557,
    "devil.</w>": 2558,
    "devil</w>": 2559,
    "devils</w>": 2560,
    "devise</w>": 2561,
    "devo": 2562,
    "devour</w>": 2563,
    "devoured</w>": 2564,
    "dew</w>": 2565,
    "dg": 2566,
    "dge": 2567,
    "dge,</w>": 2568,
    "dge.</w>": 2569,
    "dge</w>": 2570,
    "di": 2571,
    "dian": 2572,
    "diana.</w>": 2573,
    "did": 2574,
    "did,</w>": 2575,
    "did.</w>": 2576,
    "did</w>": 2577,
    "didn\u2019t</w>": 2578,
    "didst</w>": 2579,
    "die,</w>": 2580,
    "die.</w>": 2581,
    "die;</w>": 2582,
    "die</w>": 2583,
    "died,</w>": 2584,
    "died.</w>": 2585,
    "died</w>": 2586,
    "dies</w>": 2587,
    "differ": 2588,
    "difference</w>": 2589,
    "different</w>": 2590,
    "diffi": 2591,
    "difficul": 2592,
    "dig": 2593,
    "dign": 2594,
    "dignity</w>": 2595,
    "dili": 2596,
    "dily</w>": 2597,
    "dim</w>": 2598,
    "dimm": 2599,
    "dimmes": 2600,
    "dimmesda": 2601,
    "dimmesdale</w>": 2602,
    "din": 2603,
    "dine</w>": 2604,
    "ding,</w>": 2605,
    "ding</w>": 2606,
    "dinn": 2607,
    "dinner": 2608,
    "dinner.</w>": 2609,
    "dinner</w>": 2610,
    "diom": 2611,
    "diome": 2612,
    "diomedes.</w>": 2613,
    "dious</w>": 2614,
    "dire": 2615,
    "direct</w>": 2616,
    "directly</w>": 2617,
    "dis": 2618,
    "disa": 2619,
    "disap": 2620,
    "disappear": 2621,
    "disc": 2622,
    "discer": 2623,
    "discip": 2624,
    "discipl": 2625,
    "disciples,</w>": 2626,
    "disciples</w>": 2627,
    "discla": 2628,
    "disclaim": 2629,
    "discour": 2630,
    "discover": 2631,
    "discover</w>": 2632,
    "discovered</w>": 2633,
    "discre": 2634,
    "disda": 2635,
    "disea": 2636,
    "disgrace</w>": 2637,
    "disgu": 2638,
    "dish": 2639,
    "dish</w>": 2640,
    "dishon": 2641,
    "dishonour</w>": 2642,
    "disma": 2643,
    "diso": 2644,
    "disobe": 2645,
    "disp": 2646,
    "dispat": 2647,
    "disper": 2648,
    "displa": 2649,
    "disple": 2650,
    "displea": 2651,
    "disposi": 2652,
    "disposition</w>": 2653,
    "disse": 2654,
    "dist": 2655,
    "distance</w>": 2656,
    "distant</w>": 2657,
    "distin": 2658,
    "distingu": 2659,
    "distra": 2660,
    "distre": 2661,
    "distri": 2662,
    "distribu": 2663,
    "distribute</w>": 2664,
    "distributed</w>": 2665,
    "distributing</w>": 2666,
    "distribution</w>": 2667,
    "distur": 2668,
    "dit": 2669,
    "div": 2670,
    "diver": 2671,
    "divers</w>": 2672,
    "divi": 2673,
    "divide</w>": 2674,
    "divided</w>": 2675,
    "divin": 2676,
    "divine</w>": 2677,
    "divor": 2678,
    "dly,</w>": 2679,
    "dly</w>": 2680,
    "dne": 2681,
    "dness</w>": 2682,
    "do": 2683,
    "do,</w>": 2684,
    "do.</w>": 2685,
    "do;</w>": 2686,
    "do</w>": 2687,
    "do?</w>": 2688,
    "doct": 2689,
    "doctor.</w>": 2690,
    "doctor</w>": 2691,
    "doctrin": 2692,
    "does</w>": 2693,
    "doeth</w>": 2694,
    "dog": 2695,
    "dog,</w>": 2696,
    "dog</w>": 2697,
    "dogber": 2698,
    "dogberry.</w>": 2699,
    "dogs</w>": 2700,
    "doing</w>": 2701,
    "dol": 2702,
    "dom": 2703,
    "dom</w>": 2704,
    "domini": 2705,
    "dominion</w>": 2706,
    "don": 2707,
    "don,</w>": 2708,
    "don.</w>": 2709,
    "don</w>": 2710,
    "donations</w>": 2711,
    "done,</w>": 2712,
    "done.</w>": 2713,
    "done;</w>": 2714,
    "done</w>": 2715,
    "done?</w>": 2716,
    "don\u2019t</w>": 2717,
    "doom": 2718,
    "door": 2719,
    "door,</w>": 2720,
    "door.</w>": 2721,
    "door</w>": 2722,
    "doors</w>": 2723,
    "dor": 2724,
    "dost</w>": 2725,
    "doth</w>": 2726,
    "dou": 2727,
    "doub": 2728,
    "double</w>": 2729,
    "doubt": 2730,
    "doubt,</w>": 2731,
    "doubt</w>": 2732,
    "dougla": 2733,
    "dow": 2734,
    "dow</w>": 2735,
    "down": 2736,
    "down,</w>": 2737,
    "down.</w>": 2738,
    "down;</w>": 2739,
    "down</w>": 2740,
    "dozen</w>": 2741,
    "dr": 2742,
    "dr.</w>": 2743,
    "dra": 2744,
    "drag": 2745,
    "draw": 2746,
    "draw</w>": 2747,
    "drawing</w>": 2748,
    "drawn</w>": 2749,
    "dre": 2750,
    "drea": 2751,
    "dread": 2752,
    "dread</w>": 2753,
    "dreadful</w>": 2754,
    "dream": 2755,
    "dream,</w>": 2756,
    "dream</w>": 2757,
    "dreams</w>": 2758,
    "dred</w>": 2759,
    "dress</w>": 2760,
    "drew</w>": 2761,
    "dri": 2762,
    "dried</w>": 2763,
    "drin": 2764,
    "drink,</w>": 2765,
    "drink.</w>": 2766,
    "drink</w>": 2767,
    "drive</w>": 2768,
    "driven</w>": 2769,
    "dro": 2770,
    "drom": 2771,
    "dromi": 2772,
    "dromio</w>": 2773,
    "drop</w>": 2774,
    "dropped</w>": 2775,
    "drops</w>": 2776,
    "drove</w>": 2777,
    "drow": 2778,
    "drown": 2779,
    "drown</w>": 2780,
    "drowned</w>": 2781,
    "dru": 2782,
    "drum</w>": 2783,
    "drun": 2784,
    "drunk</w>": 2785,
    "dry</w>": 2786,
    "ds,</w>": 2787,
    "ds.</w>": 2788,
    "ds;</w>": 2789,
    "ds</w>": 2790,
    "dshi": 2791,
    "dst</w>": 2792,
    "du": 2793,
    "ducat": 2794,
    "duche": 2795,
    "duchess.</w>": 2796,
    "duchess</w>": 2797,
    "due</w>": 2798,
    "duke": 2799,
    "duke,</w>": 2800,
    "duke.</w>": 2801,
    "duke</w>": 2802,
    "duke\u2019s</w>": 2803,
    "dul": 2804,
    "dull</w>": 2805,
    "duma": 2806,
    "dumaine.</w>": 2807,
    "dumb": 2808,
    "dumb</w>": 2809,
    "dun": 2810,
    "dur": 2811,
    "during</w>": 2812,
    "durst</w>": 2813,
    "dust</w>": 2814,
    "duty</w>": 2815,
    "dwel": 2816,
    "dwell": 2817,
    "dwell</w>": 2818,
    "dwelleth</w>": 2819,
    "dwelling</w>": 2820,
    "dwelt</w>": 2821,
    "dy</w>": 2822,
    "dying</w>": 2823,
    "d\u2014": 2824,
    "d\u2019": 2825,
    "d\u2019s</w>": 2826,
    "d\u2019st</w>": 2827,
    "e": 2828,
    "e!</w>": 2829,
    "e!\u201d</w>": 2830,
    "e,</w>": 2831,
    "e,\u201d</w>": 2832,
    "e-": 2833,
    "e.": 2834,
    "e.</w>": 2835,
    "e.\u201d</w>": 2836,
    "e:</w>": 2837,
    "e;</w>": 2838,
    "e</w>": 2839,
    "e?</w>": 2840,
    "ea": 2841,
    "each</w>": 2842,
    "ead</w>": 2843,
    "eag": 2844,
    "eager": 2845,
    "eager</w>": 2846,
    "ear": 2847,
    "ear,</w>": 2848,
    "ear.</w>": 2849,
    "ear</w>": 2850,
    "earl</w>": 2851,
    "early</w>": 2852,
    "earnes": 2853,
    "earnest</w>": 2854,
    "earnestly</w>": 2855,
    "ears,</w>": 2856,
    "ears.</w>": 2857,
    "ears</w>": 2858,
    "earth": 2859,
    "earth,</w>": 2860,
    "earth.</w>": 2861,
    "earth:</w>": 2862,
    "earth;</w>": 2863,
    "earth</w>": 2864,
    "earthly</w>": 2865,
    "eas": 2866,
    "ease</w>": 2867,
    "easi": 2868,
    "easily</w>": 2869,
    "east": 2870,
    "east,</w>": 2871,
    "east</w>": 2872,
    "easy</w>": 2873,
    "eat": 2874,
    "eat,</w>": 2875,
    "eat.</w>": 2876,
    "eat</w>": 2877,
    "eaten</w>": 2878,
    "eateth</w>": 2879,
    "eating</w>": 2880,
    "eboo": 2881,
    "ebook</w>": 2882,
    "ebooks</w>": 2883,
    "ec": 2884,
    "ech</w>": 2885,
    "ed": 2886,
    "ed!</w>": 2887,
    "ed,</w>": 2888,
    "ed.</w>": 2889,
    "ed:</w>": 2890,
    "ed;</w>": 2891,
    "ed</w>": 2892,
    "ed?</w>": 2893,
    "eded</w>": 2894,
    "edgar.</w>": 2895,
    "edge</w>": 2896,
    "edi": 2897,
    "eding</w>": 2898,
    "edmun": 2899,
    "edmund.</w>": 2900,
    "edom": 2901,
    "edom,</w>": 2902,
    "edom</w>": 2903,
    "eds</w>": 2904,
    "edu": 2905,
    "edwar": 2906,
    "edward,</w>": 2907,
    "edward.</w>": 2908,
    "edward</w>": 2909,
    "edward\u2019s</w>": 2910,
    "edy</w>": 2911,
    "ef": 2912,
    "ef,</w>": 2913,
    "ef</w>": 2914,
    "effe": 2915,
    "effec": 2916,
    "effect</w>": 2917,
    "effor": 2918,
    "eful</w>": 2919,
    "eg": 2920,
    "ege": 2921,
    "ege</w>": 2922,
    "egyp": 2923,
    "egypt,</w>": 2924,
    "egypt.</w>": 2925,
    "egypt:</w>": 2926,
    "egypt;</w>": 2927,
    "egypt</w>": 2928,
    "egypti": 2929,
    "egyptians</w>": 2930,
    "ei": 2931,
    "eig": 2932,
    "eigh": 2933,
    "eight</w>": 2934,
    "eighte": 2935,
    "either</w>": 2936,
    "el": 2937,
    "el,</w>": 2938,
    "el.</w>": 2939,
    "el;</w>": 2940,
    "el</w>": 2941,
    "ela": 2942,
    "eld</w>": 2943,
    "elder</w>": 2944,
    "elders</w>": 2945,
    "eldest</w>": 2946,
    "ele": 2947,
    "elea": 2948,
    "elean": 2949,
    "eleanor.</w>": 2950,
    "eleaz": 2951,
    "eleazar</w>": 2952,
    "elect": 2953,
    "electroni": 2954,
    "electronic</w>": 2955,
    "eless</w>": 2956,
    "eleven</w>": 2957,
    "eli": 2958,
    "elijah</w>": 2959,
    "elisha": 2960,
    "eliza": 2961,
    "elizabe": 2962,
    "elizabeth,</w>": 2963,
    "elizabeth.</w>": 2964,
    "elizabeth</w>": 2965,
    "elizabeth\u2019s</w>": 2966,
    "ell": 2967,
    "elli": 2968,
    "elliot": 2969,
    "elo": 2970,
    "els,</w>": 2971,
    "els.</w>": 2972,
    "els</w>": 2973,
    "else": 2974,
    "else,</w>": 2975,
    "else.</w>": 2976,
    "else</w>": 2977,
    "ely,</w>": 2978,
    "ely.</w>": 2979,
    "ely</w>": 2980,
    "em": 2981,
    "em</w>": 2982,
    "emb": 2983,
    "embra": 2984,
    "embrace</w>": 2985,
    "emed</w>": 2986,
    "ement</w>": 2987,
    "emi": 2988,
    "emili": 2989,
    "emilia.</w>": 2990,
    "emin": 2991,
    "emo": 2992,
    "emp": 2993,
    "emper": 2994,
    "emperor</w>": 2995,
    "emplo": 2996,
    "employ": 2997,
    "empty</w>": 2998,
    "en": 2999,
    "en,</w>": 3000,
    "en.</w>": 3001,
    "en:</w>": 3002,
    "en;</w>": 3003,
    "en</w>": 3004,
    "en?</w>": 3005,
    "ence": 3006,
    "ence,</w>": 3007,
    "ence.</w>": 3008,
    "ence;</w>": 3009,
    "ence</w>": 3010,
    "enced</w>": 3011,
    "ences</w>": 3012,
    "ench": 3013,
    "encoun": 3014,
    "encounter</w>": 3015,
    "ency</w>": 3016,
    "end": 3017,
    "end,</w>": 3018,
    "end.</w>": 3019,
    "end</w>": 3020,
    "endea": 3021,
    "endeav": 3022,
    "endeavour</w>": 3023,
    "ended</w>": 3024,
    "ends</w>": 3025,
    "endu": 3026,
    "endure</w>": 3027,
    "endureth</w>": 3028,
    "ene": 3029,
    "ened</w>": 3030,
    "enem": 3031,
    "enemi": 3032,
    "enemies,</w>": 3033,
    "enemies.</w>": 3034,
    "enemies</w>": 3035,
    "enemy": 3036,
    "enemy,</w>": 3037,
    "enemy.</w>": 3038,
    "enemy</w>": 3039,
    "ener": 3040,
    "eness</w>": 3041,
    "eng": 3042,
    "engaged</w>": 3043,
    "england": 3044,
    "england,</w>": 3045,
    "england</w>": 3046,
    "england\u2019s</w>": 3047,
    "english": 3048,
    "english</w>": 3049,
    "engra": 3050,
    "eni": 3051,
    "ening</w>": 3052,
    "enjo": 3053,
    "enjoy": 3054,
    "enjoy</w>": 3055,
    "enob": 3056,
    "enobar": 3057,
    "enobarbu": 3058,
    "enobarbus.</w>": 3059,
    "enou": 3060,
    "enough": 3061,
    "enough,</w>": 3062,
    "enough.</w>": 3063,
    "enough</w>": 3064,
    "enqui": 3065,
    "enquire</w>": 3066,
    "ens,</w>": 3067,
    "ens.</w>": 3068,
    "ens</w>": 3069,
    "ensu": 3070,
    "ent": 3071,
    "ent,</w>": 3072,
    "ent.</w>": 3073,
    "ent;</w>": 3074,
    "ent</w>": 3075,
    "ental</w>": 3076,
    "ented</w>": 3077,
    "enter": 3078,
    "enter,</w>": 3079,
    "enter</w>": 3080,
    "entered</w>": 3081,
    "entering</w>": 3082,
    "enterpri": 3083,
    "entertain": 3084,
    "entertain</w>": 3085,
    "enth</w>": 3086,
    "enti": 3087,
    "entire</w>": 3088,
    "entirely</w>": 3089,
    "ently,</w>": 3090,
    "ently</w>": 3091,
    "entrance</w>": 3092,
    "entre": 3093,
    "entreat</w>": 3094,
    "ents,</w>": 3095,
    "ents.</w>": 3096,
    "ents</w>": 3097,
    "enty</w>": 3098,
    "env": 3099,
    "envious</w>": 3100,
    "envy</w>": 3101,
    "enz": 3102,
    "en\u2019s</w>": 3103,
    "eous</w>": 3104,
    "ep": 3105,
    "ep</w>": 3106,
    "eph": 3107,
    "ephe": 3108,
    "ephesu": 3109,
    "ephesus.</w>": 3110,
    "epho": 3111,
    "ephra": 3112,
    "ephrai": 3113,
    "ephraim,</w>": 3114,
    "ephraim</w>": 3115,
    "epi": 3116,
    "eping</w>": 3117,
    "equ": 3118,
    "equal</w>": 3119,
    "equally</w>": 3120,
    "equi": 3121,
    "er": 3122,
    "er!</w>": 3123,
    "er,</w>": 3124,
    "er-": 3125,
    "er.</w>": 3126,
    "er:</w>": 3127,
    "er;</w>": 3128,
    "er</w>": 3129,
    "er?</w>": 3130,
    "ere": 3131,
    "ere</w>": 3132,
    "ered</w>": 3133,
    "eri": 3134,
    "ering</w>": 3135,
    "ero": 3136,
    "err": 3137,
    "ers,</w>": 3138,
    "ers.</w>": 3139,
    "ers;</w>": 3140,
    "ers</w>": 3141,
    "ery</w>": 3142,
    "er\u2019s</w>": 3143,
    "es": 3144,
    "es!</w>": 3145,
    "es,</w>": 3146,
    "es.</w>": 3147,
    "es._]</w>": 3148,
    "es.\u201d</w>": 3149,
    "es:</w>": 3150,
    "es;</w>": 3151,
    "es</w>": 3152,
    "es?</w>": 3153,
    "esau": 3154,
    "esau</w>": 3155,
    "esca": 3156,
    "escal": 3157,
    "escalus.</w>": 3158,
    "escap": 3159,
    "escape</w>": 3160,
    "escaped</w>": 3161,
    "escor": 3162,
    "ese</w>": 3163,
    "espe": 3164,
    "especi": 3165,
    "especially</w>": 3166,
    "ess": 3167,
    "ess,</w>": 3168,
    "ess.</w>": 3169,
    "ess;</w>": 3170,
    "ess</w>": 3171,
    "essed</w>": 3172,
    "est": 3173,
    "est,</w>": 3174,
    "est.</w>": 3175,
    "est</w>": 3176,
    "esta": 3177,
    "establi": 3178,
    "establish</w>": 3179,
    "established</w>": 3180,
    "estate</w>": 3181,
    "estee": 3182,
    "esther</w>": 3183,
    "esti": 3184,
    "es\u2014": 3185,
    "es\u2019</w>": 3186,
    "et": 3187,
    "et,</w>": 3188,
    "et.</w>": 3189,
    "et</w>": 3190,
    "eter": 3191,
    "eternal</w>": 3192,
    "eth,</w>": 3193,
    "eth.</w>": 3194,
    "eth</w>": 3195,
    "ethi": 3196,
    "ethiop": 3197,
    "ets,</w>": 3198,
    "ets</w>": 3199,
    "ety</w>": 3200,
    "eu": 3201,
    "eun": 3202,
    "eur</w>": 3203,
    "ev": 3204,
    "evans.</w>": 3205,
    "eve</w>": 3206,
    "even": 3207,
    "even</w>": 3208,
    "evening</w>": 3209,
    "event</w>": 3210,
    "ever": 3211,
    "ever,</w>": 3212,
    "ever-": 3213,
    "ever.</w>": 3214,
    "ever:</w>": 3215,
    "ever;</w>": 3216,
    "ever</w>": 3217,
    "everla": 3218,
    "everlasting</w>": 3219,
    "every": 3220,
    "every</w>": 3221,
    "everybody</w>": 3222,
    "everything</w>": 3223,
    "evid": 3224,
    "evil": 3225,
    "evil,</w>": 3226,
    "evil.</w>": 3227,
    "evil</w>": 3228,
    "ex": 3229,
    "exa": 3230,
    "exac": 3231,
    "exactly</w>": 3232,
    "exal": 3233,
    "examin": 3234,
    "examp": 3235,
    "exce": 3236,
    "exceed": 3237,
    "exceeding</w>": 3238,
    "exceedingly</w>": 3239,
    "excell": 3240,
    "excellent</w>": 3241,
    "excep": 3242,
    "except</w>": 3243,
    "excit": 3244,
    "excu": 3245,
    "excuse</w>": 3246,
    "exe": 3247,
    "execu": 3248,
    "execute</w>": 3249,
    "exer": 3250,
    "exerci": 3251,
    "exeter.</w>": 3252,
    "exeun": 3253,
    "exhi": 3254,
    "exhor": 3255,
    "exi": 3256,
    "exist": 3257,
    "exp": 3258,
    "expe": 3259,
    "expec": 3260,
    "expect</w>": 3261,
    "expectation</w>": 3262,
    "expected</w>": 3263,
    "expedi": 3264,
    "expen": 3265,
    "experi": 3266,
    "explan": 3267,
    "expres": 3268,
    "express</w>": 3269,
    "expressed</w>": 3270,
    "expression</w>": 3271,
    "exten": 3272,
    "exter": 3273,
    "extra": 3274,
    "extre": 3275,
    "extrem": 3276,
    "extreme</w>": 3277,
    "ey": 3278,
    "ey,</w>": 3279,
    "ey.</w>": 3280,
    "ey</w>": 3281,
    "eye": 3282,
    "eye,</w>": 3283,
    "eye.</w>": 3284,
    "eye</w>": 3285,
    "eyes,</w>": 3286,
    "eyes.</w>": 3287,
    "eyes;</w>": 3288,
    "eyes</w>": 3289,
    "ez": 3290,
    "e\u2014": 3291,
    "e\u2019en</w>": 3292,
    "e\u2019er</w>": 3293,
    "e\u2019s</w>": 3294,
    "f": 3295,
    "f,</w>": 3296,
    "f.</w>": 3297,
    "f</w>": 3298,
    "fa": 3299,
    "fabi": 3300,
    "fabian.</w>": 3301,
    "face,</w>": 3302,
    "face.</w>": 3303,
    "face;</w>": 3304,
    "face</w>": 3305,
    "faced</w>": 3306,
    "faces</w>": 3307,
    "fact</w>": 3308,
    "fai": 3309,
    "fail</w>": 3310,
    "fain": 3311,
    "fain</w>": 3312,
    "faint</w>": 3313,
    "fair": 3314,
    "fair,</w>": 3315,
    "fair</w>": 3316,
    "fairer</w>": 3317,
    "fairest</w>": 3318,
    "fairly</w>": 3319,
    "faith": 3320,
    "faith,</w>": 3321,
    "faith.</w>": 3322,
    "faith</w>": 3323,
    "faithful</w>": 3324,
    "fal": 3325,
    "falcon": 3326,
    "fall": 3327,
    "fall,</w>": 3328,
    "fall.</w>": 3329,
    "fall</w>": 3330,
    "fallen</w>": 3331,
    "falling</w>": 3332,
    "falls</w>": 3333,
    "false": 3334,
    "false</w>": 3335,
    "falstaff": 3336,
    "falstaff.</w>": 3337,
    "falstaff</w>": 3338,
    "fame</w>": 3339,
    "fami": 3340,
    "famili": 3341,
    "familiar</w>": 3342,
    "families</w>": 3343,
    "family,</w>": 3344,
    "family</w>": 3345,
    "famine</w>": 3346,
    "famous</w>": 3347,
    "fan": 3348,
    "fanc": 3349,
    "fanci": 3350,
    "fancy</w>": 3351,
    "fanta": 3352,
    "far": 3353,
    "far</w>": 3354,
    "fare": 3355,
    "fare</w>": 3356,
    "farewell,</w>": 3357,
    "farewell.</w>": 3358,
    "farewell</w>": 3359,
    "farther</w>": 3360,
    "fashi": 3361,
    "fashion</w>": 3362,
    "fast": 3363,
    "fast,</w>": 3364,
    "fast</w>": 3365,
    "fastened</w>": 3366,
    "fat": 3367,
    "fat</w>": 3368,
    "fatal</w>": 3369,
    "fate</w>": 3370,
    "father": 3371,
    "father,</w>": 3372,
    "father.</w>": 3373,
    "father:</w>": 3374,
    "father;</w>": 3375,
    "father</w>": 3376,
    "fathers,</w>": 3377,
    "fathers.</w>": 3378,
    "fathers</w>": 3379,
    "father\u2019s</w>": 3380,
    "fau": 3381,
    "faul": 3382,
    "fault</w>": 3383,
    "faults</w>": 3384,
    "fav": 3385,
    "favour</w>": 3386,
    "favouri": 3387,
    "fe": 3388,
    "fe,</w>": 3389,
    "fe.</w>": 3390,
    "fe</w>": 3391,
    "fea": 3392,
    "fear": 3393,
    "fear,</w>": 3394,
    "fear.</w>": 3395,
    "fear</w>": 3396,
    "feared</w>": 3397,
    "fearful</w>": 3398,
    "fearing</w>": 3399,
    "fears</w>": 3400,
    "feast": 3401,
    "feast</w>": 3402,
    "feat": 3403,
    "feather": 3404,
    "fec": 3405,
    "fect</w>": 3406,
    "fed</w>": 3407,
    "feder": 3408,
    "fee": 3409,
    "fee</w>": 3410,
    "feeble</w>": 3411,
    "feed</w>": 3412,
    "feel": 3413,
    "feel</w>": 3414,
    "feeling</w>": 3415,
    "feelings</w>": 3416,
    "feet,</w>": 3417,
    "feet.</w>": 3418,
    "feet</w>": 3419,
    "fel": 3420,
    "feli": 3421,
    "felix</w>": 3422,
    "fell</w>": 3423,
    "fellow": 3424,
    "fellow,</w>": 3425,
    "fellow.</w>": 3426,
    "fellow</w>": 3427,
    "fellows</w>": 3428,
    "felt</w>": 3429,
    "female</w>": 3430,
    "fent": 3431,
    "fer": 3432,
    "fer</w>": 3433,
    "ferdin": 3434,
    "ference</w>": 3435,
    "fern": 3436,
    "ferred</w>": 3437,
    "fetch</w>": 3438,
    "few.</w>": 3439,
    "few</w>": 3440,
    "ff": 3441,
    "ff.</w>": 3442,
    "ff</w>": 3443,
    "ffer": 3444,
    "ffi": 3445,
    "fi": 3446,
    "fic</w>": 3447,
    "fidi": 3448,
    "fie,</w>": 3449,
    "fie</w>": 3450,
    "fied,</w>": 3451,
    "fied.</w>": 3452,
    "fied</w>": 3453,
    "fiel": 3454,
    "field,</w>": 3455,
    "field.</w>": 3456,
    "field</w>": 3457,
    "fields</w>": 3458,
    "fiend</w>": 3459,
    "fier": 3460,
    "fierce</w>": 3461,
    "fiery</w>": 3462,
    "fif": 3463,
    "fifteen</w>": 3464,
    "fifth</w>": 3465,
    "fifty</w>": 3466,
    "fig": 3467,
    "fig</w>": 3468,
    "fight": 3469,
    "fight,</w>": 3470,
    "fight.</w>": 3471,
    "fight</w>": 3472,
    "figu": 3473,
    "figure</w>": 3474,
    "fil": 3475,
    "fill": 3476,
    "fill</w>": 3477,
    "filled</w>": 3478,
    "fin": 3479,
    "finally</w>": 3480,
    "find</w>": 3481,
    "finding</w>": 3482,
    "finds</w>": 3483,
    "fine</w>": 3484,
    "fing": 3485,
    "finger</w>": 3486,
    "fingers</w>": 3487,
    "fini": 3488,
    "finished</w>": 3489,
    "fir": 3490,
    "fire": 3491,
    "fire,</w>": 3492,
    "fire.</w>": 3493,
    "fire:</w>": 3494,
    "fire;</w>": 3495,
    "fire</w>": 3496,
    "firm</w>": 3497,
    "first": 3498,
    "first,</w>": 3499,
    "first.</w>": 3500,
    "first</w>": 3501,
    "firstborn</w>": 3502,
    "fish": 3503,
    "fish,</w>": 3504,
    "fish</w>": 3505,
    "fisher": 3506,
    "fit": 3507,
    "fit</w>": 3508,
    "fits</w>": 3509,
    "fitted</w>": 3510,
    "fitz": 3511,
    "five</w>": 3512,
    "fix": 3513,
    "fixed</w>": 3514,
    "fl": 3515,
    "fla": 3516,
    "flame</w>": 3517,
    "flas": 3518,
    "flat": 3519,
    "flatter": 3520,
    "flatter</w>": 3521,
    "flavius.</w>": 3522,
    "fle": 3523,
    "fled,</w>": 3524,
    "fled</w>": 3525,
    "flee": 3526,
    "flee</w>": 3527,
    "fles": 3528,
    "flesh,</w>": 3529,
    "flesh.</w>": 3530,
    "flesh</w>": 3531,
    "fli": 3532,
    "flies</w>": 3533,
    "flight</w>": 3534,
    "fling</w>": 3535,
    "flo": 3536,
    "flock</w>": 3537,
    "flocks</w>": 3538,
    "floo": 3539,
    "flood</w>": 3540,
    "floor,</w>": 3541,
    "floor</w>": 3542,
    "flor": 3543,
    "floriz": 3544,
    "florizel.</w>": 3545,
    "flour</w>": 3546,
    "flouri": 3547,
    "flourish.</w>": 3548,
    "flow": 3549,
    "flow</w>": 3550,
    "flower</w>": 3551,
    "flowers</w>": 3552,
    "flowing</w>": 3553,
    "flu": 3554,
    "fluell": 3555,
    "fluellen.</w>": 3556,
    "fly,</w>": 3557,
    "fly.</w>": 3558,
    "fly</w>": 3559,
    "flying</w>": 3560,
    "fo": 3561,
    "fol": 3562,
    "fold": 3563,
    "fold</w>": 3564,
    "foll": 3565,
    "follow": 3566,
    "follow</w>": 3567,
    "followed</w>": 3568,
    "following</w>": 3569,
    "follows</w>": 3570,
    "folly</w>": 3571,
    "fon": 3572,
    "fond</w>": 3573,
    "foo": 3574,
    "food</w>": 3575,
    "fool": 3576,
    "fool,</w>": 3577,
    "fool.</w>": 3578,
    "fool</w>": 3579,
    "foolish": 3580,
    "foolish</w>": 3581,
    "fools</w>": 3582,
    "foot": 3583,
    "foot,</w>": 3584,
    "foot</w>": 3585,
    "for": 3586,
    "for,</w>": 3587,
    "for.</w>": 3588,
    "for</w>": 3589,
    "forbear": 3590,
    "forbi": 3591,
    "forbid</w>": 3592,
    "force</w>": 3593,
    "forced</w>": 3594,
    "forces</w>": 3595,
    "ford,</w>": 3596,
    "ford.</w>": 3597,
    "ford</w>": 3598,
    "fordshi": 3599,
    "ford\u2019s</w>": 3600,
    "fore": 3601,
    "fore,</w>": 3602,
    "fore</w>": 3603,
    "forehead</w>": 3604,
    "foreign</w>": 3605,
    "fores": 3606,
    "forest</w>": 3607,
    "forfe": 3608,
    "forge": 3609,
    "forget</w>": 3610,
    "forgi": 3611,
    "forgive</w>": 3612,
    "forgo": 3613,
    "forgot</w>": 3614,
    "forgotten</w>": 3615,
    "form": 3616,
    "form,</w>": 3617,
    "form.</w>": 3618,
    "form</w>": 3619,
    "format</w>": 3620,
    "formed</w>": 3621,
    "former</w>": 3622,
    "forms</w>": 3623,
    "forni": 3624,
    "forsa": 3625,
    "forsake</w>": 3626,
    "forsaken</w>": 3627,
    "forsoo": 3628,
    "forswor": 3629,
    "fort": 3630,
    "forth": 3631,
    "forth,</w>": 3632,
    "forth.</w>": 3633,
    "forth</w>": 3634,
    "fortun": 3635,
    "fortunate</w>": 3636,
    "fortune,</w>": 3637,
    "fortune</w>": 3638,
    "fortunes</w>": 3639,
    "fortune\u2019s</w>": 3640,
    "forty</w>": 3641,
    "forwar": 3642,
    "forward,</w>": 3643,
    "forward</w>": 3644,
    "fou": 3645,
    "fought</w>": 3646,
    "foul</w>": 3647,
    "foun": 3648,
    "found,</w>": 3649,
    "found.</w>": 3650,
    "found</w>": 3651,
    "founda": 3652,
    "foundation,</w>": 3653,
    "foundation</w>": 3654,
    "fountain</w>": 3655,
    "four": 3656,
    "four</w>": 3657,
    "fourscore</w>": 3658,
    "fourteen</w>": 3659,
    "fourth</w>": 3660,
    "fow": 3661,
    "fowls</w>": 3662,
    "fr": 3663,
    "fra": 3664,
    "frame</w>": 3665,
    "fran": 3666,
    "franc": 3667,
    "france,</w>": 3668,
    "france.</w>": 3669,
    "france</w>": 3670,
    "francis": 3671,
    "fre": 3672,
    "free,</w>": 3673,
    "free</w>": 3674,
    "freely</w>": 3675,
    "fren": 3676,
    "french": 3677,
    "french</w>": 3678,
    "frequ": 3679,
    "frequently</w>": 3680,
    "fresh</w>": 3681,
    "fri": 3682,
    "friar</w>": 3683,
    "frien": 3684,
    "friend": 3685,
    "friend,</w>": 3686,
    "friend.</w>": 3687,
    "friend;</w>": 3688,
    "friend</w>": 3689,
    "friendly</w>": 3690,
    "friends,</w>": 3691,
    "friends.</w>": 3692,
    "friends</w>": 3693,
    "fright</w>": 3694,
    "fro": 3695,
    "from</w>": 3696,
    "fron": 3697,
    "front</w>": 3698,
    "frown": 3699,
    "fru": 3700,
    "fruit": 3701,
    "fruit</w>": 3702,
    "fruits</w>": 3703,
    "ft</w>": 3704,
    "fu": 3705,
    "ful": 3706,
    "ful,</w>": 3707,
    "ful.</w>": 3708,
    "ful</w>": 3709,
    "fulfi": 3710,
    "fulfill": 3711,
    "fulfilled</w>": 3712,
    "full": 3713,
    "full</w>": 3714,
    "fully,</w>": 3715,
    "fully.</w>": 3716,
    "fully</w>": 3717,
    "fulness</w>": 3718,
    "fun": 3719,
    "fur": 3720,
    "furi": 3721,
    "furn": 3722,
    "furni": 3723,
    "further": 3724,
    "further.</w>": 3725,
    "further</w>": 3726,
    "fury</w>": 3727,
    "future</w>": 3728,
    "fy</w>": 3729,
    "fying</w>": 3730,
    "g": 3731,
    "g,</w>": 3732,
    "g.</w>": 3733,
    "g</w>": 3734,
    "ga": 3735,
    "gab": 3736,
    "gain": 3737,
    "gain</w>": 3738,
    "gained</w>": 3739,
    "gainst</w>": 3740,
    "gali": 3741,
    "galile": 3742,
    "gall": 3743,
    "gallant</w>": 3744,
    "gaol": 3745,
    "gar": 3746,
    "gar,</w>": 3747,
    "gar.</w>": 3748,
    "gar</w>": 3749,
    "gard": 3750,
    "garden": 3751,
    "garden.</w>": 3752,
    "garden</w>": 3753,
    "gardin": 3754,
    "gardiner</w>": 3755,
    "garment</w>": 3756,
    "garments,</w>": 3757,
    "garments</w>": 3758,
    "gas": 3759,
    "gat": 3760,
    "gate,</w>": 3761,
    "gate.</w>": 3762,
    "gate</w>": 3763,
    "gates,</w>": 3764,
    "gates</w>": 3765,
    "gather</w>": 3766,
    "gathered</w>": 3767,
    "gaun": 3768,
    "gave</w>": 3769,
    "gaz": 3770,
    "gaze</w>": 3771,
    "gazing</w>": 3772,
    "ge": 3773,
    "ge,</w>": 3774,
    "ge.</w>": 3775,
    "ge;</w>": 3776,
    "ge</w>": 3777,
    "ged</w>": 3778,
    "gen": 3779,
    "gener": 3780,
    "genera": 3781,
    "general</w>": 3782,
    "generally</w>": 3783,
    "generation</w>": 3784,
    "generations.</w>": 3785,
    "generations</w>": 3786,
    "genev": 3787,
    "gent": 3788,
    "gent</w>": 3789,
    "genti": 3790,
    "gentiles,</w>": 3791,
    "gentiles</w>": 3792,
    "gentle": 3793,
    "gentle</w>": 3794,
    "gentleman,</w>": 3795,
    "gentleman.</w>": 3796,
    "gentleman</w>": 3797,
    "gentlemen,</w>": 3798,
    "gentlemen</w>": 3799,
    "gently</w>": 3800,
    "geor": 3801,
    "george</w>": 3802,
    "ger": 3803,
    "ger</w>": 3804,
    "gersh": 3805,
    "ges": 3806,
    "ges</w>": 3807,
    "get</w>": 3808,
    "getting</w>": 3809,
    "gg": 3810,
    "ggar": 3811,
    "gged</w>": 3812,
    "gging</w>": 3813,
    "gh": 3814,
    "gh,</w>": 3815,
    "gh.</w>": 3816,
    "gh</w>": 3817,
    "gho": 3818,
    "ghost,</w>": 3819,
    "ghost.</w>": 3820,
    "ghost</w>": 3821,
    "ght": 3822,
    "ght,</w>": 3823,
    "ght.</w>": 3824,
    "ght;</w>": 3825,
    "ght</w>": 3826,
    "ghte": 3827,
    "ghted</w>": 3828,
    "ghten": 3829,
    "ghtened</w>": 3830,
    "ghts</w>": 3831,
    "gi": 3832,
    "gibe": 3833,
    "gid": 3834,
    "gide": 3835,
    "gif": 3836,
    "gift</w>": 3837,
    "gifts</w>": 3838,
    "gil": 3839,
    "gilea": 3840,
    "gilead,</w>": 3841,
    "ging</w>": 3842,
    "gir": 3843,
    "gird": 3844,
    "girl": 3845,
    "girl,</w>": 3846,
    "girl</w>": 3847,
    "girls</w>": 3848,
    "give</w>": 3849,
    "given</w>": 3850,
    "gives</w>": 3851,
    "giveth</w>": 3852,
    "giving</w>": 3853,
    "gla": 3854,
    "glad": 3855,
    "glad</w>": 3856,
    "glan": 3857,
    "glance</w>": 3858,
    "glass</w>": 3859,
    "gle": 3860,
    "glen": 3861,
    "glendow": 3862,
    "gli": 3863,
    "glo": 3864,
    "gloom": 3865,
    "glor": 3866,
    "glori": 3867,
    "glorious</w>": 3868,
    "glory,</w>": 3869,
    "glory.</w>": 3870,
    "glory</w>": 3871,
    "glou": 3872,
    "glouces": 3873,
    "gloucester": 3874,
    "gloucester,</w>": 3875,
    "gloucester.</w>": 3876,
    "gloucester</w>": 3877,
    "gloucester\u2019s</w>": 3878,
    "glow": 3879,
    "gn": 3880,
    "gni": 3881,
    "go": 3882,
    "go,</w>": 3883,
    "go.</w>": 3884,
    "go;</w>": 3885,
    "go</w>": 3886,
    "go?</w>": 3887,
    "god": 3888,
    "god!</w>": 3889,
    "god,</w>": 3890,
    "god.</w>": 3891,
    "god:</w>": 3892,
    "god;</w>": 3893,
    "god</w>": 3894,
    "god?</w>": 3895,
    "godly</w>": 3896,
    "gods,</w>": 3897,
    "gods.</w>": 3898,
    "gods</w>": 3899,
    "god\u2019s</w>": 3900,
    "goes</w>": 3901,
    "goeth</w>": 3902,
    "going</w>": 3903,
    "gold": 3904,
    "gold,</w>": 3905,
    "gold.</w>": 3906,
    "gold</w>": 3907,
    "golden</w>": 3908,
    "gom": 3909,
    "gon": 3910,
    "gone,</w>": 3911,
    "gone.</w>": 3912,
    "gone</w>": 3913,
    "goner": 3914,
    "goneril.</w>": 3915,
    "gonzal": 3916,
    "gonzalo.</w>": 3917,
    "goo": 3918,
    "good": 3919,
    "good,</w>": 3920,
    "good-": 3921,
    "good.</w>": 3922,
    "good;</w>": 3923,
    "good</w>": 3924,
    "goodly</w>": 3925,
    "goodness</w>": 3926,
    "gor": 3927,
    "gosp": 3928,
    "gospel</w>": 3929,
    "got</w>": 3930,
    "gotten</w>": 3931,
    "gover": 3932,
    "govern": 3933,
    "governor": 3934,
    "governor</w>": 3935,
    "gow": 3936,
    "gower.</w>": 3937,
    "gr": 3938,
    "gra": 3939,
    "grace": 3940,
    "grace,</w>": 3941,
    "grace.</w>": 3942,
    "grace</w>": 3943,
    "graci": 3944,
    "gracious</w>": 3945,
    "gran": 3946,
    "grand": 3947,
    "grand</w>": 3948,
    "grant</w>": 3949,
    "granted</w>": 3950,
    "grasp": 3951,
    "grass</w>": 3952,
    "grat": 3953,
    "grati": 3954,
    "gratian": 3955,
    "gratiano.</w>": 3956,
    "grave,</w>": 3957,
    "grave.</w>": 3958,
    "grave</w>": 3959,
    "graven</w>": 3960,
    "gre": 3961,
    "great": 3962,
    "great,</w>": 3963,
    "great</w>": 3964,
    "greater</w>": 3965,
    "greatest</w>": 3966,
    "greatly</w>": 3967,
    "greatness</w>": 3968,
    "greci": 3969,
    "gree": 3970,
    "green": 3971,
    "green</w>": 3972,
    "greet</w>": 3973,
    "gremio.</w>": 3974,
    "grew</w>": 3975,
    "grey.</w>": 3976,
    "grey</w>": 3977,
    "gri": 3978,
    "grief": 3979,
    "grief,</w>": 3980,
    "grief</w>": 3981,
    "griev": 3982,
    "grieve</w>": 3983,
    "grieved</w>": 3984,
    "grievous</w>": 3985,
    "grin": 3986,
    "gro": 3987,
    "groan": 3988,
    "gross</w>": 3989,
    "groun": 3990,
    "ground,</w>": 3991,
    "ground.</w>": 3992,
    "ground</w>": 3993,
    "grow": 3994,
    "grow</w>": 3995,
    "growing</w>": 3996,
    "grown</w>": 3997,
    "grows</w>": 3998,
    "gru": 3999,
    "grumio.</w>": 4000,
    "gs,</w>": 4001,
    "gs</w>": 4002,
    "gu": 4003,
    "guar": 4004,
    "guard</w>": 4005,
    "gue,</w>": 4006,
    "gue.</w>": 4007,
    "gue</w>": 4008,
    "guess</w>": 4009,
    "gui": 4010,
    "guide</w>": 4011,
    "guideri": 4012,
    "guiderius.</w>": 4013,
    "guil": 4014,
    "guild": 4015,
    "guilden": 4016,
    "guildenstern.</w>": 4017,
    "guilt</w>": 4018,
    "guilty</w>": 4019,
    "gun": 4020,
    "guten": 4021,
    "gutenber": 4022,
    "gutenberg": 4023,
    "gutenberg</w>": 4024,
    "gutenberg\u201d</w>": 4025,
    "gutenberg\u2122": 4026,
    "gutenberg\u2122</w>": 4027,
    "gy": 4028,
    "h": 4029,
    "h,</w>": 4030,
    "h.</w>": 4031,
    "h:</w>": 4032,
    "h;</w>": 4033,
    "h</w>": 4034,
    "h?</w>": 4035,
    "ha": 4036,
    "ha!</w>": 4037,
    "ha,</w>": 4038,
    "hab": 4039,
    "habit": 4040,
    "habit</w>": 4041,
    "had,</w>": 4042,
    "had</w>": 4043,
    "hada": 4044,
    "hadst</w>": 4045,
    "hail,</w>": 4046,
    "hail</w>": 4047,
    "hair": 4048,
    "hair,</w>": 4049,
    "hair</w>": 4050,
    "hal": 4051,
    "half": 4052,
    "half-": 4053,
    "half</w>": 4054,
    "hall</w>": 4055,
    "ham": 4056,
    "ham,</w>": 4057,
    "ham.</w>": 4058,
    "ham</w>": 4059,
    "hamlet.</w>": 4060,
    "ham\u2019s</w>": 4061,
    "han": 4062,
    "hand": 4063,
    "hand,</w>": 4064,
    "hand.</w>": 4065,
    "hand:</w>": 4066,
    "hand;</w>": 4067,
    "hand</w>": 4068,
    "handker": 4069,
    "hands,</w>": 4070,
    "hands.</w>": 4071,
    "hands;</w>": 4072,
    "hands</w>": 4073,
    "handsome</w>": 4074,
    "hang": 4075,
    "hang</w>": 4076,
    "hanged</w>": 4077,
    "hanging</w>": 4078,
    "hangs</w>": 4079,
    "hap": 4080,
    "haply</w>": 4081,
    "happ": 4082,
    "happen": 4083,
    "happened</w>": 4084,
    "happi": 4085,
    "happily</w>": 4086,
    "happin": 4087,
    "happiness</w>": 4088,
    "happy,</w>": 4089,
    "happy</w>": 4090,
    "har": 4091,
    "hard</w>": 4092,
    "hardly</w>": 4093,
    "hark,</w>": 4094,
    "hark</w>": 4095,
    "harlo": 4096,
    "harm": 4097,
    "harm</w>": 4098,
    "harmless</w>": 4099,
    "harpo": 4100,
    "harpoone": 4101,
    "harpooneer</w>": 4102,
    "harry</w>": 4103,
    "harves": 4104,
    "harvest</w>": 4105,
    "has</w>": 4106,
    "hast": 4107,
    "hast</w>": 4108,
    "haste,</w>": 4109,
    "haste.</w>": 4110,
    "haste</w>": 4111,
    "hastings,</w>": 4112,
    "hastings.</w>": 4113,
    "hastings</w>": 4114,
    "hat": 4115,
    "hat,</w>": 4116,
    "hat</w>": 4117,
    "hate": 4118,
    "hate</w>": 4119,
    "hated</w>": 4120,
    "hateful</w>": 4121,
    "hath,</w>": 4122,
    "hath</w>": 4123,
    "hau": 4124,
    "haun": 4125,
    "have,</w>": 4126,
    "have.</w>": 4127,
    "have</w>": 4128,
    "having</w>": 4129,
    "haw": 4130,
    "haz": 4131,
    "he": 4132,
    "he,</w>": 4133,
    "he.</w>": 4134,
    "he</w>": 4135,
    "he?</w>": 4136,
    "hea": 4137,
    "head": 4138,
    "head,</w>": 4139,
    "head.</w>": 4140,
    "head;</w>": 4141,
    "head</w>": 4142,
    "headed</w>": 4143,
    "heads,</w>": 4144,
    "heads.</w>": 4145,
    "heads</w>": 4146,
    "heal": 4147,
    "heal</w>": 4148,
    "healed</w>": 4149,
    "health,</w>": 4150,
    "health</w>": 4151,
    "heap</w>": 4152,
    "hear": 4153,
    "hear,</w>": 4154,
    "hear.</w>": 4155,
    "hear</w>": 4156,
    "heard,</w>": 4157,
    "heard.</w>": 4158,
    "heard</w>": 4159,
    "heareth</w>": 4160,
    "hearing</w>": 4161,
    "hearken</w>": 4162,
    "hearkened</w>": 4163,
    "hears</w>": 4164,
    "heart": 4165,
    "heart!</w>": 4166,
    "heart,</w>": 4167,
    "heart.</w>": 4168,
    "heart:</w>": 4169,
    "heart;</w>": 4170,
    "heart</w>": 4171,
    "hearted</w>": 4172,
    "hearti": 4173,
    "hearts,</w>": 4174,
    "hearts</w>": 4175,
    "heart\u2019s</w>": 4176,
    "heat</w>": 4177,
    "heathen,</w>": 4178,
    "heathen</w>": 4179,
    "heav": 4180,
    "heave</w>": 4181,
    "heaven": 4182,
    "heaven,</w>": 4183,
    "heaven.</w>": 4184,
    "heaven;</w>": 4185,
    "heaven</w>": 4186,
    "heavenly</w>": 4187,
    "heavens,</w>": 4188,
    "heavens</w>": 4189,
    "heaven\u2019s</w>": 4190,
    "heavi": 4191,
    "heavy</w>": 4192,
    "hebr": 4193,
    "hebre": 4194,
    "hect": 4195,
    "hector.</w>": 4196,
    "hector</w>": 4197,
    "hed</w>": 4198,
    "heed</w>": 4199,
    "hei": 4200,
    "height</w>": 4201,
    "heir</w>": 4202,
    "hel": 4203,
    "held,</w>": 4204,
    "held</w>": 4205,
    "helen": 4206,
    "helena.</w>": 4207,
    "heli": 4208,
    "helican": 4209,
    "hell": 4210,
    "hell,</w>": 4211,
    "hell.</w>": 4212,
    "hell</w>": 4213,
    "help": 4214,
    "help,</w>": 4215,
    "help</w>": 4216,
    "hemi": 4217,
    "hen": 4218,
    "hence": 4219,
    "hence,</w>": 4220,
    "hence.</w>": 4221,
    "hence</w>": 4222,
    "henceforth</w>": 4223,
    "henr": 4224,
    "henry,</w>": 4225,
    "henry.</w>": 4226,
    "henry</w>": 4227,
    "henry\u2019s</w>": 4228,
    "her": 4229,
    "her!</w>": 4230,
    "her,</w>": 4231,
    "her.</w>": 4232,
    "her:</w>": 4233,
    "her;</w>": 4234,
    "her</w>": 4235,
    "her?</w>": 4236,
    "heral": 4237,
    "here": 4238,
    "here!</w>": 4239,
    "here,</w>": 4240,
    "here.</w>": 4241,
    "here;</w>": 4242,
    "here</w>": 4243,
    "here?</w>": 4244,
    "herea": 4245,
    "hereaf": 4246,
    "hereafter</w>": 4247,
    "here\u2019s</w>": 4248,
    "heri": 4249,
    "hermi": 4250,
    "hermia.</w>": 4251,
    "hero": 4252,
    "hero.</w>": 4253,
    "herself,</w>": 4254,
    "herself.</w>": 4255,
    "herself</w>": 4256,
    "hester": 4257,
    "hester,</w>": 4258,
    "hester</w>": 4259,
    "hester\u2019s</w>": 4260,
    "heze": 4261,
    "hezekiah</w>": 4262,
    "he\u2019ll</w>": 4263,
    "he\u2019s</w>": 4264,
    "hi": 4265,
    "hid</w>": 4266,
    "hidden</w>": 4267,
    "hide": 4268,
    "hide</w>": 4269,
    "hideous</w>": 4270,
    "hie</w>": 4271,
    "hig": 4272,
    "high": 4273,
    "high,</w>": 4274,
    "high</w>": 4275,
    "highe": 4276,
    "higher</w>": 4277,
    "highest</w>": 4278,
    "highly</w>": 4279,
    "highness</w>": 4280,
    "highness\u2019</w>": 4281,
    "hil": 4282,
    "hill": 4283,
    "hill,</w>": 4284,
    "hill</w>": 4285,
    "hills</w>": 4286,
    "him": 4287,
    "him!</w>": 4288,
    "him,</w>": 4289,
    "him.</w>": 4290,
    "him._]</w>": 4291,
    "him.\u201d</w>": 4292,
    "him:</w>": 4293,
    "him;</w>": 4294,
    "him</w>": 4295,
    "him?</w>": 4296,
    "himself": 4297,
    "himself,</w>": 4298,
    "himself.</w>": 4299,
    "himself;</w>": 4300,
    "himself</w>": 4301,
    "hin": 4302,
    "hip": 4303,
    "hippoly": 4304,
    "hippolyta": 4305,
    "hired</w>": 4306,
    "his,</w>": 4307,
    "his.</w>": 4308,
    "his</w>": 4309,
    "histor": 4310,
    "history</w>": 4311,
    "hit</w>": 4312,
    "hither": 4313,
    "hither,</w>": 4314,
    "hither.</w>": 4315,
    "hither</w>": 4316,
    "hitherto</w>": 4317,
    "ho": 4318,
    "ho!</w>": 4319,
    "ho,</w>": 4320,
    "hoi": 4321,
    "hol": 4322,
    "hold": 4323,
    "hold,</w>": 4324,
    "hold</w>": 4325,
    "holding</w>": 4326,
    "holds</w>": 4327,
    "hole</w>": 4328,
    "holi": 4329,
    "holl": 4330,
    "hollow</w>": 4331,
    "holo": 4332,
    "holofern": 4333,
    "holofernes.</w>": 4334,
    "holy,</w>": 4335,
    "holy</w>": 4336,
    "hom": 4337,
    "home,</w>": 4338,
    "home.</w>": 4339,
    "home</w>": 4340,
    "hon": 4341,
    "hones": 4342,
    "honest": 4343,
    "honest</w>": 4344,
    "honesty</w>": 4345,
    "honey": 4346,
    "honey</w>": 4347,
    "honour": 4348,
    "honour,</w>": 4349,
    "honour.</w>": 4350,
    "honour</w>": 4351,
    "honoura": 4352,
    "honourable</w>": 4353,
    "honours</w>": 4354,
    "hoo": 4355,
    "hood,</w>": 4356,
    "hood</w>": 4357,
    "hop": 4358,
    "hope": 4359,
    "hope,</w>": 4360,
    "hope.</w>": 4361,
    "hope</w>": 4362,
    "hoped</w>": 4363,
    "hopes</w>": 4364,
    "hor": 4365,
    "hor</w>": 4366,
    "hora": 4367,
    "horatio.</w>": 4368,
    "horiz": 4369,
    "horn": 4370,
    "horn</w>": 4371,
    "horns</w>": 4372,
    "horr": 4373,
    "horri": 4374,
    "horrible</w>": 4375,
    "horror</w>": 4376,
    "horse": 4377,
    "horse,</w>": 4378,
    "horse</w>": 4379,
    "horses,</w>": 4380,
    "horses</w>": 4381,
    "hortensi": 4382,
    "hortensio.</w>": 4383,
    "host": 4384,
    "host,</w>": 4385,
    "host.</w>": 4386,
    "host</w>": 4387,
    "hostess.</w>": 4388,
    "hosts,</w>": 4389,
    "hosts.</w>": 4390,
    "hosts</w>": 4391,
    "hot": 4392,
    "hot</w>": 4393,
    "hotspur": 4394,
    "hotspur.</w>": 4395,
    "hou": 4396,
    "houn": 4397,
    "hour": 4398,
    "hour,</w>": 4399,
    "hour.</w>": 4400,
    "hour</w>": 4401,
    "hours,</w>": 4402,
    "hours</w>": 4403,
    "house": 4404,
    "house,</w>": 4405,
    "house.</w>": 4406,
    "house:</w>": 4407,
    "house;</w>": 4408,
    "house</w>": 4409,
    "houses,</w>": 4410,
    "houses</w>": 4411,
    "how": 4412,
    "how,</w>": 4413,
    "how</w>": 4414,
    "how?</w>": 4415,
    "howbeit</w>": 4416,
    "however,</w>": 4417,
    "however</w>": 4418,
    "hre": 4419,
    "hu": 4420,
    "huber": 4421,
    "hubert.</w>": 4422,
    "huge</w>": 4423,
    "hum": 4424,
    "human": 4425,
    "human</w>": 4426,
    "humble</w>": 4427,
    "humbly</w>": 4428,
    "humour</w>": 4429,
    "hump": 4430,
    "humphre": 4431,
    "hun": 4432,
    "hundre": 4433,
    "hundred.</w>": 4434,
    "hundred</w>": 4435,
    "hung": 4436,
    "hung</w>": 4437,
    "hunt</w>": 4438,
    "hur": 4439,
    "hurried</w>": 4440,
    "hurt</w>": 4441,
    "hus": 4442,
    "husb": 4443,
    "husban": 4444,
    "husband": 4445,
    "husband,</w>": 4446,
    "husband.</w>": 4447,
    "husband</w>": 4448,
    "husband\u2019s</w>": 4449,
    "hy": 4450,
    "hyde</w>": 4451,
    "hypo": 4452,
    "hypocri": 4453,
    "i": 4454,
    "i,</w>": 4455,
    "i.</w>": 4456,
    "i;</w>": 4457,
    "i</w>": 4458,
    "i?</w>": 4459,
    "ia": 4460,
    "iachi": 4461,
    "iachimo": 4462,
    "iachimo.</w>": 4463,
    "iago.</w>": 4464,
    "iah,</w>": 4465,
    "iah</w>": 4466,
    "ial</w>": 4467,
    "ic</w>": 4468,
    "ice</w>": 4469,
    "id": 4470,
    "id</w>": 4471,
    "ide": 4472,
    "idea</w>": 4473,
    "iden": 4474,
    "ides,</w>": 4475,
    "idi": 4476,
    "idle</w>": 4477,
    "ido": 4478,
    "idol": 4479,
    "ied</w>": 4480,
    "ies,</w>": 4481,
    "ies.</w>": 4482,
    "ies</w>": 4483,
    "if": 4484,
    "if,</w>": 4485,
    "if</w>": 4486,
    "ig": 4487,
    "ight</w>": 4488,
    "ign": 4489,
    "ign</w>": 4490,
    "ignor": 4491,
    "ignorant</w>": 4492,
    "ii.</w>": 4493,
    "ii</w>": 4494,
    "iii.</w>": 4495,
    "iii</w>": 4496,
    "il": 4497,
    "il,</w>": 4498,
    "il.</w>": 4499,
    "il;</w>": 4500,
    "il</w>": 4501,
    "ila": 4502,
    "iled</w>": 4503,
    "iling</w>": 4504,
    "ill": 4505,
    "ill,</w>": 4506,
    "ill-": 4507,
    "ill</w>": 4508,
    "illu": 4509,
    "illustra": 4510,
    "ils,</w>": 4511,
    "ils</w>": 4512,
    "ily,</w>": 4513,
    "ily</w>": 4514,
    "im": 4515,
    "im.</w>": 4516,
    "imag": 4517,
    "image,</w>": 4518,
    "image</w>": 4519,
    "images</w>": 4520,
    "imagin": 4521,
    "imagination</w>": 4522,
    "imagine</w>": 4523,
    "immedi": 4524,
    "immediat": 4525,
    "immediate</w>": 4526,
    "immediately</w>": 4527,
    "immortal</w>": 4528,
    "imo": 4529,
    "imog": 4530,
    "imogen.</w>": 4531,
    "imp": 4532,
    "impati": 4533,
    "impe": 4534,
    "imperi": 4535,
    "impor": 4536,
    "import": 4537,
    "important</w>": 4538,
    "impossi": 4539,
    "impossible</w>": 4540,
    "impres": 4541,
    "impri": 4542,
    "impu": 4543,
    "impul": 4544,
    "in": 4545,
    "in,</w>": 4546,
    "in-": 4547,
    "in.</w>": 4548,
    "in:</w>": 4549,
    "in;</w>": 4550,
    "in</w>": 4551,
    "in?</w>": 4552,
    "incen": 4553,
    "incense</w>": 4554,
    "incl": 4555,
    "inclin": 4556,
    "inclined</w>": 4557,
    "inclu": 4558,
    "including</w>": 4559,
    "incre": 4560,
    "increa": 4561,
    "increase</w>": 4562,
    "increased</w>": 4563,
    "ind</w>": 4564,
    "inde": 4565,
    "indeed": 4566,
    "indeed,</w>": 4567,
    "indeed.</w>": 4568,
    "indeed</w>": 4569,
    "indi": 4570,
    "indian</w>": 4571,
    "indiffer": 4572,
    "indig": 4573,
    "indire": 4574,
    "indivi": 4575,
    "individu": 4576,
    "individual</w>": 4577,
    "indu": 4578,
    "ine": 4579,
    "ine,</w>": 4580,
    "ine.</w>": 4581,
    "ine</w>": 4582,
    "ined</w>": 4583,
    "iness</w>": 4584,
    "inf": 4585,
    "infa": 4586,
    "infant</w>": 4587,
    "infer": 4588,
    "infin": 4589,
    "infinite</w>": 4590,
    "infir": 4591,
    "influ": 4592,
    "influence</w>": 4593,
    "infor": 4594,
    "information</w>": 4595,
    "ing": 4596,
    "ing!</w>": 4597,
    "ing,</w>": 4598,
    "ing-": 4599,
    "ing.</w>": 4600,
    "ing._]</w>": 4601,
    "ing:</w>": 4602,
    "ing;</w>": 4603,
    "ing</w>": 4604,
    "ing?</w>": 4605,
    "inged</w>": 4606,
    "inging</w>": 4607,
    "ingle": 4608,
    "ingly,</w>": 4609,
    "ingly</w>": 4610,
    "ings,</w>": 4611,
    "ings.</w>": 4612,
    "ings;</w>": 4613,
    "ings</w>": 4614,
    "ingu": 4615,
    "inhabit": 4616,
    "inhabitants</w>": 4617,
    "inheri": 4618,
    "inherit": 4619,
    "inherit</w>": 4620,
    "inheritance</w>": 4621,
    "ini": 4622,
    "ining</w>": 4623,
    "iniqu": 4624,
    "iniqui": 4625,
    "iniquity,</w>": 4626,
    "iniquity.</w>": 4627,
    "iniquity</w>": 4628,
    "inius.</w>": 4629,
    "inju": 4630,
    "injur": 4631,
    "inner</w>": 4632,
    "inno": 4633,
    "innoc": 4634,
    "innocent</w>": 4635,
    "ino.</w>": 4636,
    "inqui": 4637,
    "ins,</w>": 4638,
    "ins</w>": 4639,
    "insi": 4640,
    "inst": 4641,
    "instant,</w>": 4642,
    "instant</w>": 4643,
    "instantly</w>": 4644,
    "instead</w>": 4645,
    "instin": 4646,
    "instru": 4647,
    "instrument</w>": 4648,
    "instruments</w>": 4649,
    "insul": 4650,
    "int": 4651,
    "int</w>": 4652,
    "inte": 4653,
    "integri": 4654,
    "intell": 4655,
    "intellec": 4656,
    "intellectual</w>": 4657,
    "intellig": 4658,
    "inten": 4659,
    "intend</w>": 4660,
    "intended</w>": 4661,
    "intent</w>": 4662,
    "inter": 4663,
    "interes": 4664,
    "interest</w>": 4665,
    "interpre": 4666,
    "interrup": 4667,
    "interval": 4668,
    "inti": 4669,
    "into</w>": 4670,
    "intro": 4671,
    "introdu": 4672,
    "inven": 4673,
    "inves": 4674,
    "invit": 4675,
    "inward</w>": 4676,
    "in\u2019d</w>": 4677,
    "io": 4678,
    "ior</w>": 4679,
    "ious</w>": 4680,
    "ir": 4681,
    "ir,</w>": 4682,
    "ir.</w>": 4683,
    "ir</w>": 4684,
    "ira": 4685,
    "ire": 4686,
    "ired</w>": 4687,
    "iring</w>": 4688,
    "iron,</w>": 4689,
    "iron</w>": 4690,
    "irs,</w>": 4691,
    "irs.</w>": 4692,
    "irs</w>": 4693,
    "is": 4694,
    "is,</w>": 4695,
    "is.</w>": 4696,
    "is;</w>": 4697,
    "is</w>": 4698,
    "isa": 4699,
    "isaac": 4700,
    "isaac,</w>": 4701,
    "isaac</w>": 4702,
    "isabella.</w>": 4703,
    "ise": 4704,
    "ise</w>": 4705,
    "ised</w>": 4706,
    "ish": 4707,
    "ish,</w>": 4708,
    "ish</w>": 4709,
    "ishe": 4710,
    "ished,</w>": 4711,
    "ished.</w>": 4712,
    "ished</w>": 4713,
    "ishma": 4714,
    "ising</w>": 4715,
    "island</w>": 4716,
    "isra": 4717,
    "israel": 4718,
    "israel,</w>": 4719,
    "israel.</w>": 4720,
    "israel:</w>": 4721,
    "israel;</w>": 4722,
    "israel</w>": 4723,
    "israel?</w>": 4724,
    "issa": 4725,
    "issu": 4726,
    "issue</w>": 4727,
    "isure</w>": 4728,
    "is\u2019d</w>": 4729,
    "is\u2019t</w>": 4730,
    "it": 4731,
    "it!</w>": 4732,
    "it,</w>": 4733,
    "it,\u201d</w>": 4734,
    "it.</w>": 4735,
    "it.\u201d</w>": 4736,
    "it:</w>": 4737,
    "it;</w>": 4738,
    "it</w>": 4739,
    "it?</w>": 4740,
    "it?\u201d</w>": 4741,
    "itable</w>": 4742,
    "ital": 4743,
    "ite,</w>": 4744,
    "ite</w>": 4745,
    "ited</w>": 4746,
    "ites,</w>": 4747,
    "ites:</w>": 4748,
    "ites</w>": 4749,
    "ities</w>": 4750,
    "its</w>": 4751,
    "itself,</w>": 4752,
    "itself.</w>": 4753,
    "itself</w>": 4754,
    "itu": 4755,
    "ity,</w>": 4756,
    "ity.</w>": 4757,
    "ity;</w>": 4758,
    "ity</w>": 4759,
    "it\u2019s</w>": 4760,
    "ius</w>": 4761,
    "iv": 4762,
    "iv.</w>": 4763,
    "iv</w>": 4764,
    "ivory</w>": 4765,
    "iz": 4766,
    "i\u2019": 4767,
    "i\u2019</w>": 4768,
    "i\u2019d</w>": 4769,
    "i\u2019ll</w>": 4770,
    "i\u2019m</w>": 4771,
    "i\u2019ve</w>": 4772,
    "j": 4773,
    "ja": 4774,
    "jab": 4775,
    "jac": 4776,
    "jack</w>": 4777,
    "jacob": 4778,
    "jacob,</w>": 4779,
    "jacob</w>": 4780,
    "jah,</w>": 4781,
    "jah</w>": 4782,
    "jail": 4783,
    "jailer.</w>": 4784,
    "jam": 4785,
    "jamin": 4786,
    "jan": 4787,
    "jane,</w>": 4788,
    "jane</w>": 4789,
    "jap": 4790,
    "jaqu": 4791,
    "jaques.</w>": 4792,
    "je": 4793,
    "jeal": 4794,
    "jealous": 4795,
    "jealous</w>": 4796,
    "jealousy</w>": 4797,
    "jebu": 4798,
    "jec": 4799,
    "ject": 4800,
    "ject</w>": 4801,
    "jected</w>": 4802,
    "jeho": 4803,
    "jehoia": 4804,
    "jehoshap": 4805,
    "jehoshaphat</w>": 4806,
    "jehu": 4807,
    "jehu</w>": 4808,
    "jek": 4809,
    "jeky": 4810,
    "jer": 4811,
    "jeremi": 4812,
    "jeremiah</w>": 4813,
    "jeri": 4814,
    "jerich": 4815,
    "jero": 4816,
    "jeroboam</w>": 4817,
    "jerusa": 4818,
    "jerusale": 4819,
    "jerusalem,</w>": 4820,
    "jerusalem.</w>": 4821,
    "jerusalem:</w>": 4822,
    "jerusalem;</w>": 4823,
    "jerusalem</w>": 4824,
    "jes": 4825,
    "jessica": 4826,
    "jest</w>": 4827,
    "jesus,</w>": 4828,
    "jesus.</w>": 4829,
    "jesus</w>": 4830,
    "jew": 4831,
    "jewel": 4832,
    "jewel</w>": 4833,
    "jews,</w>": 4834,
    "jews</w>": 4835,
    "jez": 4836,
    "jezre": 4837,
    "jo": 4838,
    "joab": 4839,
    "joab</w>": 4840,
    "joh": 4841,
    "john,</w>": 4842,
    "john.</w>": 4843,
    "john</w>": 4844,
    "join": 4845,
    "join</w>": 4846,
    "joined</w>": 4847,
    "jon": 4848,
    "jonah</w>": 4849,
    "jonathan</w>": 4850,
    "jor": 4851,
    "jord": 4852,
    "jordan,</w>": 4853,
    "jordan</w>": 4854,
    "jose": 4855,
    "joseph,</w>": 4856,
    "joseph</w>": 4857,
    "joshu": 4858,
    "joshua,</w>": 4859,
    "joshua</w>": 4860,
    "josi": 4861,
    "jour": 4862,
    "journe": 4863,
    "journey,</w>": 4864,
    "journey</w>": 4865,
    "joy": 4866,
    "joy,</w>": 4867,
    "joy.</w>": 4868,
    "joy</w>": 4869,
    "joyful</w>": 4870,
    "ju": 4871,
    "juda": 4872,
    "judah,</w>": 4873,
    "judah.</w>": 4874,
    "judah</w>": 4875,
    "judg": 4876,
    "judge": 4877,
    "judge,</w>": 4878,
    "judge</w>": 4879,
    "judged</w>": 4880,
    "judgement</w>": 4881,
    "judgment,</w>": 4882,
    "judgment.</w>": 4883,
    "judgment</w>": 4884,
    "judgments,</w>": 4885,
    "judgments</w>": 4886,
    "judi": 4887,
    "juli": 4888,
    "julia.</w>": 4889,
    "julie": 4890,
    "juliet.</w>": 4891,
    "juliet</w>": 4892,
    "jun": 4893,
    "jup": 4894,
    "jupit": 4895,
    "jur": 4896,
    "jure</w>": 4897,
    "just": 4898,
    "just,</w>": 4899,
    "just</w>": 4900,
    "justi": 4901,
    "justice,</w>": 4902,
    "justice.</w>": 4903,
    "justice</w>": 4904,
    "justly</w>": 4905,
    "k": 4906,
    "k!</w>": 4907,
    "k,</w>": 4908,
    "k-": 4909,
    "k.</w>": 4910,
    "k:</w>": 4911,
    "k;</w>": 4912,
    "k</w>": 4913,
    "k?</w>": 4914,
    "ka": 4915,
    "kate,</w>": 4916,
    "kathar": 4917,
    "katharine.</w>": 4918,
    "kather": 4919,
    "katherin": 4920,
    "katherina.</w>": 4921,
    "katherine.</w>": 4922,
    "ke": 4923,
    "ke,</w>": 4924,
    "ke.</w>": 4925,
    "ke:</w>": 4926,
    "ke;</w>": 4927,
    "ke</w>": 4928,
    "ked": 4929,
    "ked,</w>": 4930,
    "ked.</w>": 4931,
    "ked</w>": 4932,
    "kee": 4933,
    "keep": 4934,
    "keep</w>": 4935,
    "keeper": 4936,
    "keepeth</w>": 4937,
    "keeping</w>": 4938,
    "keeps</w>": 4939,
    "ken": 4940,
    "ken,</w>": 4941,
    "ken.</w>": 4942,
    "ken;</w>": 4943,
    "ken</w>": 4944,
    "kened</w>": 4945,
    "kent.</w>": 4946,
    "kep": 4947,
    "kept</w>": 4948,
    "ker": 4949,
    "ker</w>": 4950,
    "kes,</w>": 4951,
    "kes</w>": 4952,
    "kest</w>": 4953,
    "ket</w>": 4954,
    "keth</w>": 4955,
    "key</w>": 4956,
    "ki": 4957,
    "kiah,</w>": 4958,
    "kiah</w>": 4959,
    "kid</w>": 4960,
    "kil": 4961,
    "kill": 4962,
    "kill</w>": 4963,
    "killed</w>": 4964,
    "kill\u2019d</w>": 4965,
    "kin": 4966,
    "kin</w>": 4967,
    "kind": 4968,
    "kind,</w>": 4969,
    "kind.</w>": 4970,
    "kind</w>": 4971,
    "kindled</w>": 4972,
    "kindly</w>": 4973,
    "kindness</w>": 4974,
    "kindre": 4975,
    "king": 4976,
    "king,</w>": 4977,
    "king-": 4978,
    "king.</w>": 4979,
    "king:</w>": 4980,
    "king;</w>": 4981,
    "king</w>": 4982,
    "king?</w>": 4983,
    "kingdom": 4984,
    "kingdom,</w>": 4985,
    "kingdom.</w>": 4986,
    "kingdom</w>": 4987,
    "kingdoms</w>": 4988,
    "kings,</w>": 4989,
    "kings</w>": 4990,
    "king\u2019s</w>": 4991,
    "kins": 4992,
    "kir": 4993,
    "kis": 4994,
    "kish</w>": 4995,
    "kiss</w>": 4996,
    "kissed</w>": 4997,
    "kisses</w>": 4998,
    "kit": 4999,
    "kling</w>": 5000,
    "kn": 5001,
    "kna": 5002,
    "knave,</w>": 5003,
    "knave</w>": 5004,
    "kne": 5005,
    "knee</w>": 5006,
    "kneel": 5007,
    "kneel</w>": 5008,
    "knees</w>": 5009,
    "knew": 5010,
    "knew</w>": 5011,
    "kni": 5012,
    "knife</w>": 5013,
    "knight": 5014,
    "knight</w>": 5015,
    "knit</w>": 5016,
    "kno": 5017,
    "knock": 5018,
    "knock</w>": 5019,
    "know": 5020,
    "know,</w>": 5021,
    "know.</w>": 5022,
    "know</w>": 5023,
    "knowest</w>": 5024,
    "knoweth</w>": 5025,
    "knowing</w>": 5026,
    "knowle": 5027,
    "knowledg": 5028,
    "knowledge": 5029,
    "knowledge,</w>": 5030,
    "knowledge</w>": 5031,
    "known,</w>": 5032,
    "known.</w>": 5033,
    "known</w>": 5034,
    "knows</w>": 5035,
    "know\u2019st</w>": 5036,
    "ko": 5037,
    "ks,</w>": 5038,
    "ks.</w>": 5039,
    "ks;</w>": 5040,
    "ks</w>": 5041,
    "ky</w>": 5042,
    "k\u2019d</w>": 5043,
    "k\u2019s</w>": 5044,
    "l": 5045,
    "l,</w>": 5046,
    "l.</w>": 5047,
    "l</w>": 5048,
    "la": 5049,
    "la,</w>": 5050,
    "la</w>": 5051,
    "lab": 5052,
    "labor": 5053,
    "labour": 5054,
    "labour</w>": 5055,
    "lack</w>": 5056,
    "lad": 5057,
    "ladi": 5058,
    "ladies,</w>": 5059,
    "ladies</w>": 5060,
    "lady": 5061,
    "lady,</w>": 5062,
    "lady.</w>": 5063,
    "lady</w>": 5064,
    "lady?</w>": 5065,
    "lady\u2019s</w>": 5066,
    "laer": 5067,
    "laertes.</w>": 5068,
    "lafew.</w>": 5069,
    "laid</w>": 5070,
    "lake</w>": 5071,
    "lamb": 5072,
    "lamb</w>": 5073,
    "lambs</w>": 5074,
    "lament": 5075,
    "lamp": 5076,
    "lan": 5077,
    "lanca": 5078,
    "lancast": 5079,
    "lancaster.</w>": 5080,
    "lance.</w>": 5081,
    "lance</w>": 5082,
    "land": 5083,
    "land,</w>": 5084,
    "land.</w>": 5085,
    "land:</w>": 5086,
    "land;</w>": 5087,
    "land</w>": 5088,
    "lands,</w>": 5089,
    "lands</w>": 5090,
    "langu": 5091,
    "language</w>": 5092,
    "lar": 5093,
    "larg": 5094,
    "large</w>": 5095,
    "larly</w>": 5096,
    "last,</w>": 5097,
    "last.</w>": 5098,
    "last</w>": 5099,
    "lat": 5100,
    "late,</w>": 5101,
    "late</w>": 5102,
    "lately</w>": 5103,
    "lation,</w>": 5104,
    "lation</w>": 5105,
    "latter</w>": 5106,
    "lau": 5107,
    "laug": 5108,
    "laugh": 5109,
    "laugh</w>": 5110,
    "laughed</w>": 5111,
    "laun": 5112,
    "launce": 5113,
    "launcelet.</w>": 5114,
    "lav": 5115,
    "lavini": 5116,
    "law": 5117,
    "law,</w>": 5118,
    "law.</w>": 5119,
    "law</w>": 5120,
    "lawful</w>": 5121,
    "lawr": 5122,
    "lawrence.</w>": 5123,
    "laws</w>": 5124,
    "lawy": 5125,
    "lay</w>": 5126,
    "laying</w>": 5127,
    "ld": 5128,
    "ld,</w>": 5129,
    "ld.</w>": 5130,
    "ld</w>": 5131,
    "le": 5132,
    "le!</w>": 5133,
    "le,</w>": 5134,
    "le-": 5135,
    "le.</w>": 5136,
    "le:</w>": 5137,
    "le;</w>": 5138,
    "le</w>": 5139,
    "le?</w>": 5140,
    "lea": 5141,
    "lead</w>": 5142,
    "leading</w>": 5143,
    "leag": 5144,
    "leagu": 5145,
    "league</w>": 5146,
    "lean": 5147,
    "lean</w>": 5148,
    "leaned</w>": 5149,
    "leaning</w>": 5150,
    "leap</w>": 5151,
    "lear": 5152,
    "lear.</w>": 5153,
    "learn</w>": 5154,
    "learned</w>": 5155,
    "least,</w>": 5156,
    "least</w>": 5157,
    "leave,</w>": 5158,
    "leave.</w>": 5159,
    "leave</w>": 5160,
    "leaven": 5161,
    "leavened</w>": 5162,
    "leaves</w>": 5163,
    "leaving</w>": 5164,
    "leban": 5165,
    "led,</w>": 5166,
    "led.</w>": 5167,
    "led</w>": 5168,
    "lee": 5169,
    "lef": 5170,
    "left,</w>": 5171,
    "left.</w>": 5172,
    "left</w>": 5173,
    "leg": 5174,
    "leg,</w>": 5175,
    "leg</w>": 5176,
    "legi": 5177,
    "legs</w>": 5178,
    "lehe": 5179,
    "lei": 5180,
    "leis": 5181,
    "leisure</w>": 5182,
    "len": 5183,
    "lend</w>": 5184,
    "leness</w>": 5185,
    "leng": 5186,
    "length,</w>": 5187,
    "length</w>": 5188,
    "lent</w>": 5189,
    "leon": 5190,
    "leonat": 5191,
    "leonato.</w>": 5192,
    "leontes.</w>": 5193,
    "lepi": 5194,
    "lepidu": 5195,
    "ler": 5196,
    "ler</w>": 5197,
    "les": 5198,
    "les,</w>": 5199,
    "les.</w>": 5200,
    "les;</w>": 5201,
    "les</w>": 5202,
    "less": 5203,
    "less,</w>": 5204,
    "less.</w>": 5205,
    "less</w>": 5206,
    "lest</w>": 5207,
    "lesti": 5208,
    "let": 5209,
    "let,</w>": 5210,
    "let.</w>": 5211,
    "let</w>": 5212,
    "leth</w>": 5213,
    "lets</w>": 5214,
    "letter": 5215,
    "letter,</w>": 5216,
    "letter.</w>": 5217,
    "letter</w>": 5218,
    "letters</w>": 5219,
    "let\u2019s</w>": 5220,
    "lev": 5221,
    "level</w>": 5222,
    "levi": 5223,
    "leviathan</w>": 5224,
    "levit": 5225,
    "levites,</w>": 5226,
    "levites</w>": 5227,
    "lewi": 5228,
    "lex": 5229,
    "lexi": 5230,
    "ley,</w>": 5231,
    "ley.</w>": 5232,
    "ley</w>": 5233,
    "le\u2019s</w>": 5234,
    "li": 5235,
    "lia.</w>": 5236,
    "lib": 5237,
    "liber": 5238,
    "liberty</w>": 5239,
    "libr": 5240,
    "licen": 5241,
    "license</w>": 5242,
    "lie": 5243,
    "lie,</w>": 5244,
    "lie</w>": 5245,
    "liege,</w>": 5246,
    "lies,</w>": 5247,
    "lies.</w>": 5248,
    "lies</w>": 5249,
    "liest</w>": 5250,
    "lieth</w>": 5251,
    "lieu": 5252,
    "lieuten": 5253,
    "lif": 5254,
    "life": 5255,
    "life,</w>": 5256,
    "life-": 5257,
    "life.</w>": 5258,
    "life:</w>": 5259,
    "life;</w>": 5260,
    "life</w>": 5261,
    "lift</w>": 5262,
    "lifted</w>": 5263,
    "light": 5264,
    "light,</w>": 5265,
    "light.</w>": 5266,
    "light</w>": 5267,
    "lighted</w>": 5268,
    "lik": 5269,
    "like": 5270,
    "like,</w>": 5271,
    "like</w>": 5272,
    "liked</w>": 5273,
    "likely</w>": 5274,
    "liken": 5275,
    "likeness</w>": 5276,
    "likewise</w>": 5277,
    "limb": 5278,
    "limbs</w>": 5279,
    "limit": 5280,
    "limited</w>": 5281,
    "lin": 5282,
    "line,</w>": 5283,
    "line</w>": 5284,
    "linen,</w>": 5285,
    "linen</w>": 5286,
    "lines</w>": 5287,
    "liness</w>": 5288,
    "ling": 5289,
    "ling,</w>": 5290,
    "ling.</w>": 5291,
    "ling</w>": 5292,
    "lingbro": 5293,
    "lion,</w>": 5294,
    "lion</w>": 5295,
    "lip": 5296,
    "lip</w>": 5297,
    "lips,</w>": 5298,
    "lips.</w>": 5299,
    "lips</w>": 5300,
    "lis": 5301,
    "lish": 5302,
    "lish,</w>": 5303,
    "lish</w>": 5304,
    "list": 5305,
    "list</w>": 5306,
    "listened</w>": 5307,
    "listening</w>": 5308,
    "liter": 5309,
    "literary</w>": 5310,
    "litt": 5311,
    "little,</w>": 5312,
    "little.</w>": 5313,
    "little</w>": 5314,
    "lity,</w>": 5315,
    "lity</w>": 5316,
    "lius.</w>": 5317,
    "liv": 5318,
    "live": 5319,
    "live,</w>": 5320,
    "live.</w>": 5321,
    "live</w>": 5322,
    "lived</w>": 5323,
    "lively</w>": 5324,
    "lives,</w>": 5325,
    "lives</w>": 5326,
    "liveth,</w>": 5327,
    "living,</w>": 5328,
    "living</w>": 5329,
    "lizz": 5330,
    "lizzy,</w>": 5331,
    "ll": 5332,
    "ll,</w>": 5333,
    "ll.</w>": 5334,
    "ll</w>": 5335,
    "lled</w>": 5336,
    "lleng": 5337,
    "lles.</w>": 5338,
    "lli": 5339,
    "lling": 5340,
    "lling</w>": 5341,
    "llo": 5342,
    "llo,</w>": 5343,
    "llo.</w>": 5344,
    "llo</w>": 5345,
    "llow": 5346,
    "llow</w>": 5347,
    "llowed</w>": 5348,
    "llows</w>": 5349,
    "lls</w>": 5350,
    "llu": 5351,
    "lly</w>": 5352,
    "lo": 5353,
    "lo,</w>": 5354,
    "loa": 5355,
    "loath": 5356,
    "located</w>": 5357,
    "lock</w>": 5358,
    "locks</w>": 5359,
    "lodg": 5360,
    "lodge</w>": 5361,
    "lodo": 5362,
    "lof": 5363,
    "lofty</w>": 5364,
    "log": 5365,
    "logi": 5366,
    "lon": 5367,
    "london.</w>": 5368,
    "london</w>": 5369,
    "long": 5370,
    "long,</w>": 5371,
    "long-": 5372,
    "long.</w>": 5373,
    "long</w>": 5374,
    "longa": 5375,
    "longavill": 5376,
    "longaville.</w>": 5377,
    "longbour": 5378,
    "longbourn</w>": 5379,
    "longed</w>": 5380,
    "longer</w>": 5381,
    "loo": 5382,
    "look": 5383,
    "look,</w>": 5384,
    "look</w>": 5385,
    "looked,</w>": 5386,
    "looked</w>": 5387,
    "looking</w>": 5388,
    "looks,</w>": 5389,
    "looks</w>": 5390,
    "look\u2019d</w>": 5391,
    "loose</w>": 5392,
    "lor": 5393,
    "lord": 5394,
    "lord!</w>": 5395,
    "lord,</w>": 5396,
    "lord.</w>": 5397,
    "lord:</w>": 5398,
    "lord;</w>": 5399,
    "lord</w>": 5400,
    "lord?</w>": 5401,
    "lords,</w>": 5402,
    "lords.</w>": 5403,
    "lords</w>": 5404,
    "lordship</w>": 5405,
    "lord\u2019s</w>": 5406,
    "loren": 5407,
    "lorenz": 5408,
    "lorenzo.</w>": 5409,
    "lose</w>": 5410,
    "loss</w>": 5411,
    "lost,</w>": 5412,
    "lost.</w>": 5413,
    "lost</w>": 5414,
    "lot</w>": 5415,
    "lou": 5416,
    "louces": 5417,
    "loud</w>": 5418,
    "lov": 5419,
    "love": 5420,
    "love,</w>": 5421,
    "love.</w>": 5422,
    "love;</w>": 5423,
    "love</w>": 5424,
    "love?</w>": 5425,
    "loved,</w>": 5426,
    "loved</w>": 5427,
    "lovely</w>": 5428,
    "lover": 5429,
    "lovers</w>": 5430,
    "loves</w>": 5431,
    "loveth</w>": 5432,
    "love\u2019s</w>": 5433,
    "loving</w>": 5434,
    "lov\u2019d</w>": 5435,
    "low": 5436,
    "low,</w>": 5437,
    "low</w>": 5438,
    "lower</w>": 5439,
    "loy": 5440,
    "ls,</w>": 5441,
    "ls</w>": 5442,
    "lt</w>": 5443,
    "lu": 5444,
    "luca": 5445,
    "luce": 5446,
    "lucen": 5447,
    "lucenti": 5448,
    "lucentio.</w>": 5449,
    "lucetta.</w>": 5450,
    "luci": 5451,
    "luciana.</w>": 5452,
    "lucio.</w>": 5453,
    "lucius,</w>": 5454,
    "lucius.</w>": 5455,
    "lucius</w>": 5456,
    "luck": 5457,
    "lucre": 5458,
    "lun": 5459,
    "lur": 5460,
    "lust": 5461,
    "lust</w>": 5462,
    "lux": 5463,
    "ly": 5464,
    "ly,</w>": 5465,
    "ly.</w>": 5466,
    "ly:</w>": 5467,
    "ly;</w>": 5468,
    "ly</w>": 5469,
    "ly?</w>": 5470,
    "lydi": 5471,
    "lydia</w>": 5472,
    "lying</w>": 5473,
    "lysan": 5474,
    "lysander.</w>": 5475,
    "lysi": 5476,
    "lysimach": 5477,
    "m": 5478,
    "m!</w>": 5479,
    "m,</w>": 5480,
    "m-": 5481,
    "m.</w>": 5482,
    "m:</w>": 5483,
    "m;</w>": 5484,
    "m</w>": 5485,
    "m?</w>": 5486,
    "ma": 5487,
    "ma</w>": 5488,
    "mac": 5489,
    "macbe": 5490,
    "macbeth.</w>": 5491,
    "macdu": 5492,
    "macduff.</w>": 5493,
    "mace": 5494,
    "mach": 5495,
    "mad": 5496,
    "mad,</w>": 5497,
    "mad.</w>": 5498,
    "mad</w>": 5499,
    "mada": 5500,
    "madam,</w>": 5501,
    "madam.</w>": 5502,
    "made,</w>": 5503,
    "made.</w>": 5504,
    "made</w>": 5505,
    "madness</w>": 5506,
    "mag": 5507,
    "mage</w>": 5508,
    "magi": 5509,
    "magistr": 5510,
    "magni": 5511,
    "mah,</w>": 5512,
    "mai": 5513,
    "maid": 5514,
    "maid,</w>": 5515,
    "maid.</w>": 5516,
    "maid</w>": 5517,
    "maiden": 5518,
    "maiden</w>": 5519,
    "maids</w>": 5520,
    "main": 5521,
    "main</w>": 5522,
    "maintain</w>": 5523,
    "majes": 5524,
    "majesty,</w>": 5525,
    "majesty.</w>": 5526,
    "majesty</w>": 5527,
    "mak": 5528,
    "make</w>": 5529,
    "makes</w>": 5530,
    "maketh</w>": 5531,
    "making</w>": 5532,
    "mal": 5533,
    "mal</w>": 5534,
    "malcol": 5535,
    "male</w>": 5536,
    "mali": 5537,
    "malice</w>": 5538,
    "malvolio.</w>": 5539,
    "man": 5540,
    "man!</w>": 5541,
    "man,</w>": 5542,
    "man.</w>": 5543,
    "man:</w>": 5544,
    "man;</w>": 5545,
    "man</w>": 5546,
    "man?</w>": 5547,
    "manasse": 5548,
    "manasseh,</w>": 5549,
    "manasseh</w>": 5550,
    "manif": 5551,
    "mann": 5552,
    "manner,</w>": 5553,
    "manner</w>": 5554,
    "manners</w>": 5555,
    "mantu": 5556,
    "many,</w>": 5557,
    "many</w>": 5558,
    "man\u2019s</w>": 5559,
    "mar": 5560,
    "mar</w>": 5561,
    "marble</w>": 5562,
    "marcell": 5563,
    "march</w>": 5564,
    "marcus.</w>": 5565,
    "margar": 5566,
    "margaret,</w>": 5567,
    "margaret.</w>": 5568,
    "mari": 5569,
    "maria.</w>": 5570,
    "marin": 5571,
    "marina.</w>": 5572,
    "mark": 5573,
    "mark,</w>": 5574,
    "mark.</w>": 5575,
    "mark</w>": 5576,
    "marke": 5577,
    "marked</w>": 5578,
    "market-": 5579,
    "marks</w>": 5580,
    "marri": 5581,
    "marriage,</w>": 5582,
    "marriage</w>": 5583,
    "married</w>": 5584,
    "marry,</w>": 5585,
    "marry</w>": 5586,
    "marsha": 5587,
    "marti": 5588,
    "martius.</w>": 5589,
    "marvell": 5590,
    "marvellous</w>": 5591,
    "mary</w>": 5592,
    "mas": 5593,
    "mast-": 5594,
    "master": 5595,
    "master,</w>": 5596,
    "master.</w>": 5597,
    "master</w>": 5598,
    "masters,</w>": 5599,
    "masters</w>": 5600,
    "master\u2019s</w>": 5601,
    "mat": 5602,
    "match</w>": 5603,
    "mate,</w>": 5604,
    "mate</w>": 5605,
    "materi": 5606,
    "mation</w>": 5607,
    "matter": 5608,
    "matter,</w>": 5609,
    "matter.</w>": 5610,
    "matter</w>": 5611,
    "matter?</w>": 5612,
    "matters</w>": 5613,
    "may": 5614,
    "may,</w>": 5615,
    "may</w>": 5616,
    "mayest</w>": 5617,
    "mayst</w>": 5618,
    "mb": 5619,
    "mber": 5620,
    "mber</w>": 5621,
    "mbered</w>": 5622,
    "mbl": 5623,
    "mblance</w>": 5624,
    "mble</w>": 5625,
    "mbled</w>": 5626,
    "mbling</w>": 5627,
    "mbly</w>": 5628,
    "me": 5629,
    "me!</w>": 5630,
    "me,</w>": 5631,
    "me,\u201d</w>": 5632,
    "me.</w>": 5633,
    "me.\u201d</w>": 5634,
    "me:</w>": 5635,
    "me;</w>": 5636,
    "me</w>": 5637,
    "me?</w>": 5638,
    "mea": 5639,
    "mean": 5640,
    "mean,</w>": 5641,
    "mean</w>": 5642,
    "meaning</w>": 5643,
    "means,</w>": 5644,
    "means</w>": 5645,
    "meant</w>": 5646,
    "measure": 5647,
    "measure</w>": 5648,
    "measured</w>": 5649,
    "measures</w>": 5650,
    "meat,</w>": 5651,
    "meat</w>": 5652,
    "med,</w>": 5653,
    "med.</w>": 5654,
    "med</w>": 5655,
    "medi": 5656,
    "medit": 5657,
    "medium</w>": 5658,
    "mee": 5659,
    "meet": 5660,
    "meet,</w>": 5661,
    "meet</w>": 5662,
    "meeting</w>": 5663,
    "mel": 5664,
    "melan": 5665,
    "melancho": 5666,
    "melancholy</w>": 5667,
    "mele": 5668,
    "melt</w>": 5669,
    "memb": 5670,
    "memor": 5671,
    "memory</w>": 5672,
    "men": 5673,
    "men!</w>": 5674,
    "men,</w>": 5675,
    "men.</w>": 5676,
    "men:</w>": 5677,
    "men;</w>": 5678,
    "men</w>": 5679,
    "men?</w>": 5680,
    "mend</w>": 5681,
    "meneni": 5682,
    "menenius.</w>": 5683,
    "ment": 5684,
    "ment,</w>": 5685,
    "ment.</w>": 5686,
    "ment:</w>": 5687,
    "ment;</w>": 5688,
    "ment</w>": 5689,
    "mention</w>": 5690,
    "mentioned</w>": 5691,
    "ments,</w>": 5692,
    "ments.</w>": 5693,
    "ments</w>": 5694,
    "men\u2019s</w>": 5695,
    "mer": 5696,
    "mer</w>": 5697,
    "merch": 5698,
    "merchan": 5699,
    "merchant</w>": 5700,
    "merci": 5701,
    "mercu": 5702,
    "mercutio.</w>": 5703,
    "mercy,</w>": 5704,
    "mercy.</w>": 5705,
    "mercy</w>": 5706,
    "mere</w>": 5707,
    "merely</w>": 5708,
    "merri": 5709,
    "merry,</w>": 5710,
    "merry</w>": 5711,
    "mery": 5712,
    "mes": 5713,
    "mes</w>": 5714,
    "mess": 5715,
    "messala": 5716,
    "messeng": 5717,
    "messenger.</w>": 5718,
    "messenger</w>": 5719,
    "messengers</w>": 5720,
    "met,</w>": 5721,
    "met</w>": 5722,
    "meth</w>": 5723,
    "methinks</w>": 5724,
    "metho": 5725,
    "mi": 5726,
    "micha": 5727,
    "mid": 5728,
    "middle</w>": 5729,
    "midnight</w>": 5730,
    "midst</w>": 5731,
    "migh": 5732,
    "might": 5733,
    "might,</w>": 5734,
    "might</w>": 5735,
    "mighti": 5736,
    "mighty,</w>": 5737,
    "mighty</w>": 5738,
    "mil": 5739,
    "mild": 5740,
    "mild</w>": 5741,
    "miles</w>": 5742,
    "mili": 5743,
    "milk</w>": 5744,
    "mill": 5745,
    "milli": 5746,
    "min": 5747,
    "mind,</w>": 5748,
    "mind.</w>": 5749,
    "mind</w>": 5750,
    "minded</w>": 5751,
    "minds</w>": 5752,
    "mine,</w>": 5753,
    "mine.</w>": 5754,
    "mine;</w>": 5755,
    "mine</w>": 5756,
    "ming": 5757,
    "ming</w>": 5758,
    "mingled</w>": 5759,
    "mini": 5760,
    "minister": 5761,
    "minister,</w>": 5762,
    "minister</w>": 5763,
    "ministers</w>": 5764,
    "minut": 5765,
    "minute</w>": 5766,
    "minutes</w>": 5767,
    "mio.</w>": 5768,
    "mir": 5769,
    "mira": 5770,
    "miran": 5771,
    "miranda.</w>": 5772,
    "mis": 5773,
    "misc": 5774,
    "mischi": 5775,
    "mischief</w>": 5776,
    "miser": 5777,
    "miserable</w>": 5778,
    "misery</w>": 5779,
    "miss</w>": 5780,
    "missi": 5781,
    "mission</w>": 5782,
    "mista": 5783,
    "mistake</w>": 5784,
    "mistre": 5785,
    "mistress": 5786,
    "mistress,</w>": 5787,
    "mistress.</w>": 5788,
    "mistress</w>": 5789,
    "mit": 5790,
    "mit</w>": 5791,
    "mitted</w>": 5792,
    "miz": 5793,
    "mly</w>": 5794,
    "mm": 5795,
    "mming</w>": 5796,
    "mn": 5797,
    "mn</w>": 5798,
    "mni": 5799,
    "mo": 5800,
    "moab": 5801,
    "moab,</w>": 5802,
    "moab</w>": 5803,
    "moby</w>": 5804,
    "mock": 5805,
    "mock</w>": 5806,
    "mode": 5807,
    "moder": 5808,
    "modern</w>": 5809,
    "modes": 5810,
    "modest</w>": 5811,
    "modi": 5812,
    "moi": 5813,
    "mol": 5814,
    "mom": 5815,
    "moment": 5816,
    "moment,</w>": 5817,
    "moment</w>": 5818,
    "mon": 5819,
    "mon,</w>": 5820,
    "mon.</w>": 5821,
    "mon</w>": 5822,
    "money": 5823,
    "money,</w>": 5824,
    "money.</w>": 5825,
    "money</w>": 5826,
    "monsi": 5827,
    "monsieur</w>": 5828,
    "monst": 5829,
    "monster": 5830,
    "monster</w>": 5831,
    "monstrous</w>": 5832,
    "mont": 5833,
    "monta": 5834,
    "montague.</w>": 5835,
    "month,</w>": 5836,
    "month</w>": 5837,
    "months</w>": 5838,
    "monu": 5839,
    "moo": 5840,
    "moon": 5841,
    "moon,</w>": 5842,
    "moon</w>": 5843,
    "mor": 5844,
    "moral</w>": 5845,
    "mordeca": 5846,
    "more": 5847,
    "more,</w>": 5848,
    "more.</w>": 5849,
    "more:</w>": 5850,
    "more;</w>": 5851,
    "more</w>": 5852,
    "moreover,</w>": 5853,
    "moreover</w>": 5854,
    "morn": 5855,
    "morning,</w>": 5856,
    "morning.</w>": 5857,
    "morning</w>": 5858,
    "morous</w>": 5859,
    "morrow,</w>": 5860,
    "morrow</w>": 5861,
    "mortal": 5862,
    "mortal</w>": 5863,
    "morti": 5864,
    "mortim": 5865,
    "moses,</w>": 5866,
    "moses.</w>": 5867,
    "moses</w>": 5868,
    "most</w>": 5869,
    "moth.</w>": 5870,
    "mother": 5871,
    "mother,</w>": 5872,
    "mother.</w>": 5873,
    "mother</w>": 5874,
    "mother\u2019s</w>": 5875,
    "motion</w>": 5876,
    "mou": 5877,
    "mould": 5878,
    "moun": 5879,
    "mount</w>": 5880,
    "mountain": 5881,
    "mountain,</w>": 5882,
    "mountain</w>": 5883,
    "mountains,</w>": 5884,
    "mountains</w>": 5885,
    "mounted</w>": 5886,
    "mour": 5887,
    "mourn</w>": 5888,
    "mourning</w>": 5889,
    "mous</w>": 5890,
    "mouse</w>": 5891,
    "mouth,</w>": 5892,
    "mouth.</w>": 5893,
    "mouth</w>": 5894,
    "move</w>": 5895,
    "moved</w>": 5896,
    "moving</w>": 5897,
    "mow": 5898,
    "mowbra": 5899,
    "mp": 5900,
    "mp,</w>": 5901,
    "mp</w>": 5902,
    "mpe": 5903,
    "mped</w>": 5904,
    "mper": 5905,
    "mps</w>": 5906,
    "mr": 5907,
    "mr.</w>": 5908,
    "mrs.</w>": 5909,
    "ms,</w>": 5910,
    "ms.</w>": 5911,
    "ms</w>": 5912,
    "mu": 5913,
    "much": 5914,
    "much,</w>": 5915,
    "much.</w>": 5916,
    "much</w>": 5917,
    "mul": 5918,
    "multi": 5919,
    "multipli": 5920,
    "multitu": 5921,
    "multitude,</w>": 5922,
    "multitude</w>": 5923,
    "mun": 5924,
    "mur": 5925,
    "murder": 5926,
    "murder</w>": 5927,
    "murderer.</w>": 5928,
    "murderer</w>": 5929,
    "murmu": 5930,
    "murmured</w>": 5931,
    "musi": 5932,
    "music": 5933,
    "music,</w>": 5934,
    "music.</w>": 5935,
    "music</w>": 5936,
    "musici": 5937,
    "must,</w>": 5938,
    "must</w>": 5939,
    "mutin": 5940,
    "my": 5941,
    "my</w>": 5942,
    "myself": 5943,
    "myself,</w>": 5944,
    "myself.</w>": 5945,
    "myself;</w>": 5946,
    "myself</w>": 5947,
    "myster": 5948,
    "mystery</w>": 5949,
    "m\u2019d</w>": 5950,
    "n": 5951,
    "n,</w>": 5952,
    "n.</w>": 5953,
    "n;</w>": 5954,
    "n</w>": 5955,
    "n?</w>": 5956,
    "na": 5957,
    "na,</w>": 5958,
    "nab": 5959,
    "nac": 5960,
    "nago": 5961,
    "naked": 5962,
    "naked</w>": 5963,
    "nal</w>": 5964,
    "nam": 5965,
    "name": 5966,
    "name,</w>": 5967,
    "name.</w>": 5968,
    "name:</w>": 5969,
    "name;</w>": 5970,
    "name</w>": 5971,
    "name?</w>": 5972,
    "named</w>": 5973,
    "namel": 5974,
    "names</w>": 5975,
    "nan": 5976,
    "nantuck": 5977,
    "nantucket</w>": 5978,
    "nap": 5979,
    "naph": 5980,
    "nar": 5981,
    "narrow</w>": 5982,
    "nat": 5983,
    "nation,</w>": 5984,
    "nation</w>": 5985,
    "nations,</w>": 5986,
    "nations</w>": 5987,
    "native</w>": 5988,
    "natu": 5989,
    "natur": 5990,
    "natura": 5991,
    "natural</w>": 5992,
    "nature": 5993,
    "nature,</w>": 5994,
    "nature.</w>": 5995,
    "nature</w>": 5996,
    "nature\u2019s</w>": 5997,
    "naught</w>": 5998,
    "nay,</w>": 5999,
    "nay</w>": 6000,
    "nazar": 6001,
    "ne": 6002,
    "ne,</w>": 6003,
    "ne</w>": 6004,
    "near": 6005,
    "near,</w>": 6006,
    "near</w>": 6007,
    "nearer</w>": 6008,
    "nearly</w>": 6009,
    "nebu": 6010,
    "nebucha": 6011,
    "nebuchadne": 6012,
    "nebuchadnezzar</w>": 6013,
    "neces": 6014,
    "necess": 6015,
    "necessary</w>": 6016,
    "necessity</w>": 6017,
    "neck,</w>": 6018,
    "neck</w>": 6019,
    "ned,</w>": 6020,
    "ned.</w>": 6021,
    "ned</w>": 6022,
    "need": 6023,
    "need</w>": 6024,
    "needs</w>": 6025,
    "negle": 6026,
    "nei": 6027,
    "neigh": 6028,
    "neighb": 6029,
    "neighbour": 6030,
    "neighbour,</w>": 6031,
    "neighbour</w>": 6032,
    "neither</w>": 6033,
    "nephe": 6034,
    "ner": 6035,
    "ner,</w>": 6036,
    "ner</w>": 6037,
    "nerissa": 6038,
    "ners</w>": 6039,
    "nes": 6040,
    "ness,</w>": 6041,
    "ness.</w>": 6042,
    "ness:</w>": 6043,
    "ness;</w>": 6044,
    "ness</w>": 6045,
    "ness?</w>": 6046,
    "ness\u2019</w>": 6047,
    "nest</w>": 6048,
    "net</w>": 6049,
    "neth</w>": 6050,
    "nether": 6051,
    "never": 6052,
    "never,</w>": 6053,
    "never</w>": 6054,
    "neverthe": 6055,
    "nevertheless,</w>": 6056,
    "nevertheless</w>": 6057,
    "new": 6058,
    "new-": 6059,
    "new</w>": 6060,
    "newly</w>": 6061,
    "news,</w>": 6062,
    "news.</w>": 6063,
    "news</w>": 6064,
    "news?</w>": 6065,
    "nex": 6066,
    "next</w>": 6067,
    "ne\u2019er</w>": 6068,
    "ni": 6069,
    "nie": 6070,
    "nigh</w>": 6071,
    "night": 6072,
    "night,</w>": 6073,
    "night-": 6074,
    "night.</w>": 6075,
    "night;</w>": 6076,
    "night</w>": 6077,
    "nights</w>": 6078,
    "night\u2019s</w>": 6079,
    "nin": 6080,
    "nine</w>": 6081,
    "ning,</w>": 6082,
    "ning.</w>": 6083,
    "ning</w>": 6084,
    "nish</w>": 6085,
    "no": 6086,
    "no,</w>": 6087,
    "no.</w>": 6088,
    "no;</w>": 6089,
    "no</w>": 6090,
    "nobl": 6091,
    "noble": 6092,
    "noble</w>": 6093,
    "nobles</w>": 6094,
    "noi": 6095,
    "noise</w>": 6096,
    "non": 6097,
    "non</w>": 6098,
    "none,</w>": 6099,
    "none.</w>": 6100,
    "none</w>": 6101,
    "nor": 6102,
    "nor</w>": 6103,
    "norfol": 6104,
    "norfolk.</w>": 6105,
    "north,</w>": 6106,
    "north</w>": 6107,
    "northu": 6108,
    "northumber": 6109,
    "northumberland.</w>": 6110,
    "nose</w>": 6111,
    "not": 6112,
    "not,</w>": 6113,
    "not.</w>": 6114,
    "not:</w>": 6115,
    "not;</w>": 6116,
    "not</w>": 6117,
    "not?</w>": 6118,
    "note</w>": 6119,
    "nothing": 6120,
    "nothing,</w>": 6121,
    "nothing.</w>": 6122,
    "nothing;</w>": 6123,
    "nothing</w>": 6124,
    "noti": 6125,
    "notice</w>": 6126,
    "noticed</w>": 6127,
    "notwith": 6128,
    "notwithstanding</w>": 6129,
    "nou": 6130,
    "nouri": 6131,
    "now": 6132,
    "now!</w>": 6133,
    "now,</w>": 6134,
    "now.</w>": 6135,
    "now;</w>": 6136,
    "now</w>": 6137,
    "now?</w>": 6138,
    "ns,</w>": 6139,
    "ns</w>": 6140,
    "nu": 6141,
    "numb": 6142,
    "number": 6143,
    "number</w>": 6144,
    "numbered</w>": 6145,
    "nur": 6146,
    "nurse,</w>": 6147,
    "nurse.</w>": 6148,
    "nurse</w>": 6149,
    "ny": 6150,
    "ny</w>": 6151,
    "n\u2019d</w>": 6152,
    "n\u2019t</w>": 6153,
    "o": 6154,
    "o!</w>": 6155,
    "o,</w>": 6156,
    "o.</w>": 6157,
    "o._]</w>": 6158,
    "o;</w>": 6159,
    "o</w>": 6160,
    "o?</w>": 6161,
    "oa": 6162,
    "oar": 6163,
    "oath": 6164,
    "oath,</w>": 6165,
    "oath</w>": 6166,
    "oaths</w>": 6167,
    "ob": 6168,
    "obe": 6169,
    "obedi": 6170,
    "obedience</w>": 6171,
    "ober": 6172,
    "obey</w>": 6173,
    "obeyed</w>": 6174,
    "objec": 6175,
    "object</w>": 6176,
    "obli": 6177,
    "obliged</w>": 6178,
    "obsc": 6179,
    "obser": 6180,
    "observ": 6181,
    "observe</w>": 6182,
    "observed</w>": 6183,
    "obtain</w>": 6184,
    "obtained</w>": 6185,
    "oc": 6186,
    "occa": 6187,
    "occasion": 6188,
    "occasion</w>": 6189,
    "occup": 6190,
    "occupied</w>": 6191,
    "occur": 6192,
    "oce": 6193,
    "ocean</w>": 6194,
    "octa": 6195,
    "od": 6196,
    "odd</w>": 6197,
    "of": 6198,
    "of,</w>": 6199,
    "of.</w>": 6200,
    "of</w>": 6201,
    "off": 6202,
    "off,</w>": 6203,
    "off.</w>": 6204,
    "off</w>": 6205,
    "offen": 6206,
    "offence</w>": 6207,
    "offend</w>": 6208,
    "offended</w>": 6209,
    "offer": 6210,
    "offer</w>": 6211,
    "offered</w>": 6212,
    "offering,</w>": 6213,
    "offering.</w>": 6214,
    "offering:</w>": 6215,
    "offering</w>": 6216,
    "offerings,</w>": 6217,
    "offerings</w>": 6218,
    "offi": 6219,
    "offic": 6220,
    "office,</w>": 6221,
    "office</w>": 6222,
    "officer": 6223,
    "officer.</w>": 6224,
    "officer</w>": 6225,
    "officers,</w>": 6226,
    "officers</w>": 6227,
    "official</w>": 6228,
    "oft</w>": 6229,
    "often": 6230,
    "often</w>": 6231,
    "oh": 6232,
    "oh!</w>": 6233,
    "oh,</w>": 6234,
    "oh</w>": 6235,
    "oil,</w>": 6236,
    "oil</w>": 6237,
    "ol": 6238,
    "ola": 6239,
    "old": 6240,
    "old,</w>": 6241,
    "old.</w>": 6242,
    "old</w>": 6243,
    "oli": 6244,
    "olive</w>": 6245,
    "olivia.</w>": 6246,
    "om": 6247,
    "om,</w>": 6248,
    "om.</w>": 6249,
    "om</w>": 6250,
    "ome</w>": 6251,
    "omin": 6252,
    "on": 6253,
    "on!</w>": 6254,
    "on,</w>": 6255,
    "on-": 6256,
    "on.</w>": 6257,
    "on:</w>": 6258,
    "on;</w>": 6259,
    "on</w>": 6260,
    "on?</w>": 6261,
    "once,</w>": 6262,
    "once.</w>": 6263,
    "once</w>": 6264,
    "onde": 6265,
    "one": 6266,
    "one,</w>": 6267,
    "one.</w>": 6268,
    "one;</w>": 6269,
    "one</w>": 6270,
    "oned</w>": 6271,
    "ones,</w>": 6272,
    "ones</w>": 6273,
    "one\u2019s</w>": 6274,
    "ong": 6275,
    "ong</w>": 6276,
    "ongst</w>": 6277,
    "oni": 6278,
    "online</w>": 6279,
    "only,</w>": 6280,
    "only</w>": 6281,
    "ons,</w>": 6282,
    "ons.</w>": 6283,
    "ons</w>": 6284,
    "ony": 6285,
    "on\u2019s</w>": 6286,
    "on\u2019t.</w>": 6287,
    "oo": 6288,
    "ood</w>": 6289,
    "op": 6290,
    "op.</w>": 6291,
    "op</w>": 6292,
    "ope</w>": 6293,
    "open": 6294,
    "open,</w>": 6295,
    "open</w>": 6296,
    "opened</w>": 6297,
    "opening</w>": 6298,
    "oper": 6299,
    "ophe": 6300,
    "ophelia.</w>": 6301,
    "opini": 6302,
    "opinion,</w>": 6303,
    "opinion</w>": 6304,
    "oppor": 6305,
    "opportun": 6306,
    "opportunity</w>": 6307,
    "opposi": 6308,
    "opposite</w>": 6309,
    "oppres": 6310,
    "oppressed</w>": 6311,
    "or": 6312,
    "or,</w>": 6313,
    "or.</w>": 6314,
    "or;</w>": 6315,
    "or</w>": 6316,
    "orac": 6317,
    "orda": 6318,
    "order": 6319,
    "order,</w>": 6320,
    "order</w>": 6321,
    "ordin": 6322,
    "ordinary</w>": 6323,
    "org": 6324,
    "orig": 6325,
    "origin": 6326,
    "original</w>": 6327,
    "orlan": 6328,
    "orlando.</w>": 6329,
    "orle": 6330,
    "orna": 6331,
    "ors,</w>": 6332,
    "ors</w>": 6333,
    "ory</w>": 6334,
    "os": 6335,
    "ose</w>": 6336,
    "oswal": 6337,
    "oswald.</w>": 6338,
    "ot": 6339,
    "othe": 6340,
    "othello.</w>": 6341,
    "other": 6342,
    "other,</w>": 6343,
    "other.</w>": 6344,
    "other</w>": 6345,
    "others,</w>": 6346,
    "others.</w>": 6347,
    "others</w>": 6348,
    "otherwise</w>": 6349,
    "other\u2019s</w>": 6350,
    "ou": 6351,
    "ough": 6352,
    "ought</w>": 6353,
    "ould": 6354,
    "ould</w>": 6355,
    "oun": 6356,
    "ound</w>": 6357,
    "our": 6358,
    "our,</w>": 6359,
    "our.</w>": 6360,
    "our;</w>": 6361,
    "our</w>": 6362,
    "oura": 6363,
    "oured</w>": 6364,
    "ouri": 6365,
    "ouring</w>": 6366,
    "ours,</w>": 6367,
    "ours.</w>": 6368,
    "ours</w>": 6369,
    "oursel": 6370,
    "ourselves,</w>": 6371,
    "ourselves</w>": 6372,
    "ous": 6373,
    "ous,</w>": 6374,
    "ous.</w>": 6375,
    "ous;</w>": 6376,
    "ous</w>": 6377,
    "ously,</w>": 6378,
    "ously</w>": 6379,
    "ousness</w>": 6380,
    "out": 6381,
    "out,</w>": 6382,
    "out.</w>": 6383,
    "out;</w>": 6384,
    "out</w>": 6385,
    "outside</w>": 6386,
    "outward</w>": 6387,
    "over": 6388,
    "over,</w>": 6389,
    "over-": 6390,
    "over</w>": 6391,
    "overcome</w>": 6392,
    "ow": 6393,
    "ow</w>": 6394,
    "owe</w>": 6395,
    "owing</w>": 6396,
    "own": 6397,
    "own,</w>": 6398,
    "own.</w>": 6399,
    "own</w>": 6400,
    "owned</w>": 6401,
    "owner</w>": 6402,
    "ows</w>": 6403,
    "ox": 6404,
    "ox</w>": 6405,
    "oxen,</w>": 6406,
    "oxen</w>": 6407,
    "o\u2019": 6408,
    "o\u2019</w>": 6409,
    "o\u2019clo": 6410,
    "o\u2019er": 6411,
    "o\u2019er</w>": 6412,
    "o\u2019s</w>": 6413,
    "p": 6414,
    "p,</w>": 6415,
    "p.</w>": 6416,
    "p</w>": 6417,
    "pa": 6418,
    "pac": 6419,
    "paci": 6420,
    "padu": 6421,
    "pag": 6422,
    "page": 6423,
    "page,</w>": 6424,
    "page.</w>": 6425,
    "page</w>": 6426,
    "paid</w>": 6427,
    "pain": 6428,
    "pain</w>": 6429,
    "pains</w>": 6430,
    "painted</w>": 6431,
    "pair</w>": 6432,
    "pal": 6433,
    "palac": 6434,
    "palace.</w>": 6435,
    "palace</w>": 6436,
    "palamon": 6437,
    "palamon.</w>": 6438,
    "pale,</w>": 6439,
    "pale</w>": 6440,
    "palm</w>": 6441,
    "pan": 6442,
    "pand": 6443,
    "pandar": 6444,
    "pandarus.</w>": 6445,
    "pant": 6446,
    "paper": 6447,
    "paper</w>": 6448,
    "par": 6449,
    "parag": 6450,
    "paragra": 6451,
    "paragraph</w>": 6452,
    "pardon": 6453,
    "pardon,</w>": 6454,
    "pardon.</w>": 6455,
    "pardon</w>": 6456,
    "pare</w>": 6457,
    "paris,</w>": 6458,
    "paris.</w>": 6459,
    "paris</w>": 6460,
    "park</w>": 6461,
    "paro": 6462,
    "parolles.</w>": 6463,
    "part": 6464,
    "part,</w>": 6465,
    "part.</w>": 6466,
    "part</w>": 6467,
    "parted</w>": 6468,
    "parti": 6469,
    "particu": 6470,
    "particul": 6471,
    "particular</w>": 6472,
    "particularly</w>": 6473,
    "parting</w>": 6474,
    "partly</w>": 6475,
    "parts</w>": 6476,
    "party</w>": 6477,
    "pas": 6478,
    "pass": 6479,
    "pass,</w>": 6480,
    "pass</w>": 6481,
    "passa": 6482,
    "passage</w>": 6483,
    "passed</w>": 6484,
    "passing</w>": 6485,
    "passion": 6486,
    "passion</w>": 6487,
    "passo": 6488,
    "passover</w>": 6489,
    "past,</w>": 6490,
    "past</w>": 6491,
    "pat": 6492,
    "path</w>": 6493,
    "pati": 6494,
    "patience,</w>": 6495,
    "patience.</w>": 6496,
    "patience</w>": 6497,
    "patient</w>": 6498,
    "patri": 6499,
    "patro": 6500,
    "patrocl": 6501,
    "patroclus.</w>": 6502,
    "pau": 6503,
    "paul,</w>": 6504,
    "paul</w>": 6505,
    "paulin": 6506,
    "paulina.</w>": 6507,
    "pay": 6508,
    "pay</w>": 6509,
    "paying</w>": 6510,
    "pe": 6511,
    "pe,</w>": 6512,
    "pe</w>": 6513,
    "peac": 6514,
    "peace": 6515,
    "peace!</w>": 6516,
    "peace,</w>": 6517,
    "peace.</w>": 6518,
    "peace</w>": 6519,
    "pear": 6520,
    "pearl": 6521,
    "pearl,</w>": 6522,
    "pearl</w>": 6523,
    "peas": 6524,
    "pecu": 6525,
    "peculi": 6526,
    "peculiar</w>": 6527,
    "ped": 6528,
    "ped,</w>": 6529,
    "ped.</w>": 6530,
    "ped</w>": 6531,
    "pedro": 6532,
    "pedro.</w>": 6533,
    "pember": 6534,
    "pen": 6535,
    "pen</w>": 6536,
    "peop": 6537,
    "people,</w>": 6538,
    "people.</w>": 6539,
    "people:</w>": 6540,
    "people;</w>": 6541,
    "people</w>": 6542,
    "people\u2019s</w>": 6543,
    "pequo": 6544,
    "pequod</w>": 6545,
    "pequod\u2019s</w>": 6546,
    "per": 6547,
    "per</w>": 6548,
    "peradventure</w>": 6549,
    "percei": 6550,
    "perceive</w>": 6551,
    "perceived</w>": 6552,
    "perchance</w>": 6553,
    "perfe": 6554,
    "perfec": 6555,
    "perfect</w>": 6556,
    "perfectly</w>": 6557,
    "perfor": 6558,
    "perforce</w>": 6559,
    "perform": 6560,
    "perform</w>": 6561,
    "performan": 6562,
    "perfu": 6563,
    "perha": 6564,
    "perhaps,</w>": 6565,
    "perhaps</w>": 6566,
    "peri": 6567,
    "pericl": 6568,
    "pericles.</w>": 6569,
    "peril": 6570,
    "perio": 6571,
    "period</w>": 6572,
    "perish</w>": 6573,
    "permission</w>": 6574,
    "permitted</w>": 6575,
    "perpe": 6576,
    "perpetual</w>": 6577,
    "pers</w>": 6578,
    "persecu": 6579,
    "persi": 6580,
    "person": 6581,
    "person,</w>": 6582,
    "person</w>": 6583,
    "persons</w>": 6584,
    "persu": 6585,
    "persua": 6586,
    "persuade</w>": 6587,
    "persuaded</w>": 6588,
    "perver": 6589,
    "pes</w>": 6590,
    "pesti": 6591,
    "pestil": 6592,
    "peter,</w>": 6593,
    "peter.</w>": 6594,
    "peter</w>": 6595,
    "peth</w>": 6596,
    "peti": 6597,
    "petru": 6598,
    "petruchi": 6599,
    "petruchio.</w>": 6600,
    "ph": 6601,
    "ph,</w>": 6602,
    "ph.</w>": 6603,
    "ph</w>": 6604,
    "pha": 6605,
    "phant": 6606,
    "phar": 6607,
    "phara": 6608,
    "pharaoh": 6609,
    "pharaoh,</w>": 6610,
    "pharaoh</w>": 6611,
    "pharaoh\u2019s</w>": 6612,
    "pharise": 6613,
    "pharisees</w>": 6614,
    "phe": 6615,
    "pher": 6616,
    "phi": 6617,
    "philip": 6618,
    "philip.</w>": 6619,
    "philist": 6620,
    "philistin": 6621,
    "philistines,</w>": 6622,
    "philistines</w>": 6623,
    "philo": 6624,
    "philoso": 6625,
    "pho": 6626,
    "phoe": 6627,
    "phra": 6628,
    "phrase</w>": 6629,
    "physi": 6630,
    "physical</w>": 6631,
    "physici": 6632,
    "pi": 6633,
    "pic": 6634,
    "picked</w>": 6635,
    "picture": 6636,
    "picture</w>": 6637,
    "pie": 6638,
    "piece</w>": 6639,
    "pieces,</w>": 6640,
    "pieces</w>": 6641,
    "pier": 6642,
    "pige": 6643,
    "pil": 6644,
    "pilate</w>": 6645,
    "pilgri": 6646,
    "pill": 6647,
    "pillar</w>": 6648,
    "pillars</w>": 6649,
    "pin": 6650,
    "ping</w>": 6651,
    "pip": 6652,
    "pir": 6653,
    "piri": 6654,
    "pirithou": 6655,
    "pis": 6656,
    "pisanio.</w>": 6657,
    "pisto": 6658,
    "pistol": 6659,
    "pistol.</w>": 6660,
    "pit": 6661,
    "pit,</w>": 6662,
    "pit</w>": 6663,
    "pitch</w>": 6664,
    "pitched</w>": 6665,
    "piti": 6666,
    "pity,</w>": 6667,
    "pity</w>": 6668,
    "pl": 6669,
    "pla": 6670,
    "place,</w>": 6671,
    "place.</w>": 6672,
    "place:</w>": 6673,
    "place;</w>": 6674,
    "place</w>": 6675,
    "placed</w>": 6676,
    "places,</w>": 6677,
    "places.</w>": 6678,
    "places</w>": 6679,
    "plagu": 6680,
    "plague</w>": 6681,
    "plain": 6682,
    "plain,</w>": 6683,
    "plain</w>": 6684,
    "plainly</w>": 6685,
    "plains</w>": 6686,
    "plan": 6687,
    "plant</w>": 6688,
    "planta": 6689,
    "plantagen": 6690,
    "planted</w>": 6691,
    "plat": 6692,
    "play": 6693,
    "play,</w>": 6694,
    "play.</w>": 6695,
    "play</w>": 6696,
    "played</w>": 6697,
    "playing</w>": 6698,
    "ple": 6699,
    "ple,</w>": 6700,
    "ple</w>": 6701,
    "plea": 6702,
    "plead</w>": 6703,
    "pleas": 6704,
    "pleasant</w>": 6705,
    "please,</w>": 6706,
    "please</w>": 6707,
    "pleased</w>": 6708,
    "pleasing</w>": 6709,
    "pleasure": 6710,
    "pleasure,</w>": 6711,
    "pleasure.</w>": 6712,
    "pleasure</w>": 6713,
    "plent": 6714,
    "pli": 6715,
    "plo": 6716,
    "plu": 6717,
    "pluck</w>": 6718,
    "plucked</w>": 6719,
    "plun": 6720,
    "ply</w>": 6721,
    "po": 6722,
    "pock": 6723,
    "poin": 6724,
    "poins.</w>": 6725,
    "point": 6726,
    "point</w>": 6727,
    "pointed</w>": 6728,
    "pointing</w>": 6729,
    "points</w>": 6730,
    "pois": 6731,
    "poison": 6732,
    "poison</w>": 6733,
    "pol": 6734,
    "poli": 6735,
    "polixen": 6736,
    "polixenes.</w>": 6737,
    "pollu": 6738,
    "poloni": 6739,
    "polonius.</w>": 6740,
    "poly": 6741,
    "pom": 6742,
    "pompe": 6743,
    "pompey.</w>": 6744,
    "pon": 6745,
    "poo": 6746,
    "poor": 6747,
    "poor,</w>": 6748,
    "poor</w>": 6749,
    "por": 6750,
    "port": 6751,
    "porti": 6752,
    "portia.</w>": 6753,
    "portion</w>": 6754,
    "portun": 6755,
    "pos": 6756,
    "pose</w>": 6757,
    "posed</w>": 6758,
    "posi": 6759,
    "posing</w>": 6760,
    "position</w>": 6761,
    "poss": 6762,
    "posses": 6763,
    "possess": 6764,
    "possess</w>": 6765,
    "possessed</w>": 6766,
    "possession</w>": 6767,
    "possi": 6768,
    "possible</w>": 6769,
    "possibly</w>": 6770,
    "post": 6771,
    "post</w>": 6772,
    "posted</w>": 6773,
    "poster": 6774,
    "posthu": 6775,
    "posthumu": 6776,
    "posthumus.</w>": 6777,
    "posts</w>": 6778,
    "potent</w>": 6779,
    "poun": 6780,
    "pound</w>": 6781,
    "pour</w>": 6782,
    "poured</w>": 6783,
    "pover": 6784,
    "pow": 6785,
    "power": 6786,
    "power,</w>": 6787,
    "power.</w>": 6788,
    "power</w>": 6789,
    "powers</w>": 6790,
    "pp": 6791,
    "pped</w>": 6792,
    "pping</w>": 6793,
    "pp\u2019d</w>": 6794,
    "pr": 6795,
    "pra": 6796,
    "practi": 6797,
    "prai": 6798,
    "praise</w>": 6799,
    "praises</w>": 6800,
    "pray": 6801,
    "pray,</w>": 6802,
    "pray</w>": 6803,
    "prayed</w>": 6804,
    "prayer</w>": 6805,
    "prayers</w>": 6806,
    "pre": 6807,
    "preach</w>": 6808,
    "preached</w>": 6809,
    "prece": 6810,
    "preci": 6811,
    "precious</w>": 6812,
    "prehen": 6813,
    "prepar": 6814,
    "prepare</w>": 6815,
    "prepared</w>": 6816,
    "pres": 6817,
    "presence</w>": 6818,
    "present": 6819,
    "present,</w>": 6820,
    "present</w>": 6821,
    "presented</w>": 6822,
    "presently.</w>": 6823,
    "presently</w>": 6824,
    "preserve</w>": 6825,
    "press</w>": 6826,
    "pressed</w>": 6827,
    "presu": 6828,
    "preten": 6829,
    "pretty</w>": 6830,
    "preva": 6831,
    "prevailed</w>": 6832,
    "prevent": 6833,
    "prevent</w>": 6834,
    "prevented</w>": 6835,
    "previous</w>": 6836,
    "prey,</w>": 6837,
    "prey</w>": 6838,
    "pri": 6839,
    "price</w>": 6840,
    "pride,</w>": 6841,
    "pride</w>": 6842,
    "pries": 6843,
    "priest,</w>": 6844,
    "priest</w>": 6845,
    "priests,</w>": 6846,
    "priests</w>": 6847,
    "priest\u2019s</w>": 6848,
    "prin": 6849,
    "prince,</w>": 6850,
    "prince.</w>": 6851,
    "prince</w>": 6852,
    "princely</w>": 6853,
    "princes": 6854,
    "princes,</w>": 6855,
    "princes</w>": 6856,
    "princess.</w>": 6857,
    "princip": 6858,
    "prison": 6859,
    "prison,</w>": 6860,
    "prison.</w>": 6861,
    "prison</w>": 6862,
    "prisoner</w>": 6863,
    "prithee,</w>": 6864,
    "prithee</w>": 6865,
    "priv": 6866,
    "private</w>": 6867,
    "privi": 6868,
    "privile": 6869,
    "priz": 6870,
    "pro": 6871,
    "prob": 6872,
    "probab": 6873,
    "probably</w>": 6874,
    "proce": 6875,
    "proceed": 6876,
    "proceed</w>": 6877,
    "proceeded</w>": 6878,
    "proces": 6879,
    "proclaim</w>": 6880,
    "procu": 6881,
    "prodi": 6882,
    "produ": 6883,
    "produce</w>": 6884,
    "produced</w>": 6885,
    "prof": 6886,
    "profan": 6887,
    "profane</w>": 6888,
    "profes": 6889,
    "profit</w>": 6890,
    "profound</w>": 6891,
    "progre": 6892,
    "project</w>": 6893,
    "prolo": 6894,
    "prom": 6895,
    "promi": 6896,
    "promise</w>": 6897,
    "promised</w>": 6898,
    "promo": 6899,
    "pron": 6900,
    "pronoun": 6901,
    "pronounce</w>": 6902,
    "pronounced</w>": 6903,
    "proof</w>": 6904,
    "prop": 6905,
    "proper": 6906,
    "proper</w>": 6907,
    "property</w>": 6908,
    "prophe": 6909,
    "prophesi": 6910,
    "prophesied</w>": 6911,
    "prophesy</w>": 6912,
    "prophet,</w>": 6913,
    "prophet</w>": 6914,
    "prophets,</w>": 6915,
    "prophets</w>": 6916,
    "propor": 6917,
    "propri": 6918,
    "prosp": 6919,
    "prospe": 6920,
    "prospect</w>": 6921,
    "prosper": 6922,
    "prospero.</w>": 6923,
    "prote": 6924,
    "protect": 6925,
    "protected</w>": 6926,
    "protes": 6927,
    "proteus.</w>": 6928,
    "prou": 6929,
    "proud,</w>": 6930,
    "proud</w>": 6931,
    "prove</w>": 6932,
    "proved</w>": 6933,
    "prover": 6934,
    "provi": 6935,
    "provide</w>": 6936,
    "provided</w>": 6937,
    "providing</w>": 6938,
    "provin": 6939,
    "provo": 6940,
    "provoke</w>": 6941,
    "provoked</w>": 6942,
    "provost.</w>": 6943,
    "pru": 6944,
    "pryn": 6945,
    "prynne,</w>": 6946,
    "prynne</w>": 6947,
    "ps,</w>": 6948,
    "ps</w>": 6949,
    "psal": 6950,
    "pt</w>": 6951,
    "pu": 6952,
    "publi": 6953,
    "public</w>": 6954,
    "pucell": 6955,
    "pucelle.</w>": 6956,
    "pul": 6957,
    "pulch": 6958,
    "pull</w>": 6959,
    "pun": 6960,
    "puni": 6961,
    "punish</w>": 6962,
    "punishment</w>": 6963,
    "pup": 6964,
    "pur": 6965,
    "purcha": 6966,
    "pure</w>": 6967,
    "puri": 6968,
    "purp": 6969,
    "purpo": 6970,
    "purpose,</w>": 6971,
    "purpose.</w>": 6972,
    "purpose</w>": 6973,
    "pursu": 6974,
    "pursue</w>": 6975,
    "pursued</w>": 6976,
    "push</w>": 6977,
    "put</w>": 6978,
    "puts</w>": 6979,
    "putting</w>": 6980,
    "py": 6981,
    "pyra": 6982,
    "pyramu": 6983,
    "p\u2019d</w>": 6984,
    "q": 6985,
    "qu": 6986,
    "qua": 6987,
    "quain": 6988,
    "quali": 6989,
    "quality</w>": 6990,
    "quar": 6991,
    "quarre": 6992,
    "quarrel</w>": 6993,
    "quarter": 6994,
    "quarter</w>": 6995,
    "que": 6996,
    "que</w>": 6997,
    "quee": 6998,
    "queen": 6999,
    "queen,</w>": 7000,
    "queen.</w>": 7001,
    "queen</w>": 7002,
    "queen\u2019s</w>": 7003,
    "queeque": 7004,
    "queequeg": 7005,
    "queequeg,</w>": 7006,
    "queequeg</w>": 7007,
    "quen": 7008,
    "ques": 7009,
    "quest</w>": 7010,
    "question": 7011,
    "question,</w>": 7012,
    "question</w>": 7013,
    "qui": 7014,
    "quick": 7015,
    "quick,</w>": 7016,
    "quick</w>": 7017,
    "quickly.</w>": 7018,
    "quickly</w>": 7019,
    "quie": 7020,
    "quiet": 7021,
    "quiet</w>": 7022,
    "quietly</w>": 7023,
    "quin": 7024,
    "quit": 7025,
    "quit</w>": 7026,
    "quite</w>": 7027,
    "quo": 7028,
    "quoth</w>": 7029,
    "r": 7030,
    "r</w>": 7031,
    "ra": 7032,
    "ra</w>": 7033,
    "rab": 7034,
    "rabb": 7035,
    "rable</w>": 7036,
    "race</w>": 7037,
    "rache": 7038,
    "racu": 7039,
    "rag": 7040,
    "rage,</w>": 7041,
    "rage</w>": 7042,
    "rai": 7043,
    "rain,</w>": 7044,
    "rain</w>": 7045,
    "raise</w>": 7046,
    "raised</w>": 7047,
    "ram": 7048,
    "ram,</w>": 7049,
    "ram</w>": 7050,
    "rams,</w>": 7051,
    "ran": 7052,
    "ran</w>": 7053,
    "rance</w>": 7054,
    "rang": 7055,
    "rank</w>": 7056,
    "rans": 7057,
    "ransom</w>": 7058,
    "rant</w>": 7059,
    "rap": 7060,
    "rapi": 7061,
    "rar": 7062,
    "rare</w>": 7063,
    "rasc": 7064,
    "rat": 7065,
    "ratclif": 7066,
    "rate</w>": 7067,
    "rather,</w>": 7068,
    "rather</w>": 7069,
    "raven": 7070,
    "ravi": 7071,
    "re": 7072,
    "re,</w>": 7073,
    "re-": 7074,
    "re-enter</w>": 7075,
    "re.</w>": 7076,
    "re;</w>": 7077,
    "re</w>": 7078,
    "rea": 7079,
    "reach</w>": 7080,
    "reached</w>": 7081,
    "reaching</w>": 7082,
    "read": 7083,
    "read,</w>": 7084,
    "read</w>": 7085,
    "readily</w>": 7086,
    "reading</w>": 7087,
    "ready</w>": 7088,
    "real": 7089,
    "real</w>": 7090,
    "really</w>": 7091,
    "reas": 7092,
    "reason": 7093,
    "reason,</w>": 7094,
    "reason.</w>": 7095,
    "reason</w>": 7096,
    "reasonable</w>": 7097,
    "reasons</w>": 7098,
    "rebe": 7099,
    "rebelli": 7100,
    "rebellious</w>": 7101,
    "rebu": 7102,
    "rebuke</w>": 7103,
    "recei": 7104,
    "receive</w>": 7105,
    "received</w>": 7106,
    "receiving</w>": 7107,
    "reck": 7108,
    "reckon": 7109,
    "reco": 7110,
    "recogni": 7111,
    "recolle": 7112,
    "recomp": 7113,
    "recompen": 7114,
    "reconci": 7115,
    "recor": 7116,
    "record</w>": 7117,
    "recover": 7118,
    "recover</w>": 7119,
    "red,</w>": 7120,
    "red.</w>": 7121,
    "red</w>": 7122,
    "rede": 7123,
    "redeem</w>": 7124,
    "redeemed</w>": 7125,
    "refle": 7126,
    "refu": 7127,
    "refun": 7128,
    "refund</w>": 7129,
    "refuse</w>": 7130,
    "refused</w>": 7131,
    "reg": 7132,
    "regan.</w>": 7133,
    "regar": 7134,
    "regard</w>": 7135,
    "regarded</w>": 7136,
    "regi": 7137,
    "regre": 7138,
    "regu": 7139,
    "regul": 7140,
    "regular</w>": 7141,
    "reho": 7142,
    "reig": 7143,
    "reign,</w>": 7144,
    "reign</w>": 7145,
    "reigned</w>": 7146,
    "reigni": 7147,
    "rejo": 7148,
    "rejoi": 7149,
    "rejoice,</w>": 7150,
    "rejoice</w>": 7151,
    "rel": 7152,
    "rela": 7153,
    "relea": 7154,
    "reli": 7155,
    "relie": 7156,
    "reliev": 7157,
    "religi": 7158,
    "rely</w>": 7159,
    "rema": 7160,
    "remain": 7161,
    "remain</w>": 7162,
    "remained</w>": 7163,
    "remaining</w>": 7164,
    "remains</w>": 7165,
    "remark": 7166,
    "reme": 7167,
    "remed": 7168,
    "rememb": 7169,
    "remember": 7170,
    "remember,</w>": 7171,
    "remember</w>": 7172,
    "remembered</w>": 7173,
    "remembrance</w>": 7174,
    "remn": 7175,
    "remnant</w>": 7176,
    "remo": 7177,
    "remor": 7178,
    "remove</w>": 7179,
    "removed</w>": 7180,
    "ren": 7181,
    "render</w>": 7182,
    "rendered</w>": 7183,
    "rene": 7184,
    "rent</w>": 7185,
    "rep": 7186,
    "repa": 7187,
    "repair</w>": 7188,
    "repaired</w>": 7189,
    "repe": 7190,
    "repeated</w>": 7191,
    "repent": 7192,
    "repent</w>": 7193,
    "repla": 7194,
    "replacement</w>": 7195,
    "repli": 7196,
    "replied,</w>": 7197,
    "replied</w>": 7198,
    "repor": 7199,
    "report</w>": 7200,
    "repro": 7201,
    "reproach</w>": 7202,
    "repu": 7203,
    "reques": 7204,
    "request</w>": 7205,
    "requi": 7206,
    "require": 7207,
    "require</w>": 7208,
    "required</w>": 7209,
    "res,</w>": 7210,
    "res</w>": 7211,
    "rese": 7212,
    "reserved</w>": 7213,
    "resi": 7214,
    "resol": 7215,
    "resolu": 7216,
    "resolution</w>": 7217,
    "resolved</w>": 7218,
    "respe": 7219,
    "respec": 7220,
    "respect</w>": 7221,
    "rest": 7222,
    "rest,</w>": 7223,
    "rest.</w>": 7224,
    "rest</w>": 7225,
    "rested</w>": 7226,
    "restor": 7227,
    "restore</w>": 7228,
    "restored</w>": 7229,
    "restra": 7230,
    "resu": 7231,
    "resurre": 7232,
    "reth</w>": 7233,
    "reti": 7234,
    "retre": 7235,
    "retur": 7236,
    "return": 7237,
    "return,</w>": 7238,
    "return.</w>": 7239,
    "return</w>": 7240,
    "returned,</w>": 7241,
    "returned</w>": 7242,
    "reu": 7243,
    "reub": 7244,
    "reve": 7245,
    "revealed</w>": 7246,
    "reven": 7247,
    "reveng": 7248,
    "revenge</w>": 7249,
    "rever": 7250,
    "reverence</w>": 7251,
    "reverend</w>": 7252,
    "revi": 7253,
    "revo": 7254,
    "revol": 7255,
    "rewar": 7256,
    "reward</w>": 7257,
    "rhe": 7258,
    "rhy": 7259,
    "ri": 7260,
    "rich": 7261,
    "rich,</w>": 7262,
    "rich</w>": 7263,
    "richar": 7264,
    "richard,</w>": 7265,
    "richard.</w>": 7266,
    "richard</w>": 7267,
    "riches</w>": 7268,
    "richmon": 7269,
    "rid</w>": 7270,
    "ride</w>": 7271,
    "ried</w>": 7272,
    "ries</w>": 7273,
    "right": 7274,
    "right,</w>": 7275,
    "right.</w>": 7276,
    "right</w>": 7277,
    "righte": 7278,
    "righteous": 7279,
    "righteous</w>": 7280,
    "righteousness,</w>": 7281,
    "righteousness.</w>": 7282,
    "righteousness</w>": 7283,
    "rin": 7284,
    "ring,</w>": 7285,
    "ring.</w>": 7286,
    "ring</w>": 7287,
    "rings</w>": 7288,
    "rink": 7289,
    "rip": 7290,
    "ripe</w>": 7291,
    "rippa": 7292,
    "rise</w>": 7293,
    "risen</w>": 7294,
    "rising</w>": 7295,
    "river": 7296,
    "river,</w>": 7297,
    "river</w>": 7298,
    "rivers</w>": 7299,
    "ro": 7300,
    "roar</w>": 7301,
    "roaring</w>": 7302,
    "rob": 7303,
    "rob</w>": 7304,
    "rober": 7305,
    "rock,</w>": 7306,
    "rock</w>": 7307,
    "rod</w>": 7308,
    "roderi": 7309,
    "roderigo.</w>": 7310,
    "roger</w>": 7311,
    "rogu": 7312,
    "roll</w>": 7313,
    "rolled</w>": 7314,
    "rom": 7315,
    "roman</w>": 7316,
    "rome": 7317,
    "rome,</w>": 7318,
    "rome.</w>": 7319,
    "rome</w>": 7320,
    "romeo,</w>": 7321,
    "romeo.</w>": 7322,
    "romeo</w>": 7323,
    "ron</w>": 7324,
    "roni": 7325,
    "roo": 7326,
    "room": 7327,
    "room,</w>": 7328,
    "room.</w>": 7329,
    "room</w>": 7330,
    "root</w>": 7331,
    "ror</w>": 7332,
    "rosalin": 7333,
    "rosalind.</w>": 7334,
    "rosaline.</w>": 7335,
    "rose,</w>": 7336,
    "rose</w>": 7337,
    "rosen": 7338,
    "rosencr": 7339,
    "rosencrantz": 7340,
    "rosencrantz.</w>": 7341,
    "ross.</w>": 7342,
    "ross</w>": 7343,
    "rotten</w>": 7344,
    "rou": 7345,
    "rough</w>": 7346,
    "rought</w>": 7347,
    "roun": 7348,
    "round,</w>": 7349,
    "round</w>": 7350,
    "rous</w>": 7351,
    "row": 7352,
    "row,</w>": 7353,
    "row.</w>": 7354,
    "row</w>": 7355,
    "rows</w>": 7356,
    "roy": 7357,
    "royal": 7358,
    "royal</w>": 7359,
    "royalty</w>": 7360,
    "rr": 7361,
    "rt</w>": 7362,
    "ru": 7363,
    "rude</w>": 7364,
    "rue</w>": 7365,
    "ruin</w>": 7366,
    "rul": 7367,
    "rule</w>": 7368,
    "ruler</w>": 7369,
    "rulers</w>": 7370,
    "rum": 7371,
    "run": 7372,
    "run,</w>": 7373,
    "run</w>": 7374,
    "rung</w>": 7375,
    "running</w>": 7376,
    "runs</w>": 7377,
    "rup": 7378,
    "rush</w>": 7379,
    "ry,</w>": 7380,
    "ry.</w>": 7381,
    "ry;</w>": 7382,
    "ry</w>": 7383,
    "rying</w>": 7384,
    "s": 7385,
    "s!</w>": 7386,
    "s!\u201d</w>": 7387,
    "s,</w>": 7388,
    "s,\u2014": 7389,
    "s,\u201d</w>": 7390,
    "s-": 7391,
    "s.</w>": 7392,
    "s._]</w>": 7393,
    "s.\u201d</w>": 7394,
    "s:</w>": 7395,
    "s;</w>": 7396,
    "s</w>": 7397,
    "s?</w>": 7398,
    "s?\u201d</w>": 7399,
    "s_.]</w>": 7400,
    "sa": 7401,
    "sabba": 7402,
    "sabbath</w>": 7403,
    "sac": 7404,
    "sack": 7405,
    "sacred</w>": 7406,
    "sacri": 7407,
    "sacrifi": 7408,
    "sacrifice</w>": 7409,
    "sacrifices</w>": 7410,
    "sad": 7411,
    "sad</w>": 7412,
    "saf": 7413,
    "safe": 7414,
    "safe</w>": 7415,
    "safety</w>": 7416,
    "sage</w>": 7417,
    "sai": 7418,
    "said": 7419,
    "said,</w>": 7420,
    "said.</w>": 7421,
    "said</w>": 7422,
    "sail": 7423,
    "sail</w>": 7424,
    "sailed</w>": 7425,
    "sailing</w>": 7426,
    "sailor": 7427,
    "sailor.</w>": 7428,
    "sailors</w>": 7429,
    "sails</w>": 7430,
    "sain": 7431,
    "saint</w>": 7432,
    "saints</w>": 7433,
    "saith,</w>": 7434,
    "saith</w>": 7435,
    "sake,</w>": 7436,
    "sake.</w>": 7437,
    "sake</w>": 7438,
    "sal": 7439,
    "sal</w>": 7440,
    "sala": 7441,
    "salin": 7442,
    "salis": 7443,
    "salisbury.</w>": 7444,
    "salt</w>": 7445,
    "salu": 7446,
    "salute</w>": 7447,
    "salva": 7448,
    "salvation</w>": 7449,
    "sam": 7450,
    "samari": 7451,
    "samaria,</w>": 7452,
    "same,</w>": 7453,
    "same.</w>": 7454,
    "same</w>": 7455,
    "samp": 7456,
    "samu": 7457,
    "samuel</w>": 7458,
    "san": 7459,
    "sanc": 7460,
    "sancti": 7461,
    "sanctified</w>": 7462,
    "sanctify</w>": 7463,
    "sanctu": 7464,
    "sanctuary,</w>": 7465,
    "sanctuary</w>": 7466,
    "sand": 7467,
    "sank</w>": 7468,
    "sar": 7469,
    "sat</w>": 7470,
    "satan</w>": 7471,
    "satis": 7472,
    "satisfa": 7473,
    "satisfi": 7474,
    "satisfied</w>": 7475,
    "satisfy</w>": 7476,
    "saturn": 7477,
    "saturnin": 7478,
    "saturninus.</w>": 7479,
    "sau": 7480,
    "saul": 7481,
    "saul,</w>": 7482,
    "saul</w>": 7483,
    "sav": 7484,
    "savage</w>": 7485,
    "save</w>": 7486,
    "saved</w>": 7487,
    "saw,</w>": 7488,
    "saw</w>": 7489,
    "say": 7490,
    "say!</w>": 7491,
    "say,</w>": 7492,
    "say.</w>": 7493,
    "say;</w>": 7494,
    "say</w>": 7495,
    "say?</w>": 7496,
    "sayest</w>": 7497,
    "saying,</w>": 7498,
    "saying</w>": 7499,
    "says,</w>": 7500,
    "says</w>": 7501,
    "sc": 7502,
    "sca": 7503,
    "scal": 7504,
    "scar": 7505,
    "scarce</w>": 7506,
    "scarcely</w>": 7507,
    "scarlet</w>": 7508,
    "scat": 7509,
    "scatter": 7510,
    "scatter</w>": 7511,
    "scattered</w>": 7512,
    "scen": 7513,
    "scene</w>": 7514,
    "scep": 7515,
    "sche": 7516,
    "schol": 7517,
    "schoo": 7518,
    "school": 7519,
    "sci": 7520,
    "sco": 7521,
    "scor": 7522,
    "score</w>": 7523,
    "scorn</w>": 7524,
    "scot": 7525,
    "scour": 7526,
    "scra": 7527,
    "scrat": 7528,
    "scre": 7529,
    "screa": 7530,
    "scri": 7531,
    "scribe</w>": 7532,
    "scribes</w>": 7533,
    "scrip": 7534,
    "scro": 7535,
    "scrup": 7536,
    "scu": 7537,
    "se": 7538,
    "se!</w>": 7539,
    "se,</w>": 7540,
    "se-": 7541,
    "se.</w>": 7542,
    "se:</w>": 7543,
    "se;</w>": 7544,
    "se</w>": 7545,
    "se?</w>": 7546,
    "sea": 7547,
    "sea,</w>": 7548,
    "sea-": 7549,
    "sea.</w>": 7550,
    "sea;</w>": 7551,
    "sea</w>": 7552,
    "seal</w>": 7553,
    "sealed</w>": 7554,
    "seam": 7555,
    "sear": 7556,
    "search</w>": 7557,
    "seas": 7558,
    "seas,</w>": 7559,
    "seas</w>": 7560,
    "season</w>": 7561,
    "seat</w>": 7562,
    "seated</w>": 7563,
    "sebasti": 7564,
    "sebastian.</w>": 7565,
    "secon": 7566,
    "second</w>": 7567,
    "secre": 7568,
    "secret</w>": 7569,
    "secrets</w>": 7570,
    "section</w>": 7571,
    "secu": 7572,
    "secure</w>": 7573,
    "sed,</w>": 7574,
    "sed.</w>": 7575,
    "sed;</w>": 7576,
    "sed</w>": 7577,
    "see": 7578,
    "see,</w>": 7579,
    "see.</w>": 7580,
    "see;</w>": 7581,
    "see</w>": 7582,
    "seed,</w>": 7583,
    "seed</w>": 7584,
    "seeing</w>": 7585,
    "seek</w>": 7586,
    "seeking</w>": 7587,
    "seem": 7588,
    "seem</w>": 7589,
    "seemed</w>": 7590,
    "seeming</w>": 7591,
    "seems</w>": 7592,
    "seen,</w>": 7593,
    "seen.</w>": 7594,
    "seen</w>": 7595,
    "sees</w>": 7596,
    "seest</w>": 7597,
    "seeth</w>": 7598,
    "sei": 7599,
    "seize</w>": 7600,
    "seized</w>": 7601,
    "sel": 7602,
    "sel</w>": 7603,
    "sela": 7604,
    "selah.</w>": 7605,
    "seldom</w>": 7606,
    "sele": 7607,
    "seless</w>": 7608,
    "self": 7609,
    "self,</w>": 7610,
    "self-": 7611,
    "self.</w>": 7612,
    "self;</w>": 7613,
    "self</w>": 7614,
    "sell": 7615,
    "sell</w>": 7616,
    "selves</w>": 7617,
    "sely</w>": 7618,
    "sen": 7619,
    "sen</w>": 7620,
    "senat": 7621,
    "senator.</w>": 7622,
    "send</w>": 7623,
    "sending</w>": 7624,
    "sends</w>": 7625,
    "sensa": 7626,
    "sense,</w>": 7627,
    "sense</w>": 7628,
    "sensi": 7629,
    "sensible</w>": 7630,
    "sent": 7631,
    "sent</w>": 7632,
    "sentence</w>": 7633,
    "senti": 7634,
    "separ": 7635,
    "separate</w>": 7636,
    "separated</w>": 7637,
    "sepul": 7638,
    "sepulch": 7639,
    "sequ": 7640,
    "ser": 7641,
    "ser</w>": 7642,
    "seri": 7643,
    "serious</w>": 7644,
    "serp": 7645,
    "serv": 7646,
    "servan": 7647,
    "servant": 7648,
    "servant,</w>": 7649,
    "servant.</w>": 7650,
    "servant</w>": 7651,
    "servants,</w>": 7652,
    "servants.</w>": 7653,
    "servants</w>": 7654,
    "serve</w>": 7655,
    "served</w>": 7656,
    "servi": 7657,
    "service,</w>": 7658,
    "service.</w>": 7659,
    "service</w>": 7660,
    "serving": 7661,
    "servingman.</w>": 7662,
    "ses,</w>": 7663,
    "ses.</w>": 7664,
    "ses:</w>": 7665,
    "ses;</w>": 7666,
    "ses</w>": 7667,
    "set,</w>": 7668,
    "set.</w>": 7669,
    "set</w>": 7670,
    "seth</w>": 7671,
    "sets</w>": 7672,
    "sett": 7673,
    "setting</w>": 7674,
    "settled</w>": 7675,
    "sev": 7676,
    "seven": 7677,
    "seven</w>": 7678,
    "seventh</w>": 7679,
    "seventy</w>": 7680,
    "sever": 7681,
    "several</w>": 7682,
    "sh": 7683,
    "sh,</w>": 7684,
    "sh.</w>": 7685,
    "sh:</w>": 7686,
    "sh;</w>": 7687,
    "sh</w>": 7688,
    "sha": 7689,
    "shadow": 7690,
    "shadow</w>": 7691,
    "shadows</w>": 7692,
    "shake</w>": 7693,
    "shall": 7694,
    "shall,</w>": 7695,
    "shall</w>": 7696,
    "shallow": 7697,
    "shallow,</w>": 7698,
    "shallow.</w>": 7699,
    "shallow</w>": 7700,
    "shalt</w>": 7701,
    "shame": 7702,
    "shame,</w>": 7703,
    "shame.</w>": 7704,
    "shame</w>": 7705,
    "shap": 7706,
    "shape</w>": 7707,
    "shar": 7708,
    "share</w>": 7709,
    "sharp": 7710,
    "sharp</w>": 7711,
    "she": 7712,
    "she,</w>": 7713,
    "she</w>": 7714,
    "shea": 7715,
    "sheche": 7716,
    "shed,</w>": 7717,
    "shed.</w>": 7718,
    "shed</w>": 7719,
    "sheep": 7720,
    "sheep,</w>": 7721,
    "sheep</w>": 7722,
    "shek": 7723,
    "shekels,</w>": 7724,
    "shel": 7725,
    "shepher": 7726,
    "shepherd.</w>": 7727,
    "shepherd</w>": 7728,
    "sher": 7729,
    "shes,</w>": 7730,
    "shes</w>": 7731,
    "shew</w>": 7732,
    "shewed</w>": 7733,
    "she\u2019ll</w>": 7734,
    "she\u2019s</w>": 7735,
    "shi": 7736,
    "shiel": 7737,
    "shield</w>": 7738,
    "shime": 7739,
    "shin": 7740,
    "shine</w>": 7741,
    "shing</w>": 7742,
    "shining</w>": 7743,
    "ship": 7744,
    "ship,</w>": 7745,
    "ship.</w>": 7746,
    "ship</w>": 7747,
    "ships</w>": 7748,
    "ship\u2019s</w>": 7749,
    "shire</w>": 7750,
    "shment</w>": 7751,
    "sho": 7752,
    "shoo": 7753,
    "shook</w>": 7754,
    "shoot</w>": 7755,
    "shor": 7756,
    "shore,</w>": 7757,
    "shore</w>": 7758,
    "short,</w>": 7759,
    "short</w>": 7760,
    "shortly</w>": 7761,
    "shot</w>": 7762,
    "shou": 7763,
    "should": 7764,
    "should</w>": 7765,
    "shoulder</w>": 7766,
    "shouldest</w>": 7767,
    "shouldst</w>": 7768,
    "show": 7769,
    "show</w>": 7770,
    "showed</w>": 7771,
    "shown</w>": 7772,
    "shows</w>": 7773,
    "shre": 7774,
    "shrew": 7775,
    "shri": 7776,
    "shrie": 7777,
    "shrin": 7778,
    "shrou": 7779,
    "shu": 7780,
    "shud": 7781,
    "shun": 7782,
    "shut</w>": 7783,
    "shy": 7784,
    "shylo": 7785,
    "shylock.</w>": 7786,
    "sh\u2019d</w>": 7787,
    "si": 7788,
    "sian": 7789,
    "sic": 7790,
    "sica": 7791,
    "sicinius.</w>": 7792,
    "sick": 7793,
    "sick,</w>": 7794,
    "sick</w>": 7795,
    "sickness</w>": 7796,
    "side": 7797,
    "side,</w>": 7798,
    "side.</w>": 7799,
    "side;</w>": 7800,
    "side</w>": 7801,
    "sides</w>": 7802,
    "sig": 7803,
    "sigh": 7804,
    "sigh</w>": 7805,
    "sighs</w>": 7806,
    "sight": 7807,
    "sight,</w>": 7808,
    "sight.</w>": 7809,
    "sight</w>": 7810,
    "sign": 7811,
    "sign</w>": 7812,
    "signi": 7813,
    "signifi": 7814,
    "signior</w>": 7815,
    "signs</w>": 7816,
    "sil": 7817,
    "silence,</w>": 7818,
    "silence.</w>": 7819,
    "silence</w>": 7820,
    "silent</w>": 7821,
    "silly</w>": 7822,
    "silver": 7823,
    "silver,</w>": 7824,
    "silver</w>": 7825,
    "silvi": 7826,
    "silvia.</w>": 7827,
    "sime": 7828,
    "simon": 7829,
    "simon</w>": 7830,
    "simoni": 7831,
    "simonides.</w>": 7832,
    "simp": 7833,
    "simple</w>": 7834,
    "sin": 7835,
    "sin,</w>": 7836,
    "sin.</w>": 7837,
    "sin</w>": 7838,
    "since</w>": 7839,
    "sincer": 7840,
    "sine": 7841,
    "sing": 7842,
    "sing,</w>": 7843,
    "sing.</w>": 7844,
    "sing</w>": 7845,
    "singing</w>": 7846,
    "single</w>": 7847,
    "sings</w>": 7848,
    "sink</w>": 7849,
    "sinned</w>": 7850,
    "sins</w>": 7851,
    "sion": 7852,
    "sion,</w>": 7853,
    "sion.</w>": 7854,
    "sion;</w>": 7855,
    "sion</w>": 7856,
    "sions</w>": 7857,
    "sir": 7858,
    "sir!</w>": 7859,
    "sir,</w>": 7860,
    "sir,\u201d</w>": 7861,
    "sir.</w>": 7862,
    "sir;</w>": 7863,
    "sir</w>": 7864,
    "sir?</w>": 7865,
    "sirra": 7866,
    "sirrah,</w>": 7867,
    "sirs,</w>": 7868,
    "sister": 7869,
    "sister,</w>": 7870,
    "sister.</w>": 7871,
    "sister</w>": 7872,
    "sisters</w>": 7873,
    "sister\u2019s</w>": 7874,
    "sit": 7875,
    "sit,</w>": 7876,
    "sit</w>": 7877,
    "site</w>": 7878,
    "sits</w>": 7879,
    "sitting</w>": 7880,
    "situ": 7881,
    "situation</w>": 7882,
    "sity,</w>": 7883,
    "sity</w>": 7884,
    "sive</w>": 7885,
    "six": 7886,
    "six</w>": 7887,
    "sixth</w>": 7888,
    "sk": 7889,
    "sk</w>": 7890,
    "ske": 7891,
    "skelet": 7892,
    "ski": 7893,
    "skill</w>": 7894,
    "skin": 7895,
    "skin,</w>": 7896,
    "skin</w>": 7897,
    "skir": 7898,
    "sku": 7899,
    "sky</w>": 7900,
    "sla": 7901,
    "slain,</w>": 7902,
    "slain.</w>": 7903,
    "slain</w>": 7904,
    "slan": 7905,
    "slaugh": 7906,
    "slaughter": 7907,
    "slave,</w>": 7908,
    "slave</w>": 7909,
    "slay</w>": 7910,
    "sle": 7911,
    "sleep": 7912,
    "sleep,</w>": 7913,
    "sleep.</w>": 7914,
    "sleep</w>": 7915,
    "sleeping</w>": 7916,
    "slen": 7917,
    "slender.</w>": 7918,
    "slept</w>": 7919,
    "slew</w>": 7920,
    "sli": 7921,
    "slight": 7922,
    "slight</w>": 7923,
    "slip": 7924,
    "slo": 7925,
    "slow": 7926,
    "slow</w>": 7927,
    "slowly</w>": 7928,
    "slu": 7929,
    "sly</w>": 7930,
    "sm": 7931,
    "sma": 7932,
    "small": 7933,
    "small</w>": 7934,
    "sman</w>": 7935,
    "sme": 7936,
    "smell</w>": 7937,
    "smi": 7938,
    "smile,</w>": 7939,
    "smile</w>": 7940,
    "smiled</w>": 7941,
    "smiles</w>": 7942,
    "smiling</w>": 7943,
    "smit": 7944,
    "smite</w>": 7945,
    "smitten</w>": 7946,
    "smo": 7947,
    "smoke</w>": 7948,
    "smoo": 7949,
    "smooth</w>": 7950,
    "smote</w>": 7951,
    "sn": 7952,
    "sna": 7953,
    "snar": 7954,
    "snat": 7955,
    "sne": 7956,
    "snow": 7957,
    "snow</w>": 7958,
    "snu": 7959,
    "so": 7960,
    "so,</w>": 7961,
    "so.</w>": 7962,
    "so:</w>": 7963,
    "so;</w>": 7964,
    "so</w>": 7965,
    "so?</w>": 7966,
    "soci": 7967,
    "societ": 7968,
    "society</w>": 7969,
    "sock": 7970,
    "sockets</w>": 7971,
    "soever</w>": 7972,
    "sof": 7973,
    "soft,</w>": 7974,
    "soft</w>": 7975,
    "sojour": 7976,
    "sol": 7977,
    "sold</w>": 7978,
    "soldi": 7979,
    "soldier": 7980,
    "soldier,</w>": 7981,
    "soldier.</w>": 7982,
    "soldier</w>": 7983,
    "soldiers,</w>": 7984,
    "soldiers.</w>": 7985,
    "soldiers</w>": 7986,
    "sole": 7987,
    "sole</w>": 7988,
    "solemn": 7989,
    "solemn</w>": 7990,
    "soli": 7991,
    "solicit": 7992,
    "solom": 7993,
    "solomon,</w>": 7994,
    "solomon</w>": 7995,
    "solu": 7996,
    "som": 7997,
    "some": 7998,
    "some,</w>": 7999,
    "some</w>": 8000,
    "somer": 8001,
    "somerset.</w>": 8002,
    "somerset</w>": 8003,
    "something</w>": 8004,
    "sometime</w>": 8005,
    "sometimes</w>": 8006,
    "somewhat</w>": 8007,
    "son": 8008,
    "son,</w>": 8009,
    "son.</w>": 8010,
    "son:</w>": 8011,
    "son;</w>": 8012,
    "son</w>": 8013,
    "son?</w>": 8014,
    "song": 8015,
    "song</w>": 8016,
    "sons,</w>": 8017,
    "sons</w>": 8018,
    "son\u2019s</w>": 8019,
    "soo": 8020,
    "soon": 8021,
    "soon</w>": 8022,
    "sooner</w>": 8023,
    "sooth": 8024,
    "soothsay": 8025,
    "sor": 8026,
    "sor</w>": 8027,
    "sore</w>": 8028,
    "sorrow": 8029,
    "sorrow,</w>": 8030,
    "sorrow</w>": 8031,
    "sorrows</w>": 8032,
    "sorry</w>": 8033,
    "sort</w>": 8034,
    "sou": 8035,
    "sought</w>": 8036,
    "soul": 8037,
    "soul,</w>": 8038,
    "soul.</w>": 8039,
    "soul</w>": 8040,
    "souls,</w>": 8041,
    "souls</w>": 8042,
    "soun": 8043,
    "sound": 8044,
    "sound,</w>": 8045,
    "sound</w>": 8046,
    "sounded</w>": 8047,
    "sounds</w>": 8048,
    "sour": 8049,
    "south": 8050,
    "south</w>": 8051,
    "sover": 8052,
    "sovere": 8053,
    "sovereig": 8054,
    "sovereign": 8055,
    "sovereign,</w>": 8056,
    "sovereign</w>": 8057,
    "sow": 8058,
    "sp": 8059,
    "spa": 8060,
    "spac": 8061,
    "space</w>": 8062,
    "spake,</w>": 8063,
    "spake</w>": 8064,
    "spani": 8065,
    "spar": 8066,
    "spare</w>": 8067,
    "spark": 8068,
    "spe": 8069,
    "spea": 8070,
    "speak": 8071,
    "speak,</w>": 8072,
    "speak.</w>": 8073,
    "speak;</w>": 8074,
    "speak</w>": 8075,
    "speaketh</w>": 8076,
    "speaking</w>": 8077,
    "speaks</w>": 8078,
    "spec": 8079,
    "speci": 8080,
    "special</w>": 8081,
    "spect": 8082,
    "spee": 8083,
    "speech": 8084,
    "speech,</w>": 8085,
    "speech</w>": 8086,
    "speed.</w>": 8087,
    "speed</w>": 8088,
    "speedi": 8089,
    "spen": 8090,
    "spend</w>": 8091,
    "spent</w>": 8092,
    "sper": 8093,
    "sperm</w>": 8094,
    "sphe": 8095,
    "spi": 8096,
    "spiri": 8097,
    "spirit,</w>": 8098,
    "spirit.</w>": 8099,
    "spirit</w>": 8100,
    "spirits,</w>": 8101,
    "spirits</w>": 8102,
    "spiritual</w>": 8103,
    "spit": 8104,
    "spite</w>": 8105,
    "spli": 8106,
    "spo": 8107,
    "spoil</w>": 8108,
    "spoke,</w>": 8109,
    "spoke</w>": 8110,
    "spoken,</w>": 8111,
    "spoken</w>": 8112,
    "spon": 8113,
    "spor": 8114,
    "sport</w>": 8115,
    "spot</w>": 8116,
    "spou": 8117,
    "spr": 8118,
    "sprang</w>": 8119,
    "spread</w>": 8120,
    "spri": 8121,
    "spring,</w>": 8122,
    "spring</w>": 8123,
    "sprink": 8124,
    "spur": 8125,
    "squ": 8126,
    "squar": 8127,
    "square</w>": 8128,
    "ss": 8129,
    "ss,</w>": 8130,
    "ss.</w>": 8131,
    "ss;</w>": 8132,
    "ss</w>": 8133,
    "ssed</w>": 8134,
    "sses.</w>": 8135,
    "sses</w>": 8136,
    "ssi": 8137,
    "ssing</w>": 8138,
    "st": 8139,
    "st!</w>": 8140,
    "st,</w>": 8141,
    "st-": 8142,
    "st.</w>": 8143,
    "st:</w>": 8144,
    "st;</w>": 8145,
    "st</w>": 8146,
    "st?</w>": 8147,
    "sta": 8148,
    "stab": 8149,
    "staf": 8150,
    "staff": 8151,
    "staff</w>": 8152,
    "stain": 8153,
    "stain</w>": 8154,
    "stained</w>": 8155,
    "stairs</w>": 8156,
    "stan": 8157,
    "stance,</w>": 8158,
    "stance.</w>": 8159,
    "stance</w>": 8160,
    "stand": 8161,
    "stand,</w>": 8162,
    "stand.</w>": 8163,
    "stand</w>": 8164,
    "standing</w>": 8165,
    "stands</w>": 8166,
    "star": 8167,
    "star</w>": 8168,
    "starbu": 8169,
    "starbuck": 8170,
    "starbuck,</w>": 8171,
    "starbuck</w>": 8172,
    "stard.</w>": 8173,
    "stard</w>": 8174,
    "stars,</w>": 8175,
    "stars</w>": 8176,
    "start": 8177,
    "start</w>": 8178,
    "started</w>": 8179,
    "stat": 8180,
    "state,</w>": 8181,
    "state</w>": 8182,
    "states,</w>": 8183,
    "states.</w>": 8184,
    "states</w>": 8185,
    "status</w>": 8186,
    "statut": 8187,
    "statutes,</w>": 8188,
    "statutes</w>": 8189,
    "stay,</w>": 8190,
    "stay.</w>": 8191,
    "stay</w>": 8192,
    "stayed</w>": 8193,
    "stays</w>": 8194,
    "ste": 8195,
    "ste</w>": 8196,
    "stea": 8197,
    "stead": 8198,
    "stead.</w>": 8199,
    "steal": 8200,
    "steal</w>": 8201,
    "sted</w>": 8202,
    "steel": 8203,
    "steel</w>": 8204,
    "step": 8205,
    "step</w>": 8206,
    "stephan": 8207,
    "stephano.</w>": 8208,
    "steps</w>": 8209,
    "ster": 8210,
    "ster,</w>": 8211,
    "ster.</w>": 8212,
    "ster</w>": 8213,
    "stered</w>": 8214,
    "stern.</w>": 8215,
    "stern</w>": 8216,
    "sters</w>": 8217,
    "sti": 8218,
    "stic</w>": 8219,
    "stick</w>": 8220,
    "still": 8221,
    "still,</w>": 8222,
    "still.</w>": 8223,
    "still</w>": 8224,
    "stin": 8225,
    "sting</w>": 8226,
    "stir": 8227,
    "stir</w>": 8228,
    "stirred</w>": 8229,
    "stle</w>": 8230,
    "stly</w>": 8231,
    "sto": 8232,
    "stol": 8233,
    "stole</w>": 8234,
    "stom": 8235,
    "ston": 8236,
    "stone,</w>": 8237,
    "stone.</w>": 8238,
    "stone</w>": 8239,
    "stones,</w>": 8240,
    "stones</w>": 8241,
    "stoo": 8242,
    "stood,</w>": 8243,
    "stood</w>": 8244,
    "stop": 8245,
    "stop</w>": 8246,
    "stopped</w>": 8247,
    "stor": 8248,
    "store</w>": 8249,
    "storm</w>": 8250,
    "story</w>": 8251,
    "str": 8252,
    "stra": 8253,
    "strai": 8254,
    "straight": 8255,
    "straight.</w>": 8256,
    "straight</w>": 8257,
    "straightway</w>": 8258,
    "strain</w>": 8259,
    "strang": 8260,
    "strange,</w>": 8261,
    "strange</w>": 8262,
    "strangely</w>": 8263,
    "stranger,</w>": 8264,
    "stranger</w>": 8265,
    "strangers</w>": 8266,
    "stre": 8267,
    "strea": 8268,
    "stream</w>": 8269,
    "street": 8270,
    "street,</w>": 8271,
    "street.</w>": 8272,
    "street</w>": 8273,
    "streets,</w>": 8274,
    "streets</w>": 8275,
    "streng": 8276,
    "strength,</w>": 8277,
    "strength</w>": 8278,
    "stret": 8279,
    "stretch</w>": 8280,
    "stretched</w>": 8281,
    "stri": 8282,
    "strike</w>": 8283,
    "strikes</w>": 8284,
    "strive</w>": 8285,
    "stro": 8286,
    "stroke</w>": 8287,
    "strong": 8288,
    "strong,</w>": 8289,
    "strong</w>": 8290,
    "stronger</w>": 8291,
    "strongly</w>": 8292,
    "stru": 8293,
    "struck</w>": 8294,
    "strugg": 8295,
    "sts</w>": 8296,
    "stu": 8297,
    "stub": 8298,
    "stubb": 8299,
    "stubb,</w>": 8300,
    "stubb</w>": 8301,
    "stud": 8302,
    "studi": 8303,
    "study</w>": 8304,
    "stuff": 8305,
    "stuff</w>": 8306,
    "sty": 8307,
    "sty</w>": 8308,
    "su": 8309,
    "sub": 8310,
    "subdu": 8311,
    "subjec": 8312,
    "subject": 8313,
    "subject,</w>": 8314,
    "subject</w>": 8315,
    "subjects</w>": 8316,
    "substance</w>": 8317,
    "subur": 8318,
    "suburbs,</w>": 8319,
    "suc": 8320,
    "succe": 8321,
    "succes": 8322,
    "success</w>": 8323,
    "such</w>": 8324,
    "sudden": 8325,
    "sudden</w>": 8326,
    "suddenly</w>": 8327,
    "suf": 8328,
    "suff": 8329,
    "suffer": 8330,
    "suffer</w>": 8331,
    "suffered</w>": 8332,
    "suffi": 8333,
    "suffici": 8334,
    "sufficient</w>": 8335,
    "suffol": 8336,
    "suffolk.</w>": 8337,
    "sugg": 8338,
    "sugges": 8339,
    "suit": 8340,
    "suit</w>": 8341,
    "sul": 8342,
    "sum": 8343,
    "sum</w>": 8344,
    "summ": 8345,
    "summer": 8346,
    "summer</w>": 8347,
    "summon": 8348,
    "sun": 8349,
    "sun,</w>": 8350,
    "sun.</w>": 8351,
    "sun</w>": 8352,
    "sup": 8353,
    "super": 8354,
    "superi": 8355,
    "supper": 8356,
    "supper</w>": 8357,
    "suppli": 8358,
    "supply</w>": 8359,
    "suppo": 8360,
    "suppor": 8361,
    "support</w>": 8362,
    "suppose,</w>": 8363,
    "suppose</w>": 8364,
    "supposed</w>": 8365,
    "sur": 8366,
    "sure": 8367,
    "sure,</w>": 8368,
    "sure.</w>": 8369,
    "sure</w>": 8370,
    "sured</w>": 8371,
    "surely</w>": 8372,
    "sures</w>": 8373,
    "surpri": 8374,
    "surprise</w>": 8375,
    "surprised</w>": 8376,
    "surre": 8377,
    "surroun": 8378,
    "surve": 8379,
    "survi": 8380,
    "suspe": 8381,
    "suspect</w>": 8382,
    "suspen": 8383,
    "suspi": 8384,
    "suspici": 8385,
    "sw": 8386,
    "swa": 8387,
    "swallow</w>": 8388,
    "swallowed</w>": 8389,
    "swar": 8390,
    "sware</w>": 8391,
    "swe": 8392,
    "swear": 8393,
    "swear</w>": 8394,
    "swee": 8395,
    "sweet": 8396,
    "sweet,</w>": 8397,
    "sweet</w>": 8398,
    "swell": 8399,
    "swi": 8400,
    "swif": 8401,
    "swift</w>": 8402,
    "swor": 8403,
    "sword,</w>": 8404,
    "sword.</w>": 8405,
    "sword;</w>": 8406,
    "sword</w>": 8407,
    "swords</w>": 8408,
    "swore</w>": 8409,
    "sworn</w>": 8410,
    "sy": 8411,
    "sy,</w>": 8412,
    "sy</w>": 8413,
    "syl": 8414,
    "sym": 8415,
    "symp": 8416,
    "sympa": 8417,
    "syna": 8418,
    "synago": 8419,
    "syracu": 8420,
    "syracuse.</w>": 8421,
    "syri": 8422,
    "syrians</w>": 8423,
    "s\u2014": 8424,
    "s\u2014</w>": 8425,
    "s\u2019</w>": 8426,
    "s\u2019d</w>": 8427,
    "s\u2019s</w>": 8428,
    "t": 8429,
    "t!</w>": 8430,
    "t,</w>": 8431,
    "t-": 8432,
    "t.</w>": 8433,
    "t._]</w>": 8434,
    "t.\u201d</w>": 8435,
    "t:</w>": 8436,
    "t;</w>": 8437,
    "t</w>": 8438,
    "t?</w>": 8439,
    "ta": 8440,
    "taber": 8441,
    "tabernac": 8442,
    "tabernacle,</w>": 8443,
    "tabernacle</w>": 8444,
    "table,</w>": 8445,
    "table.</w>": 8446,
    "table</w>": 8447,
    "tables</w>": 8448,
    "tai": 8449,
    "tail</w>": 8450,
    "tailor": 8451,
    "tain": 8452,
    "tain,</w>": 8453,
    "tain.</w>": 8454,
    "tain</w>": 8455,
    "tained</w>": 8456,
    "taining</w>": 8457,
    "tains</w>": 8458,
    "tak": 8459,
    "take</w>": 8460,
    "taken</w>": 8461,
    "takes</w>": 8462,
    "taketh</w>": 8463,
    "taking</w>": 8464,
    "tal": 8465,
    "tal</w>": 8466,
    "talbo": 8467,
    "talbot.</w>": 8468,
    "tale</w>": 8469,
    "tali": 8470,
    "talk</w>": 8471,
    "talked</w>": 8472,
    "talking</w>": 8473,
    "tall</w>": 8474,
    "tamor": 8475,
    "tamora.</w>": 8476,
    "tan": 8477,
    "tan</w>": 8478,
    "tance</w>": 8479,
    "tap": 8480,
    "tar": 8481,
    "tarry</w>": 8482,
    "tary</w>": 8483,
    "tash": 8484,
    "tashte": 8485,
    "task</w>": 8486,
    "tast": 8487,
    "taste</w>": 8488,
    "tat": 8489,
    "tation,</w>": 8490,
    "tation.</w>": 8491,
    "tation</w>": 8492,
    "taught</w>": 8493,
    "tax": 8494,
    "tax</w>": 8495,
    "ta\u2019en</w>": 8496,
    "tch</w>": 8497,
    "tched</w>": 8498,
    "te": 8499,
    "te,</w>": 8500,
    "te-": 8501,
    "te.</w>": 8502,
    "te;</w>": 8503,
    "te</w>": 8504,
    "tea": 8505,
    "teach</w>": 8506,
    "tear": 8507,
    "tear</w>": 8508,
    "tears,</w>": 8509,
    "tears.</w>": 8510,
    "tears</w>": 8511,
    "ted,</w>": 8512,
    "ted.</w>": 8513,
    "ted:</w>": 8514,
    "ted;</w>": 8515,
    "ted</w>": 8516,
    "tedious</w>": 8517,
    "tee": 8518,
    "teen</w>": 8519,
    "teenth</w>": 8520,
    "teeth,</w>": 8521,
    "teeth</w>": 8522,
    "tell": 8523,
    "tell</w>": 8524,
    "telling</w>": 8525,
    "tells</w>": 8526,
    "tely</w>": 8527,
    "temp": 8528,
    "temper": 8529,
    "temper</w>": 8530,
    "tempest</w>": 8531,
    "temple,</w>": 8532,
    "temple</w>": 8533,
    "tempor": 8534,
    "tempt</w>": 8535,
    "tempted</w>": 8536,
    "ten": 8537,
    "ten,</w>": 8538,
    "ten.</w>": 8539,
    "ten</w>": 8540,
    "tenber": 8541,
    "tend</w>": 8542,
    "tender": 8543,
    "tender</w>": 8544,
    "teness</w>": 8545,
    "tensi": 8546,
    "tent,</w>": 8547,
    "tent.</w>": 8548,
    "tent</w>": 8549,
    "tenth</w>": 8550,
    "teous</w>": 8551,
    "ter": 8552,
    "ter,</w>": 8553,
    "ter.</w>": 8554,
    "ter</w>": 8555,
    "tered</w>": 8556,
    "terms</w>": 8557,
    "tern</w>": 8558,
    "terr": 8559,
    "terri": 8560,
    "terrible</w>": 8561,
    "terror</w>": 8562,
    "ters</w>": 8563,
    "ter\u2019s</w>": 8564,
    "tes": 8565,
    "tes,</w>": 8566,
    "tes.</w>": 8567,
    "tes</w>": 8568,
    "tessi": 8569,
    "test</w>": 8570,
    "testi": 8571,
    "testimon": 8572,
    "testimony</w>": 8573,
    "teth</w>": 8574,
    "tex": 8575,
    "th": 8576,
    "th!</w>": 8577,
    "th,</w>": 8578,
    "th-": 8579,
    "th.</w>": 8580,
    "th:</w>": 8581,
    "th;</w>": 8582,
    "th</w>": 8583,
    "th?</w>": 8584,
    "tha": 8585,
    "thaisa": 8586,
    "than": 8587,
    "than</w>": 8588,
    "thani": 8589,
    "thank": 8590,
    "thank</w>": 8591,
    "thanks,</w>": 8592,
    "thanks</w>": 8593,
    "that": 8594,
    "that,</w>": 8595,
    "that.</w>": 8596,
    "that;</w>": 8597,
    "that</w>": 8598,
    "that?</w>": 8599,
    "that\u2019s</w>": 8600,
    "the": 8601,
    "the</w>": 8602,
    "thed</w>": 8603,
    "thee!</w>": 8604,
    "thee,</w>": 8605,
    "thee.</w>": 8606,
    "thee:</w>": 8607,
    "thee;</w>": 8608,
    "thee</w>": 8609,
    "thee?</w>": 8610,
    "their</w>": 8611,
    "them": 8612,
    "them,</w>": 8613,
    "them.</w>": 8614,
    "them:</w>": 8615,
    "them;</w>": 8616,
    "them</w>": 8617,
    "them?</w>": 8618,
    "themsel": 8619,
    "themselves,</w>": 8620,
    "themselves.</w>": 8621,
    "themselves</w>": 8622,
    "then": 8623,
    "then,</w>": 8624,
    "then.</w>": 8625,
    "then;</w>": 8626,
    "then</w>": 8627,
    "then?</w>": 8628,
    "thence,</w>": 8629,
    "thence</w>": 8630,
    "thened</w>": 8631,
    "ther": 8632,
    "ther,</w>": 8633,
    "ther.</w>": 8634,
    "ther;</w>": 8635,
    "ther</w>": 8636,
    "there": 8637,
    "there!</w>": 8638,
    "there,</w>": 8639,
    "there.</w>": 8640,
    "there;</w>": 8641,
    "there</w>": 8642,
    "there?</w>": 8643,
    "thereby</w>": 8644,
    "thered</w>": 8645,
    "therefore,</w>": 8646,
    "therefore</w>": 8647,
    "therein,</w>": 8648,
    "therein.</w>": 8649,
    "therein</w>": 8650,
    "thereof": 8651,
    "thereof,</w>": 8652,
    "thereof.</w>": 8653,
    "thereof:</w>": 8654,
    "thereof;</w>": 8655,
    "thereof</w>": 8656,
    "there\u2019s</w>": 8657,
    "thern</w>": 8658,
    "thersi": 8659,
    "thersites.</w>": 8660,
    "thes": 8661,
    "thes</w>": 8662,
    "these": 8663,
    "these,</w>": 8664,
    "these</w>": 8665,
    "theseus.</w>": 8666,
    "they": 8667,
    "they,</w>": 8668,
    "they</w>": 8669,
    "they\u2019ll</w>": 8670,
    "thful</w>": 8671,
    "thi": 8672,
    "thick": 8673,
    "thick</w>": 8674,
    "thief</w>": 8675,
    "thiev": 8676,
    "thin": 8677,
    "thin</w>": 8678,
    "thine,</w>": 8679,
    "thine.</w>": 8680,
    "thine</w>": 8681,
    "thing": 8682,
    "thing,</w>": 8683,
    "thing.</w>": 8684,
    "thing;</w>": 8685,
    "thing</w>": 8686,
    "things,</w>": 8687,
    "things.</w>": 8688,
    "things:</w>": 8689,
    "things</w>": 8690,
    "think": 8691,
    "think,</w>": 8692,
    "think</w>": 8693,
    "thinking</w>": 8694,
    "thinks,</w>": 8695,
    "thinks</w>": 8696,
    "thir": 8697,
    "third</w>": 8698,
    "thirty</w>": 8699,
    "this": 8700,
    "this,</w>": 8701,
    "this.</w>": 8702,
    "this:</w>": 8703,
    "this;</w>": 8704,
    "this</w>": 8705,
    "this?</w>": 8706,
    "thither</w>": 8707,
    "tho": 8708,
    "thom": 8709,
    "thomas</w>": 8710,
    "thor": 8711,
    "those</w>": 8712,
    "thou": 8713,
    "thou,</w>": 8714,
    "thou</w>": 8715,
    "thou?</w>": 8716,
    "though,</w>": 8717,
    "though</w>": 8718,
    "thought": 8719,
    "thought,</w>": 8720,
    "thought</w>": 8721,
    "thoughts,</w>": 8722,
    "thoughts.</w>": 8723,
    "thoughts</w>": 8724,
    "thous": 8725,
    "thousand": 8726,
    "thousand,</w>": 8727,
    "thousand.</w>": 8728,
    "thousand</w>": 8729,
    "thousands</w>": 8730,
    "thou\u2019": 8731,
    "thr": 8732,
    "thre": 8733,
    "threat": 8734,
    "three.</w>": 8735,
    "three</w>": 8736,
    "threescor": 8737,
    "threescore</w>": 8738,
    "thresh": 8739,
    "threw</w>": 8740,
    "thri": 8741,
    "thrice</w>": 8742,
    "thro": 8743,
    "throne,</w>": 8744,
    "throne</w>": 8745,
    "throu": 8746,
    "through": 8747,
    "through</w>": 8748,
    "throughout</w>": 8749,
    "throw</w>": 8750,
    "thrown</w>": 8751,
    "thru": 8752,
    "thrust</w>": 8753,
    "ths,</w>": 8754,
    "ths.</w>": 8755,
    "ths</w>": 8756,
    "thu": 8757,
    "thunder": 8758,
    "thunder</w>": 8759,
    "thur": 8760,
    "thur</w>": 8761,
    "thuri": 8762,
    "thus,</w>": 8763,
    "thus.</w>": 8764,
    "thus</w>": 8765,
    "thus?</w>": 8766,
    "thy": 8767,
    "thy</w>": 8768,
    "thyself": 8769,
    "thyself,</w>": 8770,
    "thyself.</w>": 8771,
    "thyself</w>": 8772,
    "th\u2019": 8773,
    "th\u2019</w>": 8774,
    "th\u2019s</w>": 8775,
    "ti": 8776,
    "tial</w>": 8777,
    "tic</w>": 8778,
    "tical</w>": 8779,
    "tid": 8780,
    "tide</w>": 8781,
    "tidings</w>": 8782,
    "tied</w>": 8783,
    "ties,</w>": 8784,
    "ties.</w>": 8785,
    "ties</w>": 8786,
    "til": 8787,
    "till</w>": 8788,
    "tim": 8789,
    "timate</w>": 8790,
    "time": 8791,
    "time,</w>": 8792,
    "time.</w>": 8793,
    "time;</w>": 8794,
    "time</w>": 8795,
    "timely</w>": 8796,
    "times,</w>": 8797,
    "times.</w>": 8798,
    "times</w>": 8799,
    "timon": 8800,
    "timon.</w>": 8801,
    "timon\u2019s</w>": 8802,
    "tin": 8803,
    "ting,</w>": 8804,
    "ting</w>": 8805,
    "tio.</w>": 8806,
    "tion": 8807,
    "tion!</w>": 8808,
    "tion,</w>": 8809,
    "tion.</w>": 8810,
    "tion:</w>": 8811,
    "tion;</w>": 8812,
    "tion</w>": 8813,
    "tion?</w>": 8814,
    "tional</w>": 8815,
    "tioned</w>": 8816,
    "tions,</w>": 8817,
    "tions.</w>": 8818,
    "tions;</w>": 8819,
    "tions</w>": 8820,
    "tion\u2019s</w>": 8821,
    "tious</w>": 8822,
    "tir": 8823,
    "tired</w>": 8824,
    "tis": 8825,
    "tish</w>": 8826,
    "tit": 8827,
    "title</w>": 8828,
    "titu": 8829,
    "titude</w>": 8830,
    "titus.</w>": 8831,
    "titus</w>": 8832,
    "tive,</w>": 8833,
    "tive</w>": 8834,
    "tle,</w>": 8835,
    "tle</w>": 8836,
    "tless</w>": 8837,
    "tly,</w>": 8838,
    "tly</w>": 8839,
    "tness</w>": 8840,
    "to": 8841,
    "to,</w>": 8842,
    "to-": 8843,
    "to.</w>": 8844,
    "to;</w>": 8845,
    "to</w>": 8846,
    "toby.</w>": 8847,
    "today</w>": 8848,
    "toge": 8849,
    "together": 8850,
    "together,</w>": 8851,
    "together.</w>": 8852,
    "together:</w>": 8853,
    "together;</w>": 8854,
    "together</w>": 8855,
    "toil</w>": 8856,
    "token</w>": 8857,
    "told</w>": 8858,
    "toler": 8859,
    "tolerable</w>": 8860,
    "tom": 8861,
    "tomor": 8862,
    "tomorrow,</w>": 8863,
    "tomorrow.</w>": 8864,
    "tomorrow</w>": 8865,
    "ton,</w>": 8866,
    "ton.</w>": 8867,
    "ton</w>": 8868,
    "tong": 8869,
    "tongu": 8870,
    "tongue,</w>": 8871,
    "tongue.</w>": 8872,
    "tongue</w>": 8873,
    "tongues</w>": 8874,
    "toni": 8875,
    "tonight.</w>": 8876,
    "tonight</w>": 8877,
    "too": 8878,
    "too,</w>": 8879,
    "too.</w>": 8880,
    "too;</w>": 8881,
    "too</w>": 8882,
    "took</w>": 8883,
    "top": 8884,
    "top</w>": 8885,
    "tor": 8886,
    "tor.</w>": 8887,
    "tor</w>": 8888,
    "torment": 8889,
    "torn</w>": 8890,
    "tors</w>": 8891,
    "torture</w>": 8892,
    "tossed</w>": 8893,
    "tou": 8894,
    "touch": 8895,
    "touch</w>": 8896,
    "touched</w>": 8897,
    "toucheth</w>": 8898,
    "touching</w>": 8899,
    "touchstone.</w>": 8900,
    "tow": 8901,
    "tow</w>": 8902,
    "toward</w>": 8903,
    "towards</w>": 8904,
    "tower,</w>": 8905,
    "tower</w>": 8906,
    "town": 8907,
    "town,</w>": 8908,
    "town</w>": 8909,
    "towns</w>": 8910,
    "tr": 8911,
    "tra": 8912,
    "trade": 8913,
    "trademark.</w>": 8914,
    "trademark</w>": 8915,
    "trait": 8916,
    "traitor": 8917,
    "traitor</w>": 8918,
    "tran": 8919,
    "tranio.</w>": 8920,
    "tranqui": 8921,
    "trans": 8922,
    "transgre": 8923,
    "transgressi": 8924,
    "trava": 8925,
    "travell": 8926,
    "tre": 8927,
    "tre</w>": 8928,
    "trea": 8929,
    "treacher": 8930,
    "tread</w>": 8931,
    "treas": 8932,
    "treason</w>": 8933,
    "treasure</w>": 8934,
    "treasures</w>": 8935,
    "tree,</w>": 8936,
    "tree</w>": 8937,
    "trees,</w>": 8938,
    "trees</w>": 8939,
    "tremb": 8940,
    "tremble</w>": 8941,
    "trembling</w>": 8942,
    "trent</w>": 8943,
    "tresp": 8944,
    "trespass</w>": 8945,
    "tri": 8946,
    "trial</w>": 8947,
    "tribe</w>": 8948,
    "tribes</w>": 8949,
    "tribu": 8950,
    "tribun": 8951,
    "tribute</w>": 8952,
    "trick</w>": 8953,
    "tried</w>": 8954,
    "trif": 8955,
    "trin": 8956,
    "trincu": 8957,
    "trinculo": 8958,
    "triu": 8959,
    "triump": 8960,
    "triumph": 8961,
    "triumph</w>": 8962,
    "tro": 8963,
    "troi": 8964,
    "troil": 8965,
    "troilu": 8966,
    "troilus.</w>": 8967,
    "troilus</w>": 8968,
    "troop": 8969,
    "troth,</w>": 8970,
    "trou": 8971,
    "trouble": 8972,
    "trouble</w>": 8973,
    "troubled</w>": 8974,
    "troy</w>": 8975,
    "tru": 8976,
    "true,</w>": 8977,
    "true.</w>": 8978,
    "true;</w>": 8979,
    "true</w>": 8980,
    "truly,</w>": 8981,
    "truly</w>": 8982,
    "trumpe": 8983,
    "trumpet</w>": 8984,
    "trumpets</w>": 8985,
    "trun": 8986,
    "trust": 8987,
    "trust</w>": 8988,
    "truth,</w>": 8989,
    "truth.</w>": 8990,
    "truth</w>": 8991,
    "try</w>": 8992,
    "ts": 8993,
    "ts,</w>": 8994,
    "ts.</w>": 8995,
    "ts:</w>": 8996,
    "ts;</w>": 8997,
    "ts</w>": 8998,
    "tt": 8999,
    "tta": 9000,
    "tta.</w>": 9001,
    "tte</w>": 9002,
    "tted</w>": 9003,
    "tten</w>": 9004,
    "tter": 9005,
    "tter</w>": 9006,
    "ttered</w>": 9007,
    "ttering</w>": 9008,
    "tteth</w>": 9009,
    "tti": 9010,
    "tting</w>": 9011,
    "ttle</w>": 9012,
    "tty</w>": 9013,
    "tu": 9014,
    "tual</w>": 9015,
    "tually</w>": 9016,
    "tuck": 9017,
    "tumul": 9018,
    "tun": 9019,
    "tune</w>": 9020,
    "tuous</w>": 9021,
    "tur": 9022,
    "ture": 9023,
    "ture,</w>": 9024,
    "ture.</w>": 9025,
    "ture</w>": 9026,
    "tured</w>": 9027,
    "tures</w>": 9028,
    "turn": 9029,
    "turn</w>": 9030,
    "turned</w>": 9031,
    "turning</w>": 9032,
    "turns</w>": 9033,
    "turn\u2019d</w>": 9034,
    "tus.</w>": 9035,
    "tus</w>": 9036,
    "tw": 9037,
    "twa": 9038,
    "twel": 9039,
    "twelve</w>": 9040,
    "twent": 9041,
    "twenty</w>": 9042,
    "twi": 9043,
    "twice</w>": 9044,
    "twin": 9045,
    "two": 9046,
    "two,</w>": 9047,
    "two.</w>": 9048,
    "two</w>": 9049,
    "ty": 9050,
    "ty!</w>": 9051,
    "ty,</w>": 9052,
    "ty.</w>": 9053,
    "ty:</w>": 9054,
    "ty;</w>": 9055,
    "ty</w>": 9056,
    "ty?</w>": 9057,
    "tybal": 9058,
    "tybalt,</w>": 9059,
    "typ": 9060,
    "tyr": 9061,
    "tyran": 9062,
    "ty\u2019s</w>": 9063,
    "t\u2019": 9064,
    "t\u2019</w>": 9065,
    "t\u2019s</w>": 9066,
    "u": 9067,
    "u.s.</w>": 9068,
    "uch</w>": 9069,
    "udi": 9070,
    "ue</w>": 9071,
    "ug": 9072,
    "ugh": 9073,
    "ught</w>": 9074,
    "ughty</w>": 9075,
    "ugly</w>": 9076,
    "ul": 9077,
    "ular</w>": 9078,
    "uly": 9079,
    "ulysses.</w>": 9080,
    "um,</w>": 9081,
    "um</w>": 9082,
    "un": 9083,
    "un,</w>": 9084,
    "un</w>": 9085,
    "unable</w>": 9086,
    "unc": 9087,
    "uncle": 9088,
    "uncle,</w>": 9089,
    "uncle</w>": 9090,
    "unclean": 9091,
    "unclean</w>": 9092,
    "und": 9093,
    "under": 9094,
    "under</w>": 9095,
    "understand": 9096,
    "understand</w>": 9097,
    "understanding</w>": 9098,
    "understood</w>": 9099,
    "undertake</w>": 9100,
    "ung</w>": 9101,
    "unhappy</w>": 9102,
    "uni": 9103,
    "united</w>": 9104,
    "univer": 9105,
    "unknown</w>": 9106,
    "unleavened</w>": 9107,
    "unless</w>": 9108,
    "unt</w>": 9109,
    "unti": 9110,
    "until</w>": 9111,
    "unto</w>": 9112,
    "unworthy</w>": 9113,
    "up": 9114,
    "up,</w>": 9115,
    "up.</w>": 9116,
    "up:</w>": 9117,
    "up;</w>": 9118,
    "up</w>": 9119,
    "uph": 9120,
    "upit": 9121,
    "upon,</w>": 9122,
    "upon.</w>": 9123,
    "upon</w>": 9124,
    "upper</w>": 9125,
    "upright</w>": 9126,
    "ur": 9127,
    "ur,</w>": 9128,
    "ur</w>": 9129,
    "ure": 9130,
    "ure,</w>": 9131,
    "ure</w>": 9132,
    "ures</w>": 9133,
    "urged</w>": 9134,
    "uri": 9135,
    "us": 9136,
    "us!</w>": 9137,
    "us,</w>": 9138,
    "us.</w>": 9139,
    "us._]</w>": 9140,
    "us:</w>": 9141,
    "us;</w>": 9142,
    "us</w>": 9143,
    "us?</w>": 9144,
    "usa": 9145,
    "usale": 9146,
    "use</w>": 9147,
    "used</w>": 9148,
    "using</w>": 9149,
    "usu": 9150,
    "usual</w>": 9151,
    "usur": 9152,
    "us\u2019</w>": 9153,
    "ut": 9154,
    "ute</w>": 9155,
    "utmost</w>": 9156,
    "utter": 9157,
    "utter</w>": 9158,
    "uttered</w>": 9159,
    "utterly</w>": 9160,
    "utterson</w>": 9161,
    "uzz": 9162,
    "v": 9163,
    "v.</w>": 9164,
    "v</w>": 9165,
    "va": 9166,
    "vac": 9167,
    "vag": 9168,
    "vain": 9169,
    "vain,</w>": 9170,
    "vain.</w>": 9171,
    "vain</w>": 9172,
    "val": 9173,
    "val</w>": 9174,
    "valent": 9175,
    "valentine.</w>": 9176,
    "vali": 9177,
    "valiant</w>": 9178,
    "vall": 9179,
    "valley": 9180,
    "valley</w>": 9181,
    "valour,</w>": 9182,
    "valour</w>": 9183,
    "valu": 9184,
    "value</w>": 9185,
    "van": 9186,
    "vani": 9187,
    "vanity</w>": 9188,
    "vanta": 9189,
    "vap": 9190,
    "var": 9191,
    "vari": 9192,
    "various</w>": 9193,
    "vast</w>": 9194,
    "vation</w>": 9195,
    "vau": 9196,
    "ve": 9197,
    "ve!</w>": 9198,
    "ve,</w>": 9199,
    "ve-": 9200,
    "ve.</w>": 9201,
    "ve:</w>": 9202,
    "ve;</w>": 9203,
    "ve</w>": 9204,
    "ve?</w>": 9205,
    "ved,</w>": 9206,
    "ved.</w>": 9207,
    "ved</w>": 9208,
    "vel": 9209,
    "vel</w>": 9210,
    "vell": 9211,
    "velled</w>": 9212,
    "velop": 9213,
    "vely,</w>": 9214,
    "vely</w>": 9215,
    "ven": 9216,
    "ven,</w>": 9217,
    "ven</w>": 9218,
    "vener": 9219,
    "veng": 9220,
    "venge": 9221,
    "vengeance</w>": 9222,
    "veni": 9223,
    "vent": 9224,
    "vent</w>": 9225,
    "venture</w>": 9226,
    "ver": 9227,
    "ver,</w>": 9228,
    "ver.</w>": 9229,
    "ver</w>": 9230,
    "vered</w>": 9231,
    "verily,</w>": 9232,
    "verily</w>": 9233,
    "vering</w>": 9234,
    "veron": 9235,
    "vers</w>": 9236,
    "very</w>": 9237,
    "ves": 9238,
    "ves,</w>": 9239,
    "ves.</w>": 9240,
    "ves:</w>": 9241,
    "ves;</w>": 9242,
    "ves</w>": 9243,
    "vessel": 9244,
    "vessel</w>": 9245,
    "vessels</w>": 9246,
    "vest</w>": 9247,
    "veth</w>": 9248,
    "vex": 9249,
    "ve\u2019s</w>": 9250,
    "vi": 9251,
    "vi.</w>": 9252,
    "via.</w>": 9253,
    "via</w>": 9254,
    "vic": 9255,
    "vice</w>": 9256,
    "victor": 9257,
    "vie": 9258,
    "view,</w>": 9259,
    "view</w>": 9260,
    "vii.</w>": 9261,
    "vile</w>": 9262,
    "vill": 9263,
    "villag": 9264,
    "villain": 9265,
    "villain,</w>": 9266,
    "villain</w>": 9267,
    "vin": 9268,
    "vincen": 9269,
    "viney": 9270,
    "ving,</w>": 9271,
    "ving</w>": 9272,
    "viol": 9273,
    "viola": 9274,
    "viola.</w>": 9275,
    "violence</w>": 9276,
    "violent</w>": 9277,
    "vious</w>": 9278,
    "vir": 9279,
    "virg": 9280,
    "virgin": 9281,
    "virgin</w>": 9282,
    "virtu": 9283,
    "virtue,</w>": 9284,
    "virtue</w>": 9285,
    "virtuous</w>": 9286,
    "visi": 9287,
    "visible</w>": 9288,
    "vision</w>": 9289,
    "visions</w>": 9290,
    "visit</w>": 9291,
    "visited</w>": 9292,
    "vit": 9293,
    "vity</w>": 9294,
    "vius.</w>": 9295,
    "vo": 9296,
    "voi": 9297,
    "voice,</w>": 9298,
    "voice.</w>": 9299,
    "voice</w>": 9300,
    "voices</w>": 9301,
    "void</w>": 9302,
    "vol": 9303,
    "voli": 9304,
    "volio.</w>": 9305,
    "volu": 9306,
    "volumni": 9307,
    "volumnia.</w>": 9308,
    "volun": 9309,
    "volunte": 9310,
    "volunteers</w>": 9311,
    "vou": 9312,
    "vouch": 9313,
    "vouchsafe</w>": 9314,
    "vous</w>": 9315,
    "vow": 9316,
    "vow</w>": 9317,
    "vows</w>": 9318,
    "voy": 9319,
    "voyage,</w>": 9320,
    "voyage</w>": 9321,
[...]
