{
  "vocab_size": 2048,
  "vocab": {
    "!": 0,
    "!\"</w>": 1,
    "!</w>": 2,
    "!\u201d</w>": 3,
    "\"": 4,
    "\"\"": 5,
    "\"\"\"": 6,
    "\"\"\"</w>": 7,
    "\"\"\"@": 8,
    "\"\"</w>": 9,
    "\"</w>": 10,
    "#": 11,
    "$": 12,
    "%": 13,
    "&": 14,
    "&amp": 15,
    "&amp,</w>": 16,
    "'": 17,
    "'s</w>": 18,
    "'t</w>": 19,
    "(": 20,
    ")": 21,
    ")</w>": 22,
    "*": 23,
    "+": 24,
    ",": 25,
    ",</w>": 26,
    ",\u2014": 27,
    ",\u201d</w>": 28,
    "-": 29,
    "--": 30,
    "-</w>": 31,
    ".": 32,
    ".\"</w>": 33,
    "..": 34,
    "...": 35,
    "...</w>": 36,
    ".</w>": 37,
    "._]</w>": 38,
    ".\u2019</w>": 39,
    ".\u201d</w>": 40,
    "/": 41,
    "//": 42,
    "0": 43,
    "00": 44,
    "0</w>": 45,
    "1": 46,
    "1.": 47,
    "1</w>": 48,
    "2": 49,
    "20": 50,
    "201": 51,
    "2</w>": 52,
    "3": 53,
    "3</w>": 54,
    "4": 55,
    "4</w>": 56,
    "5": 57,
    "5</w>": 58,
    "6": 59,
    "6</w>": 60,
    "7": 61,
    "7</w>": 62,
    "8": 63,
    "8</w>": 64,
    "9": 65,
    "9</w>": 66,
    ":": 67,
    ":/": 68,
    "://": 69,
    "://t.": 70,
    "://t.co/": 71,
    ":1": 72,
    ":2": 73,
    ":3": 74,
    ":</w>": 75,
    ";": 76,
    ";</w>": 77,
    "<": 78,
    "</w>": 79,
    "=": 80,
    ">": 81,
    "?": 82,
    "?</w>": 83,
    "?\u201d</w>": 84,
    "@": 85,
    "@real": 86,
    "@realdonald": 87,
    "@realdonaldtrump</w>": 88,
    "[": 89,
    "[_": 90,
    "[_ex": 91,
    "[is]</w>": 92,
    "\\": 93,
    "]": 94,
    "]</w>": 95,
    "^": 96,
    "_": 97,
    "_</w>": 98,
    "_]</w>": 99,
    "`": 100,
    "a": 101,
    "a,</w>": 102,
    "a.</w>": 103,
    "a</w>": 104,
    "ab": 105,
    "able</w>": 106,
    "abo": 107,
    "about</w>": 108,
    "ac": 109,
    "acc": 110,
    "accor": 111,
    "ace</w>": 112,
    "ach</w>": 113,
    "ack": 114,
    "ack</w>": 115,
    "act</w>": 116,
    "ad": 117,
    "ad</w>": 118,
    "adv": 119,
    "af": 120,
    "after": 121,
    "after</w>": 122,
    "ag": 123,
    "again": 124,
    "again,</w>": 125,
    "again</w>": 126,
    "against</w>": 127,
    "age,</w>": 128,
    "age</w>": 129,
    "agre": 130,
    "ah,</w>": 131,
    "ah</w>": 132,
    "ai": 133,
    "aid</w>": 134,
    "ain": 135,
    "ain</w>": 136,
    "air": 137,
    "air</w>": 138,
    "al": 139,
    "al,</w>": 140,
    "al</w>": 141,
    "ali": 142,
    "all": 143,
    "all,</w>": 144,
    "all</w>": 145,
    "ally</w>": 146,
    "almost</w>": 147,
    "already</w>": 148,
    "also</w>": 149,
    "always</w>": 150,
    "am": 151,
    "am,</w>": 152,
    "am</w>": 153,
    "ame</w>": 154,
    "americ": 155,
    "among</w>": 156,
    "amp": 157,
    "an": 158,
    "an,</w>": 159,
    "an.</w>": 160,
    "an</w>": 161,
    "anc": 162,
    "ance,</w>": 163,
    "ance</w>": 164,
    "and": 165,
    "and,</w>": 166,
    "and</w>": 167,
    "ang": 168,
    "ange": 169,
    "ange</w>": 170,
    "ani": 171,
    "another</w>": 172,
    "ans": 173,
    "ans</w>": 174,
    "answer": 175,
    "answered</w>": 176,
    "ant": 177,
    "ant</w>": 178,
    "anti": 179,
    "any": 180,
    "any</w>": 181,
    "anything</w>": 182,
    "ap": 183,
    "app": 184,
    "appe": 185,
    "appro": 186,
    "ar": 187,
    "ar,</w>": 188,
    "ar</w>": 189,
    "ard</w>": 190,
    "are": 191,
    "are</w>": 192,
    "ared</w>": 193,
    "ari": 194,
    "arm": 195,
    "ars</w>": 196,
    "art": 197,
    "art</w>": 198,
    "ary</w>": 199,
    "as": 200,
    "as</w>": 201,
    "ask</w>": 202,
    "asked</w>": 203,
    "ast": 204,
    "ast</w>": 205,
    "at": 206,
    "at,</w>": 207,
    "at</w>": 208,
    "ate": 209,
    "ate,</w>": 210,
    "ate</w>": 211,
    "ated</w>": 212,
    "ately</w>": 213,
    "ath": 214,
    "ati": 215,
    "ating</w>": 216,
    "ation": 217,
    "ation,</w>": 218,
    "ation.</w>": 219,
    "ation</w>": 220,
    "ations</w>": 221,
    "ats</w>": 222,
    "att": 223,
    "atten": 224,
    "au": 225,
    "av": 226,
    "awa": 227,
    "away</w>": 228,
    "b": 229,
    "b</w>": 230,
    "ba": 231,
    "bac": 232,
    "back</w>": 233,
    "ban": 234,
    "bar": 235,
    "bas": 236,
    "be": 237,
    "be</w>": 238,
    "bear</w>": 239,
    "beau": 240,
    "because</w>": 241,
    "bed</w>": 242,
    "been</w>": 243,
    "before</w>": 244,
    "beg": 245,
    "began</w>": 246,
    "being</w>": 247,
    "belie": 248,
    "believe</w>": 249,
    "ben": 250,
    "ber": 251,
    "bes": 252,
    "best</w>": 253,
    "better</w>": 254,
    "betwe": 255,
    "between</w>": 256,
    "bi": 257,
    "big</w>": 258,
    "bit": 259,
    "bl": 260,
    "ble": 261,
    "ble</w>": 262,
    "bloo": 263,
    "bo": 264,
    "body</w>": 265,
    "boo": 266,
    "bor": 267,
    "both</w>": 268,
    "br": 269,
    "bra": 270,
    "bre": 271,
    "brea": 272,
    "bri": 273,
    "bring</w>": 274,
    "bro": 275,
    "brought</w>": 276,
    "bu": 277,
    "bur": 278,
    "busin": 279,
    "but,</w>": 280,
    "but</w>": 281,
    "by</w>": 282,
    "c": 283,
    "c</w>": 284,
    "ca": 285,
    "cal": 286,
    "call": 287,
    "call</w>": 288,
    "called</w>": 289,
    "came</w>": 290,
    "can": 291,
    "can</w>": 292,
    "cannot</w>": 293,
    "cap": 294,
    "car": 295,
    "cas": 296,
    "cau": 297,
    "cause</w>": 298,
    "ce": 299,
    "ce,</w>": 300,
    "ce.</w>": 301,
    "ce</w>": 302,
    "cei": 303,
    "cer": 304,
    "certain": 305,
    "certain</w>": 306,
    "cess": 307,
    "ch": 308,
    "ch,</w>": 309,
    "ch.</w>": 310,
    "ch</w>": 311,
    "cha": 312,
    "chap": 313,
    "chapter</w>": 314,
    "char": 315,
    "che": 316,
    "ched</w>": 317,
    "chi": 318,
    "child": 319,
    "childr": 320,
    "children</w>": 321,
    "ching</w>": 322,
    "cho": 323,
    "chri": 324,
    "ci": 325,
    "cir": 326,
    "ck": 327,
    "ck,</w>": 328,
    "ck</w>": 329,
    "cke": 330,
    "cl": 331,
    "clai": 332,
    "cle": 333,
    "clo": 334,
    "clu": 335,
    "co": 336,
    "co/": 337,
    "coll": 338,
    "com": 339,
    "come,</w>": 340,
    "come</w>": 341,
    "comes</w>": 342,
    "coming</w>": 343,
    "comm": 344,
    "comman": 345,
    "comp": 346,
    "comple": 347,
    "con": 348,
    "concer": 349,
    "consi": 350,
    "cont": 351,
    "contin": 352,
    "continu": 353,
    "cop": 354,
    "cor": 355,
    "could</w>": 356,
    "coun": 357,
    "count</w>": 358,
    "countr": 359,
    "country</w>": 360,
    "cour": 361,
    "cover": 362,
    "cr": 363,
    "cre": 364,
    "cri": 365,
    "cried</w>": 366,
    "crow": 367,
    "ct</w>": 368,
    "cu": 369,
    "cur": 370,
    "d": 371,
    "d!</w>": 372,
    "d,</w>": 373,
    "d.</w>": 374,
    "d:</w>": 375,
    "d;</w>": 376,
    "d</w>": 377,
    "da": 378,
    "dang": 379,
    "dar": 380,
    "daugh": 381,
    "day": 382,
    "day,</w>": 383,
    "day</w>": 384,
    "days</w>": 385,
    "dd": 386,
    "dden": 387,
    "de": 388,
    "de,</w>": 389,
    "de</w>": 390,
    "dea": 391,
    "dear</w>": 392,
    "death</w>": 393,
    "ded</w>": 394,
    "deli": 395,
    "demo": 396,
    "den": 397,
    "dent</w>": 398,
    "der": 399,
    "der</w>": 400,
    "dered</w>": 401,
    "des": 402,
    "dg": 403,
    "dge</w>": 404,
    "di": 405,
    "did": 406,
    "did</w>": 407,
    "din": 408,
    "ding</w>": 409,
    "direc": 410,
    "dis": 411,
    "disa": 412,
    "disc": 413,
    "dist": 414,
    "dly</w>": 415,
    "do": 416,
    "do</w>": 417,
    "doc": 418,
    "does</w>": 419,
    "dom": 420,
    "don": 421,
    "donal": 422,
    "donald": 423,
    "done</w>": 424,
    "don\u2019t</w>": 425,
    "door</w>": 426,
    "dor": 427,
    "doth</w>": 428,
    "dou": 429,
    "doub": 430,
    "dow": 431,
    "down</w>": 432,
    "dr": 433,
    "dra": 434,
    "draw": 435,
    "dre": 436,
    "dres": 437,
    "dri": 438,
    "dro": 439,
    "ds,</w>": 440,
    "ds</w>": 441,
    "du": 442,
    "duc": 443,
    "dur": 444,
    "dy</w>": 445,
    "d\u2019": 446,
    "e": 447,
    "e!</w>": 448,
    "e,</w>": 449,
    "e.</w>": 450,
    "e;</w>": 451,
    "e</w>": 452,
    "each</w>": 453,
    "ear": 454,
    "eas": 455,
    "ec": 456,
    "ed": 457,
    "ed,</w>": 458,
    "ed.</w>": 459,
    "ed</w>": 460,
    "ef": 461,
    "ef</w>": 462,
    "el": 463,
    "el</w>": 464,
    "elec": 465,
    "eli": 466,
    "ely</w>": 467,
    "em": 468,
    "emi": 469,
    "emp": 470,
    "en": 471,
    "en,</w>": 472,
    "en.</w>": 473,
    "en</w>": 474,
    "enc": 475,
    "ence,</w>": 476,
    "ence</w>": 477,
    "end": 478,
    "end</w>": 479,
    "ened</w>": 480,
    "eng": 481,
    "enough</w>": 482,
    "ent": 483,
    "ent,</w>": 484,
    "ent.</w>": 485,
    "ent</w>": 486,
    "enter": 487,
    "enter</w>": 488,
    "enti": 489,
    "ently</w>": 490,
    "ents</w>": 491,
    "ep": 492,
    "ep</w>": 493,
    "er": 494,
    "er,</w>": 495,
    "er.</w>": 496,
    "er</w>": 497,
    "eric": 498,
    "ers,</w>": 499,
    "ers</w>": 500,
    "es": 501,
    "es,</w>": 502,
    "es.</w>": 503,
    "es;</w>": 504,
    "es</w>": 505,
    "ess": 506,
    "ess,</w>": 507,
    "ess.</w>": 508,
    "ess</w>": 509,
    "est": 510,
    "est</w>": 511,
    "et": 512,
    "et</w>": 513,
    "eth</w>": 514,
    "eu": 515,
    "eun": 516,
    "ev": 517,
    "even": 518,
    "even</w>": 519,
    "ever": 520,
    "ever,</w>": 521,
    "ever</w>": 522,
    "every": 523,
    "every</w>": 524,
    "evi": 525,
    "ex": 526,
    "exce": 527,
    "expe": 528,
    "expres": 529,
    "ey": 530,
    "eyes</w>": 531,
    "f": 532,
    "f</w>": 533,
    "fa": 534,
    "fac": 535,
    "face</w>": 536,
    "fai": 537,
    "fair": 538,
    "fair</w>": 539,
    "fal": 540,
    "fall": 541,
    "fam": 542,
    "fami": 543,
    "far</w>": 544,
    "father": 545,
    "father</w>": 546,
    "fav": 547,
    "fe": 548,
    "fear</w>": 549,
    "fec": 550,
    "feel": 551,
    "fellow": 552,
    "felt</w>": 553,
    "fer": 554,
    "few</w>": 555,
    "ff": 556,
    "ffer": 557,
    "fi": 558,
    "fic": 559,
    "fin": 560,
    "find</w>": 561,
    "fir": 562,
    "first</w>": 563,
    "fl": 564,
    "fo": 565,
    "follow": 566,
    "foo": 567,
    "for": 568,
    "for</w>": 569,
    "fore": 570,
    "fore,</w>": 571,
    "fore</w>": 572,
    "form": 573,
    "forth</w>": 574,
    "fortun": 575,
    "found</w>": 576,
    "fr": 577,
    "fre": 578,
    "fri": 579,
    "frien": 580,
    "friend": 581,
    "from</w>": 582,
    "ft</w>": 583,
    "fu": 584,
    "ful</w>": 585,
    "full</w>": 586,
    "fully</w>": 587,
    "fur": 588,
    "g": 589,
    "g</w>": 590,
    "ga": 591,
    "gar": 592,
    "gave</w>": 593,
    "ge": 594,
    "ge</w>": 595,
    "ged</w>": 596,
    "gen": 597,
    "gener": 598,
    "gent": 599,
    "gentle": 600,
    "ger": 601,
    "get</w>": 602,
    "gg": 603,
    "gh": 604,
    "gh</w>": 605,
    "ght": 606,
    "ght,</w>": 607,
    "ght.</w>": 608,
    "ght</w>": 609,
    "ghts</w>": 610,
    "gi": 611,
    "gir": 612,
    "give</w>": 613,
    "given</w>": 614,
    "gl": 615,
    "gn": 616,
    "go": 617,
    "go</w>": 618,
    "god</w>": 619,
    "going</w>": 620,
    "good": 621,
    "good</w>": 622,
    "got</w>": 623,
    "gover": 624,
    "gr": 625,
    "gra": 626,
    "grac": 627,
    "gre": 628,
    "great": 629,
    "great</w>": 630,
    "gri": 631,
    "gu": 632,
    "gutenber": 633,
    "gutenberg": 634,
    "gutenberg\u2122": 635,
    "gutenberg\u2122</w>": 636,
    "h": 637,
    "h,</w>": 638,
    "h</w>": 639,
    "ha": 640,
    "had</w>": 641,
    "hal": 642,
    "half</w>": 643,
    "han": 644,
    "hand": 645,
    "hand,</w>": 646,
    "hand</w>": 647,
    "hands</w>": 648,
    "happ": 649,
    "happy</w>": 650,
    "har": 651,
    "has</w>": 652,
    "hast</w>": 653,
    "hath</w>": 654,
    "have</w>": 655,
    "having</w>": 656,
    "he": 657,
    "he,</w>": 658,
    "he</w>": 659,
    "hea": 660,
    "head": 661,
    "head</w>": 662,
    "hear": 663,
    "hear</w>": 664,
    "heard</w>": 665,
    "heart</w>": 666,
    "heav": 667,
    "hed</w>": 668,
    "hel": 669,
    "help</w>": 670,
    "hen": 671,
    "her": 672,
    "her,</w>": 673,
    "her.</w>": 674,
    "her</w>": 675,
    "here": 676,
    "here</w>": 677,
    "hi": 678,
    "high</w>": 679,
    "hill": 680,
    "him": 681,
    "him,</w>": 682,
    "him.</w>": 683,
    "him</w>": 684,
    "himself</w>": 685,
    "hin": 686,
    "his</w>": 687,
    "ho": 688,
    "hold</w>": 689,
    "hom": 690,
    "hon": 691,
    "hop": 692,
    "hope</w>": 693,
    "hor": 694,
    "hou": 695,
    "hour": 696,
    "house</w>": 697,
    "how": 698,
    "how</w>": 699,
    "however,</w>": 700,
    "htt": 701,
    "http": 702,
    "http://t.co/": 703,
    "https": 704,
    "https://t.co/": 705,
    "hu": 706,
    "hum": 707,
    "hun": 708,
    "hur": 709,
    "hus": 710,
    "husb": 711,
    "i": 712,
    "i,</w>": 713,
    "i.</w>": 714,
    "i</w>": 715,
    "ic": 716,
    "ic</w>": 717,
    "ice,</w>": 718,
    "ice</w>": 719,
    "ici": 720,
    "ick": 721,
    "id": 722,
    "ide": 723,
    "if</w>": 724,
    "ig": 725,
    "il": 726,
    "ill": 727,
    "im": 728,
    "imag": 729,
    "in": 730,
    "in,</w>": 731,
    "in.</w>": 732,
    "in</w>": 733,
    "inc": 734,
    "inde": 735,
    "indi": 736,
    "ine</w>": 737,
    "ined</w>": 738,
    "ing": 739,
    "ing,</w>": 740,
    "ing.</w>": 741,
    "ing</w>": 742,
    "ings</w>": 743,
    "ini": 744,
    "inst": 745,
    "inten": 746,
    "inter": 747,
    "into</w>": 748,
    "ious</w>": 749,
    "ir": 750,
    "ir</w>": 751,
    "ire</w>": 752,
    "is": 753,
    "is,</w>": 754,
    "is</w>": 755,
    "is]</w>": 756,
    "ise</w>": 757,
    "ish": 758,
    "ish</w>": 759,
    "isra": 760,
    "it": 761,
    "it,</w>": 762,
    "it.</w>": 763,
    "it</w>": 764,
    "ite</w>": 765,
    "ited</w>": 766,
    "ither</w>": 767,
    "its</w>": 768,
    "itu": 769,
    "ity,</w>": 770,
    "ity</w>": 771,
    "it\u2019s</w>": 772,
    "iv": 773,
    "i\u2019": 774,
    "i\u2019ll</w>": 775,
    "j": 776,
    "je": 777,
    "jec": 778,
    "ject</w>": 779,
    "jer": 780,
    "jo": 781,
    "joh": 782,
    "john</w>": 783,
    "jon": 784,
    "ju": 785,
    "judg": 786,
    "just": 787,
    "just</w>": 788,
    "k": 789,
    "k,</w>": 790,
    "k.</w>": 791,
    "k</w>": 792,
    "ke": 793,
    "ke,</w>": 794,
    "ke.</w>": 795,
    "ke</w>": 796,
    "ked</w>": 797,
    "keep</w>": 798,
    "ken</w>": 799,
    "kes</w>": 800,
    "ki": 801,
    "kin": 802,
    "kind</w>": 803,
    "king": 804,
    "king,</w>": 805,
    "king</w>": 806,
    "knew</w>": 807,
    "know": 808,
    "know</w>": 809,
    "known</w>": 810,
    "ks,</w>": 811,
    "ks</w>": 812,
    "l": 813,
    "l,</w>": 814,
    "l.</w>": 815,
    "l</w>": 816,
    "la": 817,
    "lad": 818,
    "lady</w>": 819,
    "lan": 820,
    "land": 821,
    "land</w>": 822,
    "lar": 823,
    "lar</w>": 824,
    "last</w>": 825,
    "lat": 826,
    "lau": 827,
    "law": 828,
    "lay</w>": 829,
    "ld": 830,
    "ld,</w>": 831,
    "ld</w>": 832,
    "le": 833,
    "le,</w>": 834,
    "le.</w>": 835,
    "le</w>": 836,
    "lea": 837,
    "lear": 838,
    "leave</w>": 839,
    "lec": 840,
    "led</w>": 841,
    "left</w>": 842,
    "leg": 843,
    "les</w>": 844,
    "less</w>": 845,
    "let</w>": 846,
    "li": 847,
    "lic": 848,
    "lie": 849,
    "lied</w>": 850,
    "lif": 851,
    "life": 852,
    "life</w>": 853,
    "light</w>": 854,
    "like</w>": 855,
    "lin": 856,
    "ling</w>": 857,
    "list": 858,
    "litt": 859,
    "little</w>": 860,
    "live</w>": 861,
    "ll": 862,
    "ll,</w>": 863,
    "ll</w>": 864,
    "lled</w>": 865,
    "lli": 866,
    "llow": 867,
    "llow</w>": 868,
    "lly</w>": 869,
    "lo": 870,
    "lon": 871,
    "long": 872,
    "long</w>": 873,
    "loo": 874,
    "look</w>": 875,
    "looked</w>": 876,
    "looking</w>": 877,
    "lor": 878,
    "lord,</w>": 879,
    "lord</w>": 880,
    "lou": 881,
    "love": 882,
    "love</w>": 883,
    "low": 884,
    "ls</w>": 885,
    "lt</w>": 886,
    "lu": 887,
    "ly": 888,
    "ly,</w>": 889,
    "ly.</w>": 890,
    "ly</w>": 891,
    "m": 892,
    "m,</w>": 893,
    "m.</w>": 894,
    "m</w>": 895,
    "ma": 896,
    "mad": 897,
    "made</w>": 898,
    "mag": 899,
    "make</w>": 900,
    "man": 901,
    "man,</w>": 902,
    "man.</w>": 903,
    "man</w>": 904,
    "many</w>": 905,
    "mar": 906,
    "mat": 907,
    "may</w>": 908,
    "mb": 909,
    "mber": 910,
    "mber</w>": 911,
    "me": 912,
    "me,</w>": 913,
    "me.</w>": 914,
    "me</w>": 915,
    "mean": 916,
    "med</w>": 917,
    "medi": 918,
    "men": 919,
    "men,</w>": 920,
    "men</w>": 921,
    "ment": 922,
    "ment,</w>": 923,
    "ment</w>": 924,
    "ments</w>": 925,
    "mer": 926,
    "mi": 927,
    "might</w>": 928,
    "min": 929,
    "mind</w>": 930,
    "mine</w>": 931,
    "mis": 932,
    "miss</w>": 933,
    "mist": 934,
    "mit": 935,
    "mo": 936,
    "mom": 937,
    "moment</w>": 938,
    "mon": 939,
    "mone": 940,
    "mor": 941,
    "more</w>": 942,
    "most</w>": 943,
    "mou": 944,
    "moun": 945,
    "mp": 946,
    "mr": 947,
    "mr.</w>": 948,
    "mrs.</w>": 949,
    "ms</w>": 950,
    "mu": 951,
    "much</w>": 952,
    "mur": 953,
    "must</w>": 954,
    "my": 955,
    "my</w>": 956,
    "myself</w>": 957,
    "n": 958,
    "n,</w>": 959,
    "n.</w>": 960,
    "n</w>": 961,
    "na": 962,
    "nam": 963,
    "name</w>": 964,
    "nat": 965,
    "ne": 966,
    "near</w>": 967,
    "ned</w>": 968,
    "need</w>": 969,
    "ner": 970,
    "ner</w>": 971,
    "ness,</w>": 972,
    "ness</w>": 973,
    "never</w>": 974,
    "new": 975,
    "new</w>": 976,
    "news</w>": 977,
    "next</w>": 978,
    "ni": 979,
    "night": 980,
    "night</w>": 981,
    "ning</w>": 982,
    "no": 983,
    "no,</w>": 984,
    "no</w>": 985,
    "nor": 986,
    "nor</w>": 987,
    "not": 988,
    "not,</w>": 989,
    "not</w>": 990,
    "nothing</w>": 991,
    "now": 992,
    "now,</w>": 993,
    "now</w>": 994,
    "num": 995,
    "number": 996,
    "n\u2019t</w>": 997,
    "o": 998,
    "o,</w>": 999,
    "o.</w>": 1000,
    "o</w>": 1001,
    "ob": 1002,
    "obam": 1003,
    "oc": 1004,
    "od": 1005,
    "od</w>": 1006,
    "of": 1007,
    "of</w>": 1008,
    "off": 1009,
    "off</w>": 1010,
    "offer": 1011,
    "often</w>": 1012,
    "oh,</w>": 1013,
    "ol": 1014,
    "old</w>": 1015,
    "om": 1016,
    "om</w>": 1017,
    "on": 1018,
    "on,</w>": 1019,
    "on.</w>": 1020,
    "on</w>": 1021,
    "once</w>": 1022,
    "ond</w>": 1023,
    "one": 1024,
    "one,</w>": 1025,
    "one.</w>": 1026,
    "one</w>": 1027,
    "ong": 1028,
    "ong</w>": 1029,
    "only</w>": 1030,
    "ons</w>": 1031,
    "op": 1032,
    "open</w>": 1033,
    "or": 1034,
    "or,</w>": 1035,
    "or</w>": 1036,
    "ose</w>": 1037,
    "other": 1038,
    "other</w>": 1039,
    "ou": 1040,
    "ough": 1041,
    "ough</w>": 1042,
    "ought</w>": 1043,
    "ould": 1044,
    "ould</w>": 1045,
    "oun": 1046,
    "ound": 1047,
    "ound</w>": 1048,
    "our": 1049,
    "our</w>": 1050,
    "ous": 1051,
    "ous</w>": 1052,
    "ously</w>": 1053,
    "out": 1054,
    "out,</w>": 1055,
    "out</w>": 1056,
    "ov": 1057,
    "over": 1058,
    "over</w>": 1059,
    "ow": 1060,
    "ow</w>": 1061,
    "owed</w>": 1062,
    "own</w>": 1063,
    "o\u2019": 1064,
    "p": 1065,
    "p</w>": 1066,
    "pa": 1067,
    "pain": 1068,
    "pal": 1069,
    "par": 1070,
    "part</w>": 1071,
    "parti": 1072,
    "pas": 1073,
    "passed</w>": 1074,
    "pat": 1075,
    "pati": 1076,
    "pe": 1077,
    "pen": 1078,
    "peop": 1079,
    "people</w>": 1080,
    "per": 1081,
    "perha": 1082,
    "perhaps</w>": 1083,
    "peri": 1084,
    "person": 1085,
    "ph": 1086,
    "phi": 1087,
    "pi": 1088,
    "pic": 1089,
    "pl": 1090,
    "pla": 1091,
    "plac": 1092,
    "place</w>": 1093,
    "ple": 1094,
    "pleas": 1095,
    "po": 1096,
    "poin": 1097,
    "poli": 1098,
    "poor</w>": 1099,
    "por": 1100,
    "port": 1101,
    "pos": 1102,
    "pose</w>": 1103,
    "posi": 1104,
    "possi": 1105,
    "pow": 1106,
    "power</w>": 1107,
    "pp": 1108,
    "pped</w>": 1109,
    "pr": 1110,
    "pra": 1111,
    "pre": 1112,
    "pres": 1113,
    "present</w>": 1114,
    "presi": 1115,
    "pri": 1116,
    "prin": 1117,
    "pro": 1118,
    "prof": 1119,
    "project</w>": 1120,
    "prom": 1121,
    "prop": 1122,
    "prote": 1123,
    "provi": 1124,
    "ps</w>": 1125,
    "psal": 1126,
    "psalm</w>": 1127,
    "pt</w>": 1128,
    "pu": 1129,
    "pub": 1130,
    "pur": 1131,
    "put</w>": 1132,
    "q": 1133,
    "qu": 1134,
    "que": 1135,
    "questi": 1136,
    "qui": 1137,
    "quite</w>": 1138,
    "r": 1139,
    "r</w>": 1140,
    "ra": 1141,
    "rai": 1142,
    "ran": 1143,
    "ras": 1144,
    "rather</w>": 1145,
    "re": 1146,
    "re,</w>": 1147,
    "re.</w>": 1148,
    "re</w>": 1149,
    "read": 1150,
    "read</w>": 1151,
    "ready</w>": 1152,
    "real": 1153,
    "really</w>": 1154,
    "reas": 1155,
    "rec": 1156,
    "recei": 1157,
    "red</w>": 1158,
    "ref": 1159,
    "rel": 1160,
    "rely</w>": 1161,
    "rema": 1162,
    "reme": 1163,
    "ren": 1164,
    "rep": 1165,
    "res": 1166,
    "res</w>": 1167,
    "rest</w>": 1168,
    "retur": 1169,
    "ri": 1170,
    "ried</w>": 1171,
    "right</w>": 1172,
    "ro": 1173,
    "rom": 1174,
    "ron": 1175,
    "room": 1176,
    "room</w>": 1177,
    "ros": 1178,
    "round</w>": 1179,
    "row": 1180,
    "row</w>": 1181,
    "ru": 1182,
    "run": 1183,
    "run</w>": 1184,
    "rup": 1185,
    "rus": 1186,
    "ry</w>": 1187,
    "s": 1188,
    "s!</w>": 1189,
    "s,</w>": 1190,
    "s.</w>": 1191,
    "s.\u201d</w>": 1192,
    "s://t.co/": 1193,
    "s:</w>": 1194,
    "s;</w>": 1195,
    "s</w>": 1196,
    "s?</w>": 1197,
    "sa": 1198,
    "sai": 1199,
    "said,</w>": 1200,
    "said</w>": 1201,
    "sal": 1202,
    "sam": 1203,
    "same</w>": 1204,
    "sat": 1205,
    "sat</w>": 1206,
    "saw</w>": 1207,
    "say": 1208,
    "say,</w>": 1209,
    "say</w>": 1210,
    "sc": 1211,
    "scen": 1212,
    "scene</w>": 1213,
    "sci": 1214,
    "se": 1215,
    "se,</w>": 1216,
    "se.</w>": 1217,
    "se</w>": 1218,
    "secon": 1219,
    "second</w>": 1220,
    "secre": 1221,
    "sed,</w>": 1222,
    "sed</w>": 1223,
    "see": 1224,
    "see</w>": 1225,
    "seem": 1226,
    "seemed</w>": 1227,
    "seen</w>": 1228,
    "sel": 1229,
    "self": 1230,
    "self,</w>": 1231,
    "self.</w>": 1232,
    "self</w>": 1233,
    "sen": 1234,
    "sent</w>": 1235,
    "ser": 1236,
    "serv": 1237,
    "ses": 1238,
    "ses</w>": 1239,
    "set</w>": 1240,
    "sever": 1241,
    "sh": 1242,
    "sh</w>": 1243,
    "sha": 1244,
    "shall</w>": 1245,
    "shalt</w>": 1246,
    "she": 1247,
    "she</w>": 1248,
    "shi": 1249,
    "ship": 1250,
    "ship</w>": 1251,
    "sho": 1252,
    "shor": 1253,
    "should</w>": 1254,
    "show</w>": 1255,
    "shu": 1256,
    "si": 1257,
    "side</w>": 1258,
    "sig": 1259,
    "sil": 1260,
    "sin": 1261,
    "since</w>": 1262,
    "sing": 1263,
    "sing</w>": 1264,
    "sion": 1265,
    "sion</w>": 1266,
    "sir": 1267,
    "sir,</w>": 1268,
    "sir</w>": 1269,
    "sit": 1270,
    "sk": 1271,
    "sle": 1272,
    "sma": 1273,
    "small</w>": 1274,
    "smi": 1275,
    "so": 1276,
    "so,</w>": 1277,
    "so</w>": 1278,
    "sol": 1279,
    "som": 1280,
    "some": 1281,
    "some</w>": 1282,
    "something</w>": 1283,
    "son": 1284,
    "son,</w>": 1285,
    "son</w>": 1286,
    "soon</w>": 1287,
    "sor": 1288,
    "sou": 1289,
    "sp": 1290,
    "spe": 1291,
    "spea": 1292,
    "speak</w>": 1293,
    "spec": 1294,
    "sper": 1295,
    "spi": 1296,
    "spir": 1297,
    "spo": 1298,
    "st": 1299,
    "st,</w>": 1300,
    "st.</w>": 1301,
    "st</w>": 1302,
    "sta": 1303,
    "stand": 1304,
    "stand</w>": 1305,
    "star": 1306,
    "stat": 1307,
    "state</w>": 1308,
    "ste": 1309,
    "sted</w>": 1310,
    "ster": 1311,
    "ster,</w>": 1312,
    "ster</w>": 1313,
    "sti": 1314,
    "still</w>": 1315,
    "sto": 1316,
    "stood</w>": 1317,
    "stor": 1318,
    "str": 1319,
    "stra": 1320,
    "stre": 1321,
    "stri": 1322,
    "stro": 1323,
    "stru": 1324,
    "stu": 1325,
    "su": 1326,
    "sub": 1327,
    "suc": 1328,
    "such</w>": 1329,
    "sudden": 1330,
    "sun": 1331,
    "sup": 1332,
    "supp": 1333,
    "sur": 1334,
    "sure</w>": 1335,
    "swe": 1336,
    "sweet</w>": 1337,
    "sy": 1338,
    "t": 1339,
    "t,</w>": 1340,
    "t.": 1341,
    "t.</w>": 1342,
    "t.co": 1343,
    "t;</w>": 1344,
    "t</w>": 1345,
    "ta": 1346,
    "tab": 1347,
    "tain": 1348,
    "tain</w>": 1349,
    "take</w>": 1350,
    "taken</w>": 1351,
    "tal": 1352,
    "te": 1353,
    "te</w>": 1354,
    "ted,</w>": 1355,
    "ted</w>": 1356,
    "tell": 1357,
    "tell</w>": 1358,
    "tem": 1359,
    "ten": 1360,
    "ten</w>": 1361,
    "tenber": 1362,
    "ter": 1363,
    "ter,</w>": 1364,
    "ter</w>": 1365,
    "th": 1366,
    "th,</w>": 1367,
    "th.</w>": 1368,
    "th</w>": 1369,
    "than": 1370,
    "than</w>": 1371,
    "thank</w>": 1372,
    "that": 1373,
    "that,</w>": 1374,
    "that</w>": 1375,
    "that\u2019s</w>": 1376,
    "the": 1377,
    "the</w>": 1378,
    "thee,</w>": 1379,
    "thee</w>": 1380,
    "their</w>": 1381,
    "them": 1382,
    "them,</w>": 1383,
    "them.</w>": 1384,
    "them</w>": 1385,
    "themsel": 1386,
    "then,</w>": 1387,
    "then</w>": 1388,
    "ther": 1389,
    "ther,</w>": 1390,
    "ther</w>": 1391,
    "there": 1392,
    "there</w>": 1393,
    "therefore</w>": 1394,
    "thes": 1395,
    "these</w>": 1396,
    "they</w>": 1397,
    "thi": 1398,
    "thin": 1399,
    "thing": 1400,
    "thing</w>": 1401,
    "things</w>": 1402,
    "think</w>": 1403,
    "thir": 1404,
    "this": 1405,
    "this</w>": 1406,
    "those</w>": 1407,
    "thou": 1408,
    "thou</w>": 1409,
    "though</w>": 1410,
    "thought</w>": 1411,
    "thous": 1412,
    "thousand</w>": 1413,
    "thr": 1414,
    "thre": 1415,
    "three</w>": 1416,
    "through</w>": 1417,
    "thus</w>": 1418,
    "thy</w>": 1419,
    "ti": 1420,
    "tic": 1421,
    "ties</w>": 1422,
    "till</w>": 1423,
    "tim": 1424,
    "time,</w>": 1425,
    "time</w>": 1426,
    "times</w>": 1427,
    "ting</w>": 1428,
    "tion": 1429,
    "tion,</w>": 1430,
    "tion.</w>": 1431,
    "tion</w>": 1432,
    "tions</w>": 1433,
    "tis</w>": 1434,
    "tive</w>": 1435,
    "tly</w>": 1436,
    "to": 1437,
    "to</w>": 1438,
    "toge": 1439,
    "told</w>": 1440,
    "ton": 1441,
    "too": 1442,
    "too</w>": 1443,
    "took</w>": 1444,
    "tor": 1445,
    "tor</w>": 1446,
    "tou": 1447,
    "tow": 1448,
    "towards</w>": 1449,
    "tr": 1450,
    "tra": 1451,
    "tre": 1452,
    "tri": 1453,
    "tro": 1454,
    "trou": 1455,
    "tru": 1456,
    "true</w>": 1457,
    "trum": 1458,
    "trump": 1459,
    "trump</w>": 1460,
    "ts,</w>": 1461,
    "ts</w>": 1462,
    "tt": 1463,
    "tter": 1464,
    "tter</w>": 1465,
    "tting</w>": 1466,
    "ttp": 1467,
    "tu": 1468,
    "tun": 1469,
    "tur": 1470,
    "ture</w>": 1471,
    "turned</w>": 1472,
    "tw": 1473,
    "twe": 1474,
    "two</w>": 1475,
    "ty": 1476,
    "ty,</w>": 1477,
    "ty</w>": 1478,
    "t\u2019s</w>": 1479,
    "u": 1480,
    "ugh": 1481,
    "ul": 1482,
    "um": 1483,
    "un": 1484,
    "unc": 1485,
    "under": 1486,
    "under</w>": 1487,
    "unti": 1488,
    "until</w>": 1489,
    "unto</w>": 1490,
    "up": 1491,
    "up,</w>": 1492,
    "up</w>": 1493,
    "upon</w>": 1494,
    "ur": 1495,
    "ure</w>": 1496,
    "us": 1497,
    "us,</w>": 1498,
    "us.</w>": 1499,
    "us</w>": 1500,
    "use</w>": 1501,
    "used</w>": 1502,
    "ut": 1503,
    "v": 1504,
    "val": 1505,
    "ve": 1506,
    "ve,</w>": 1507,
    "ve.</w>": 1508,
    "ve</w>": 1509,
    "ved</w>": 1510,
    "ven": 1511,
    "ven</w>": 1512,
    "ver": 1513,
    "ver</w>": 1514,
    "vers": 1515,
    "very</w>": 1516,
    "ves</w>": 1517,
    "vi": 1518,
    "vic": 1519,
    "vie": 1520,
    "vill": 1521,
    "ving</w>": 1522,
    "vir": 1523,
    "visi": 1524,
    "vo": 1525,
    "vol": 1526,
    "w": 1527,
    "w</w>": 1528,
    "wa": 1529,
    "wal": 1530,
    "wall": 1531,
    "wan": 1532,
    "want</w>": 1533,
    "war": 1534,
    "ward</w>": 1535,
    "wards</w>": 1536,
    "was": 1537,
    "was</w>": 1538,
    "wat": 1539,
    "way</w>": 1540,
    "ways</w>": 1541,
    "we": 1542,
    "we</w>": 1543,
    "wea": 1544,
    "well": 1545,
    "well,</w>": 1546,
    "well</w>": 1547,
    "went</w>": 1548,
    "wer": 1549,
    "were</w>": 1550,
    "wh": 1551,
    "wha": 1552,
    "what</w>": 1553,
    "whe": 1554,
    "when</w>": 1555,
    "where": 1556,
    "where</w>": 1557,
    "whether</w>": 1558,
    "whi": 1559,
    "which</w>": 1560,
    "while</w>": 1561,
    "white</w>": 1562,
    "who": 1563,
    "who</w>": 1564,
    "whole</w>": 1565,
    "whom</w>": 1566,
    "whose</w>": 1567,
    "why,</w>": 1568,
    "why</w>": 1569,
    "wi": 1570,
    "wif": 1571,
    "will": 1572,
    "will</w>": 1573,
    "win": 1574,
    "wish</w>": 1575,
    "wit": 1576,
    "with": 1577,
    "with</w>": 1578,
    "within</w>": 1579,
    "withou": 1580,
    "without</w>": 1581,
    "wo": 1582,
    "wom": 1583,
    "woman</w>": 1584,
    "won": 1585,
    "wor": 1586,
    "word</w>": 1587,
    "words</w>": 1588,
    "work</w>": 1589,
    "world</w>": 1590,
    "would</w>": 1591,
    "wr": 1592,
    "writ": 1593,
    "x": 1594,
    "x</w>": 1595,
    "xi": 1596,
    "xt</w>": 1597,
    "y": 1598,
    "y!</w>": 1599,
    "y,</w>": 1600,
    "y-": 1601,
    "y.</w>": 1602,
    "y:</w>": 1603,
    "y;</w>": 1604,
    "y</w>": 1605,
    "ye": 1606,
    "ye</w>": 1607,
    "year": 1608,
    "years</w>": 1609,
    "yed</w>": 1610,
    "yes,</w>": 1611,
    "yet</w>": 1612,
    "ying</w>": 1613,
    "you": 1614,
    "you,</w>": 1615,
    "you.</w>": 1616,
    "you</w>": 1617,
    "youn": 1618,
    "young</w>": 1619,
    "your": 1620,
    "your</w>": 1621,
    "ys</w>": 1622,
    "y\u2019s</w>": 1623,
    "z": 1624,
    "za": 1625,
    "ze": 1626,
    "zed</w>": 1627,
    "{": 1628,
    "|": 1629,
    "}": 1630,
    "~": 1631,
    "\u0092": 1632,
    "\u00a1": 1633,
    "\u00a3": 1634,
    "\u00a7": 1635,
    "\u00ab": 1636,
    "\u00ae": 1637,
    "\u00b4": 1638,
    "\u00b7": 1639,
    "\u00ba": 1640,
    "\u00bb": 1641,
    "\u00bd": 1642,
    "\u00e0": 1643,
    "\u00e1": 1644,
    "\u00e2": 1645,
    "\u00e4": 1646,
    "\u00e6": 1647,
    "\u00e7": 1648,
    "\u00e8": 1649,
    "\u00e9": 1650,
    "\u00ea": 1651,
    "\u00eb": 1652,
    "\u00ec": 1653,
    "\u00ed": 1654,
    "\u00ee": 1655,
    "\u00ef": 1656,
    "\u00f0": 1657,
    "\u00f1": 1658,
    "\u00f2": 1659,
    "\u00f3": 1660,
    "\u00f4": 1661,
    "\u00f6": 1662,
    "\u00f8": 1663,
    "\u00f9": 1664,
    "\u00fa": 1665,
    "\u00fb": 1666,
    "\u00fc": 1667,
    "\u00fd": 1668,
    "\u00fe": 1669,
    "\u011f": 1670,
    "\u0131": 1671,
    "\u0137": 1672,
    "\u013a": 1673,
    "\u014d": 1674,
    "\u0153": 1675,
    "\u03ac": 1676,
    "\u03ad": 1677,
    "\u03ae": 1678,
    "\u03af": 1679,
    "\u03b1": 1680,
    "\u03b2": 1681,
    "\u03b3": 1682,
    "\u03b4": 1683,
    "\u03b5": 1684,
    "\u03b6": 1685,
    "\u03b7": 1686,
    "\u03b8": 1687,
    "\u03b9": 1688,
    "\u03ba": 1689,
    "\u03bb": 1690,
    "\u03bc": 1691,
    "\u03bd": 1692,
    "\u03be": 1693,
    "\u03bf": 1694,
    "\u03c0": 1695,
    "\u03c1": 1696,
    "\u03c2": 1697,
    "\u03c3": 1698,
    "\u03c4": 1699,
    "\u03c5": 1700,
    "\u03c6": 1701,
    "\u03c7": 1702,
    "\u03c9": 1703,
    "\u03cc": 1704,
    "\u03cd": 1705,
    "\u03ce": 1706,
    "\u03f0": 1707,
    "\u05d0": 1708,
    "\u05d1": 1709,
    "\u05d2": 1710,
    "\u05d3": 1711,
    "\u05d4": 1712,
    "\u05d5": 1713,
    "\u05d6": 1714,
    "\u05d7": 1715,
    "\u05d8": 1716,
    "\u05d9": 1717,
    "\u05da": 1718,
    "\u05db": 1719,
    "\u05dc": 1720,
    "\u05dd": 1721,
    "\u05de": 1722,
    "\u05df": 1723,
    "\u05e0": 1724,
    "\u05e1": 1725,
    "\u05e2": 1726,
    "\u05e6": 1727,
    "\u05e7": 1728,
    "\u05e8": 1729,
    "\u05e9": 1730,
    "\u05ea": 1731,
    "\u060c": 1732,
    "\u0621": 1733,
    "\u0622": 1734,
    "\u0623": 1735,
    "\u0624": 1736,
    "\u0627": 1737,
    "\u0628": 1738,
    "\u0629": 1739,
    "\u062a": 1740,
    "\u062c": 1741,
    "\u062d": 1742,
    "\u062e": 1743,
    "\u062f": 1744,
    "\u0630": 1745,
    "\u0631": 1746,
    "\u0632": 1747,
    "\u0633": 1748,
    "\u0634": 1749,
    "\u0635": 1750,
    "\u0636": 1751,
    "\u0637": 1752,
    "\u0638": 1753,
    "\u0639": 1754,
    "\u0641": 1755,
    "\u0642": 1756,
    "\u0643": 1757,
    "\u0644": 1758,
    "\u0645": 1759,
    "\u0646": 1760,
    "\u0647": 1761,
    "\u0648": 1762,
    "\u064a": 1763,
    "\u064b": 1764,
    "\u067e": 1765,
    "\u0686": 1766,
    "\u0698": 1767,
    "\u06a9": 1768,
    "\u06af": 1769,
    "\u06cc": 1770,
    "\u06f0": 1771,
    "\u06f4": 1772,
    "\u0901": 1773,
    "\u0902": 1774,
    "\u0905": 1775,
    "\u0906": 1776,
    "\u0907": 1777,
    "\u0909": 1778,
    "\u090f": 1779,
    "\u0914": 1780,
    "\u0915": 1781,
    "\u0916": 1782,
    "\u0917": 1783,
    "\u0918": 1784,
    "\u091a": 1785,
    "\u091b": 1786,
    "\u091c": 1787,
    "\u091d": 1788,
    "\u091f": 1789,
    "\u0920": 1790,
    "\u0921": 1791,
    "\u0924": 1792,
    "\u0925": 1793,
    "\u0926": 1794,
    "\u0927": 1795,
    "\u0928": 1796,
    "\u092a": 1797,
    "\u092c": 1798,
    "\u092d": 1799,
    "\u092e": 1800,
    "\u092f": 1801,
    "\u0930": 1802,
    "\u0932": 1803,
    "\u0935": 1804,
    "\u0936": 1805,
    "\u0937": 1806,
    "\u0938": 1807,
    "\u0939": 1808,
    "\u093c": 1809,
    "\u093e": 1810,
    "\u093f": 1811,
    "\u0940": 1812,
    "\u0941": 1813,
    "\u0942": 1814,
    "\u0947": 1815,
    "\u0948": 1816,
    "\u094b": 1817,
    "\u094d": 1818,
    "\u0964": 1819,
    "\u1ec5": 1820,
    "\u1f00": 1821,
    "\u1f02": 1822,
    "\u1f04": 1823,
    "\u1f06": 1824,
    "\u1f10": 1825,
    "\u1f11": 1826,
    "\u1f15": 1827,
    "\u1f21": 1828,
    "\u1f24": 1829,
    "\u1f26": 1830,
    "\u1f30": 1831,
    "\u1f31": 1832,
    "\u1f34": 1833,
    "\u1f35": 1834,
    "\u1f37": 1835,
    "\u1f40": 1836,
    "\u1f41": 1837,
    "\u1f44": 1838,
    "\u1f45": 1839,
    "\u1f50": 1840,
    "\u1f54": 1841,
    "\u1f61": 1842,
    "\u1f70": 1843,
    "\u1f72": 1844,
    "\u1f74": 1845,
    "\u1f76": 1846,
    "\u1f78": 1847,
    "\u1f7a": 1848,
    "\u1f7c": 1849,
    "\u1fb3": 1850,
    "\u1fc6": 1851,
    "\u1fc7": 1852,
    "\u1fd6": 1853,
    "\u1fe4": 1854,
    "\u1fe6": 1855,
    "\u1ff3": 1856,
    "\u1ff6": 1857,
    "\u1ff7": 1858,
    "\u200b": 1859,
    "\u200c": 1860,
    "\u200e": 1861,
    "\u200f": 1862,
    "\u2010": 1863,
    "\u2013": 1864,
    "\u2014": 1865,
    "\u2014</w>": 1866,
    "\u2015": 1867,
    "\u2018": 1868,
    "\u2019": 1869,
    "\u2019</w>": 1870,
    "\u2019d</w>": 1871,
    "\u2019ll</w>": 1872,
    "\u2019s</w>": 1873,
    "\u2019t</w>": 1874,
    "\u2019tis</w>": 1875,
    "\u201c": 1876,
    "\u201cand</w>": 1877,
    "\u201cbut</w>": 1878,
    "\u201ci</w>": 1879,
    "\u201cit</w>": 1880,
    "\u201cthe</w>": 1881,
    "\u201cwhat</w>": 1882,
    "\u201cyou</w>": 1883,
    "\u201d": 1884,
    "\u201d</w>": 1885,
    "\u2020": 1886,
    "\u2022": 1887,
    "\u2026": 1888,
    "\u2032": 1889,
    "\u203c": 1890,
    "\u2060": 1891,
    "\u20ac": 1892,
    "\u2122": 1893,
    "\u25cf": 1894,
    "\u2600": 1895,
    "\u2601": 1896,
    "\u2605": 1897,
    "\u2606": 1898,
    "\u2609": 1899,
    "\u2611": 1900,
    "\u2618": 1901,
    "\u261d": 1902,
    "\u261e": 1903,
    "\u2639": 1904,
    "\u263a": 1905,
    "\u2661": 1906,
    "\u2665": 1907,
    "\u26be": 1908,
    "\u26f3": 1909,
    "\u2705": 1910,
    "\u2708": 1911,
    "\u270a": 1912,
    "\u270c": 1913,
    "\u2714": 1914,
    "\u2728": 1915,
    "\u274c": 1916,
    "\u2764": 1917,
    "\u279c": 1918,
    "\u27a1": 1919,
    "\u2b05": 1920,
    "\u2b07": 1921,
    "\u300a": 1922,
    "\u30fc": 1923,
    "\ufe0f": 1924,
    "\ufeff": 1925,
    "\uff52": 1926,
    "\uff54": 1927,
    "\ud83c\udde6": 1928,
    "\ud83c\udde7": 1929,
    "\ud83c\udde8": 1930,
    "\ud83c\uddea": 1931,
    "\ud83c\uddeb": 1932,
    "\ud83c\uddec": 1933,
    "\ud83c\uddee": 1934,
    "\ud83c\uddef": 1935,
    "\ud83c\uddf0": 1936,
    "\ud83c\uddf1": 1937,
    "\ud83c\uddf2": 1938,
    "\ud83c\uddf3": 1939,
    "\ud83c\uddf4": 1940,
    "\ud83c\uddf5": 1941,
    "\ud83c\uddf7": 1942,
    "\ud83c\uddf8": 1943,
    "\ud83c\uddf9": 1944,
    "\ud83c\uddfa": 1945,
    "\ud83c\uddfd": 1946,
    "\ud83c\udf0d": 1947,
    "\ud83c\udf0f": 1948,
    "\ud83c\udf10": 1949,
    "\ud83c\udf1a": 1950,
    "\ud83c\udf39": 1951,
    "\ud83c\udf51": 1952,
    "\ud83c\udf77": 1953,
    "\ud83c\udf7b": 1954,
    "\ud83c\udf7e": 1955,
    "\ud83c\udf84": 1956,
    "\ud83c\udf88": 1957,
    "\ud83c\udf89": 1958,
    "\ud83c\udfa5": 1959,
    "\ud83c\udfa7": 1960,
    "\ud83c\udfac": 1961,
    "\ud83c\udfbe": 1962,
    "\ud83c\udfc1": 1963,
    "\ud83c\udfc6": 1964,
    "\ud83c\udfc8": 1965,
    "\ud83c\udfe2": 1966,
    "\ud83c\udfeb": 1967,
    "\ud83c\udffb": 1968,
    "\ud83c\udffc": 1969,
    "\ud83c\udffd": 1970,
    "\ud83d\udc18": 1971,
    "\ud83d\udc40": 1972,
    "\ud83d\udc46": 1973,
    "\ud83d\udc48": 1974,
    "\ud83d\udc49": 1975,
    "\ud83d\udc4a": 1976,
    "\ud83d\udc4b": 1977,
    "\ud83d\udc4c": 1978,
    "\ud83d\udc4d": 1979,
    "\ud83d\udc4f": 1980,
    "\ud83d\udc51": 1981,
    "\ud83d\udc54": 1982,
    "\ud83d\udc57": 1983,
    "\ud83d\udc5a": 1984,
    "\ud83d\udc62": 1985,
    "\ud83d\udc7f": 1986,
    "\ud83d\udc81": 1987,
    "\ud83d\udc83": 1988,
    "\ud83d\udc8b": 1989,
    "\ud83d\udc94": 1990,
    "\ud83d\udc95": 1991,
    "\ud83d\udc97": 1992,
    "\ud83d\udc98": 1993,
    "\ud83d\udc99": 1994,
    "\ud83d\udc9a": 1995,
    "\ud83d\udc9c": 1996,
    "\ud83d\udc9e": 1997,
    "\ud83d\udca4": 1998,
    "\ud83d\udca5": 1999,
    "\ud83d\udca6": 2000,
    "\ud83d\udcaa": 2001,
    "\ud83d\udcaf": 2002,
    "\ud83d\udcb0": 2003,
    "\ud83d\udcc8": 2004,
    "\ud83d\udcc9": 2005,
    "\ud83d\udcd6": 2006,
    "\ud83d\udcf7": 2007,
    "\ud83d\udcf8": 2008,
    "\ud83d\udcfa": 2009,
    "\ud83d\udd05": 2010,
    "\ud83d\udd25": 2011,
    "\ud83d\uddfd": 2012,
    "\ud83d\ude01": 2013,
    "\ud83d\ude02": 2014,
    "\ud83d\ude03": 2015,
    "\ud83d\ude04": 2016,
    "\ud83d\ude05": 2017,
    "\ud83d\ude06": 2018,
    "\ud83d\ude07": 2019,
    "\ud83d\ude09": 2020,
    "\ud83d\ude0a": 2021,
    "\ud83d\ude0d": 2022,
    "\ud83d\ude0e": 2023,
    "\ud83d\ude11": 2024,
    "\ud83d\ude12": 2025,
    "\ud83d\ude13": 2026,
    "\ud83d\ude14": 2027,
    "\ud83d\ude18": 2028,
    "\ud83d\ude1c": 2029,
    "\ud83d\ude1d": 2030,
    "\ud83d\ude21": 2031,
    "\ud83d\ude22": 2032,
    "\ud83d\ude23": 2033,
    "\ud83d\ude27": 2034,
    "\ud83d\ude29": 2035,
    "\ud83d\ude2c": 2036,
    "\ud83d\ude30": 2037,
    "\ud83d\ude31": 2038,
    "\ud83d\ude33": 2039,
    "\ud83d\ude34": 2040,
    "\ud83d\ude45": 2041,
    "\ud83d\ude4c": 2042,
    "\ud83d\ude4f": 2043,
    "\ud83d\ude80": 2044,
    "\ud83d\ude82": 2045,
    "\ud83d\udea8": 2046,
    "\udbff\udc00": 2047
  },
  "end-of-word-mark": "</w>",
  "merges": [
    [
      "e",
      "</w>",
      1729148
    ],
    [
      "t",
      "h",
      1399212
    ],
    [
      "h",
      "e",
      1235903
    ],
    [
      "d",
      "</w>",
      1024247
    ],
    [
      "t",
      "</w>",
      936893
    ],
    [
      "s",
      "</w>",
      903495
    ],
    [
      ",",
      "</w>",
      862460
    ],
    [
      "i",
      "n",
      791457
    ],
    [
      "a",
      "n",
      774284
    ],
    [
      "e",
      "r",
      645781
    ],
    [
      "th",
      "e</w>",
      543549
    ],
    [
      "r",
      "</w>",
      535228
    ],
    [
      "o",
      "u",
      533237
    ],
    [
      "y",
      "</w>",
      529743
    ],
    [
      ".",
      "</w>",
      509741
    ],
    [
      "o",
      "n",
      500522
    ],
    [
      "o",
      "</w>",
      464841
    ],
    [
      "e",
      "n",
      443209
    ],
    [
      "r",
      "e",
      393840
    ],
    [
      "t",
      "o",
      392575
    ],
    [
      "an",
      "d</w>",
      366673
    ],
    [
      "f",
      "</w>",
      352237
    ],
    [
      "o",
      "f",
      319102
    ],
    [
      "h",
      "a",
      315373
    ],
    [
      "t",
      "o</w>",
      301362
    ],
    [
      "l",
      "l",
      300159
    ],
    [
      "in",
      "g",
      295259
    ],
    [
      "o",
      "f</w>",
      288850
    ],
    [
      "a",
      "r",
      287934
    ],
    [
      "h",
      "i",
      278617
    ],
    [
      "e",
      "d</w>",
      272574
    ],
    [
      "o",
      "r",
      250665
    ],
    [
      "a",
      "</w>",
      234138
    ],
    [
      "s",
      "t",
      221868
    ],
    [
      "e",
      "s",
      214226
    ],
    [
      "ing",
      "</w>",
      213707
    ],
    [
      "a",
      "t</w>",
      211582
    ],
    [
      "in",
      "</w>",
      197657
    ],
    [
      "i",
      "</w>",
      191086
    ],
    [
      "er",
      "</w>",
      188025
    ],
    [
      "o",
      "m",
      187025
    ],
    [
      "a",
      "t",
      186656
    ],
    [
      "w",
      "i",
      181712
    ],
    [
      "t",
      "i",
      178896
    ],
    [
      "n",
      "o",
      173967
    ],
    [
      "ll",
      "</w>",
      170290
    ],
    [
      "a",
      "l",
      169933
    ],
    [
      "y",
      "ou",
      166913
    ],
    [
      "a",
      "s</w>",
      166321
    ],
    [
      "h",
      "e</w>",
      160976
    ],
    [
      "s",
      "e",
      159268
    ],
    [
      "on",
      "</w>",
      149010
    ],
    [
      "l",
      "i",
      145870
    ],
    [
      "l",
      "e",
      143510
    ],
    [
      "th",
      "</w>",
      142482
    ],
    [
      "i",
      "t",
      141417
    ],
    [
      "i",
      "s</w>",
      139894
    ],
    [
      "o",
      "r</w>",
      137609
    ],
    [
      "c",
      "h",
      137308
    ],
    [
      "h",
      "</w>",
      135470
    ],
    [
      "b",
      "e",
      132419
    ],
    [
      "th",
      "at</w>",
      126987
    ],
    [
      "r",
      "i",
      125965
    ],
    [
      "th",
      "e",
      120920
    ],
    [
      "v",
      "e</w>",
      117270
    ],
    [
      ";",
      "</w>",
      115281
    ],
    [
      "r",
      "o",
      114753
    ],
    [
      "o",
      "w",
      113478
    ],
    [
      "a",
      "m",
      113461
    ],
    [
      "a",
      "s",
      109149
    ],
    [
      "en",
      "</w>",
      106260
    ],
    [
      "s",
      "i",
      105865
    ],
    [
      "a",
      "c",
      104918
    ],
    [
      "d",
      "e",
      102397
    ],
    [
      "e",
      ",</w>",
      101389
    ],
    [
      "an",
      "</w>",
      100743
    ],
    [
      "hi",
      "s</w>",
      100393
    ],
    [
      "d",
      "i",
      99430
    ],
    [
      "\u201d",
      "</w>",
      98086
    ],
    [
      "u",
      "n",
      97187
    ],
    [
      "b",
      "u",
      95503
    ],
    [
      "d",
      ",</w>",
      94176
    ],
    [
      "i",
      "t</w>",
      92851
    ],
    [
      "you",
      "</w>",
      91679
    ],
    [
      "wi",
      "th</w>",
      91478
    ],
    [
      "f",
      "or</w>",
      90706
    ],
    [
      "g",
      "h",
      90612
    ],
    [
      "w",
      "as</w>",
      90193
    ],
    [
      "l",
      "d</w>",
      89136
    ],
    [
      "s",
      ",</w>",
      88934
    ],
    [
      "ch",
      "</w>",
      88749
    ],
    [
      "l",
      "y</w>",
      86780
    ],
    [
      "m",
      "y</w>",
      84376
    ],
    [
      "s",
      "a",
      84254
    ],
    [
      "a",
      "i",
      83767
    ],
    [
      "k",
      "</w>",
      82477
    ],
    [
      "s",
      "t</w>",
      81180
    ],
    [
      "m",
      "a",
      78347
    ],
    [
      "no",
      "t</w>",
      77796
    ],
    [
      "u",
      "s",
      77557
    ],
    [
      "l",
      "o",
      77330
    ],
    [
      "u",
      "r",
      76814
    ],
    [
      "n",
      "</w>",
      76080
    ],
    [
      "m",
      "</w>",
      75910
    ],
    [
      "l",
      "e</w>",
      75720
    ],
    [
      "e",
      "s</w>",
      73146
    ],
    [
      "v",
      "er",
      70933
    ],
    [
      "en",
      "t",
      69138
    ],
    [
      "b",
      "e</w>",
      68329
    ],
    [
      "n",
      "e",
      67887
    ],
    [
      "th",
      "er",
      67532
    ],
    [
      "bu",
      "t</w>",
      65214
    ],
    [
      "y",
      ",</w>",
      64909
    ],
    [
      "p",
      "e",
      64391
    ],
    [
      "w",
      "</w>",
      64351
    ],
    [
      "a",
      "g",
      63697
    ],
    [
      "t",
      "r",
      62547
    ],
    [
      "i",
      "s",
      60809
    ],
    [
      "c",
      "on",
      60565
    ],
    [
      "!",
      "</w>",
      60246
    ],
    [
      "f",
      "or",
      60240
    ],
    [
      "g",
      "o",
      59869
    ],
    [
      "s",
      "u",
      59746
    ],
    [
      "w",
      "hi",
      59743
    ],
    [
      "c",
      "om",
      59477
    ],
    [
      "i",
      "c",
      58937
    ],
    [
      "ha",
      "d</w>",
      58668
    ],
    [
      "ou",
      "ld</w>",
      58308
    ],
    [
      "m",
      "e",
      58190
    ],
    [
      "a",
      "b",
      57952
    ],
    [
      "ha",
      "ve</w>",
      57378
    ],
    [
      "l",
      "a",
      56149
    ],
    [
      "p",
      "</w>",
      55939
    ],
    [
      "p",
      "o",
      55041
    ],
    [
      "f",
      "r",
      54204
    ],
    [
      "\u2019",
      "s</w>",
      54141
    ],
    [
      "t",
      "t",
      54029
    ],
    [
      "om",
      "</w>",
      53494
    ],
    [
      "a",
      "ll</w>",
      53436
    ],
    [
      "he",
      "r</w>",
      53254
    ],
    [
      "k",
      "e</w>",
      53107
    ],
    [
      "th",
      "ou",
      53002
    ],
    [
      "th",
      "is</w>",
      52638
    ],
    [
      "w",
      "h",
      52619
    ],
    [
      ":",
      "</w>",
      52551
    ],
    [
      "w",
      "e",
      51713
    ],
    [
      "m",
      "e</w>",
      51454
    ],
    [
      "w",
      "he",
      51011
    ],
    [
      "b",
      "y</w>",
      50421
    ],
    [
      "i",
      "r",
      49428
    ],
    [
      "f",
      "e",
      49334
    ],
    [
      "m",
      "o",
      48006
    ],
    [
      "ou",
      "n",
      47979
    ],
    [
      "s",
      "e</w>",
      47759
    ],
    [
      "en",
      "t</w>",
      47254
    ],
    [
      "t",
      "e",
      47020
    ],
    [
      "at",
      "i",
      46712
    ],
    [
      "l",
      "</w>",
      46284
    ],
    [
      "a",
      "d",
      45901
    ],
    [
      "s",
      ".</w>",
      45554
    ],
    [
      "c",
      "e</w>",
      45433
    ],
    [
      "c",
      "e",
      45317
    ],
    [
      "s",
      "h",
      45111
    ],
    [
      "q",
      "u",
      44905
    ],
    [
      "s",
      "he</w>",
      44790
    ],
    [
      "?",
      "</w>",
      44570
    ],
    [
      "c",
      "o",
      44322
    ],
    [
      "w",
      "ha",
      44114
    ],
    [
      "gh",
      "t</w>",
      43995
    ],
    [
      "s",
      "o</w>",
      43252
    ],
    [
      "ar",
      "e</w>",
      42951
    ],
    [
      "t",
      ",</w>",
      42892
    ],
    [
      "d",
      ".</w>",
      42781
    ],
    [
      "\"",
      "\"",
      42542
    ],
    [
      "a",
      "ll",
      42246
    ],
    [
      "u",
      "m",
      42102
    ],
    [
      "e",
      "x",
      42040
    ],
    [
      "w",
      "or",
      41627
    ],
    [
      "whi",
      "ch</w>",
      41532
    ],
    [
      "th",
      "er</w>",
      41383
    ],
    [
      "fr",
      "om</w>",
      41021
    ],
    [
      "on",
      "e</w>",
      41004
    ],
    [
      "s",
      "ha",
      40905
    ],
    [
      "the",
      "y</w>",
      40719
    ],
    [
      "al",
      "</w>",
      40422
    ],
    [
      "r",
      "a",
      39614
    ],
    [
      "t",
      "a",
      39548
    ],
    [
      "t",
      "er",
      38811
    ],
    [
      "p",
      "er",
      38509
    ],
    [
      "v",
      "i",
      37945
    ],
    [
      "wi",
      "ll</w>",
      37725
    ],
    [
      "p",
      "re",
      37576
    ],
    [
      "p",
      "ro",
      37539
    ],
    [
      ".",
      "\u201d</w>",
      37293
    ],
    [
      "w",
      "a",
      37219
    ],
    [
      "sa",
      "i",
      37011
    ],
    [
      "you",
      "r</w>",
      36144
    ],
    [
      "v",
      "er</w>",
      36112
    ],
    [
      "m",
      "i",
      36004
    ],
    [
      "g",
      "</w>",
      35861
    ],
    [
      "e",
      ".</w>",
      35611
    ],
    [
      "m",
      "an",
      35416
    ],
    [
      "w",
      "er",
      35305
    ],
    [
      "s",
      "o",
      35039
    ],
    [
      "m",
      "u",
      34749
    ],
    [
      "c",
      "a",
      34581
    ],
    [
      "se",
      "l",
      34388
    ],
    [
      "b",
      "o",
      34233
    ],
    [
      "hi",
      "m",
      34147
    ],
    [
      "d",
      "a",
      33795
    ],
    [
      "y",
      ".</w>",
      33662
    ],
    [
      "hi",
      "m</w>",
      33416
    ],
    [
      "w",
      "e</w>",
      33410
    ],
    [
      "ou",
      "t</w>",
      33273
    ],
    [
      "wha",
      "t</w>",
      32890
    ],
    [
      "ou",
      "r</w>",
      32848
    ],
    [
      "d",
      "o",
      32772
    ],
    [
      "m",
      "or",
      32505
    ],
    [
      "i",
      "f</w>",
      32460
    ],
    [
      "g",
      "re",
      32048
    ],
    [
      "]",
      "</w>",
      30685
    ],
    [
      "o",
      "p",
      30670
    ],
    [
      "a",
      "r</w>",
      30218
    ],
    [
      "u",
      "p",
      30130
    ],
    [
      "es",
      ",</w>",
      30100
    ],
    [
      "s",
      "om",
      29258
    ],
    [
      "n",
      "o</w>",
      29179
    ],
    [
      "p",
      "ar",
      29073
    ],
    [
      "d",
      "er",
      29011
    ],
    [
      "no",
      "w</w>",
      28977
    ],
    [
      "ow",
      "</w>",
      28662
    ],
    [
      "f",
      "u",
      28627
    ],
    [
      "whe",
      "n</w>",
      28570
    ],
    [
      "he",
      "r",
      28570
    ],
    [
      "d",
      "e</w>",
      28117
    ],
    [
      "i",
      "r</w>",
      28005
    ],
    [
      "g",
      "e",
      27876
    ],
    [
      "c",
      "i",
      27872
    ],
    [
      "ver",
      "y</w>",
      27505
    ],
    [
      "ou",
      "r",
      27425
    ],
    [
      "f",
      "i",
      27401
    ],
    [
      "f",
      "o",
      27250
    ],
    [
      "an",
      "d",
      26924
    ],
    [
      "w",
      "ould</w>",
      26921
    ],
    [
      "wer",
      "e</w>",
      26918
    ],
    [
      "t",
      "ed</w>",
      26722
    ],
    [
      "k",
      "e",
      25971
    ],
    [
      "es",
      "s</w>",
      25954
    ],
    [
      "the",
      "ir</w>",
      25803
    ],
    [
      ",",
      "\u201d</w>",
      25474
    ],
    [
      "y",
      "e",
      25411
    ],
    [
      "sha",
      "ll</w>",
      25389
    ],
    [
      "v",
      "e",
      25096
    ],
    [
      "a",
      "in",
      25035
    ],
    [
      "s",
      "p",
      24849
    ],
    [
      "d",
      "o</w>",
      24738
    ],
    [
      "d",
      "on",
      24684
    ],
    [
      "t",
      "er</w>",
      24586
    ],
    [
      "h",
      "o",
      24260
    ],
    [
      "k",
      "ing</w>",
      24258
    ],
    [
      "lo",
      "o",
      24238
    ],
    [
      "sai",
      "d</w>",
      24149
    ],
    [
      "l",
      "or",
      24043
    ],
    [
      "wh",
      "o</w>",
      23892
    ],
    [
      "c",
      "ha",
      23793
    ],
    [
      "t",
      ".</w>",
      23771
    ],
    [
      "g",
      "i",
      23629
    ],
    [
      "g",
      "h</w>",
      23574
    ],
    [
      "on",
      ",</w>",
      23336
    ],
    [
      "am",
      "e</w>",
      22947
    ],
    [
      "a",
      "f",
      22915
    ],
    [
      "e",
      "m",
      22884
    ],
    [
      "ther",
      "e</w>",
      22610
    ],
    [
      "st",
      "r",
      22560
    ],
    [
      "d",
      "s</w>",
      22467
    ],
    [
      "p",
      "p",
      22232
    ],
    [
      "u",
      "s</w>",
      22053
    ],
    [
      "t",
      "en",
      21949
    ],
    [
      "g",
      "u",
      21915
    ],
    [
      "m",
      "ar",
      21501
    ],
    [
      "j",
      "o",
      21399
    ],
    [
      "o",
      "d</w>",
      21292
    ],
    [
      "re",
      "d</w>",
      21285
    ],
    [
      "s",
      "c",
      21269
    ],
    [
      "w",
      "ar",
      21266
    ],
    [
      "t",
      "s</w>",
      21157
    ],
    [
      "no",
      "w",
      20876
    ],
    [
      "ing",
      ",</w>",
      20867
    ],
    [
      "j",
      "u",
      20751
    ],
    [
      "b",
      "er",
      20628
    ],
    [
      "p",
      "l",
      20581
    ],
    [
      "p",
      "r",
      20528
    ],
    [
      "es",
      "t</w>",
      20510
    ],
    [
      "f",
      "a",
      20493
    ],
    [
      "m",
      "in",
      20487
    ],
    [
      "ou",
      "s</w>",
      20174
    ],
    [
      "be",
      "en</w>",
      20023
    ],
    [
      "e",
      "l",
      19958
    ],
    [
      "thou",
      "</w>",
      19822
    ],
    [
      "th",
      "ing</w>",
      19719
    ],
    [
      "e",
      "v",
      19214
    ],
    [
      "mor",
      "e</w>",
      19116
    ],
    [
      "ow",
      "n</w>",
      19087
    ],
    [
      "l",
      "u",
      19052
    ],
    [
      "t",
      "ur",
      18972
    ],
    [
      "n",
      "i",
      18948
    ],
    [
      "he",
      "ar",
      18876
    ],
    [
      "g",
      "r",
      18865
    ],
    [
      "d",
      "u",
      18834
    ],
    [
      "p",
      "u",
      18755
    ],
    [
      "th",
      "y</w>",
      18684
    ],
    [
      "k",
      "ed</w>",
      18528
    ],
    [
      "i",
      "m",
      18527
    ],
    [
      "am",
      "</w>",
      18489
    ],
    [
      "li",
      "ke</w>",
      18309
    ],
    [
      "m",
      "on",
      18243
    ],
    [
      "tr",
      "um",
      18220
    ],
    [
      "th",
      "en</w>",
      18208
    ],
    [
      "\"",
      "</w>",
      18175
    ],
    [
      "?",
      "\u201d</w>",
      17967
    ],
    [
      "th",
      "an</w>",
      17955
    ],
    [
      "s",
      "pe",
      17905
    ],
    [
      "at",
      "e</w>",
      17804
    ],
    [
      "r",
      "e</w>",
      17706
    ],
    [
      "a",
      "d</w>",
      17680
    ],
    [
      "e",
      "c",
      17603
    ],
    [
      "a",
      "p",
      17554
    ],
    [
      "u",
      "p</w>",
      17540
    ],
    [
      "som",
      "e</w>",
      17469
    ],
    [
      "l",
      "d",
      17415
    ],
    [
      "ati",
      "on</w>",
      17415
    ],
    [
      "in",
      "to</w>",
      17374
    ],
    [
      "st",
      "i",
      17262
    ],
    [
      "b",
      "r",
      17249
    ],
    [
      "m",
      "an</w>",
      17231
    ],
    [
      "s",
      "to",
      17055
    ],
    [
      "s",
      "er",
      16955
    ],
    [
      "an",
      "y</w>",
      16935
    ],
    [
      "up",
      "on</w>",
      16833
    ],
    [
      "for",
      "e</w>",
      16719
    ],
    [
      "o",
      "ther</w>",
      16675
    ],
    [
      "on",
      "g</w>",
      16563
    ],
    [
      "ti",
      "on</w>",
      16538
    ],
    [
      "ati",
      "on",
      16480
    ],
    [
      "the",
      "m</w>",
      16442
    ],
    [
      "gre",
      "at</w>",
      16391
    ],
    [
      "\u2019",
      "t</w>",
      16386
    ],
    [
      "b",
      "l",
      16298
    ],
    [
      "an",
      "t</w>",
      16267
    ],
    [
      "\u2019",
      "</w>",
      16132
    ],
    [
      ".",
      ".",
      16089
    ],
    [
      "c",
      "he",
      16073
    ],
    [
      "f",
      "ir",
      16018
    ],
    [
      "s",
      "ed</w>",
      15988
    ],
    [
      "e",
      "d",
      15932
    ],
    [
      "c",
      "k",
      15914
    ],
    [
      "c",
      "oun",
      15834
    ],
    [
      "sel",
      "f</w>",
      15816
    ],
    [
      "re",
      ",</w>",
      15767
    ],
    [
      "g",
      "e</w>",
      15759
    ],
    [
      "di",
      "d</w>",
      15724
    ],
    [
      "th",
      "in",
      15711
    ],
    [
      "c",
      "ould</w>",
      15689
    ],
    [
      "sh",
      "ould</w>",
      15632
    ],
    [
      "as",
      "t</w>",
      15582
    ],
    [
      "h",
      "ow</w>",
      15536
    ],
    [
      "v",
      "o",
      15312
    ],
    [
      "m",
      "r",
      15042
    ],
    [
      "m",
      "e,</w>",
      14970
    ],
    [
      "com",
      "e</w>",
      14851
    ],
    [
      "mo",
      "st</w>",
      14837
    ],
    [
      "d",
      "er</w>",
      14834
    ],
    [
      "t",
      ".",
      14833
    ],
    [
      "su",
      "ch</w>",
      14783
    ],
    [
      "en",
      ",</w>",
      14764
    ],
    [
      "go",
      "od</w>",
      14745
    ],
    [
      "ab",
      "le</w>",
      14738
    ],
    [
      "pre",
      "s",
      14727
    ],
    [
      "t",
      "y</w>",
      14688
    ],
    [
      "ti",
      "on",
      14654
    ],
    [
      "es",
      ".</w>",
      14652
    ],
    [
      "the",
      "m",
      14571
    ],
    [
      "c",
      "u",
      14498
    ],
    [
      "oun",
      "d</w>",
      14448
    ],
    [
      "ag",
      "ain",
      14386
    ],
    [
      "o",
      "se</w>",
      14318
    ],
    [
      "st",
      "er",
      14302
    ],
    [
      "a",
      "u",
      14267
    ],
    [
      "c",
      "hi",
      14257
    ],
    [
      "v",
      "ed</w>",
      14207
    ],
    [
      "d",
      "es",
      14012
    ],
    [
      "-",
      "-",
      13939
    ],
    [
      "p",
      "ri",
      13787
    ],
    [
      "mu",
      "st</w>",
      13760
    ],
    [
      "e",
      "d,</w>",
      13597
    ],
    [
      "th",
      "es",
      13566
    ],
    [
      "ha",
      "s</w>",
      13514
    ],
    [
      "us",
      "e</w>",
      13504
    ],
    [
      "an",
      "c",
      13459
    ],
    [
      "a",
      "v",
      13405
    ],
    [
      "b",
      "i",
      13390
    ],
    [
      "c",
      "an</w>",
      13350
    ],
    [
      "o",
      "b",
      13301
    ],
    [
      "c",
      "l",
      13277
    ],
    [
      "t",
      "w",
      13276
    ],
    [
      "t",
      "e</w>",
      13253
    ],
    [
      "p",
      "le",
      13252
    ],
    [
      "ma",
      "y</w>",
      13081
    ],
    [
      "ab",
      "out</w>",
      13070
    ],
    [
      "d",
      "ed</w>",
      13044
    ],
    [
      "f",
      "ri",
      13019
    ],
    [
      "ur",
      "e</w>",
      12968
    ],
    [
      "c",
      "an",
      12949
    ],
    [
      "ac",
      "e</w>",
      12874
    ],
    [
      "f",
      "in",
      12861
    ],
    [
      "on",
      "ly</w>",
      12828
    ],
    [
      "tt",
      "p",
      12794
    ],
    [
      ":",
      "/",
      12785
    ],
    [
      "/",
      "/",
      12783
    ],
    [
      "h",
      "tt",
      12772
    ],
    [
      ":/",
      "/",
      12782
    ],
    [
      "h",
      "ttp",
      12769
    ],
    [
      "se",
      ",</w>",
      12620
    ],
    [
      "ne",
      "ver</w>",
      12579
    ],
    [
      "t",
      "u",
      12546
    ],
    [
      "://",
      "t.",
      12545
    ],
    [
      "t.",
      "co",
      12543
    ],
    [
      "co",
      "/",
      12541
    ],
    [
      "://t.",
      "co/",
      12541
    ],
    [
      "all",
      "y</w>",
      12518
    ],
    [
      "y",
      "s</w>",
      12517
    ],
    [
      "e",
      "y",
      12499
    ],
    [
      "s",
      "in",
      12475
    ],
    [
      "m",
      "is",
      12408
    ],
    [
      "se",
      "e</w>",
      12330
    ],
    [
      "le",
      "t</w>",
      12322
    ],
    [
      "trum",
      "p</w>",
      12213
    ],
    [
      "ma",
      "ke</w>",
      12206
    ],
    [
      "en",
      "ce</w>",
      12201
    ],
    [
      "ro",
      "w",
      12199
    ],
    [
      "k",
      "now</w>",
      12193
    ],
    [
      "tr",
      "u",
      12167
    ],
    [
      "li",
      "tt",
      12144
    ],
    [
      "an",
      "d,</w>",
      12109
    ],
    [
      "thes",
      "e</w>",
      12072
    ],
    [
      "c",
      "or",
      12058
    ],
    [
      "be",
      "fore</w>",
      12050
    ],
    [
      "fu",
      "l</w>",
      12016
    ],
    [
      "ther",
      "e",
      12006
    ],
    [
      "it",
      "y</w>",
      11996
    ],
    [
      "c",
      "re",
      11971
    ],
    [
      "wa",
      "y</w>",
      11907
    ],
    [
      "p",
      "i",
      11881
    ],
    [
      "es",
      "s",
      11810
    ],
    [
      "\u2019",
      "d</w>",
      11745
    ],
    [
      "th",
      "at",
      11743
    ],
    [
      "f",
      "f",
      11720
    ],
    [
      "ing",
      "s</w>",
      11694
    ],
    [
      "f",
      "er",
      11686
    ],
    [
      "th",
      ",</w>",
      11666
    ],
    [
      "an",
      "ce</w>",
      11658
    ],
    [
      "b",
      "le</w>",
      11657
    ],
    [
      "di",
      "s",
      11624
    ],
    [
      "whe",
      "re</w>",
      11619
    ],
    [
      "c",
      "ri",
      11565
    ],
    [
      "\"\"",
      "\"",
      11553
    ],
    [
      "k",
      ",</w>",
      11501
    ],
    [
      "!",
      "\u201d</w>",
      11440
    ],
    [
      "k",
      "now",
      11437
    ],
    [
      "an",
      "t",
      11408
    ],
    [
      ":",
      "1",
      11383
    ],
    [
      "sel",
      "f",
      11381
    ],
    [
      "ma",
      "de</w>",
      11347
    ],
    [
      "h",
      "ou",
      11341
    ],
    [
      "gh",
      "t",
      11323
    ],
    [
      "mu",
      "ch</w>",
      11323
    ],
    [
      "g",
      "o</w>",
      11307
    ],
    [
      "j",
      "ec",
      11288
    ],
    [
      "ti",
      "me</w>",
      11263
    ],
    [
      "o",
      "l",
      11262
    ],
    [
      "k",
      "s</w>",
      11252
    ],
    [
      "le",
      ",</w>",
      11232
    ],
    [
      "we",
      "ll",
      11224
    ],
    [
      "re",
      "s",
      11184
    ],
    [
      "en",
      "d",
      11167
    ],
    [
      "\u201c",
      "i</w>",
      11153
    ],
    [
      "er",
      ",</w>",
      11148
    ],
    [
      "r",
      "y</w>",
      11090
    ],
    [
      "ing",
      ".</w>",
      11070
    ],
    [
      "b",
      "re",
      11014
    ],
    [
      "an",
      "g",
      10935
    ],
    [
      "v",
      "ing</w>",
      10924
    ],
    [
      "p",
      "as",
      10922
    ],
    [
      "f",
      "l",
      10921
    ],
    [
      "af",
      "ter</w>",
      10913
    ],
    [
      "f",
      "ai",
      10873
    ],
    [
      "st",
      ",</w>",
      10805
    ],
    [
      "don",
      "al",
      10799
    ],
    [
      "\"\"\"",
      "@",
      10781
    ],
    [
      "e",
      "p",
      10774
    ],
    [
      "l",
      "t</w>",
      10764
    ],
    [
      "litt",
      "le</w>",
      10763
    ],
    [
      "m",
      "ent",
      10732
    ],
    [
      "on",
      "g",
      10723
    ],
    [
      "qu",
      "e",
      10613
    ],
    [
      "p",
      "a",
      10594
    ],
    [
      "en",
      "d</w>",
      10589
    ],
    [
      "it",
      ",</w>",
      10581
    ],
    [
      "un",
      "to</w>",
      10532
    ],
    [
      "s",
      "he",
      10496
    ],
    [
      "p",
      "or",
      10401
    ],
    [
      "b",
      "ro",
      10391
    ],
    [
      "g",
      "a",
      10373
    ],
    [
      "it",
      "s</w>",
      10364
    ],
    [
      "en",
      "g",
      10359
    ],
    [
      "c",
      "ame</w>",
      10269
    ],
    [
      "ha",
      "r",
      10249
    ],
    [
      "re",
      "al",
      10231
    ],
    [
      "pe",
      "op",
      10226
    ],
    [
      "him",
      ",</w>",
      10201
    ],
    [
      "e",
      "ver",
      10147
    ],
    [
      "to",
      "o",
      10111
    ],
    [
      "n",
      "ed</w>",
      10023
    ],
    [
      "s",
      ";</w>",
      10017
    ],
    [
      "ou",
      "gh</w>",
      9980
    ],
    [
      "d",
      "y</w>",
      9936
    ],
    [
      "cha",
      "r",
      9927
    ],
    [
      "som",
      "e",
      9914
    ],
    [
      "fir",
      "st</w>",
      9892
    ],
    [
      "to",
      "r",
      9885
    ],
    [
      "s",
      "hi",
      9866
    ],
    [
      "w",
      "in",
      9833
    ],
    [
      "c",
      "er",
      9822
    ],
    [
      "t",
      "ing</w>",
      9801
    ],
    [
      "th",
      "r",
      9771
    ],
    [
      "c",
      "ar",
      9760
    ],
    [
      "o",
      "ver</w>",
      9726
    ],
    [
      "tw",
      "o</w>",
      9699
    ],
    [
      "er",
      "s</w>",
      9697
    ],
    [
      "at",
      "ed</w>",
      9675
    ],
    [
      "ta",
      "ke</w>",
      9669
    ],
    [
      "us",
      ".</w>",
      9668
    ],
    [
      "n",
      "ing</w>",
      9616
    ],
    [
      "c",
      "k</w>",
      9546
    ],
    [
      "ne",
      "w</w>",
      9541
    ],
    [
      "mr",
      ".</w>",
      9529
    ],
    [
      "ev",
      "en</w>",
      9501
    ],
    [
      "a",
      ".</w>",
      9468
    ],
    [
      "gi",
      "ve</w>",
      9441
    ],
    [
      "th",
      "an",
      9386
    ],
    [
      "thou",
      "gh</w>",
      9360
    ],
    [
      "s",
      "on",
      9358
    ],
    [
      "t",
      "re",
      9329
    ],
    [
      "it",
      "e</w>",
      9312
    ],
    [
      "e",
      "l</w>",
      9296
    ],
    [
      "da",
      "y</w>",
      9287
    ],
    [
      "b",
      "ac",
      9278
    ],
    [
      "e",
      "ar",
      9277
    ],
    [
      "ac",
      "k</w>",
      9259
    ],
    [
      "y",
      "ing</w>",
      9190
    ],
    [
      "m",
      "at",
      9189
    ],
    [
      "m",
      "er",
      9178
    ],
    [
      "ye",
      "t</w>",
      9156
    ],
    [
      "r",
      "u",
      9134
    ],
    [
      "o",
      "ld</w>",
      9119
    ],
    [
      "t",
      "ri",
      9109
    ],
    [
      "be",
      "ing</w>",
      9088
    ],
    [
      "an",
      "s",
      9080
    ],
    [
      "re",
      "ad",
      9066
    ],
    [
      "donal",
      "d",
      9032
    ],
    [
      "g",
      "en",
      9009
    ],
    [
      "you",
      ",</w>",
      8953
    ],
    [
      "l",
      "y,</w>",
      8949
    ],
    [
      "e",
      "very</w>",
      8931
    ],
    [
      "ta",
      "in",
      8863
    ],
    [
      "a",
      ",</w>",
      8833
    ],
    [
      "of",
      "f",
      8779
    ],
    [
      "si",
      "r",
      8763
    ],
    [
      "be",
      "g",
      8762
    ],
    [
      "c",
      "our",
      8751
    ],
    [
      "po",
      "s",
      8738
    ],
    [
      "i",
      "\u2019",
      8708
    ],
    [
      "d",
      "own</w>",
      8696
    ],
    [
      "it",
      ".</w>",
      8676
    ],
    [
      "li",
      "f",
      8674
    ],
    [
      "st",
      "e",
      8668
    ],
    [
      "ic",
      "e</w>",
      8658
    ],
    [
      "[",
      "_",
      8655
    ],
    [
      "d",
      "en",
      8649
    ],
    [
      "@",
      "real",
      8594
    ],
    [
      "thin",
      "k</w>",
      8590
    ],
    [
      "d",
      "d",
      8586
    ],
    [
      "f",
      "ac",
      8585
    ],
    [
      "w",
      "at",
      8581
    ],
    [
      "h",
      "on",
      8550
    ],
    [
      "c",
      "t</w>",
      8539
    ],
    [
      "e",
      "t</w>",
      8502
    ],
    [
      "@real",
      "donald",
      8491
    ],
    [
      "p",
      "la",
      8489
    ],
    [
      "w",
      "r",
      8483
    ],
    [
      "ju",
      "st</w>",
      8432
    ],
    [
      "wi",
      "thou",
      8399
    ],
    [
      "ha",
      "pp",
      8360
    ],
    [
      "l",
      "ed</w>",
      8336
    ],
    [
      "ca",
      "use</w>",
      8313
    ],
    [
      "ar",
      "y</w>",
      8294
    ],
    [
      "th",
      "ose</w>",
      8288
    ],
    [
      "am",
      "p",
      8272
    ],
    [
      "h",
      ",</w>",
      8263
    ],
    [
      "lor",
      "d</w>",
      8254
    ],
    [
      "m",
      "y",
      8252
    ],
    [
      "we",
      "ll</w>",
      8248
    ],
    [
      "s",
      "://t.co/",
      8202
    ],
    [
      "withou",
      "t</w>",
      8199
    ],
    [
      "o",
      ".</w>",
      8199
    ],
    [
      "http",
      "s",
      8197
    ],
    [
      "sa",
      "y</w>",
      8193
    ],
    [
      "http",
      "s://t.co/",
      8186
    ],
    [
      "mi",
      "ght</w>",
      8181
    ],
    [
      "spe",
      "a",
      8160
    ],
    [
      "ha",
      "th</w>",
      8158
    ],
    [
      "l",
      "y",
      8155
    ],
    [
      "n",
      ",</w>",
      8087
    ],
    [
      "k",
      "in",
      8087
    ],
    [
      "v",
      "es</w>",
      8053
    ],
    [
      "h",
      "and",
      7980
    ],
    [
      "ther",
      ",</w>",
      7965
    ],
    [
      "e",
      "ver</w>",
      7964
    ],
    [
      "man",
      "y</w>",
      7923
    ],
    [
      "her",
      "e</w>",
      7921
    ],
    [
      "n",
      "ess</w>",
      7921
    ],
    [
      "ti",
      "c",
      7916
    ],
    [
      "th",
      "re",
      7910
    ],
    [
      "m",
      "ent</w>",
      7908
    ],
    [
      "e",
      "p</w>",
      7903
    ],
    [
      "d",
      ";</w>",
      7902
    ],
    [
      "le",
      "s</w>",
      7897
    ],
    [
      "me",
      ".</w>",
      7859
    ],
    [
      "a",
      "th",
      7807
    ],
    [
      "in",
      "ter",
      7799
    ],
    [
      "g",
      "ent",
      7785
    ],
    [
      "ge",
      "t</w>",
      7765
    ],
    [
      "@realdonald",
      "trump</w>",
      7755
    ],
    [
      "s",
      "en",
      7742
    ],
    [
      "wh",
      "o",
      7732
    ],
    [
      "1",
      "</w>",
      7717
    ],
    [
      "2",
      "</w>",
      7713
    ],
    [
      "ag",
      "e</w>",
      7677
    ],
    [
      "s",
      "on</w>",
      7674
    ],
    [
      "you",
      "n",
      7665
    ],
    [
      "ar",
      "s</w>",
      7617
    ],
    [
      "si",
      "on</w>",
      7616
    ],
    [
      "c",
      "lo",
      7600
    ],
    [
      "ser",
      "v",
      7583
    ],
    [
      "h",
      "or",
      7580
    ],
    [
      "jec",
      "t</w>",
      7570
    ],
    [
      "ll",
      "ow",
      7554
    ],
    [
      "m",
      "en</w>",
      7547
    ],
    [
      "ce",
      "i",
      7544
    ],
    [
      "li",
      "e",
      7493
    ],
    [
      "l",
      "ess</w>",
      7482
    ],
    [
      "li",
      "c",
      7481
    ],
    [
      "se",
      ".</w>",
      7478
    ],
    [
      "d",
      "ing</w>",
      7461
    ],
    [
      "re",
      ".</w>",
      7450
    ],
    [
      "ce",
      ".</w>",
      7404
    ],
    [
      "l",
      ",</w>",
      7376
    ],
    [
      "o",
      "d",
      7374
    ],
    [
      "tt",
      "er</w>",
      7365
    ],
    [
      "ou",
      "s",
      7351
    ],
    [
      "se",
      "em",
      7343
    ],
    [
      "i",
      "ll",
      7342
    ],
    [
      "w",
      "om",
      7335
    ],
    [
      "d",
      "r",
      7335
    ],
    [
      "com",
      "p",
      7319
    ],
    [
      "w",
      "ent</w>",
      7318
    ],
    [
      "_",
      "]</w>",
      7309
    ],
    [
      "l",
      "ong</w>",
      7269
    ],
    [
      "con",
      "t",
      7266
    ],
    [
      "e",
      "st",
      7264
    ],
    [
      "p",
      "t</w>",
      7263
    ],
    [
      "te",
      "ll</w>",
      7243
    ],
    [
      "he",
      "d</w>",
      7234
    ],
    [
      ")",
      "</w>",
      7228
    ],
    [
      "lo",
      "ve</w>",
      7210
    ],
    [
      "again",
      "st</w>",
      7202
    ],
    [
      "er",
      ".</w>",
      7183
    ],
    [
      "in",
      "e</w>",
      7178
    ],
    [
      "him",
      ".</w>",
      7153
    ],
    [
      "ca",
      "p",
      7152
    ],
    [
      "c",
      "as",
      7151
    ],
    [
      "ou",
      "ght</w>",
      7144
    ],
    [
      "t",
      "al",
      7124
    ],
    [
      "g",
      "n",
      7121
    ],
    [
      "on",
      ".</w>",
      7088
    ],
    [
      "m",
      "en",
      7056
    ],
    [
      "no",
      "r</w>",
      7045
    ],
    [
      "g",
      "ar",
      7043
    ],
    [
      "he",
      "l",
      7008
    ],
    [
      "se",
      "e",
      6997
    ],
    [
      "b",
      "ar",
      6982
    ],
    [
      "ch",
      ",</w>",
      6963
    ],
    [
      "c",
      "r",
      6955
    ],
    [
      "a",
      "in</w>",
      6952
    ],
    [
      "peop",
      "le</w>",
      6947
    ],
    [
      "gh",
      "t,</w>",
      6890
    ],
    [
      "ti",
      "m",
      6882
    ],
    [
      "b",
      "</w>",
      6862
    ],
    [
      "k",
      ".</w>",
      6829
    ],
    [
      "e",
      "f",
      6824
    ],
    [
      "se",
      "s</w>",
      6797
    ],
    [
      "to",
      "o</w>",
      6790
    ],
    [
      "e",
      ";</w>",
      6768
    ],
    [
      "v",
      "al",
      6754
    ],
    [
      "at",
      "e",
      6720
    ],
    [
      "an",
      "y",
      6711
    ],
    [
      "c",
      "e,</w>",
      6708
    ],
    [
      "un",
      "der",
      6704
    ],
    [
      "s",
      "al",
      6683
    ],
    [
      "c",
      "all",
      6666
    ],
    [
      "d",
      "ow",
      6665
    ],
    [
      "ple",
      "as",
      6641
    ],
    [
      "t",
      "un",
      6627
    ],
    [
      "an",
      "s</w>",
      6598
    ],
    [
      "for",
      "m",
      6585
    ],
    [
      "0",
      "</w>",
      6569
    ],
    [
      "di",
      "st",
      6560
    ],
    [
      "'",
      "s</w>",
      6544
    ],
    [
      "w",
      "as",
      6543
    ],
    [
      "st",
      "er</w>",
      6530
    ],
    [
      "the",
      "e</w>",
      6497
    ],
    [
      "be",
      "cause</w>",
      6484
    ],
    [
      "sti",
      "ll</w>",
      6475
    ],
    [
      "no",
      "thing</w>",
      6467
    ],
    [
      "-",
      "</w>",
      6461
    ],
    [
      "ri",
      "ght</w>",
      6460
    ],
    [
      "thr",
      "ough</w>",
      6456
    ],
    [
      "_",
      "</w>",
      6455
    ],
    [
      "youn",
      "g</w>",
      6452
    ],
    [
      "he",
      "av",
      6443
    ],
    [
      "y",
      "e</w>",
      6416
    ],
    [
      "d",
      "g",
      6392
    ],
    [
      "him",
      "self</w>",
      6387
    ],
    [
      "y",
      ";</w>",
      6384
    ],
    [
      "loo",
      "k</w>",
      6377
    ],
    [
      "pu",
      "t</w>",
      6372
    ],
    [
      "ta",
      "in</w>",
      6371
    ],
    [
      "l",
      "ast</w>",
      6348
    ],
    [
      "k",
      "en</w>",
      6344
    ],
    [
      "n",
      "at",
      6329
    ],
    [
      "ne",
      "w",
      6301
    ],
    [
      "m",
      "p",
      6295
    ],
    [
      "u",
      "l",
      6290
    ],
    [
      "qu",
      "i",
      6286
    ],
    [
      "whi",
      "le</w>",
      6280
    ],
    [
      "thou",
      "ght</w>",
      6274
    ],
    [
      "s",
      "h</w>",
      6272
    ],
    [
      "v",
      "en",
      6259
    ],
    [
      "u",
      "gh",
      6252
    ],
    [
      "s",
      "ur",
      6239
    ],
    [
      ":",
      "2",
      6236
    ],
    [
      "f",
      "t</w>",
      6225
    ],
    [
      "s",
      "or",
      6223
    ],
    [
      "a",
      "ch</w>",
      6190
    ],
    [
      "c",
      "ur",
      6185
    ],
    [
      "le",
      ".</w>",
      6155
    ],
    [
      "o",
      "ther",
      6116
    ],
    [
      "w",
      "on",
      6096
    ],
    [
      "su",
      "b",
      6094
    ],
    [
      "ap",
      "pe",
      6086
    ],
    [
      "b",
      "or",
      6077
    ],
    [
      "f",
      "re",
      6068
    ],
    [
      "ic",
      "</w>",
      6061
    ],
    [
      "le",
      "a",
      6055
    ],
    [
      "s",
      "ame</w>",
      6035
    ],
    [
      "wh",
      "y</w>",
      6035
    ],
    [
      "es",
      "s,</w>",
      5982
    ],
    [
      "pl",
      "ac",
      5972
    ],
    [
      "ent",
      ",</w>",
      5963
    ],
    [
      "in",
      "de",
      5953
    ],
    [
      "ent",
      "er</w>",
      5940
    ],
    [
      "in",
      "c",
      5940
    ],
    [
      "i",
      "s,</w>",
      5876
    ],
    [
      "t",
      "en</w>",
      5870
    ],
    [
      "too",
      "k</w>",
      5866
    ],
    [
      "l",
      "d,</w>",
      5862
    ],
    [
      "go",
      "d</w>",
      5852
    ],
    [
      "ten",
      "ber",
      5842
    ],
    [
      "gu",
      "tenber",
      5836
    ],
    [
      "s",
      "ou",
      5809
    ],
    [
      "un",
      "der</w>",
      5801
    ],
    [
      "d",
      "ar",
      5788
    ],
    [
      "he",
      "n",
      5786
    ],
    [
      "s",
      "we",
      5727
    ],
    [
      "p",
      "ur",
      5721
    ],
    [
      "l",
      "an",
      5717
    ],
    [
      "st",
      "ar",
      5705
    ],
    [
      "wh",
      "om</w>",
      5701
    ],
    [
      "re",
      "tur",
      5685
    ],
    [
      "com",
      "m",
      5675
    ],
    [
      "st",
      ".</w>",
      5660
    ],
    [
      ".",
      "_]</w>",
      5659
    ],
    [
      "wa",
      "ys</w>",
      5658
    ],
    [
      "\"\"",
      "\"</w>",
      5658
    ],
    [
      "p",
      "s</w>",
      5648
    ],
    [
      "fe",
      "c",
      5645
    ],
    [
      "n",
      "\u2019t</w>",
      5639
    ],
    [
      "v",
      "e,</w>",
      5636
    ],
    [
      "bu",
      "r",
      5632
    ],
    [
      "don",
      "\u2019t</w>",
      5620
    ],
    [
      "sa",
      "w</w>",
      5618
    ],
    [
      "i\u2019",
      "ll</w>",
      5614
    ],
    [
      "\"\"",
      "</w>",
      5612
    ],
    [
      "well",
      ",</w>",
      5606
    ],
    [
      "d",
      "re",
      5597
    ],
    [
      "e",
      "d.</w>",
      5589
    ],
    [
      "s",
      "ing</w>",
      5577
    ],
    [
      "bre",
      "a",
      5563
    ],
    [
      "x",
      "</w>",
      5562
    ],
    [
      "st",
      "a",
      5553
    ],
    [
      "h",
      "un",
      5547
    ],
    [
      "ar",
      "m",
      5546
    ],
    [
      "bo",
      "o",
      5534
    ],
    [
      "p",
      "h",
      5528
    ],
    [
      "a",
      "h</w>",
      5523
    ],
    [
      "bac",
      "k</w>",
      5517
    ],
    [
      "l",
      "ar",
      5513
    ],
    [
      "n",
      "a",
      5511
    ],
    [
      "o",
      ",</w>",
      5488
    ],
    [
      "l",
      "ong",
      5481
    ],
    [
      "sai",
      "d,</w>",
      5463
    ],
    [
      "pro",
      "ject</w>",
      5429
    ],
    [
      "man",
      ",</w>",
      5408
    ],
    [
      "g",
      "l",
      5407
    ],
    [
      "l",
      "y.</w>",
      5391
    ],
    [
      "e",
      "t",
      5390
    ],
    [
      "v",
      "en</w>",
      5389
    ],
    [
      "ai",
      "d</w>",
      5383
    ],
    [
      "le",
      "c",
      5379
    ],
    [
      "r",
      "en",
      5340
    ],
    [
      "an",
      "other</w>",
      5337
    ],
    [
      "f",
      "ound</w>",
      5336
    ],
    [
      "on",
      "s</w>",
      5325
    ],
    [
      "p",
      "ow",
      5307
    ],
    [
      "a",
      "wa",
      5307
    ],
    [
      "po",
      "in",
      5306
    ],
    [
      "a",
      "way</w>",
      5300
    ],
    [
      "it",
      "ed</w>",
      5296
    ],
    [
      "ation",
      "s</w>",
      5292
    ],
    [
      "o",
      "ver",
      5292
    ],
    [
      "gent",
      "le",
      5291
    ],
    [
      "se",
      "t</w>",
      5280
    ],
    [
      "h",
      "op",
      5277
    ],
    [
      "ati",
      "on,</w>",
      5216
    ],
    [
      "f",
      "am",
      5213
    ],
    [
      "d",
      "in",
      5211
    ],
    [
      "hou",
      "se</w>",
      5203
    ],
    [
      "t",
      "on",
      5177
    ],
    [
      "tr",
      "a",
      5173
    ],
    [
      "coun",
      "tr",
      5163
    ],
    [
      "t",
      "we",
      5158
    ],
    [
      "er",
      "ic",
      5153
    ],
    [
      "b",
      "a",
      5147
    ],
    [
      "w",
      "o",
      5138
    ],
    [
      "wor",
      "k</w>",
      5137
    ],
    [
      "ch",
      "o",
      5133
    ],
    [
      "now",
      ",</w>",
      5122
    ],
    [
      "loo",
      "ked</w>",
      5117
    ],
    [
      "h",
      "ow",
      5115
    ],
    [
      "si",
      "l",
      5107
    ],
    [
      "c",
      "le",
      5094
    ],
    [
      "wi",
      "th",
      5087
    ],
    [
      "wi",
      "ll",
      5087
    ],
    [
      "go",
      "ing</w>",
      5083
    ],
    [
      "go",
      "t</w>",
      5076
    ],
    [
      "thre",
      "e</w>",
      5062
    ],
    [
      "de",
      "a",
      5052
    ],
    [
      "trum",
      "p",
      5052
    ],
    [
      "&",
      "amp",
      5051
    ],
    [
      "an",
      ",</w>",
      5036
    ],
    [
      "s",
      "po",
      5031
    ],
    [
      "hear",
      "d</w>",
      5027
    ],
    [
      "gre",
      "at",
      5024
    ],
    [
      "ag",
      "ain</w>",
      5012
    ],
    [
      "h",
      "om",
      4978
    ],
    [
      "of",
      "f</w>",
      4975
    ],
    [
      "seem",
      "ed</w>",
      4972
    ],
    [
      "h",
      "and</w>",
      4972
    ],
    [
      "al",
      "ways</w>",
      4966
    ],
    [
      "m",
      "b",
      4941
    ],
    [
      "o",
      "c",
      4941
    ],
    [
      "r",
      "un",
      4927
    ],
    [
      "them",
      ",</w>",
      4922
    ],
    [
      "on",
      "ce</w>",
      4920
    ],
    [
      "so",
      "l",
      4907
    ],
    [
      "ro",
      "s",
      4885
    ],
    [
      "k",
      "i",
      4876
    ],
    [
      "la",
      "w",
      4864
    ],
    [
      "ey",
      "es</w>",
      4861
    ],
    [
      "po",
      "or</w>",
      4858
    ],
    [
      "sc",
      "en",
      4855
    ],
    [
      "6",
      "</w>",
      4853
    ],
    [
      "am",
      "eric",
      4848
    ],
    [
      "bo",
      "th</w>",
      4844
    ],
    [
      "an",
      "i",
      4843
    ],
    [
      "chi",
      "ld",
      4841
    ],
    [
      "ans",
      "wer",
      4837
    ],
    [
      "m",
      "om",
      4836
    ],
    [
      "de",
      "li",
      4834
    ],
    [
      "b",
      "en",
      4823
    ],
    [
      "ever",
      "y",
      4817
    ],
    [
      "than",
      "k</w>",
      4816
    ],
    [
      "ll",
      "y</w>",
      4796
    ],
    [
      "3",
      "</w>",
      4783
    ],
    [
      "t",
      "ro",
      4782
    ],
    [
      "b",
      "es",
      4778
    ],
    [
      "en",
      "ed</w>",
      4747
    ],
    [
      "wh",
      "ose</w>",
      4744
    ],
    [
      "b",
      "ri",
      4743
    ],
    [
      "ha",
      "ving</w>",
      4740
    ],
    [
      "war",
      "d</w>",
      4728
    ],
    [
      "sa",
      "y",
      4717
    ],
    [
      "d",
      "ou",
      4712
    ],
    [
      "al",
      "so</w>",
      4712
    ],
    [
      "l",
      "in",
      4697
    ],
    [
      "th",
      ".</w>",
      4696
    ],
    [
      "5",
      "</w>",
      4695
    ],
    [
      "d",
      "s,</w>",
      4695
    ],
    [
      "ar",
      "i",
      4686
    ],
    [
      "can",
      "not</w>",
      4676
    ],
    [
      "ha",
      "l",
      4674
    ],
    [
      "tt",
      "er",
      4671
    ],
    [
      "i",
      "g",
      4665
    ],
    [
      "par",
      "t</w>",
      4663
    ],
    [
      "i",
      "ther</w>",
      4650
    ],
    [
      "st",
      "at",
      4647
    ],
    [
      "ad",
      "v",
      4643
    ],
    [
      "gen",
      "er",
      4639
    ],
    [
      "me",
      "di",
      4635
    ],
    [
      "r",
      "om",
      4634
    ],
    [
      "th",
      "us</w>",
      4634
    ],
    [
      "le",
      "ft</w>",
      4630
    ],
    [
      "str",
      "u",
      4629
    ],
    [
      "4",
      "</w>",
      4621
    ],
    [
      "h",
      "um",
      4617
    ],
    [
      "ou",
      "t",
      4609
    ],
    [
      "k",
      "ing",
      4608
    ],
    [
      "w",
      "al",
      4608
    ],
    [
      "i",
      "de",
      4599
    ],
    [
      "i",
      ".</w>",
      4598
    ],
    [
      "al",
      "i",
      4593
    ],
    [
      "in",
      "ed</w>",
      4580
    ],
    [
      "st",
      "u",
      4576
    ],
    [
      "fo",
      "re",
      4576
    ],
    [
      "u",
      "s,</w>",
      4567
    ],
    [
      "ma",
      "d",
      4555
    ],
    [
      "you",
      "r",
      4548
    ],
    [
      "lif",
      "e</w>",
      4547
    ],
    [
      "be",
      "tter</w>",
      4535
    ],
    [
      "ff",
      "er",
      4534
    ],
    [
      "to",
      "ld</w>",
      4526
    ],
    [
      "re",
      "as",
      4525
    ],
    [
      "s",
      "le",
      4514
    ],
    [
      "n",
      ".</w>",
      4511
    ],
    [
      "re",
      "c",
      4506
    ],
    [
      "her",
      ",</w>",
      4493
    ],
    [
      "self",
      ",</w>",
      4491
    ],
    [
      "re",
      "s</w>",
      4475
    ],
    [
      "b",
      "loo",
      4475
    ],
    [
      "pr",
      "in",
      4474
    ],
    [
      "ti",
      "ll</w>",
      4470
    ],
    [
      "da",
      "y",
      4468
    ],
    [
      "fin",
      "d</w>",
      4457
    ],
    [
      "re",
      "p",
      4454
    ],
    [
      "ag",
      "re",
      4453
    ],
    [
      "2",
      "0",
      4451
    ],
    [
      "s",
      "y",
      4446
    ],
    [
      "s",
      "!</w>",
      4433
    ],
    [
      "to",
      "ge",
      4425
    ],
    [
      "'",
      "t</w>",
      4422
    ],
    [
      "sh",
      "o",
      4414
    ],
    [
      "j",
      "e",
      4409
    ],
    [
      "st",
      "re",
      4390
    ],
    [
      "lor",
      "d,</w>",
      4381
    ],
    [
      "p",
      "ra",
      4379
    ],
    [
      "ti",
      "on,</w>",
      4372
    ],
    [
      "ex",
      "ce",
      4372
    ],
    [
      "mis",
      "s</w>",
      4368
    ],
    [
      "re",
      "cei",
      4367
    ],
    [
      "on",
      "e",
      4365
    ],
    [
      "for",
      "tun",
      4363
    ],
    [
      "be",
      "au",
      4351
    ],
    [
      "th",
      "ings</w>",
      4344
    ],
    [
      "d",
      "ra",
      4341
    ],
    [
      "http",
      "://t.co/",
      4336
    ],
    [
      "gutenber",
      "g",
      4325
    ],
    [
      "st",
      "and</w>",
      4316
    ],
    [
      "con",
      "si",
      4314
    ],
    [
      "s",
      ":</w>",
      4313
    ],
    [
      "fu",
      "ll</w>",
      4309
    ],
    [
      "re",
      "me",
      4309
    ],
    [
      "th",
      "ing",
      4307
    ],
    [
      "he",
      "ar</w>",
      4297
    ],
    [
      "n",
      "am",
      4289
    ],
    [
      "du",
      "c",
      4288
    ],
    [
      "or",
      ",</w>",
      4281
    ],
    [
      "he",
      "ad</w>",
      4277
    ],
    [
      "l",
      "ing</w>",
      4277
    ],
    [
      "pl",
      "ace</w>",
      4273
    ],
    [
      "st",
      "and",
      4268
    ],
    [
      "pre",
      "si",
      4258
    ],
    [
      "some",
      "thing</w>",
      4255
    ],
    [
      "war",
      "ds</w>",
      4246
    ],
    [
      "s",
      "un",
      4236
    ],
    [
      "st",
      "ed</w>",
      4235
    ],
    [
      "ke",
      "ep</w>",
      4231
    ],
    [
      "w",
      "ant</w>",
      4223
    ],
    [
      "che",
      "d</w>",
      4218
    ],
    [
      "ai",
      "r",
      4213
    ],
    [
      "you",
      ".</w>",
      4210
    ],
    [
      "us",
      "ed</w>",
      4198
    ],
    [
      "th",
      "en,</w>",
      4197
    ],
    [
      "in",
      ",</w>",
      4187
    ],
    [
      "p",
      "al",
      4178
    ],
    [
      "u",
      "t",
      4175
    ],
    [
      "[_",
      "ex",
      4168
    ],
    [
      "sir",
      ",</w>",
      4165
    ],
    [
      "fa",
      "ther</w>",
      4158
    ],
    [
      "be",
      "lie",
      4155
    ],
    [
      "en",
      ".</w>",
      4154
    ],
    [
      "\u201c",
      "you</w>",
      4152
    ],
    [
      "d",
      "one</w>",
      4151
    ],
    [
      "t",
      "y",
      4147
    ],
    [
      "n",
      "um",
      4146
    ],
    [
      "g",
      "ra",
      4145
    ],
    [
      "call",
      "ed</w>",
      4142
    ],
    [
      "7",
      "</w>",
      4135
    ],
    [
      "he",
      "ad",
      4131
    ],
    [
      "fri",
      "en",
      4113
    ],
    [
      "an",
      "ge</w>",
      4102
    ],
    [
      "read",
      "y</w>",
      4101
    ],
    [
      "ma",
      "g",
      4095
    ],
    [
      "spea",
      "k</w>",
      4089
    ],
    [
      "p",
      "en",
      4083
    ],
    [
      "fri",
      "end",
      4082
    ],
    [
      "fo",
      "o",
      4080
    ],
    [
      "ro",
      "w</w>",
      4078
    ],
    [
      "so",
      "on</w>",
      4077
    ],
    [
      "ar",
      ",</w>",
      4077
    ],
    [
      "d",
      "ly</w>",
      4074
    ],
    [
      "cha",
      "p",
      4056
    ],
    [
      "ga",
      "ve</w>",
      4050
    ],
    [
      "&amp",
      ",</w>",
      4049
    ],
    [
      "t",
      "ly</w>",
      4047
    ],
    [
      "l",
      "at",
      4038
    ],
    [
      "l",
      "s</w>",
      4035
    ],
    [
      "fa",
      "ther",
      4029
    ],
    [
      "ent",
      "ly</w>",
      4023
    ],
    [
      "d",
      "res",
      4020
    ],
    [
      "8",
      "</w>",
      4016
    ],
    [
      "se",
      "en</w>",
      4004
    ],
    [
      "f",
      "ar</w>",
      3990
    ],
    [
      "in",
      "i",
      3985
    ],
    [
      "g",
      "ed</w>",
      3983
    ],
    [
      "tim",
      "es</w>",
      3980
    ],
    [
      "scen",
      "e</w>",
      3979
    ],
    [
      "es",
      ";</w>",
      3976
    ],
    [
      "whe",
      "re",
      3967
    ],
    [
      "it",
      "y,</w>",
      3965
    ],
    [
      "on",
      "e,</w>",
      3965
    ],
    [
      "es",
      "s.</w>",
      3946
    ],
    [
      "m",
      "it",
      3940
    ],
    [
      "to",
      "r</w>",
      3938
    ],
    [
      "l",
      ".</w>",
      3932
    ],
    [
      "ni",
      "ght</w>",
      3931
    ],
    [
      "pos",
      "si",
      3928
    ],
    [
      "no",
      ",</w>",
      3925
    ],
    [
      "b",
      "le",
      3924
    ],
    [
      "k",
      "es</w>",
      3920
    ],
    [
      "hear",
      "t</w>",
      3918
    ],
    [
      "st",
      "ri",
      3906
    ],
    [
      "gh",
      "t.</w>",
      3904
    ],
    [
      "de",
      "ar</w>",
      3894
    ],
    [
      "x",
      "t</w>",
      3893
    ],
    [
      "pu",
      "b",
      3893
    ],
    [
      "se",
      "con",
      3885
    ],
    [
      "ro",
      "om",
      3883
    ],
    [
      "sin",
      "ce</w>",
      3875
    ],
    [
      "pr",
      "om",
      3873
    ],
    [
      "al",
      "most</w>",
      3869
    ],
    [
      "jo",
      "h",
      3863
    ],
    [
      "wor",
      "d</w>",
      3861
    ],
    [
      "mr",
      "s.</w>",
      3854
    ],
    [
      "who",
      "le</w>",
      3849
    ],
    [
      ",",
      "\u2014",
      3845
    ],
    [
      "ou",
      "ld",
      3833
    ],
    [
      "h",
      "in",
      3822
    ],
    [
      "g",
      "ri",
      3819
    ],
    [
      "d",
      "ent</w>",
      3817
    ],
    [
      "am",
      "ong</w>",
      3808
    ],
    [
      "n",
      "er</w>",
      3807
    ],
    [
      "anc",
      "e,</w>",
      3803
    ],
    [
      "fam",
      "i",
      3798
    ],
    [
      "e",
      "as",
      3797
    ],
    [
      "a",
      "re",
      3797
    ],
    [
      "qu",
      "ite</w>",
      3795
    ],
    [
      "m",
      "ed</w>",
      3788
    ],
    [
      "n",
      "ame</w>",
      3785
    ],
    [
      "f",
      "ace</w>",
      3776
    ],
    [
      "there",
      "fore</w>",
      3766
    ],
    [
      "that",
      ",</w>",
      3764
    ],
    [
      "..",
      ".",
      3760
    ],
    [
      "fo",
      "llow",
      3760
    ],
    [
      "ic",
      "i",
      3753
    ],
    [
      "be",
      "twe",
      3748
    ],
    [
      "y",
      "ed</w>",
      3741
    ],
    [
      "l",
      "ow",
      3738
    ],
    [
      "s",
      "mi",
      3737
    ],
    [
      "tion",
      "s</w>",
      3737
    ],
    [
      "m",
      ".</w>",
      3734
    ],
    [
      "9",
      "</w>",
      3734
    ],
    [
      "\u201c",
      "and</w>",
      3729
    ],
    [
      "ll",
      "i",
      3717
    ],
    [
      "b",
      "est</w>",
      3715
    ],
    [
      "ent",
      ".</w>",
      3714
    ],
    [
      "di",
      "d",
      3713
    ],
    [
      "per",
      "ha",
      3711
    ],
    [
      "my",
      "self</w>",
      3709
    ],
    [
      "at",
      "ten",
      3707
    ],
    [
      "o",
      "v",
      3699
    ],
    [
      "vi",
      "ll",
      3692
    ],
    [
      "ll",
      "ow</w>",
      3690
    ],
    [
      "da",
      "ugh",
      3686
    ],
    [
      "in",
      "di",
      3673
    ],
    [
      "it",
      "u",
      3669
    ],
    [
      "m",
      "s</w>",
      3669
    ],
    [
      "f",
      "ur",
      3662
    ],
    [
      "p",
      "hi",
      3660
    ],
    [
      "br",
      "ought</w>",
      3659
    ],
    [
      "bo",
      "dy</w>",
      3659
    ],
    [
      "betwe",
      "en</w>",
      3657
    ],
    [
      "cont",
      "in",
      3656
    ],
    [
      "la",
      "dy</w>",
      3653
    ],
    [
      "m",
      "ber",
      3642
    ],
    [
      "de",
      ",</w>",
      3631
    ],
    [
      "oun",
      "d",
      3627
    ],
    [
      "ti",
      "s</w>",
      3615
    ],
    [
      "tt",
      "ing</w>",
      3610
    ],
    [
      "com",
      "e,</w>",
      3603
    ],
    [
      "as",
      "ked</w>",
      3599
    ],
    [
      "chap",
      "ter</w>",
      3598
    ],
    [
      "he",
      "re",
      3598
    ],
    [
      "so",
      ",</w>",
      3596
    ],
    [
      "t",
      "s,</w>",
      3593
    ],
    [
      "is",
      "h</w>",
      3593
    ],
    [
      "si",
      "g",
      3591
    ],
    [
      "to",
      "w",
      3587
    ],
    [
      "li",
      "ght</w>",
      3573
    ],
    [
      "l",
      "and</w>",
      3571
    ],
    [
      "sto",
      "od</w>",
      3569
    ],
    [
      "loo",
      "king</w>",
      3567
    ],
    [
      "lea",
      "ve</w>",
      3565
    ],
    [
      "k",
      "new</w>",
      3564
    ],
    [
      "la",
      "d",
      3564
    ],
    [
      "po",
      "li",
      3562
    ],
    [
      "ent",
      "s</w>",
      3562
    ],
    [
      "c",
      "</w>",
      3553
    ],
    [
      "s",
      "ure</w>",
      3553
    ],
    [
      "e",
      "ach</w>",
      3546
    ],
    [
      "is",
      "e</w>",
      3543
    ],
    [
      "e",
      "vi",
      3527
    ],
    [
      "is",
      "]</w>",
      3517
    ],
    [
      "ent",
      "er",
      3514
    ],
    [
      "an",
      "ge",
      3514
    ],
    [
      "ti",
      "es</w>",
      3513
    ],
    [
      "ra",
      "ther</w>",
      3512
    ],
    [
      "cri",
      "ed</w>",
      3509
    ],
    [
      "re",
      "ad</w>",
      3505
    ],
    [
      "b",
      "an",
      3503
    ],
    [
      "contin",
      "u",
      3491
    ],
    [
      "a",
      "st",
      3489
    ],
    [
      "dou",
      "b",
      3487
    ],
    [
      "!",
      "\"</w>",
      3486
    ],
    [
      "t",
      "\u2019s</w>",
      3485
    ],
    [
      "m",
      "ur",
      3483
    ],
    [
      "b",
      "ra",
      3481
    ],
    [
      "su",
      "c",
      3477
    ],
    [
      "sp",
      "ir",
      3477
    ],
    [
      "ri",
      "ed</w>",
      3477
    ],
    [
      "no",
      "t",
      3467
    ],
    [
      "su",
      "p",
      3462
    ],
    [
      "ou",
      "gh",
      3460
    ],
    [
      "\u2019",
      "tis</w>",
      3456
    ],
    [
      "la",
      "y</w>",
      3453
    ],
    [
      "beg",
      "an</w>",
      3445
    ],
    [
      "vi",
      "e",
      3443
    ],
    [
      "w",
      "an",
      3442
    ],
    [
      "e",
      "lec",
      3440
    ],
    [
      "fe",
      "lt</w>",
      3440
    ],
    [
      "s",
      "ent</w>",
      3438
    ],
    [
      "d",
      ":</w>",
      3433
    ],
    [
      "per",
      "i",
      3426
    ],
    [
      "n",
      "or",
      3424
    ],
    [
      "co",
      "ver",
      3423
    ],
    [
      "ll",
      "ed</w>",
      3415
    ],
    [
      "al",
      ",</w>",
      3415
    ],
    [
      "ro",
      "om</w>",
      3412
    ],
    [
      "re",
      "ma",
      3412
    ],
    [
      "at",
      "ing</w>",
      3407
    ],
    [
      "en",
      "ti",
      3405
    ],
    [
      "la",
      "u",
      3392
    ],
    [
      "is",
      "h",
      3392
    ],
    [
      "f",
      "al",
      3391
    ],
    [
      "min",
      "e</w>",
      3389
    ],
    [
      "a",
      "pp",
      3382
    ],
    [
      "at",
      "t",
      3381
    ],
    [
      "in",
      "st",
      3378
    ],
    [
      "c",
      "all</w>",
      3371
    ],
    [
      "ex",
      "pe",
      3366
    ],
    [
      "ac",
      "k",
      3365
    ],
    [
      "belie",
      "ve</w>",
      3359
    ],
    [
      "da",
      "y,</w>",
      3357
    ],
    [
      "h",
      "us",
      3357
    ],
    [
      "the",
      "e,</w>",
      3341
    ],
    [
      "s",
      "ma",
      3333
    ],
    [
      "tur",
      "ned</w>",
      3327
    ],
    [
      "0",
      "0",
      3326
    ],
    [
      "s",
      "am",
      3325
    ],
    [
      "y",
      "es,</w>",
      3319
    ],
    [
      "them",
      ".</w>",
      3317
    ],
    [
      "thou",
      "s",
      3307
    ],
    [
      "ll",
      ",</w>",
      3302
    ],
    [
      "it",
      "\u2019s</w>",
      3300
    ],
    [
      "g",
      "ir",
      3299
    ],
    [
      "pp",
      "ed</w>",
      3285
    ],
    [
      "le",
      "ar",
      3284
    ],
    [
      "\u2014",
      "</w>",
      3284
    ],
    [
      "do",
      "es</w>",
      3275
    ],
    [
      "wor",
      "ld</w>",
      3273
    ],
    [
      "ho",
      "ld</w>",
      3261
    ],
    [
      "mon",
      "e",
      3260
    ],
    [
      "bu",
      "sin",
      3258
    ],
    [
      "c",
      "al",
      3251
    ],
    [
      "all",
      ",</w>",
      3250
    ],
    [
      "gutenberg",
      "\u2122",
      3249
    ],
    [
      "ation",
      ".</w>",
      3247
    ],
    [
      "l",
      "and",
      3246
    ],
    [
      "..",
      ".</w>",
      3244
    ],
    [
      "secon",
      "d</w>",
      3243
    ],
    [
      "tion",
      ".</w>",
      3241
    ],
    [
      "me",
      "an",
      3240
    ],
    [
      "wr",
      "it",
      3237
    ],
    [
      "y",
      "!</w>",
      3237
    ],
    [
      "re",
      "ally</w>",
      3237
    ],
    [
      "ever",
      ",</w>",
      3231
    ],
    [
      "er",
      "s,</w>",
      3230
    ],
    [
      "c",
      "ess",
      3229
    ],
    [
      ".",
      "\"</w>",
      3220
    ],
    [
      "br",
      "ing</w>",
      3218
    ],
    [
      "si",
      "de</w>",
      3205
    ],
    [
      "j",
      "er",
      3200
    ],
    [
      "d",
      "ro",
      3195
    ],
    [
      "re",
      "f",
      3193
    ],
    [
      "en",
      "ce,</w>",
      3192
    ],
    [
      "x",
      "i",
      3182
    ],
    [
      "i",
      "v",
      3176
    ],
    [
      "ch",
      "ing</w>",
      3175
    ],
    [
      "di",
      "sc",
      3174
    ],
    [
      "k",
      "e,</w>",
      3171
    ],
    [
      "that",
      "\u2019s</w>",
      3166
    ],
    [
      "ne",
      "xt</w>",
      3158
    ],
    [
      "que",
      "sti",
      3158
    ],
    [
      "ar",
      "t</w>",
      3155
    ],
    [
      "gi",
      "ven</w>",
      3141
    ],
    [
      "shi",
      "p",
      3139
    ],
    [
      "child",
      "r",
      3133
    ],
    [
      "ac",
      "t</w>",
      3131
    ],
    [
      "r",
      "ai",
      3129
    ],
    [
      "li",
      "fe",
      3126
    ],
    [
      "pr",
      "of",
      3125
    ],
    [
      "co",
      "ll",
      3122
    ],
    [
      "ch",
      "ri",
      3120
    ],
    [
      "ob",
      "am",
      3114
    ],
    [
      "s",
      "at",
      3113
    ],
    [
      "sa",
      "y,</w>",
      3107
    ],
    [
      "man",
      ".</w>",
      3106
    ],
    [
      "ti",
      "me,</w>",
      3106
    ],
    [
      "su",
      "pp",
      3105
    ],
    [
      "fe",
      "el",
      3104
    ],
    [
      "st",
      "ro",
      3103
    ],
    [
      "c",
      "ke",
      3100
    ],
    [
      "v",
      "ir",
      3097
    ],
    [
      "min",
      "d</w>",
      3088
    ],
    [
      "ye",
      "ars</w>",
      3088
    ],
    [
      "ter",
      ",</w>",
      3087
    ],
    [
      "wi",
      "f",
      3087
    ],
    [
      "d",
      "ge</w>",
      3086
    ],
    [
      "b",
      "it",
      3079
    ],
    [
      "e",
      "mi",
      3078
    ],
    [
      "gutenberg\u2122",
      "</w>",
      3078
    ],
    [
      "ic",
      "e,</w>",
      3077
    ],
    [
      "si",
      "on",
      3073
    ],
    [
      "ir",
      "e</w>",
      3073
    ],
    [
      "o",
      "h,</w>",
      3058
    ],
    [
      "wh",
      "y,</w>",
      3058
    ],
    [
      "shi",
      "p</w>",
      3058
    ],
    [
      "der",
      "ed</w>",
      3055
    ],
    [
      "i",
      "l",
      3053
    ],
    [
      "b",
      "as",
      3049
    ],
    [
      "th",
      "ir",
      3047
    ],
    [
      "r",
      "ound</w>",
      3046
    ],
    [
      ":",
      "3",
      3037
    ],
    [
      "fe",
      "w</w>",
      3031
    ],
    [
      "fai",
      "r</w>",
      3030
    ],
    [
      "her",
      ".</w>",
      3028
    ],
    [
      "en",
      "c",
      3028
    ],
    [
      "te",
      "m",
      3021
    ],
    [
      "ow",
      "ed</w>",
      3014
    ],
    [
      "e",
      "li",
      3008
    ],
    [
      "t",
      "ou",
      3007
    ],
    [
      "ic",
      "k",
      3004
    ],
    [
      "t",
      "y,</w>",
      3002
    ],
    [
      "ev",
      "en",
      2996
    ],
    [
      "par",
      "ti",
      2994
    ],
    [
      "wor",
      "ds</w>",
      2989
    ],
    [
      "go",
      "od",
      2987
    ],
    [
      "ta",
      "ken</w>",
      2986
    ],
    [
      "\u2019",
      "ll</w>",
      2980
    ],
    [
      "h",
      "an",
      2972
    ],
    [
      "ca",
      "u",
      2971
    ],
    [
      "tur",
      "e</w>",
      2967
    ],
    [
      "po",
      "se</w>",
      2966
    ],
    [
      "he",
      "a",
      2966
    ],
    [
      "to",
      "wards</w>",
      2951
    ],
    [
      "ex",
      "pres",
      2947
    ],
    [
      "co",
      "p",
      2947
    ],
    [
      "is",
      "ra",
      2942
    ],
    [
      "d",
      "ang",
      2931
    ],
    [
      "t",
      "ab",
      2929
    ],
    [
      "an",
      ".</w>",
      2929
    ],
    [
      "mb",
      "er</w>",
      2917
    ],
    [
      "hal",
      "f</w>",
      2915
    ],
    [
      "new",
      "s</w>",
      2914
    ],
    [
      "e",
      "f</w>",
      2911
    ],
    [
      "whi",
      "te</w>",
      2906
    ],
    [
      "sh",
      "or",
      2904
    ],
    [
      "po",
      "si",
      2904
    ],
    [
      "ye",
      "ar",
      2895
    ],
    [
      "re",
      "st</w>",
      2891
    ],
    [
      "v",
      "ic",
      2879
    ],
    [
      "te",
      "d,</w>",
      2877
    ],
    [
      "on",
      "e.</w>",
      2874
    ],
    [
      "hop",
      "e</w>",
      2873
    ],
    [
      "c",
      "row",
      2872
    ],
    [
      "t",
      ";</w>",
      2869
    ],
    [
      "g",
      "g",
      2868
    ],
    [
      "sh",
      "u",
      2864
    ],
    [
      "d",
      "or",
      2859
    ],
    [
      "e",
      "!</w>",
      2859
    ],
    [
      "spe",
      "c",
      2855
    ],
    [
      "st",
      "ra",
      2853
    ],
    [
      "h",
      "our",
      2840
    ],
    [
      "no",
      "t,</w>",
      2834
    ],
    [
      "for",
      "th</w>",
      2834
    ],
    [
      "fu",
      "lly</w>",
      2832
    ],
    [
      "bu",
      "t,</w>",
      2831
    ],
    [
      "as",
      "k</w>",
      2827
    ],
    [
      "s",
      "ci",
      2826
    ],
    [
      "li",
      "st",
      2823
    ],
    [
      "th",
      "is",
      2821
    ],
    [
      "li",
      "ed</w>",
      2820
    ],
    [
      "ag",
      "e,</w>",
      2818
    ],
    [
      "do",
      "th</w>",
      2810
    ],
    [
      "hel",
      "p</w>",
      2810
    ],
    [
      "c",
      "lu",
      2809
    ],
    [
      "b",
      "ed</w>",
      2806
    ],
    [
      "i",
      "d",
      2803
    ],
    [
      "ab",
      "o",
      2797
    ],
    [
      "r",
      "an",
      2786
    ],
    [
      "hand",
      "s</w>",
      2786
    ],
    [
      "em",
      "p",
      2785
    ],
    [
      ".",
      "\u2019</w>",
      2784
    ],
    [
      "z",
      "e",
      2777
    ],
    [
      "\u201c",
      "the</w>",
      2775
    ],
    [
      "how",
      "ever,</w>",
      2768
    ],
    [
      "s",
      "ing",
      2768
    ],
    [
      "l",
      "on",
      2757
    ],
    [
      "da",
      "ys</w>",
      2754
    ],
    [
      "d",
      "om",
      2740
    ],
    [
      "d",
      "\u2019",
      2736
    ],
    [
      "la",
      "r</w>",
      2732
    ],
    [
      "ch",
      ".</w>",
      2730
    ],
    [
      "ha",
      "st</w>",
      2727
    ],
    [
      "ck",
      ",</w>",
      2726
    ],
    [
      "wi",
      "t",
      2725
    ],
    [
      "ju",
      "st",
      2724
    ],
    [
      "self",
      ".</w>",
      2722
    ],
    [
      "j",
      "on",
      2720
    ],
    [
      "m",
      ",</w>",
      2717
    ],
    [
      "i",
      ",</w>",
      2715
    ],
    [
      "c",
      "ir",
      2713
    ],
    [
      "ar",
      "d</w>",
      2711
    ],
    [
      "s",
      "?</w>",
      2710
    ],
    [
      "lo",
      "ve",
      2704
    ],
    [
      "pro",
      "te",
      2704
    ],
    [
      "h",
      "ur",
      2698
    ],
    [
      "any",
      "thing</w>",
      2697
    ],
    [
      "coun",
      "t</w>",
      2695
    ],
    [
      "fo",
      "re,</w>",
      2695
    ],
    [
      "perha",
      "ps</w>",
      2694
    ],
    [
      "do",
      "c",
      2692
    ],
    [
      "ate",
      "ly</w>",
      2691
    ],
    [
      "se",
      "d,</w>",
      2690
    ],
    [
      "s",
      "k",
      2690
    ],
    [
      "vi",
      "si",
      2673
    ],
    [
      "sp",
      "i",
      2670
    ],
    [
      "ap",
      "pro",
      2669
    ],
    [
      "v",
      "e.</w>",
      2669
    ],
    [
      "wi",
      "sh</w>",
      2662
    ],
    [
      "m",
      "en,</w>",
      2662
    ],
    [
      "ac",
      "c",
      2662
    ],
    [
      "un",
      "ti",
      2658
    ],
    [
      "[",
      "is]</w>",
      2655
    ],
    [
      "p",
      "sal",
      2653
    ],
    [
      "fa",
      "v",
      2646
    ],
    [
      "m",
      "ou",
      2644
    ],
    [
      "of",
      "fer",
      2642
    ],
    [
      "cer",
      "tain</w>",
      2640
    ],
    [
      "hi",
      "ll",
      2640
    ],
    [
      "af",
      "ter",
      2632
    ],
    [
      "le",
      "g",
      2629
    ],
    [
      "sh",
      "ow</w>",
      2620
    ],
    [
      "them",
      "sel",
      2617
    ],
    [
      "whe",
      "ther</w>",
      2614
    ],
    [
      "y",
      "\u2019s</w>",
      2612
    ],
    [
      "at",
      "s</w>",
      2610
    ],
    [
      "kin",
      "d</w>",
      2601
    ],
    [
      "li",
      "ve</w>",
      2599
    ],
    [
      "f",
      "ic",
      2596
    ],
    [
      "s",
      "it",
      2594
    ],
    [
      "k",
      "s,</w>",
      2594
    ],
    [
      "ju",
      "dg",
      2591
    ],
    [
      "h",
      "u",
      2591
    ],
    [
      "ou",
      "t,</w>",
      2586
    ],
    [
      "fai",
      "r",
      2585
    ],
    [
      "com",
      "ing</w>",
      2584
    ],
    [
      "se",
      "ver",
      2580
    ],
    [
      "hi",
      "gh</w>",
      2574
    ],
    [
      "te",
      "ll",
      2573
    ],
    [
      "with",
      "in</w>",
      2573
    ],
    [
      "pres",
      "ent</w>",
      2572
    ],
    [
      "r",
      "up",
      2572
    ],
    [
      "childr",
      "en</w>",
      2565
    ],
    [
      "p",
      "ain",
      2564
    ],
    [
      "n",
      "er",
      2563
    ],
    [
      "happ",
      "y</w>",
      2562
    ],
    [
      "s",
      "per",
      2562
    ],
    [
      "cer",
      "tain",
      2561
    ],
    [
      "e",
      "th</w>",
      2559
    ],
    [
      "r",
      "on",
      2556
    ],
    [
      "z",
      "ed</w>",
      2556
    ],
    [
      "of",
      "ten</w>",
      2552
    ],
    [
      "ous",
      "ly</w>",
      2551
    ],
    [
      "ne",
      "ed</w>",
      2550
    ],
    [
      "ster",
      ",</w>",
      2545
    ],
    [
      "at",
      "e,</w>",
      2542
    ],
    [
      "am",
      ",</w>",
      2541
    ],
    [
      "l",
      "ou",
      2540
    ],
    [
      "i",
      "mag",
      2534
    ],
    [
      "gh",
      "ts</w>",
      2534
    ],
    [
      "1",
      ".",
      2534
    ],
    [
      "countr",
      "y</w>",
      2533
    ],
    [
      "p",
      "ic",
      2531
    ],
    [
      "\u201c",
      "what</w>",
      2530
    ],
    [
      "sto",
      "r",
      2527
    ],
    [
      "again",
      ",</w>",
      2526
    ],
    [
      "f",
      "all",
      2526
    ],
    [
      "\u201c",
      "but</w>",
      2524
    ],
    [
      "psal",
      "m</w>",
      2522
    ],
    [
      "on",
      "d</w>",
      2521
    ],
    [
      "gr",
      "ac",
      2520
    ],
    [
      "r",
      "as",
      2516
    ],
    [
      "m",
      "oun",
      2511
    ],
    [
      "con",
      "cer",
      2510
    ],
    [
      "hus",
      "b",
      2510
    ],
    [
      "in",
      ".</w>",
      2506
    ],
    [
      "d",
      "den",
      2506
    ],
    [
      "tru",
      "e</w>",
      2502
    ],
    [
      "mi",
      "st",
      2502
    ],
    [
      "know",
      "n</w>",
      2501
    ],
    [
      "th",
      "i",
      2499
    ],
    [
      "com",
      "es</w>",
      2496
    ],
    [
      "en",
      "ough</w>",
      2493
    ],
    [
      "ai",
      "r</w>",
      2493
    ],
    [
      "thous",
      "and</w>",
      2492
    ],
    [
      "d",
      "ri",
      2480
    ],
    [
      "s",
      ".\u201d</w>",
      2480
    ],
    [
      "ver",
      "s",
      2477
    ],
    [
      "a",
      "red</w>",
      2475
    ],
    [
      "pow",
      "er</w>",
      2475
    ],
    [
      "s",
      "at</w>",
      2468
    ],
    [
      "in",
      "ten",
      2468
    ],
    [
      "do",
      "or</w>",
      2462
    ],
    [
      "di",
      "sa",
      2461
    ],
    [
      "run",
      "</w>",
      2459
    ],
    [
      "i",
      "ous</w>",
      2459
    ],
    [
      "n",
      "ess,</w>",
      2457
    ],
    [
      "al",
      "ready</w>",
      2454
    ],
    [
      "h",
      "and,</w>",
      2452
    ],
    [
      "we",
      "a",
      2448
    ],
    [
      "ac",
      "cor",
      2447
    ],
    [
      "num",
      "ber",
      2444
    ],
    [
      "cl",
      "ai",
      2443
    ],
    [
      "bi",
      "g</w>",
      2439
    ],
    [
      "be",
      "ar</w>",
      2434
    ],
    [
      "fe",
      "ar</w>",
      2433
    ],
    [
      "un",
      "c",
      2430
    ],
    [
      "\u201c",
      "it</w>",
      2430
    ],
    [
      "sma",
      "ll</w>",
      2428
    ],
    [
      "he",
      ",</w>",
      2428
    ],
    [
      "o",
      "\u2019",
      2425
    ],
    [
      "z",
      "a",
      2423
    ],
    [
      "e",
      "u",
      2421
    ],
    [
      "wom",
      "an</w>",
      2419
    ],
    [
      "mom",
      "ent</w>",
      2417
    ],
    [
      "ni",
      "ght",
      2416
    ],
    [
      "per",
      "son",
      2412
    ],
    [
      "d",
      "ur",
      2410
    ],
    [
      "p",
      "ati",
      2408
    ],
    [
      "20",
      "1",
      2402
    ],
    [
      "e",
      "ly</w>",
      2401
    ],
    [
      "d",
      "!</w>",
      2395
    ],
    [
      "p",
      "at",
      2394
    ],
    [
      "unti",
      "l</w>",
      2393
    ],
    [
      "g",
      "er",
      2391
    ],
    [
      "se",
      "cre",
      2389
    ],
    [
      "r",
      "us",
      2389
    ],
    [
      "ti",
      "ve</w>",
      2388
    ],
    [
      "sha",
      "lt</w>",
      2386
    ],
    [
      "ar",
      "t",
      2385
    ],
    [
      "go",
      "ver",
      2377
    ],
    [
      "pas",
      "sed</w>",
      2376
    ],
    [
      "pro",
      "vi",
      2376
    ],
    [
      "st",
      "ate</w>",
      2375
    ],
    [
      "ment",
      "s</w>",
      2373
    ],
    [
      "swe",
      "et</w>",
      2371
    ],
    [
      "com",
      "man",
      2368
    ],
    [
      "si",
      "r</w>",
      2366
    ],
    [
      "k",
      "ing,</w>",
      2365
    ],
    [
      "y",
      "-",
      2358
    ],
    [
      "joh",
      "n</w>",
      2355
    ],
    [
      "y",
      ":</w>",
      2355
    ],
    [
      "w",
      "all",
      2355
    ],
    [
      "tr",
      "ou",
      2355
    ],
    [
      "pro",
      "p",
      2352
    ],
    [
      "a",
      "h,</w>",
      2349
    ],
    [
      "s",
      "on,</w>",
      2349
    ],
    [
      "dea",
      "th</w>",
      2349
    ],
    [
      "com",
      "ple",
      2347
    ],
    [
      "re",
      "l",
      2347
    ],
    [
      "ment",
      ",</w>",
      2347
    ],
    [
      "re",
      "ly</w>",
      2345
    ],
    [
      "s",
      "es",
      2343
    ],
    [
      "por",
      "t",
      2343
    ],
    [
      "op",
      "en</w>",
      2342
    ],
    [
      "su",
      "dden",
      2341
    ],
    [
      "an",
      "ti",
      2339
    ],
    [
      "k",
      "e.</w>",
      2332
    ],
    [
      "de",
      "mo",
      2332
    ],
    [
      "ne",
      "ar</w>",
      2331
    ],
    [
      "fe",
      "llow",
      2330
    ],
    [
      "e",
      "un",
      2329
    ],
    [
      "di",
      "rec",
      2320
    ],
    [
      "at",
      ",</w>",
      2315
    ],
    [
      "dra",
      "w",
      2311
    ],
    [
      "answer",
      "ed</w>",
      2311
    ],
    [
      "up",
      ",</w>",
      2310
    ],
    [
      "vo",
      "l",
      2308
    ]
  ]
}