{
  "vocab_size": 15000,
  "vocab": {
    "!": 0,
    "!!": 1,
    "!!!</w>": 2,
    "!!\"\"\"</w>": 3,
    "!!</w>": 4,
    "!\"\"\"</w>": 5,
    "!\"\"</w>": 6,
    "!\"</w>": 7,
    "!)</w>": 8,
    "!...</w>": 9,
    "!</w>": 10,
    "!_</w>": 11,
    "!_\u201d</w>": 12,
    "!\u2014": 13,
    "!\u2014</w>": 14,
    "!\u2019</w>": 15,
    "!\u201d": 16,
    "!\u201d</w>": 17,
    "\"": 18,
    "\"\"": 19,
    "\"\"\"": 20,
    "\"\"\"</w>": 21,
    "\"\"\"@": 22,
    "\"\"\"@d": 23,
    "\"\"\"@j": 24,
    "\"\"\"@jo": 25,
    "\"\"\"@k": 26,
    "\"\"\"@the": 27,
    "\"\"</w>": 28,
    "\"\"the</w>": 29,
    "\"</w>": 30,
    "\"i</w>": 31,
    "\"rt</w>": 32,
    "\"the</w>": 33,
    "\"via</w>": 34,
    "\"you</w>": 35,
    "#": 36,
    "#</w>": 37,
    "#celebapprentice</w>": 38,
    "#celebrity": 39,
    "#ma": 40,
    "#maga</w>": 41,
    "#make": 42,
    "#makeameric": 43,
    "#makeamericagreat": 44,
    "#makeamericagreatagain": 45,
    "#makeamericagreatagain</w>": 46,
    "#trump": 47,
    "#trump2016": 48,
    "#trump2016\"\"\"</w>": 49,
    "#trump2016</w>": 50,
    "#vote": 51,
    "$": 52,
    "$5": 53,
    "%": 54,
    "%.</w>": 55,
    "%</w>": 56,
    "&": 57,
    "&</w>": 58,
    "&amp": 59,
    "&amp,</w>": 60,
    "&amp;</w>": 61,
    "&c.</w>": 62,
    "'": 63,
    "'</w>": 64,
    "'s</w>": 65,
    "'t": 66,
    "'t</w>": 67,
    "(": 68,
    "(_": 69,
    "(a</w>": 70,
    "(and</w>": 71,
    "(as</w>": 72,
    "(c": 73,
    "(cont": 74,
    "(cont)</w>": 75,
    "(for</w>": 76,
    "(he</w>": 77,
    "(i</w>": 78,
    "(if</w>": 79,
    "(in</w>": 80,
    "(or</w>": 81,
    "(said</w>": 82,
    "(that</w>": 83,
    "(the</w>": 84,
    "(which</w>": 85,
    ")": 86,
    "),</w>": 87,
    ").</w>": 88,
    ");</w>": 89,
    ")</w>": 90,
    "*": 91,
    "**": 92,
    "***</w>": 93,
    "*</w>": 94,
    "+": 95,
    ",": 96,
    ",\"</w>": 97,
    ",'</w>": 98,
    ",)</w>": 99,
    ",--": 100,
    ",--</w>": 101,
    ",00": 102,
    ",000": 103,
    ",000</w>": 104,
    ",</w>": 105,
    ",[": 106,
    ",\u2014": 107,
    ",\u2014</w>": 108,
    ",\u2014a</w>": 109,
    ",\u2014and</w>": 110,
    ",\u2014i</w>": 111,
    ",\u2014the</w>": 112,
    ",\u2019</w>": 113,
    ",\u201d</w>": 114,
    "-": 115,
    "--": 116,
    "----": 117,
    "--------": 118,
    "----------------": 119,
    "---</w>": 120,
    "--</w>": 121,
    "--a</w>": 122,
    "--and</w>": 123,
    "--but</w>": 124,
    "--he</w>": 125,
    "--i</w>": 126,
    "--that</w>": 127,
    "--the</w>": 128,
    "-</w>": 129,
    "-a-": 130,
    "-and-": 131,
    "-house</w>": 132,
    "-in-": 133,
    "-in-law</w>": 134,
    "-like</w>": 135,
    "-ren": 136,
    "-renau": 137,
    "-t": 138,
    ".": 139,
    ".\"\"\"</w>": 140,
    ".\"\"</w>": 141,
    ".\"</w>": 142,
    ".'</w>": 143,
    ".)</w>": 144,
    ".,</w>": 145,
    ".--": 146,
    "..": 147,
    "...": 148,
    "...\"</w>": 149,
    "....": 150,
    ".....": 151,
    ".....</w>": 152,
    "....</w>": 153,
    "....\u201d</w>": 154,
    "...</w>": 155,
    "...and</w>": 156,
    "...\u201d</w>": 157,
    "..</w>": 158,
    ".</w>": 159,
    ".@": 160,
    ".]</w>": 161,
    ".]_</w>": 162,
    "._": 163,
    "._</w>": 164,
    "._]</w>": 165,
    ".m.</w>": 166,
    ".org": 167,
    ".}</w>": 168,
    ".\u2014": 169,
    ".\u2014</w>": 170,
    ".\u2019</w>": 171,
    ".\u2019\u201d</w>": 172,
    ".\u201d": 173,
    ".\u201d--": 174,
    ".\u201d</w>": 175,
    "/": 176,
    "//": 177,
    "0": 178,
    "00": 179,
    "00:": 180,
    "00:0": 181,
    "00:01": 182,
    "00:01:": 183,
    "00</w>": 184,
    "0</w>": 185,
    "1": 186,
    "1,</w>": 187,
    "1.": 188,
    "1.</w>": 189,
    "1.e.": 190,
    "1.e.1</w>": 191,
    "1.e.9.</w>": 192,
    "1.f": 193,
    "1.f.": 194,
    "1.f.3,</w>": 195,
    "10": 196,
    "100": 197,
    "100%</w>": 198,
    "10</w>": 199,
    "11": 200,
    "119": 201,
    "11</w>": 202,
    "12": 203,
    "12</w>": 204,
    "13": 205,
    "13</w>": 206,
    "14": 207,
    "15": 208,
    "15</w>": 209,
    "16": 210,
    "16</w>": 211,
    "17": 212,
    "17:": 213,
    "18": 214,
    "189": 215,
    "18</w>": 216,
    "19": 217,
    "1:": 218,
    "1:1": 219,
    "1:</w>": 220,
    "1</w>": 221,
    "1]</w>": 222,
    "2": 223,
    "2.</w>": 224,
    "20": 225,
    "200": 226,
    "201": 227,
    "2016": 228,
    "2016</w>": 229,
    "2020</w>": 230,
    "20</w>": 231,
    "21": 232,
    "21:": 233,
    "21:1": 234,
    "22": 235,
    "22:": 236,
    "23": 237,
    "24": 238,
    "24:": 239,
    "25": 240,
    "25</w>": 241,
    "26": 242,
    "26:": 243,
    "27": 244,
    "27:": 245,
    "28": 246,
    "28:": 247,
    "29": 248,
    "2:": 249,
    "2:</w>": 250,
    "2</w>": 251,
    "2]</w>": 252,
    "2n": 253,
    "2nd</w>": 254,
    "3": 255,
    "3,</w>": 256,
    "3.</w>": 257,
    "30": 258,
    "30</w>": 259,
    "31": 260,
    "31:": 261,
    "32": 262,
    "33": 263,
    "34": 264,
    "35": 265,
    "36": 266,
    "37": 267,
    "38": 268,
    "39": 269,
    "3:": 270,
    "3:</w>": 271,
    "3</w>": 272,
    "3]</w>": 273,
    "3r": 274,
    "4": 275,
    "4.</w>": 276,
    "40": 277,
    "40</w>": 278,
    "41</w>": 279,
    "42": 280,
    "43": 281,
    "44": 282,
    "44</w>": 283,
    "45": 284,
    "45</w>": 285,
    "46": 286,
    "47": 287,
    "48": 288,
    "49": 289,
    "4:": 290,
    "4:</w>": 291,
    "4</w>": 292,
    "4]</w>": 293,
    "5": 294,
    "5.</w>": 295,
    "50": 296,
    "50</w>": 297,
    "52</w>": 298,
    "5:": 299,
    "5:</w>": 300,
    "5</w>": 301,
    "6": 302,
    "6.</w>": 303,
    "60": 304,
    "60</w>": 305,
    "64": 306,
    "6:": 307,
    "6</w>": 308,
    "7": 309,
    "7.</w>": 310,
    "70": 311,
    "77": 312,
    "7:": 313,
    "7:</w>": 314,
    "7</w>": 315,
    "8": 316,
    "8.</w>": 317,
    "80": 318,
    "8:": 319,
    "8:</w>": 320,
    "8</w>": 321,
    "9": 322,
    "9.</w>": 323,
    "90": 324,
    "90</w>": 325,
    "96": 326,
    "9:": 327,
    "9:</w>": 328,
    "9</w>": 329,
    ":": 330,
    ":--</w>": 331,
    ":/": 332,
    "://": 333,
    "://t.": 334,
    "://t.co/": 335,
    ":0": 336,
    ":00</w>": 337,
    ":1": 338,
    ":10</w>": 339,
    ":11</w>": 340,
    ":12</w>": 341,
    ":13</w>": 342,
    ":14</w>": 343,
    ":15</w>": 344,
    ":16</w>": 345,
    ":17</w>": 346,
    ":18</w>": 347,
    ":19</w>": 348,
    ":1</w>": 349,
    ":2": 350,
    ":20</w>": 351,
    ":21</w>": 352,
    ":22</w>": 353,
    ":23</w>": 354,
    ":24</w>": 355,
    ":25</w>": 356,
    ":26</w>": 357,
    ":27</w>": 358,
    ":28</w>": 359,
    ":29</w>": 360,
    ":2</w>": 361,
    ":3": 362,
    ":30</w>": 363,
    ":31</w>": 364,
    ":32</w>": 365,
    ":33</w>": 366,
    ":34</w>": 367,
    ":35</w>": 368,
    ":36</w>": 369,
    ":37</w>": 370,
    ":38</w>": 371,
    ":39</w>": 372,
    ":3</w>": 373,
    ":4": 374,
    ":4</w>": 375,
    ":5</w>": 376,
    ":6</w>": 377,
    ":7</w>": 378,
    ":8</w>": 379,
    ":9</w>": 380,
    ":</w>": 381,
    ":\u2014": 382,
    ":\u2014</w>": 383,
    ";": 384,
    ";\"</w>": 385,
    ";)</w>": 386,
    ";</w>": 387,
    ";\u2014": 388,
    ";\u201d</w>": 389,
    "<": 390,
    "</w>": 391,
    "=": 392,
    "=</w>": 393,
    ">": 394,
    "?": 395,
    "?\"\"</w>": 396,
    "?\"</w>": 397,
    "?</w>": 398,
    "??": 399,
    "?_</w>": 400,
    "?\u2014": 401,
    "?\u2019</w>": 402,
    "?\u201d</w>": 403,
    "@": 404,
    "@apprenticen": 405,
    "@apprenticenbc</w>": 406,
    "@barack": 407,
    "@barackobama's</w>": 408,
    "@barackobama</w>": 409,
    "@bill": 410,
    "@bre": 411,
    "@breitbart": 412,
    "@breitbartnews</w>": 413,
    "@c": 414,
    "@cn": 415,
    "@cnn</w>": 416,
    "@d": 417,
    "@eric": 418,
    "@fox": 419,
    "@foxand": 420,
    "@foxandfriends</w>": 421,
    "@foxnews</w>": 422,
    "@gre": 423,
    "@ivankat": 424,
    "@ivankatrump</w>": 425,
    "@j": 426,
    "@jo": 427,
    "@k": 428,
    "@m": 429,
    "@mac": 430,
    "@megyn": 431,
    "@megynkelly</w>": 432,
    "@mike": 433,
    "@mittrom": 434,
    "@mittromney</w>": 435,
    "@n": 436,
    "@new": 437,
    "@ny": 438,
    "@nytimes</w>": 439,
    "@o": 440,
    "@oreilly": 441,
    "@real": 442,
    "@realdonald": 443,
    "@realdonaldtrump": 444,
    "@realdonaldtrump\"\"\"</w>": 445,
    "@realdonaldtrump:</w>": 446,
    "@realdonaldtrump</w>": 447,
    "@sean": 448,
    "@seanhannity</w>": 449,
    "@sen": 450,
    "@the": 451,
    "@trump": 452,
    "@us": 453,
    "@w": 454,
    "@white": 455,
    "[": 456,
    "[_": 457,
    "[_aside": 458,
    "[_aside._]</w>": 459,
    "[_aside</w>": 460,
    "[_aside_.]</w>": 461,
    "[_ex": 462,
    "[_exeun": 463,
    "[_exeunt._]</w>": 464,
    "[_exeunt</w>": 465,
    "[_exit": 466,
    "[_exit._]</w>": 467,
    "[_exit</w>": 468,
    "[_he</w>": 469,
    "[_read": 470,
    "[_sing": 471,
    "[_they</w>": 472,
    "[_to</w>": 473,
    "[am": 474,
    "[am]</w>": 475,
    "[and]</w>": 476,
    "[are]</w>": 477,
    "[art]</w>": 478,
    "[as]</w>": 479,
    "[be": 480,
    "[be]</w>": 481,
    "[but]</w>": 482,
    "[even]</w>": 483,
    "[for]</w>": 484,
    "[he</w>": 485,
    "[him": 486,
    "[him]</w>": 487,
    "[his]</w>": 488,
    "[illustration": 489,
    "[illustration:</w>": 490,
    "[illustration]</w>": 491,
    "[is</w>": 492,
    "[is]</w>": 493,
    "[it": 494,
    "[it</w>": 495,
    "[it],</w>": 496,
    "[it]</w>": 497,
    "[man": 498,
    "[men": 499,
    "[of</w>": 500,
    "[of]</w>": 501,
    "[shall</w>": 502,
    "[that</w>": 503,
    "[that]</w>": 504,
    "[the</w>": 505,
    "[their]</w>": 506,
    "[them": 507,
    "[them]</w>": 508,
    "[there</w>": 509,
    "[things": 510,
    "[to</w>": 511,
    "[was]</w>": 512,
    "[were]</w>": 513,
    "[which]</w>": 514,
    "\\": 515,
    "]": 516,
    "],</w>": 517,
    "].</w>": 518,
    "]:</w>": 519,
    "];</w>": 520,
    "]</w>": 521,
    "]_.</w>": 522,
    "]_</w>": 523,
    "^": 524,
    "_": 525,
    "_,</w>": 526,
    "_,\u201d</w>": 527,
    "_.</w>": 528,
    "_.]</w>": 529,
    "_.\u201d</w>": 530,
    "_:</w>": 531,
    "_;</w>": 532,
    "_</w>": 533,
    "_[": 534,
    "_]</w>": 535,
    "_he": 536,
    "_i": 537,
    "_i_</w>": 538,
    "_me": 539,
    "_that": 540,
    "_that_</w>": 541,
    "_the</w>": 542,
    "_you": 543,
    "_you_</w>": 544,
    "_\u201d</w>": 545,
    "`": 546,
    "a": 547,
    "a!</w>": 548,
    "a's</w>": 549,
    "a,</w>": 550,
    "a-": 551,
    "a.": 552,
    "a.</w>": 553,
    "a._]</w>": 554,
    "a.m.</w>": 555,
    "a.\u201d</w>": 556,
    "a:</w>": 557,
    "a;</w>": 558,
    "a</w>": 559,
    "a?</w>": 560,
    "a?\u201d</w>": 561,
    "aar": 562,
    "aaron,</w>": 563,
    "aaron.</w>": 564,
    "aaron</w>": 565,
    "ab": 566,
    "ab,</w>": 567,
    "ab</w>": 568,
    "aband": 569,
    "abandoned</w>": 570,
    "abb": 571,
    "abb\u00e9": 572,
    "abb\u00e9</w>": 573,
    "aber": 574,
    "abhor": 575,
    "abi": 576,
    "abide</w>": 577,
    "abili": 578,
    "ability,</w>": 579,
    "ability</w>": 580,
    "able": 581,
    "able,</w>": 582,
    "able.</w>": 583,
    "able;</w>": 584,
    "able</w>": 585,
    "ably</w>": 586,
    "abo": 587,
    "abode</w>": 588,
    "abomin": 589,
    "abor": 590,
    "about": 591,
    "about,</w>": 592,
    "about.</w>": 593,
    "about</w>": 594,
    "above,</w>": 595,
    "above</w>": 596,
    "abra": 597,
    "abraham</w>": 598,
    "abri": 599,
    "abroad,</w>": 600,
    "abroad</w>": 601,
    "abrup": 602,
    "abs": 603,
    "absen": 604,
    "absence</w>": 605,
    "absent</w>": 606,
    "absolu": 607,
    "absolute</w>": 608,
    "absolutely</w>": 609,
    "absor": 610,
    "absorbed</w>": 611,
    "abstr": 612,
    "absur": 613,
    "absurd</w>": 614,
    "abu": 615,
    "abund": 616,
    "abuse</w>": 617,
    "ac": 618,
    "ac</w>": 619,
    "acc": 620,
    "accep": 621,
    "accept</w>": 622,
    "accepted</w>": 623,
    "accepting</w>": 624,
    "acces": 625,
    "access</w>": 626,
    "acci": 627,
    "accident": 628,
    "accident</w>": 629,
    "accommo": 630,
    "accomp": 631,
    "accompani": 632,
    "accompanied</w>": 633,
    "accompany</w>": 634,
    "accompli": 635,
    "accomplish": 636,
    "accomplished</w>": 637,
    "accor": 638,
    "accord": 639,
    "accordance</w>": 640,
    "according</w>": 641,
    "accordingly</w>": 642,
    "accoun": 643,
    "account,</w>": 644,
    "account.</w>": 645,
    "account</w>": 646,
    "accur": 647,
    "accurate</w>": 648,
    "accursed</w>": 649,
    "accus": 650,
    "accuse</w>": 651,
    "accused</w>": 652,
    "accusto": 653,
    "accustomed</w>": 654,
    "ace</w>": 655,
    "ach": 656,
    "ach,</w>": 657,
    "ach.</w>": 658,
    "ach</w>": 659,
    "acha": 660,
    "ache": 661,
    "ached</w>": 662,
    "acher": 663,
    "aches</w>": 664,
    "achi": 665,
    "achie": 666,
    "achill": 667,
    "achilles.</w>": 668,
    "achilles</w>": 669,
    "aching</w>": 670,
    "aci": 671,
    "ack": 672,
    "ack,</w>": 673,
    "ack</w>": 674,
    "acknowledg": 675,
    "acknowledge</w>": 676,
    "acknowledged</w>": 677,
    "acle</w>": 678,
    "acqu": 679,
    "acquain": 680,
    "acquaint": 681,
    "acquaintance,</w>": 682,
    "acquaintance</w>": 683,
    "acquainted</w>": 684,
    "acqui": 685,
    "acquired</w>": 686,
    "across</w>": 687,
    "act": 688,
    "act,</w>": 689,
    "act.</w>": 690,
    "act</w>": 691,
    "acted</w>": 692,
    "acting</w>": 693,
    "action,</w>": 694,
    "action.</w>": 695,
    "action</w>": 696,
    "actions,</w>": 697,
    "actions</w>": 698,
    "activ": 699,
    "active</w>": 700,
    "acts</w>": 701,
    "actu": 702,
    "actual</w>": 703,
    "actually</w>": 704,
    "acy,</w>": 705,
    "acy</w>": 706,
    "ad": 707,
    "ad,</w>": 708,
    "ad.</w>": 709,
    "ad</w>": 710,
    "ada</w>": 711,
    "adam</w>": 712,
    "add": 713,
    "add</w>": 714,
    "added,</w>": 715,
    "added</w>": 716,
    "addi": 717,
    "addition</w>": 718,
    "additional</w>": 719,
    "addres": 720,
    "address</w>": 721,
    "addressed</w>": 722,
    "addressing</w>": 723,
    "ade": 724,
    "ade</w>": 725,
    "aded</w>": 726,
    "adequ": 727,
    "adi": 728,
    "adieu": 729,
    "adieu,</w>": 730,
    "adily</w>": 731,
    "ading</w>": 732,
    "adju": 733,
    "adm": 734,
    "admi": 735,
    "admini": 736,
    "administr": 737,
    "administration</w>": 738,
    "admir": 739,
    "admirable</w>": 740,
    "admiration</w>": 741,
    "admire</w>": 742,
    "admired</w>": 743,
    "admit": 744,
    "admit</w>": 745,
    "admitted</w>": 746,
    "ado": 747,
    "adop": 748,
    "ador": 749,
    "adri": 750,
    "adriana.</w>": 751,
    "ads</w>": 752,
    "adu": 753,
    "adul": 754,
    "adulter": 755,
    "adv": 756,
    "advance": 757,
    "advance</w>": 758,
    "advanced</w>": 759,
    "advancing</w>": 760,
    "advant": 761,
    "advantage</w>": 762,
    "advent": 763,
    "adventur": 764,
    "adventure</w>": 765,
    "adventures</w>": 766,
    "adver": 767,
    "advers": 768,
    "adverti": 769,
    "advi": 770,
    "advice,</w>": 771,
    "advice</w>": 772,
    "advis": 773,
    "advise</w>": 774,
    "advised</w>": 775,
    "ad\u00e8": 776,
    "aen": 777,
    "aeneas": 778,
    "af": 779,
    "afar</w>": 780,
    "aff": 781,
    "affair": 782,
    "affair</w>": 783,
    "affairs,</w>": 784,
    "affairs</w>": 785,
    "affec": 786,
    "affect</w>": 787,
    "affected</w>": 788,
    "affection": 789,
    "affection,</w>": 790,
    "affection.</w>": 791,
    "affection</w>": 792,
    "affectionate</w>": 793,
    "affections</w>": 794,
    "affir": 795,
    "afflic": 796,
    "affor": 797,
    "afford</w>": 798,
    "afr": 799,
    "afrai": 800,
    "afraid,</w>": 801,
    "afraid</w>": 802,
    "afri": 803,
    "after": 804,
    "after,</w>": 805,
    "after.</w>": 806,
    "after</w>": 807,
    "afterno": 808,
    "afternoon,</w>": 809,
    "afternoon</w>": 810,
    "afterwards,</w>": 811,
    "afterwards</w>": 812,
    "ag": 813,
    "ag</w>": 814,
    "again": 815,
    "again!</w>": 816,
    "again,</w>": 817,
    "again.</w>": 818,
    "again.\u201d</w>": 819,
    "again:</w>": 820,
    "again;</w>": 821,
    "again</w>": 822,
    "again?</w>": 823,
    "against</w>": 824,
    "agam": 825,
    "agamem": 826,
    "agamemnon.</w>": 827,
    "agath": 828,
    "age": 829,
    "age,</w>": 830,
    "age-": 831,
    "age.</w>": 832,
    "age:</w>": 833,
    "age;</w>": 834,
    "age</w>": 835,
    "aged</w>": 836,
    "agen": 837,
    "agent</w>": 838,
    "ageous</w>": 839,
    "ages,</w>": 840,
    "ages.</w>": 841,
    "ages</w>": 842,
    "agg": 843,
    "agger": 844,
    "agi": 845,
    "agit": 846,
    "agitated</w>": 847,
    "agitation</w>": 848,
    "agn": 849,
    "ago": 850,
    "ago,</w>": 851,
    "ago.</w>": 852,
    "ago</w>": 853,
    "agon": 854,
    "agony</w>": 855,
    "agre": 856,
    "agreat": 857,
    "agree": 858,
    "agree</w>": 859,
    "agreeable</w>": 860,
    "agreed</w>": 861,
    "agreement,</w>": 862,
    "agreement.</w>": 863,
    "agreement</w>": 864,
    "agripp": 865,
    "agu": 866,
    "ague</w>": 867,
    "ah": 868,
    "ah!</w>": 869,
    "ah,</w>": 870,
    "ah.</w>": 871,
    "ah</w>": 872,
    "aha": 873,
    "ahab": 874,
    "ahab,</w>": 875,
    "ahab</w>": 876,
    "ahab\u2019s</w>": 877,
    "ahead</w>": 878,
    "ahi": 879,
    "ai": 880,
    "aid,</w>": 881,
    "aid</w>": 882,
    "aig": 883,
    "aign": 884,
    "aign,</w>": 885,
    "aign</w>": 886,
    "ail": 887,
    "ail</w>": 888,
    "ailed</w>": 889,
    "aim</w>": 890,
    "ain": 891,
    "ain,</w>": 892,
    "ain.</w>": 893,
    "ain</w>": 894,
    "ain\u2019t</w>": 895,
    "air": 896,
    "air,</w>": 897,
    "air.</w>": 898,
    "air;</w>": 899,
    "air</w>": 900,
    "aired</w>": 901,
    "airs</w>": 902,
    "ais</w>": 903,
    "aj": 904,
    "aja": 905,
    "ajax.</w>": 906,
    "ajax</w>": 907,
    "ak": 908,
    "ak</w>": 909,
    "aked</w>": 910,
    "al": 911,
    "al!</w>": 912,
    "al,</w>": 913,
    "al-": 914,
    "al.</w>": 915,
    "al.\u201d</w>": 916,
    "al:</w>": 917,
    "al;</w>": 918,
    "al</w>": 919,
    "al?</w>": 920,
    "alab": 921,
    "alabam": 922,
    "alack,</w>": 923,
    "alar": 924,
    "alarm": 925,
    "alarm</w>": 926,
    "alarmed</w>": 927,
    "alas": 928,
    "alas!</w>": 929,
    "alas,</w>": 930,
    "alban": 931,
    "alber": 932,
    "albert,</w>": 933,
    "albert</w>": 934,
    "alci": 935,
    "alcibi": 936,
    "ale": 937,
    "ale</w>": 938,
    "aled</w>": 939,
    "alex": 940,
    "alexand": 941,
    "alexandro": 942,
    "alexey</w>": 943,
    "alger": 944,
    "algernon.</w>": 945,
    "ali": 946,
    "ali</w>": 947,
    "alice,</w>": 948,
    "alice.</w>": 949,
    "alice</w>": 950,
    "alike</w>": 951,
    "aling</w>": 952,
    "ality,</w>": 953,
    "ality.</w>": 954,
    "ality</w>": 955,
    "alive,</w>": 956,
    "alive.</w>": 957,
    "alive</w>": 958,
    "all": 959,
    "all!</w>": 960,
    "all,</w>": 961,
    "all-": 962,
    "all.</w>": 963,
    "all.\u201d</w>": 964,
    "all;</w>": 965,
    "all</w>": 966,
    "alle": 967,
    "alled</w>": 968,
    "alli": 969,
    "alling</w>": 970,
    "allow": 971,
    "allow</w>": 972,
    "allowed</w>": 973,
    "allowing</w>": 974,
    "allu": 975,
    "allworth": 976,
    "allworthy,</w>": 977,
    "allworthy</w>": 978,
    "ally": 979,
    "ally,</w>": 980,
    "ally.</w>": 981,
    "ally</w>": 982,
    "almost</w>": 983,
    "alo": 984,
    "alof": 985,
    "aloft</w>": 986,
    "alone": 987,
    "alone,</w>": 988,
    "alone.</w>": 989,
    "alone;</w>": 990,
    "alone</w>": 991,
    "along": 992,
    "along,</w>": 993,
    "along.</w>": 994,
    "along</w>": 995,
    "alou": 996,
    "aloud,</w>": 997,
    "aloud</w>": 998,
    "alread": 999,
    "already,</w>": 1000,
    "already.</w>": 1001,
    "already</w>": 1002,
    "als,</w>": 1003,
    "als.</w>": 1004,
    "als</w>": 1005,
    "also,</w>": 1006,
    "also.</w>": 1007,
    "also</w>": 1008,
    "alt": 1009,
    "altar,</w>": 1010,
    "altar</w>": 1011,
    "alter": 1012,
    "alter</w>": 1013,
    "altered</w>": 1014,
    "altern": 1015,
    "although</w>": 1016,
    "altogether</w>": 1017,
    "alty</w>": 1018,
    "always</w>": 1019,
    "aly": 1020,
    "alyo": 1021,
    "alyosha": 1022,
    "alyosha,</w>": 1023,
    "alyosha.</w>": 1024,
    "alyosha</w>": 1025,
    "al\u2019s</w>": 1026,
    "am": 1027,
    "am,</w>": 1028,
    "am.</w>": 1029,
    "am</w>": 1030,
    "ama": 1031,
    "amaz": 1032,
    "amazed</w>": 1033,
    "amazing</w>": 1034,
    "ambas": 1035,
    "ambassad": 1036,
    "ambi": 1037,
    "ambition</w>": 1038,
    "ambitious</w>": 1039,
    "ame": 1040,
    "ame</w>": 1041,
    "amed</w>": 1042,
    "amen.</w>": 1043,
    "amend": 1044,
    "amendment.</w>": 1045,
    "ament,</w>": 1046,
    "ament</w>": 1047,
    "americ": 1048,
    "america": 1049,
    "america!</w>": 1050,
    "america.</w>": 1051,
    "america</w>": 1052,
    "american</w>": 1053,
    "americans</w>": 1054,
    "ami": 1055,
    "amiable</w>": 1056,
    "amid": 1057,
    "amid</w>": 1058,
    "amidst</w>": 1059,
    "aming</w>": 1060,
    "amis": 1061,
    "among": 1062,
    "among</w>": 1063,
    "amongst</w>": 1064,
    "amor": 1065,
    "amos</w>": 1066,
    "amoun": 1067,
    "amount</w>": 1068,
    "amp": 1069,
    "amp</w>": 1070,
    "ample</w>": 1071,
    "ams</w>": 1072,
    "amuse": 1073,
    "amuse</w>": 1074,
    "amused</w>": 1075,
    "amy,</w>": 1076,
    "amy</w>": 1077,
    "am\u2019s</w>": 1078,
    "an": 1079,
    "an!</w>": 1080,
    "an,</w>": 1081,
    "an,\u201d</w>": 1082,
    "an.</w>": 1083,
    "an:</w>": 1084,
    "an;</w>": 1085,
    "an</w>": 1086,
    "ana.</w>": 1087,
    "ana</w>": 1088,
    "anc": 1089,
    "ance": 1090,
    "ance,</w>": 1091,
    "ance.</w>": 1092,
    "ance;</w>": 1093,
    "ance</w>": 1094,
    "anced</w>": 1095,
    "ances": 1096,
    "ances,</w>": 1097,
    "ances.</w>": 1098,
    "ances</w>": 1099,
    "anch": 1100,
    "anci": 1101,
    "ancient</w>": 1102,
    "ancing</w>": 1103,
    "ancy,</w>": 1104,
    "ancy</w>": 1105,
    "and": 1106,
    "and,</w>": 1107,
    "and-": 1108,
    "and.</w>": 1109,
    "and</w>": 1110,
    "and]</w>": 1111,
    "ander</w>": 1112,
    "andre": 1113,
    "andrea</w>": 1114,
    "andrew.</w>": 1115,
    "andrew</w>": 1116,
    "andronic": 1117,
    "ands</w>": 1118,
    "ane": 1119,
    "ang": 1120,
    "ang</w>": 1121,
    "ange": 1122,
    "ange</w>": 1123,
    "anged</w>": 1124,
    "angel</w>": 1125,
    "angelo.</w>": 1126,
    "angels</w>": 1127,
    "anger,</w>": 1128,
    "anger</w>": 1129,
    "anging</w>": 1130,
    "angle</w>": 1131,
    "angled</w>": 1132,
    "angr": 1133,
    "angri": 1134,
    "angry,</w>": 1135,
    "angry</w>": 1136,
    "angu": 1137,
    "anguish</w>": 1138,
    "ani": 1139,
    "anim": 1140,
    "animal</w>": 1141,
    "animals</w>": 1142,
    "anio.</w>": 1143,
    "ank</w>": 1144,
    "ann": 1145,
    "ann</w>": 1146,
    "anne": 1147,
    "anne.</w>": 1148,
    "anne</w>": 1149,
    "anni": 1150,
    "anno": 1151,
    "announ": 1152,
    "announce</w>": 1153,
    "announced</w>": 1154,
    "annoy": 1155,
    "ano": 1156,
    "anoin": 1157,
    "anon</w>": 1158,
    "another": 1159,
    "another,</w>": 1160,
    "another.</w>": 1161,
    "another;</w>": 1162,
    "another</w>": 1163,
    "another\u2019s</w>": 1164,
    "ans": 1165,
    "ans,</w>": 1166,
    "ans.</w>": 1167,
    "ans</w>": 1168,
    "answer": 1169,
    "answer,</w>": 1170,
    "answer.</w>": 1171,
    "answer</w>": 1172,
    "answered,</w>": 1173,
    "answered.</w>": 1174,
    "answered</w>": 1175,
    "answering</w>": 1176,
    "answers</w>": 1177,
    "ant": 1178,
    "ant,</w>": 1179,
    "ant.</w>": 1180,
    "ant;</w>": 1181,
    "ant</w>": 1182,
    "antag": 1183,
    "ante": 1184,
    "anth": 1185,
    "anti": 1186,
    "anticip": 1187,
    "anting</w>": 1188,
    "antio": 1189,
    "antip": 1190,
    "antiphol": 1191,
    "antipholus</w>": 1192,
    "antly,</w>": 1193,
    "antly</w>": 1194,
    "anton": 1195,
    "antoni": 1196,
    "antonio.</w>": 1197,
    "antony,</w>": 1198,
    "antony.</w>": 1199,
    "antony</w>": 1200,
    "ants,</w>": 1201,
    "ants</w>": 1202,
    "ant\u2019s</w>": 1203,
    "anxi": 1204,
    "anxiety</w>": 1205,
    "anxious</w>": 1206,
    "anxiously</w>": 1207,
    "any": 1208,
    "any,</w>": 1209,
    "any</w>": 1210,
    "anybody</w>": 1211,
    "anyone</w>": 1212,
    "anything": 1213,
    "anything,</w>": 1214,
    "anything.</w>": 1215,
    "anything</w>": 1216,
    "anywhere</w>": 1217,
    "an\u2019</w>": 1218,
    "an\u2019s</w>": 1219,
    "ap": 1220,
    "ap</w>": 1221,
    "apart": 1222,
    "apart</w>": 1223,
    "apartment,</w>": 1224,
    "apartment</w>": 1225,
    "ape": 1226,
    "apemant": 1227,
    "apemantus.</w>": 1228,
    "apo": 1229,
    "apoll": 1230,
    "apologi": 1231,
    "apost": 1232,
    "apothe": 1233,
    "apothecar": 1234,
    "app": 1235,
    "appar": 1236,
    "appare": 1237,
    "apparent</w>": 1238,
    "apparently</w>": 1239,
    "appari": 1240,
    "appe": 1241,
    "appeal</w>": 1242,
    "appear": 1243,
    "appear,</w>": 1244,
    "appear</w>": 1245,
    "appearance,</w>": 1246,
    "appearance</w>": 1247,
    "appeared,</w>": 1248,
    "appeared</w>": 1249,
    "appearing</w>": 1250,
    "appears,</w>": 1251,
    "appears</w>": 1252,
    "appeti": 1253,
    "appetit": 1254,
    "appetite</w>": 1255,
    "applau": 1256,
    "apple</w>": 1257,
    "applic": 1258,
    "applicable</w>": 1259,
    "application</w>": 1260,
    "applied</w>": 1261,
    "apply</w>": 1262,
    "appoint": 1263,
    "appointed</w>": 1264,
    "appointment</w>": 1265,
    "appreci": 1266,
    "appreciate</w>": 1267,
    "apprehen": 1268,
    "apprehension</w>": 1269,
    "appren": 1270,
    "apprentic": 1271,
    "apprentice": 1272,
    "apprentice</w>": 1273,
    "apprenticen": 1274,
    "appro": 1275,
    "approach</w>": 1276,
    "approache": 1277,
    "approached</w>": 1278,
    "approaching</w>": 1279,
    "approb": 1280,
    "appropri": 1281,
    "approval</w>": 1282,
    "approve</w>": 1283,
    "approved</w>": 1284,
    "apri": 1285,
    "april</w>": 1286,
    "apt</w>": 1287,
    "ar": 1288,
    "ar,</w>": 1289,
    "ar.</w>": 1290,
    "ar</w>": 1291,
    "arab": 1292,
    "aram": 1293,
    "aramis,</w>": 1294,
    "aramis.</w>": 1295,
    "aramis</w>": 1296,
    "arbit": 1297,
    "arbu": 1298,
    "arbuth": 1299,
    "arc": 1300,
    "arch": 1301,
    "arch</w>": 1302,
    "archbishop": 1303,
    "archi": 1304,
    "archite": 1305,
    "archive</w>": 1306,
    "arcit": 1307,
    "arcite.</w>": 1308,
    "ard": 1309,
    "ard,</w>": 1310,
    "ard.</w>": 1311,
    "ard</w>": 1312,
    "ardent</w>": 1313,
    "are": 1314,
    "are,</w>": 1315,
    "are.</w>": 1316,
    "are</w>": 1317,
    "are]</w>": 1318,
    "ared,</w>": 1319,
    "ared.</w>": 1320,
    "ared</w>": 1321,
    "aren": 1322,
    "arest</w>": 1323,
    "areth</w>": 1324,
    "arg": 1325,
    "argu": 1326,
    "argum": 1327,
    "argument</w>": 1328,
    "arguments</w>": 1329,
    "ari": 1330,
    "aries</w>": 1331,
    "arily</w>": 1332,
    "aring</w>": 1333,
    "aris": 1334,
    "arise,</w>": 1335,
    "arise</w>": 1336,
    "aristo": 1337,
    "arity</w>": 1338,
    "arizon": 1339,
    "ark</w>": 1340,
    "arly</w>": 1341,
    "arm": 1342,
    "arm,</w>": 1343,
    "arm.</w>": 1344,
    "arm</w>": 1345,
    "arma": 1346,
    "armado.</w>": 1347,
    "armed</w>": 1348,
    "armi": 1349,
    "armies</w>": 1350,
    "armour</w>": 1351,
    "arms,</w>": 1352,
    "arms.</w>": 1353,
    "arms</w>": 1354,
    "army,</w>": 1355,
    "army</w>": 1356,
    "aro": 1357,
    "arose,</w>": 1358,
    "arose</w>": 1359,
    "arou": 1360,
    "around,</w>": 1361,
    "around</w>": 1362,
    "arr": 1363,
    "arra": 1364,
    "arrange": 1365,
    "arrange</w>": 1366,
    "arranged</w>": 1367,
    "array</w>": 1368,
    "arrest</w>": 1369,
    "arrested</w>": 1370,
    "arri": 1371,
    "arrival</w>": 1372,
    "arrive</w>": 1373,
    "arrived,</w>": 1374,
    "arrived</w>": 1375,
    "ars,</w>": 1376,
    "ars</w>": 1377,
    "art": 1378,
    "art,</w>": 1379,
    "art.</w>": 1380,
    "art</w>": 1381,
    "art]</w>": 1382,
    "arthur": 1383,
    "arthur</w>": 1384,
    "arti": 1385,
    "artic": 1386,
    "article</w>": 1387,
    "articles</w>": 1388,
    "artifici": 1389,
    "artistic</w>": 1390,
    "arts</w>": 1391,
    "arvirag": 1392,
    "ary": 1393,
    "ary,</w>": 1394,
    "ary.</w>": 1395,
    "ary;</w>": 1396,
    "ary</w>": 1397,
    "as": 1398,
    "as,</w>": 1399,
    "as.</w>": 1400,
    "as</w>": 1401,
    "as]</w>": 1402,
    "asc": 1403,
    "ascen": 1404,
    "ascended</w>": 1405,
    "asci": 1406,
    "ascri": 1407,
    "ase</w>": 1408,
    "ased</w>": 1409,
    "ash": 1410,
    "ash</w>": 1411,
    "asha": 1412,
    "ashamed</w>": 1413,
    "ashed</w>": 1414,
    "ashes</w>": 1415,
    "ashing</w>": 1416,
    "asho": 1417,
    "asi": 1418,
    "aside": 1419,
    "aside,</w>": 1420,
    "aside</w>": 1421,
    "asing</w>": 1422,
    "ask": 1423,
    "ask</w>": 1424,
    "asked,</w>": 1425,
    "asked.</w>": 1426,
    "asked</w>": 1427,
    "asking</w>": 1428,
    "asle": 1429,
    "asleep": 1430,
    "asleep,</w>": 1431,
    "asleep.</w>": 1432,
    "asleep</w>": 1433,
    "asmuch</w>": 1434,
    "aspe": 1435,
    "aspec": 1436,
    "aspect,</w>": 1437,
    "aspect</w>": 1438,
    "asper": 1439,
    "ass": 1440,
    "ass,</w>": 1441,
    "ass</w>": 1442,
    "assas": 1443,
    "assaul": 1444,
    "asse": 1445,
    "assemb": 1446,
    "assembl": 1447,
    "assembled</w>": 1448,
    "assembly</w>": 1449,
    "asser": 1450,
    "assi": 1451,
    "assist": 1452,
    "assist</w>": 1453,
    "assistance</w>": 1454,
    "associ": 1455,
    "associated</w>": 1456,
    "assu": 1457,
    "assume</w>": 1458,
    "assumed</w>": 1459,
    "assur": 1460,
    "assurance</w>": 1461,
    "assure</w>": 1462,
    "assured</w>": 1463,
    "ast": 1464,
    "ast,</w>": 1465,
    "ast</w>": 1466,
    "asted</w>": 1467,
    "aster": 1468,
    "aston": 1469,
    "astonish": 1470,
    "astonished</w>": 1471,
    "astonishment</w>": 1472,
    "astro": 1473,
    "at": 1474,
    "at,</w>": 1475,
    "at-": 1476,
    "at.</w>": 1477,
    "at;</w>": 1478,
    "at</w>": 1479,
    "ate": 1480,
    "ate!</w>": 1481,
    "ate,</w>": 1482,
    "ate.</w>": 1483,
    "ate:</w>": 1484,
    "ate;</w>": 1485,
    "ate</w>": 1486,
    "ated,</w>": 1487,
    "ated.</w>": 1488,
    "ated</w>": 1489,
    "ately,</w>": 1490,
    "ately</w>": 1491,
    "ates,</w>": 1492,
    "ates</w>": 1493,
    "ath": 1494,
    "ath</w>": 1495,
    "athan": 1496,
    "athan</w>": 1497,
    "athen": 1498,
    "ather": 1499,
    "atho": 1500,
    "athos,</w>": 1501,
    "athos.</w>": 1502,
    "athos</w>": 1503,
    "ati": 1504,
    "atic": 1505,
    "atic</w>": 1506,
    "ating,</w>": 1507,
    "ating</w>": 1508,
    "ation": 1509,
    "ation!</w>": 1510,
    "ation,</w>": 1511,
    "ation.</w>": 1512,
    "ation.\u201d</w>": 1513,
    "ation:</w>": 1514,
    "ation;</w>": 1515,
    "ation</w>": 1516,
    "ation?</w>": 1517,
    "ational</w>": 1518,
    "ations,</w>": 1519,
    "ations.</w>": 1520,
    "ations;</w>": 1521,
    "ations</w>": 1522,
    "ative,</w>": 1523,
    "ative.</w>": 1524,
    "ative</w>": 1525,
    "atively</w>": 1526,
    "atives</w>": 1527,
    "atlan": 1528,
    "atmo": 1529,
    "ato": 1530,
    "ator</w>": 1531,
    "atri": 1532,
    "ats,</w>": 1533,
    "ats</w>": 1534,
    "att": 1535,
    "atta": 1536,
    "attac": 1537,
    "attach": 1538,
    "attached</w>": 1539,
    "attack</w>": 1540,
    "attacked</w>": 1541,
    "attain": 1542,
    "attemp": 1543,
    "attempt</w>": 1544,
    "attempted</w>": 1545,
    "attempts</w>": 1546,
    "atten": 1547,
    "attend": 1548,
    "attend</w>": 1549,
    "attendant": 1550,
    "attendants.</w>": 1551,
    "attended</w>": 1552,
    "attending</w>": 1553,
    "attention,</w>": 1554,
    "attention.</w>": 1555,
    "attention</w>": 1556,
    "atter": 1557,
    "atti": 1558,
    "attitu": 1559,
    "attitude</w>": 1560,
    "attor": 1561,
    "attorney</w>": 1562,
    "attrac": 1563,
    "attracted</w>": 1564,
    "attribu": 1565,
    "ature</w>": 1566,
    "au": 1567,
    "au</w>": 1568,
    "audi": 1569,
    "audience</w>": 1570,
    "aufidi": 1571,
    "aug": 1572,
    "aught</w>": 1573,
    "augu": 1574,
    "august": 1575,
    "august</w>": 1576,
    "aumer": 1577,
    "aun": 1578,
    "aunt,</w>": 1579,
    "aunt</w>": 1580,
    "austri": 1581,
    "auth": 1582,
    "author": 1583,
    "author</w>": 1584,
    "authori": 1585,
    "authority,</w>": 1586,
    "authority</w>": 1587,
    "auto": 1588,
    "autoly": 1589,
    "autolycus.</w>": 1590,
    "autum": 1591,
    "av": 1592,
    "avag": 1593,
    "avai": 1594,
    "avail": 1595,
    "available</w>": 1596,
    "aven": 1597,
    "aveng": 1598,
    "aver": 1599,
    "aves</w>": 1600,
    "avo": 1601,
    "avoi": 1602,
    "avoid</w>": 1603,
    "avoided</w>": 1604,
    "avri": 1605,
    "aw": 1606,
    "awa": 1607,
    "awake,</w>": 1608,
    "awake</w>": 1609,
    "awakened</w>": 1610,
    "aware</w>": 1611,
    "away": 1612,
    "away!</w>": 1613,
    "away,</w>": 1614,
    "away.</w>": 1615,
    "away;</w>": 1616,
    "away</w>": 1617,
    "awe</w>": 1618,
    "awful</w>": 1619,
    "awk": 1620,
    "awoke</w>": 1621,
    "ax": 1622,
    "axe</w>": 1623,
    "ay": 1624,
    "ay,</w>": 1625,
    "ay</w>": 1626,
    "aye,</w>": 1627,
    "az": 1628,
    "a\u2019s</w>": 1629,
    "b": 1630,
    "b,</w>": 1631,
    "b.</w>": 1632,
    "b</w>": 1633,
    "ba": 1634,
    "ba</w>": 1635,
    "bab": 1636,
    "bable</w>": 1637,
    "baby</w>": 1638,
    "babyl": 1639,
    "bac": 1640,
    "back": 1641,
    "back,</w>": 1642,
    "back.</w>": 1643,
    "back</w>": 1644,
    "backward</w>": 1645,
    "bad": 1646,
    "bad,</w>": 1647,
    "bad.</w>": 1648,
    "bad</w>": 1649,
    "bade</w>": 1650,
    "badly</w>": 1651,
    "bag": 1652,
    "bag</w>": 1653,
    "bai": 1654,
    "bak": 1655,
    "bal": 1656,
    "bal</w>": 1657,
    "ball": 1658,
    "ball</w>": 1659,
    "ballo": 1660,
    "balls</w>": 1661,
    "balth": 1662,
    "balthas": 1663,
    "ban": 1664,
    "ban.</w>": 1665,
    "ban</w>": 1666,
    "band": 1667,
    "band.</w>": 1668,
    "band</w>": 1669,
    "banish": 1670,
    "banished</w>": 1671,
    "bank": 1672,
    "bank</w>": 1673,
    "bankrup": 1674,
    "banks</w>": 1675,
    "banqu": 1676,
    "banque": 1677,
    "banquet</w>": 1678,
    "bap": 1679,
    "bappren": 1680,
    "bapti": 1681,
    "baptist": 1682,
    "baptista.</w>": 1683,
    "bar": 1684,
    "bar</w>": 1685,
    "barack": 1686,
    "barbar": 1687,
    "bardol": 1688,
    "bardolph.</w>": 1689,
    "bare</w>": 1690,
    "bargain": 1691,
    "bark</w>": 1692,
    "barn": 1693,
    "barnar": 1694,
    "barney</w>": 1695,
    "baron": 1696,
    "barr": 1697,
    "barren</w>": 1698,
    "barri": 1699,
    "bart": 1700,
    "bas": 1701,
    "base</w>": 1702,
    "based</w>": 1703,
    "bash": 1704,
    "basil</w>": 1705,
    "baske": 1706,
    "bass": 1707,
    "bassanio.</w>": 1708,
    "bastar": 1709,
    "bastard.</w>": 1710,
    "bastard</w>": 1711,
    "basti": 1712,
    "bat": 1713,
    "bath": 1714,
    "bath,</w>": 1715,
    "bath</w>": 1716,
    "batt": 1717,
    "batter": 1718,
    "battle,</w>": 1719,
    "battle</w>": 1720,
    "baw": 1721,
    "bawd.</w>": 1722,
    "bb": 1723,
    "bbed</w>": 1724,
    "bber": 1725,
    "bbing</w>": 1726,
    "bby</w>": 1727,
    "bc": 1728,
    "bc</w>": 1729,
    "be": 1730,
    "be,</w>": 1731,
    "be.</w>": 1732,
    "be;</w>": 1733,
    "be</w>": 1734,
    "be?</w>": 1735,
    "be]</w>": 1736,
    "bea": 1737,
    "bear": 1738,
    "bear,</w>": 1739,
    "bear</w>": 1740,
    "beard,</w>": 1741,
    "beard</w>": 1742,
    "bearing</w>": 1743,
    "bears</w>": 1744,
    "beast": 1745,
    "beast,</w>": 1746,
    "beast</w>": 1747,
    "beasts</w>": 1748,
    "beat": 1749,
    "beat</w>": 1750,
    "beaten</w>": 1751,
    "beating</w>": 1752,
    "beatri": 1753,
    "beatrice.</w>": 1754,
    "beats</w>": 1755,
    "beau": 1756,
    "beauchamp": 1757,
    "beauteous</w>": 1758,
    "beauti": 1759,
    "beautiful,</w>": 1760,
    "beautiful</w>": 1761,
    "beauty": 1762,
    "beauty,</w>": 1763,
    "beauty.</w>": 1764,
    "beauty</w>": 1765,
    "became</w>": 1766,
    "because,</w>": 1767,
    "because</w>": 1768,
    "beck": 1769,
    "become</w>": 1770,
    "becomes</w>": 1771,
    "becoming</w>": 1772,
    "bed": 1773,
    "bed,</w>": 1774,
    "bed-": 1775,
    "bed.</w>": 1776,
    "bed;</w>": 1777,
    "bed</w>": 1778,
    "bee": 1779,
    "bee</w>": 1780,
    "been": 1781,
    "been,</w>": 1782,
    "been.</w>": 1783,
    "been</w>": 1784,
    "before": 1785,
    "before,</w>": 1786,
    "before.</w>": 1787,
    "before;</w>": 1788,
    "before</w>": 1789,
    "beg": 1790,
    "beg</w>": 1791,
    "began,</w>": 1792,
    "began</w>": 1793,
    "begat</w>": 1794,
    "begg": 1795,
    "beggar": 1796,
    "begged</w>": 1797,
    "begging</w>": 1798,
    "begin": 1799,
    "begin</w>": 1800,
    "beginn": 1801,
    "beginning</w>": 1802,
    "begins</w>": 1803,
    "begui": 1804,
    "begun": 1805,
    "begun</w>": 1806,
    "beha": 1807,
    "behalf": 1808,
    "behalf</w>": 1809,
    "behave</w>": 1810,
    "behaved</w>": 1811,
    "behavi": 1812,
    "behaviour</w>": 1813,
    "beheld</w>": 1814,
    "behin": 1815,
    "behind,</w>": 1816,
    "behind.</w>": 1817,
    "behind</w>": 1818,
    "beho": 1819,
    "behold": 1820,
    "behold,</w>": 1821,
    "behold</w>": 1822,
    "beholding</w>": 1823,
    "being,</w>": 1824,
    "being</w>": 1825,
    "bel": 1826,
    "bel</w>": 1827,
    "belar": 1828,
    "belarius.</w>": 1829,
    "bele": 1830,
    "belie": 1831,
    "belief</w>": 1832,
    "believ": 1833,
    "believe": 1834,
    "believe,</w>": 1835,
    "believe</w>": 1836,
    "believed</w>": 1837,
    "believing</w>": 1838,
    "bell": 1839,
    "bell,</w>": 1840,
    "bell</w>": 1841,
    "bellast": 1842,
    "belong": 1843,
    "belong</w>": 1844,
    "belonged</w>": 1845,
    "belonging</w>": 1846,
    "belongs</w>": 1847,
    "beloved</w>": 1848,
    "below": 1849,
    "below,</w>": 1850,
    "below.</w>": 1851,
    "below</w>": 1852,
    "ben": 1853,
    "bench</w>": 1854,
    "bend</w>": 1855,
    "bending</w>": 1856,
    "bene": 1857,
    "benea": 1858,
    "beneath</w>": 1859,
    "benedi": 1860,
    "benedick.</w>": 1861,
    "benef": 1862,
    "benefac": 1863,
    "benefit</w>": 1864,
    "benevol": 1865,
    "benjam": 1866,
    "benjamin</w>": 1867,
    "benne": 1868,
    "bennet,</w>": 1869,
    "bennet</w>": 1870,
    "bent</w>": 1871,
    "benvolio.</w>": 1872,
    "beowul": 1873,
    "beowulf</w>": 1874,
    "ber": 1875,
    "ber,</w>": 1876,
    "ber</w>": 1877,
    "berg</w>": 1878,
    "bernie</w>": 1879,
    "berow": 1880,
    "berowne.</w>": 1881,
    "berry.</w>": 1882,
    "berry</w>": 1883,
    "bert</w>": 1884,
    "bertr": 1885,
    "bertram.</w>": 1886,
    "bertucci": 1887,
    "bes": 1888,
    "bes</w>": 1889,
    "besee": 1890,
    "beseech</w>": 1891,
    "besi": 1892,
    "beside</w>": 1893,
    "besides,</w>": 1894,
    "besides</w>": 1895,
    "best": 1896,
    "best,</w>": 1897,
    "best.</w>": 1898,
    "best</w>": 1899,
    "besto": 1900,
    "bestow": 1901,
    "bestow</w>": 1902,
    "bestowed</w>": 1903,
    "bet</w>": 1904,
    "beth": 1905,
    "beth,</w>": 1906,
    "beth</w>": 1907,
    "betra": 1908,
    "betray</w>": 1909,
    "betrayed</w>": 1910,
    "betro": 1911,
    "bett": 1912,
    "better": 1913,
    "better,</w>": 1914,
    "better.</w>": 1915,
    "better</w>": 1916,
    "betwe": 1917,
    "between</w>": 1918,
    "betwixt</w>": 1919,
    "beware</w>": 1920,
    "bey": 1921,
    "beyond</w>": 1922,
    "bi": 1923,
    "bian": 1924,
    "bid</w>": 1925,
    "bidd": 1926,
    "biden</w>": 1927,
    "bids</w>": 1928,
    "big": 1929,
    "big</w>": 1930,
    "bigg": 1931,
    "bigger</w>": 1932,
    "biggest</w>": 1933,
    "bil": 1934,
    "bilda": 1935,
    "bili": 1936,
    "bility,</w>": 1937,
    "bility</w>": 1938,
    "bill": 1939,
    "bill</w>": 1940,
    "billi": 1941,
    "billion</w>": 1942,
    "billions</w>": 1943,
    "billow": 1944,
    "bills</w>": 1945,
    "bin": 1946,
    "bind</w>": 1947,
    "bing": 1948,
    "bing</w>": 1949,
    "bingle": 1950,
    "bingley</w>": 1951,
    "bion": 1952,
    "biondell": 1953,
    "bir": 1954,
    "bird,</w>": 1955,
    "bird</w>": 1956,
    "birds</w>": 1957,
    "birth": 1958,
    "birth,</w>": 1959,
    "birth</w>": 1960,
    "birthday</w>": 1961,
    "bis": 1962,
    "bishop": 1963,
    "bishop</w>": 1964,
    "bit": 1965,
    "bit</w>": 1966,
    "bite</w>": 1967,
    "biting</w>": 1968,
    "bitter": 1969,
    "bitter</w>": 1970,
    "bitterness</w>": 1971,
    "bl": 1972,
    "bla": 1973,
    "black": 1974,
    "black,</w>": 1975,
    "black</w>": 1976,
    "blacksmi": 1977,
    "blam": 1978,
    "blame</w>": 1979,
    "blan": 1980,
    "blas": 1981,
    "blasphe": 1982,
    "blast</w>": 1983,
    "ble": 1984,
    "ble,</w>": 1985,
    "ble.</w>": 1986,
    "ble;</w>": 1987,
    "ble</w>": 1988,
    "bled</w>": 1989,
    "bleeding</w>": 1990,
    "blemis": 1991,
    "bles": 1992,
    "bles</w>": 1993,
    "bless": 1994,
    "bless</w>": 1995,
    "blessed</w>": 1996,
    "blessing</w>": 1997,
    "blest</w>": 1998,
    "blew</w>": 1999,
    "bli": 2000,
    "blifil</w>": 2001,
    "blin": 2002,
    "blind,</w>": 2003,
    "blind</w>": 2004,
    "bling</w>": 2005,
    "blo": 2006,
    "bloo": 2007,
    "blood": 2008,
    "blood,</w>": 2009,
    "blood.</w>": 2010,
    "blood;</w>": 2011,
    "blood</w>": 2012,
    "bloody</w>": 2013,
    "bloom": 2014,
    "blossom": 2015,
    "blow": 2016,
    "blow</w>": 2017,
    "blowing</w>": 2018,
    "blown</w>": 2019,
    "blows</w>": 2020,
    "blu": 2021,
    "blue</w>": 2022,
    "blun": 2023,
    "blus": 2024,
    "blush</w>": 2025,
    "bly,</w>": 2026,
    "bly</w>": 2027,
    "bo": 2028,
    "boar": 2029,
    "board,</w>": 2030,
    "board</w>": 2031,
    "boast": 2032,
    "boast</w>": 2033,
    "boat": 2034,
    "boat,</w>": 2035,
    "boat</w>": 2036,
    "boats</w>": 2037,
    "boat\u2019s</w>": 2038,
    "bob</w>": 2039,
    "bod": 2040,
    "bodi": 2041,
    "bodies</w>": 2042,
    "bodily</w>": 2043,
    "body": 2044,
    "body,</w>": 2045,
    "body.</w>": 2046,
    "body;</w>": 2047,
    "body</w>": 2048,
    "body\u2019s</w>": 2049,
    "bol": 2050,
    "bold": 2051,
    "bold</w>": 2052,
    "boldly</w>": 2053,
    "boling": 2054,
    "bolingbro": 2055,
    "bolingbroke.</w>": 2056,
    "bom": 2057,
    "bon": 2058,
    "bond": 2059,
    "bond</w>": 2060,
    "bone</w>": 2061,
    "bones</w>": 2062,
    "boo": 2063,
    "book": 2064,
    "book,</w>": 2065,
    "book.</w>": 2066,
    "book</w>": 2067,
    "books,</w>": 2068,
    "books.</w>": 2069,
    "books</w>": 2070,
    "boots</w>": 2071,
    "bor": 2072,
    "border": 2073,
    "border,</w>": 2074,
    "border.</w>": 2075,
    "border</w>": 2076,
    "borders,</w>": 2077,
    "borders</w>": 2078,
    "bore</w>": 2079,
    "born": 2080,
    "born,</w>": 2081,
    "born</w>": 2082,
    "borne</w>": 2083,
    "borrow": 2084,
    "borrow</w>": 2085,
    "borrowed</w>": 2086,
    "bos": 2087,
    "bosom": 2088,
    "bosom,</w>": 2089,
    "bosom.</w>": 2090,
    "bosom</w>": 2091,
    "bot": 2092,
    "both,</w>": 2093,
    "both.</w>": 2094,
    "both</w>": 2095,
    "bott": 2096,
    "bottle</w>": 2097,
    "botto": 2098,
    "bottom.</w>": 2099,
    "bottom</w>": 2100,
    "bou": 2101,
    "bought</w>": 2102,
    "boul": 2103,
    "boun": 2104,
    "bound": 2105,
    "bound</w>": 2106,
    "bour": 2107,
    "bour</w>": 2108,
    "bow": 2109,
    "bow,</w>": 2110,
    "bow</w>": 2111,
    "bowed</w>": 2112,
    "bowl</w>": 2113,
    "bows</w>": 2114,
    "box": 2115,
    "box,</w>": 2116,
    "box</w>": 2117,
    "boy": 2118,
    "boy,</w>": 2119,
    "boy.</w>": 2120,
    "boy</w>": 2121,
    "boyet.</w>": 2122,
    "boys,</w>": 2123,
    "boys</w>": 2124,
    "br": 2125,
    "bra": 2126,
    "brac": 2127,
    "brack": 2128,
    "brackne": 2129,
    "brad": 2130,
    "brag": 2131,
    "brai": 2132,
    "brain,</w>": 2133,
    "brain</w>": 2134,
    "brains</w>": 2135,
    "bram": 2136,
    "bran": 2137,
    "branch</w>": 2138,
    "branches</w>": 2139,
    "brand": 2140,
    "brand</w>": 2141,
    "bras": 2142,
    "brass</w>": 2143,
    "brave</w>": 2144,
    "braw": 2145,
    "bre": 2146,
    "bre</w>": 2147,
    "brea": 2148,
    "breach</w>": 2149,
    "bread": 2150,
    "bread,</w>": 2151,
    "bread</w>": 2152,
    "breadth</w>": 2153,
    "break": 2154,
    "break</w>": 2155,
    "breakfast,</w>": 2156,
    "breakfast</w>": 2157,
    "breaking</w>": 2158,
    "breaks</w>": 2159,
    "breast,</w>": 2160,
    "breast.</w>": 2161,
    "breast</w>": 2162,
    "breath": 2163,
    "breath,</w>": 2164,
    "breath.</w>": 2165,
    "breath</w>": 2166,
    "breathe": 2167,
    "breathe</w>": 2168,
    "breathed</w>": 2169,
    "breathing</w>": 2170,
    "breathless</w>": 2171,
    "bred</w>": 2172,
    "bree": 2173,
    "breed</w>": 2174,
    "breez": 2175,
    "brethr": 2176,
    "brethren,</w>": 2177,
    "brethren</w>": 2178,
    "bri": 2179,
    "brid": 2180,
    "bride": 2181,
    "bride</w>": 2182,
    "brideg": 2183,
    "bridge,</w>": 2184,
    "bridge</w>": 2185,
    "brief": 2186,
    "brief</w>": 2187,
    "brigg": 2188,
    "bright": 2189,
    "bright,</w>": 2190,
    "bright</w>": 2191,
    "brilli": 2192,
    "brilliant</w>": 2193,
    "bring": 2194,
    "bring</w>": 2195,
    "bringing</w>": 2196,
    "brings</w>": 2197,
    "brit": 2198,
    "british</w>": 2199,
    "bro": 2200,
    "broad": 2201,
    "broad</w>": 2202,
    "broi": 2203,
    "broke</w>": 2204,
    "broken</w>": 2205,
    "broo": 2206,
    "brook</w>": 2207,
    "brooke,</w>": 2208,
    "brooke</w>": 2209,
    "brother": 2210,
    "brother,</w>": 2211,
    "brother.</w>": 2212,
    "brother</w>": 2213,
    "brothers</w>": 2214,
    "brother\u2019s</w>": 2215,
    "brought</w>": 2216,
    "brow": 2217,
    "brow,</w>": 2218,
    "brow</w>": 2219,
    "brown</w>": 2220,
    "brows</w>": 2221,
    "bru": 2222,
    "brus": 2223,
    "brut": 2224,
    "brutus,</w>": 2225,
    "brutus.</w>": 2226,
    "brutus</w>": 2227,
    "bs": 2228,
    "bs,</w>": 2229,
    "bs.</w>": 2230,
    "bs</w>": 2231,
    "bsite</w>": 2232,
    "bu": 2233,
    "buck": 2234,
    "bucke": 2235,
    "bucking": 2236,
    "buckingham.</w>": 2237,
    "buff": 2238,
    "bui": 2239,
    "buil": 2240,
    "build": 2241,
    "build</w>": 2242,
    "building</w>": 2243,
    "built</w>": 2244,
    "bul": 2245,
    "bull": 2246,
    "bullo": 2247,
    "bulstro": 2248,
    "bulstrode,</w>": 2249,
    "bulstrode</w>": 2250,
    "bulwar": 2251,
    "bun": 2252,
    "bund": 2253,
    "bur": 2254,
    "burden": 2255,
    "burden</w>": 2256,
    "burg": 2257,
    "burg</w>": 2258,
    "burgund": 2259,
    "buri": 2260,
    "buried</w>": 2261,
    "burn": 2262,
    "burn</w>": 2263,
    "burned</w>": 2264,
    "burning</w>": 2265,
    "burnt</w>": 2266,
    "burst</w>": 2267,
    "bury.</w>": 2268,
    "bury</w>": 2269,
    "bus</w>": 2270,
    "bush": 2271,
    "bush</w>": 2272,
    "bushe": 2273,
    "busin": 2274,
    "business": 2275,
    "business,</w>": 2276,
    "business.</w>": 2277,
    "business</w>": 2278,
    "busy</w>": 2279,
    "but": 2280,
    "but,</w>": 2281,
    "but</w>": 2282,
    "but]</w>": 2283,
    "butt": 2284,
    "butter": 2285,
    "buy</w>": 2286,
    "by": 2287,
    "by,</w>": 2288,
    "by-": 2289,
    "by-and-": 2290,
    "by.</w>": 2291,
    "by:</w>": 2292,
    "by</w>": 2293,
    "bye,</w>": 2294,
    "c": 2295,
    "c,</w>": 2296,
    "c.</w>": 2297,
    "c</w>": 2298,
    "ca": 2299,
    "ca,</w>": 2300,
    "ca.</w>": 2301,
    "ca</w>": 2302,
    "cab": 2303,
    "cabin": 2304,
    "cabin</w>": 2305,
    "cad": 2306,
    "cade.</w>": 2307,
    "caderous": 2308,
    "caderousse,</w>": 2309,
    "caderousse</w>": 2310,
    "cadwall": 2311,
    "cadwallad": 2312,
    "caes": 2313,
    "caesar": 2314,
    "caesar,</w>": 2315,
    "caesar.</w>": 2316,
    "caesar</w>": 2317,
    "caesar\u2019s</w>": 2318,
    "cai": 2319,
    "cal": 2320,
    "cal</w>": 2321,
    "calam": 2322,
    "calcul": 2323,
    "calculated</w>": 2324,
    "cale": 2325,
    "cali": 2326,
    "califor": 2327,
    "californi": 2328,
    "call": 2329,
    "call,</w>": 2330,
    "call</w>": 2331,
    "called,</w>": 2332,
    "called</w>": 2333,
    "calling</w>": 2334,
    "calls</w>": 2335,
    "call\u2019d</w>": 2336,
    "calm": 2337,
    "calm,</w>": 2338,
    "calm</w>": 2339,
    "cam": 2340,
    "came,</w>": 2341,
    "came.</w>": 2342,
    "came</w>": 2343,
    "camill": 2344,
    "camillo.</w>": 2345,
    "camp": 2346,
    "camp.</w>": 2347,
    "camp</w>": 2348,
    "campaign": 2349,
    "campaign</w>": 2350,
    "can": 2351,
    "can't</w>": 2352,
    "can,</w>": 2353,
    "can.</w>": 2354,
    "can</w>": 2355,
    "cana": 2356,
    "cand": 2357,
    "candid": 2358,
    "candidate</w>": 2359,
    "candle</w>": 2360,
    "canni": 2361,
    "cannot,</w>": 2362,
    "cannot</w>": 2363,
    "cano": 2364,
    "canst</w>": 2365,
    "canv": 2366,
    "can\u2019t</w>": 2367,
    "cap": 2368,
    "cap</w>": 2369,
    "capable</w>": 2370,
    "capac": 2371,
    "capacity</w>": 2372,
    "cape</w>": 2373,
    "capi": 2374,
    "capit": 2375,
    "capital</w>": 2376,
    "capito": 2377,
    "captain": 2378,
    "captain,</w>": 2379,
    "captain.</w>": 2380,
    "captain</w>": 2381,
    "captains</w>": 2382,
    "captain\u2019s</w>": 2383,
    "captiv": 2384,
    "captive</w>": 2385,
    "capu": 2386,
    "capulet.</w>": 2387,
    "car": 2388,
    "car</w>": 2389,
    "card</w>": 2390,
    "cardin": 2391,
    "cardinal,</w>": 2392,
    "cardinal.</w>": 2393,
    "cardinal</w>": 2394,
    "care": 2395,
    "care,</w>": 2396,
    "care.</w>": 2397,
    "care</w>": 2398,
    "cared</w>": 2399,
    "career</w>": 2400,
    "careful</w>": 2401,
    "carefully</w>": 2402,
    "carel": 2403,
    "careless": 2404,
    "careless</w>": 2405,
    "cares": 2406,
    "cares</w>": 2407,
    "carol": 2408,
    "carolina</w>": 2409,
    "caroline</w>": 2410,
    "carp": 2411,
    "carpe": 2412,
    "carri": 2413,
    "carriage,</w>": 2414,
    "carriage</w>": 2415,
    "carried</w>": 2416,
    "carries</w>": 2417,
    "carry</w>": 2418,
    "carrying</w>": 2419,
    "carved</w>": 2420,
    "cas": 2421,
    "casau": 2422,
    "casaub": 2423,
    "casaubon": 2424,
    "casaubon</w>": 2425,
    "case": 2426,
    "case,</w>": 2427,
    "case.</w>": 2428,
    "case</w>": 2429,
    "cases,</w>": 2430,
    "cases</w>": 2431,
    "casi": 2432,
    "cassi": 2433,
    "cassio.</w>": 2434,
    "cassius.</w>": 2435,
    "cast": 2436,
    "cast</w>": 2437,
    "casting</w>": 2438,
    "castle,</w>": 2439,
    "castle.</w>": 2440,
    "castle</w>": 2441,
    "castruc": 2442,
    "castrucci": 2443,
    "cat": 2444,
    "cat</w>": 2445,
    "catastro": 2446,
    "catch</w>": 2447,
    "catching</w>": 2448,
    "cates": 2449,
    "cather": 2450,
    "catherine,</w>": 2451,
    "catherine</w>": 2452,
    "catt": 2453,
    "cattle</w>": 2454,
    "cau": 2455,
    "caught</w>": 2456,
    "cause,</w>": 2457,
    "cause.</w>": 2458,
    "cause</w>": 2459,
    "caused</w>": 2460,
    "causes</w>": 2461,
    "caval": 2462,
    "cavalcan": 2463,
    "cavali": 2464,
    "cave</w>": 2465,
    "cci": 2466,
    "ce": 2467,
    "ce,</w>": 2468,
    "ce.</w>": 2469,
    "ce.\u201d</w>": 2470,
    "ce:</w>": 2471,
    "ce;</w>": 2472,
    "ce</w>": 2473,
    "ce?</w>": 2474,
    "cea": 2475,
    "cease</w>": 2476,
    "ceased</w>": 2477,
    "ceci": 2478,
    "cecil</w>": 2479,
    "cecily.</w>": 2480,
    "ced,</w>": 2481,
    "ced.</w>": 2482,
    "ced</w>": 2483,
    "cei": 2484,
    "cele": 2485,
    "celeba": 2486,
    "celebappren": 2487,
    "celebapprentice</w>": 2488,
    "celebr": 2489,
    "celebrated</w>": 2490,
    "celebrity": 2491,
    "celebrity</w>": 2492,
    "celesti": 2493,
    "celestial</w>": 2494,
    "celi": 2495,
    "celia.</w>": 2496,
    "celia</w>": 2497,
    "cell": 2498,
    "cell</w>": 2499,
    "cely</w>": 2500,
    "cement</w>": 2501,
    "cen": 2502,
    "cent": 2503,
    "cent</w>": 2504,
    "centr": 2505,
    "centre</w>": 2506,
    "cep": 2507,
    "cept</w>": 2508,
    "ception</w>": 2509,
    "cer": 2510,
    "cerem": 2511,
    "ceremon": 2512,
    "ceremony</w>": 2513,
    "certain": 2514,
    "certain,</w>": 2515,
    "certain</w>": 2516,
    "certainly,</w>": 2517,
    "certainly</w>": 2518,
    "certainty</w>": 2519,
    "certi": 2520,
    "ces": 2521,
    "ces,</w>": 2522,
    "ces.</w>": 2523,
    "ces</w>": 2524,
    "cess": 2525,
    "ch": 2526,
    "ch!</w>": 2527,
    "ch,</w>": 2528,
    "ch-": 2529,
    "ch.</w>": 2530,
    "ch;</w>": 2531,
    "ch</w>": 2532,
    "cha": 2533,
    "chain</w>": 2534,
    "chair": 2535,
    "chair,</w>": 2536,
    "chair.</w>": 2537,
    "chair</w>": 2538,
    "chal": 2539,
    "chall": 2540,
    "challen": 2541,
    "challeng": 2542,
    "challenge</w>": 2543,
    "cham": 2544,
    "chamber": 2545,
    "chamber,</w>": 2546,
    "chamber.</w>": 2547,
    "chamber</w>": 2548,
    "chamberla": 2549,
    "chambers</w>": 2550,
    "champ": 2551,
    "champi": 2552,
    "champion": 2553,
    "champion</w>": 2554,
    "chan": 2555,
    "chance": 2556,
    "chance,</w>": 2557,
    "chance</w>": 2558,
    "chanced</w>": 2559,
    "chang": 2560,
    "change": 2561,
    "change,</w>": 2562,
    "change.</w>": 2563,
    "change</w>": 2564,
    "changed</w>": 2565,
    "changes</w>": 2566,
    "changing</w>": 2567,
    "channe": 2568,
    "chap": 2569,
    "chape": 2570,
    "chapter</w>": 2571,
    "char": 2572,
    "charac": 2573,
    "character": 2574,
    "character,</w>": 2575,
    "character.</w>": 2576,
    "character</w>": 2577,
    "characteri": 2578,
    "characters</w>": 2579,
    "charg": 2580,
    "charge": 2581,
    "charge,</w>": 2582,
    "charge</w>": 2583,
    "charged</w>": 2584,
    "chari": 2585,
    "chario": 2586,
    "chariot</w>": 2587,
    "charitable</w>": 2588,
    "charity</w>": 2589,
    "charles.</w>": 2590,
    "charles</w>": 2591,
    "charlott": 2592,
    "charlotte</w>": 2593,
    "charm": 2594,
    "charm</w>": 2595,
    "charmi": 2596,
    "charmian.</w>": 2597,
    "charming</w>": 2598,
    "charms</w>": 2599,
    "chase</w>": 2600,
    "chast": 2601,
    "che": 2602,
    "cheap": 2603,
    "check</w>": 2604,
    "checked</w>": 2605,
    "ched,</w>": 2606,
    "ched.</w>": 2607,
    "ched</w>": 2608,
    "chee": 2609,
    "cheek,</w>": 2610,
    "cheek</w>": 2611,
    "cheeks,</w>": 2612,
    "cheeks</w>": 2613,
    "cheer": 2614,
    "cheer</w>": 2615,
    "cheerful</w>": 2616,
    "cher": 2617,
    "cher</w>": 2618,
    "cheri": 2619,
    "cheria</w>": 2620,
    "ches,</w>": 2621,
    "ches.</w>": 2622,
    "ches</w>": 2623,
    "chest</w>": 2624,
    "chi": 2625,
    "chic": 2626,
    "chicago</w>": 2627,
    "chief": 2628,
    "chief,</w>": 2629,
    "chief</w>": 2630,
    "chiefly</w>": 2631,
    "chiefs</w>": 2632,
    "chil": 2633,
    "child": 2634,
    "child,</w>": 2635,
    "child.</w>": 2636,
    "child</w>": 2637,
    "childish</w>": 2638,
    "childr": 2639,
    "children": 2640,
    "children,</w>": 2641,
    "children.</w>": 2642,
    "children</w>": 2643,
    "child\u2019s</w>": 2644,
    "chill": 2645,
    "chill</w>": 2646,
    "chilling": 2647,
    "chim": 2648,
    "chin": 2649,
    "chin</w>": 2650,
    "china,</w>": 2651,
    "china.</w>": 2652,
    "china</w>": 2653,
    "chinese</w>": 2654,
    "ching</w>": 2655,
    "cho": 2656,
    "cho</w>": 2657,
    "choice</w>": 2658,
    "chol": 2659,
    "choo": 2660,
    "choose</w>": 2661,
    "chor": 2662,
    "chose</w>": 2663,
    "chosen</w>": 2664,
    "chri": 2665,
    "chris</w>": 2666,
    "christ": 2667,
    "christ,</w>": 2668,
    "christ.</w>": 2669,
    "christ</w>": 2670,
    "christi": 2671,
    "christian": 2672,
    "christian</w>": 2673,
    "christmas</w>": 2674,
    "chronic": 2675,
    "chronicles</w>": 2676,
    "chu": 2677,
    "chuck": 2678,
    "chuck</w>": 2679,
    "chur": 2680,
    "church": 2681,
    "church,</w>": 2682,
    "church.</w>": 2683,
    "church</w>": 2684,
    "ch\u00e2": 2685,
    "ch\u00e2teau": 2686,
    "ch\u00e2teau-ren": 2687,
    "ch\u00e2teau-renau": 2688,
    "ch\u2019d</w>": 2689,
    "ch\u2019s</w>": 2690,
    "ci": 2691,
    "cian</w>": 2692,
    "cies</w>": 2693,
    "cigare": 2694,
    "cili": 2695,
    "cin": 2696,
    "cing</w>": 2697,
    "cious</w>": 2698,
    "cip": 2699,
    "cir": 2700,
    "circ": 2701,
    "circl": 2702,
    "circle</w>": 2703,
    "circu": 2704,
    "circum": 2705,
    "circumst": 2706,
    "circumstance</w>": 2707,
    "circumstances,</w>": 2708,
    "circumstances</w>": 2709,
    "cis": 2710,
    "cise</w>": 2711,
    "cised</w>": 2712,
    "cit": 2713,
    "citi": 2714,
    "cities</w>": 2715,
    "citiz": 2716,
    "citizen": 2717,
    "citizen.</w>": 2718,
    "citizens</w>": 2719,
    "city,</w>": 2720,
    "city.</w>": 2721,
    "city</w>": 2722,
    "civi": 2723,
    "civil</w>": 2724,
    "civili": 2725,
    "civill</w>": 2726,
    "ck": 2727,
    "ck,</w>": 2728,
    "ck.</w>": 2729,
    "ck;</w>": 2730,
    "ck</w>": 2731,
    "cke": 2732,
    "cked</w>": 2733,
    "cken</w>": 2734,
    "cking</w>": 2735,
    "cks,</w>": 2736,
    "cks</w>": 2737,
    "cl": 2738,
    "cla": 2739,
    "clai": 2740,
    "claim</w>": 2741,
    "claims</w>": 2742,
    "clam": 2743,
    "clar": 2744,
    "clas": 2745,
    "clasped</w>": 2746,
    "class</w>": 2747,
    "classi": 2748,
    "clau": 2749,
    "claudi": 2750,
    "claudio.</w>": 2751,
    "cle": 2752,
    "clea": 2753,
    "clean": 2754,
    "clean</w>": 2755,
    "clear": 2756,
    "clear,</w>": 2757,
    "clear</w>": 2758,
    "cleared</w>": 2759,
    "clearly</w>": 2760,
    "cleop": 2761,
    "cleopat": 2762,
    "cleopatra": 2763,
    "cleopatra.</w>": 2764,
    "cler": 2765,
    "clergy": 2766,
    "clergyman</w>": 2767,
    "clerk</w>": 2768,
    "clerval</w>": 2769,
    "clever": 2770,
    "clever</w>": 2771,
    "cli": 2772,
    "clif": 2773,
    "cliff": 2774,
    "cliff</w>": 2775,
    "clifford,</w>": 2776,
    "clifford.</w>": 2777,
    "clifford</w>": 2778,
    "clim": 2779,
    "climb": 2780,
    "clin": 2781,
    "clinton</w>": 2782,
    "clo": 2783,
    "cloa": 2784,
    "cloak</w>": 2785,
    "clock</w>": 2786,
    "close,</w>": 2787,
    "close</w>": 2788,
    "closed</w>": 2789,
    "closely</w>": 2790,
    "closer</w>": 2791,
    "closing</w>": 2792,
    "cloten.</w>": 2793,
    "cloth": 2794,
    "cloth</w>": 2795,
    "clothed</w>": 2796,
    "clothes,</w>": 2797,
    "clothes</w>": 2798,
    "clou": 2799,
    "cloud</w>": 2800,
    "clouds,</w>": 2801,
    "clouds</w>": 2802,
    "clown.</w>": 2803,
    "clu": 2804,
    "club</w>": 2805,
    "clum": 2806,
    "cn": 2807,
    "cnn</w>": 2808,
    "co": 2809,
    "co/": 2810,
    "co</w>": 2811,
    "coach": 2812,
    "coach,</w>": 2813,
    "coach</w>": 2814,
    "coadju": 2815,
    "coar": 2816,
    "coarse</w>": 2817,
    "coast": 2818,
    "coast</w>": 2819,
    "coat": 2820,
    "coat,</w>": 2821,
    "coat.</w>": 2822,
    "coat</w>": 2823,
    "cob": 2824,
    "cock": 2825,
    "cof": 2826,
    "coff": 2827,
    "coffe": 2828,
    "coffin": 2829,
    "coffin</w>": 2830,
    "coher": 2831,
    "col": 2832,
    "cold": 2833,
    "cold,</w>": 2834,
    "cold.</w>": 2835,
    "cold</w>": 2836,
    "coll": 2837,
    "collec": 2838,
    "collected</w>": 2839,
    "collection</w>": 2840,
    "college</w>": 2841,
    "collins</w>": 2842,
    "collu": 2843,
    "collusion</w>": 2844,
    "colo": 2845,
    "colon": 2846,
    "colonel</w>": 2847,
    "color": 2848,
    "colou": 2849,
    "colour": 2850,
    "colour,</w>": 2851,
    "colour</w>": 2852,
    "coloured</w>": 2853,
    "colours</w>": 2854,
    "colum": 2855,
    "com": 2856,
    "comb": 2857,
    "combat</w>": 2858,
    "combin": 2859,
    "come": 2860,
    "come!</w>": 2861,
    "come,</w>": 2862,
    "come.</w>": 2863,
    "come;</w>": 2864,
    "come</w>": 2865,
    "comes,</w>": 2866,
    "comes.</w>": 2867,
    "comes</w>": 2868,
    "cometh</w>": 2869,
    "comfor": 2870,
    "comfort,</w>": 2871,
    "comfort</w>": 2872,
    "comfortab": 2873,
    "comfortable</w>": 2874,
    "comforted</w>": 2875,
    "coming,</w>": 2876,
    "coming.</w>": 2877,
    "coming</w>": 2878,
    "cominius.</w>": 2879,
    "comm": 2880,
    "comman": 2881,
    "command": 2882,
    "command,</w>": 2883,
    "command</w>": 2884,
    "commanded</w>": 2885,
    "commandment</w>": 2886,
    "commands</w>": 2887,
    "commen": 2888,
    "commend": 2889,
    "commend</w>": 2890,
    "commended</w>": 2891,
    "commerci": 2892,
    "commercial</w>": 2893,
    "comming": 2894,
    "commis": 2895,
    "commission</w>": 2896,
    "commit": 2897,
    "commit</w>": 2898,
    "committe": 2899,
    "committed</w>": 2900,
    "commo": 2901,
    "common": 2902,
    "common-": 2903,
    "common-weal": 2904,
    "common-wealth,</w>": 2905,
    "common-wealth</w>": 2906,
    "common</w>": 2907,
    "commonly</w>": 2908,
    "commun": 2909,
    "communic": 2910,
    "communicate</w>": 2911,
    "communicated</w>": 2912,
    "communication</w>": 2913,
    "comp": 2914,
    "compa": 2915,
    "compan": 2916,
    "compani": 2917,
    "companies</w>": 2918,
    "companion": 2919,
    "companion,</w>": 2920,
    "companion</w>": 2921,
    "companions</w>": 2922,
    "company": 2923,
    "company,</w>": 2924,
    "company.</w>": 2925,
    "company</w>": 2926,
    "compar": 2927,
    "compare</w>": 2928,
    "compared</w>": 2929,
    "comparis": 2930,
    "comparison</w>": 2931,
    "compass</w>": 2932,
    "compassion</w>": 2933,
    "compe": 2934,
    "compelled</w>": 2935,
    "competi": 2936,
    "compl": 2937,
    "complac": 2938,
    "complain": 2939,
    "complain</w>": 2940,
    "comple": 2941,
    "complete</w>": 2942,
    "completely</w>": 2943,
    "complexi": 2944,
    "complexion</w>": 2945,
    "compli": 2946,
    "compliance</w>": 2947,
    "compliment</w>": 2948,
    "compliments</w>": 2949,
    "comply</w>": 2950,
    "complying</w>": 2951,
    "compo": 2952,
    "compos": 2953,
    "composed</w>": 2954,
    "comprehen": 2955,
    "comprehend</w>": 2956,
    "compu": 2957,
    "computer</w>": 2958,
    "comte</w>": 2959,
    "con": 2960,
    "con</w>": 2961,
    "conce": 2962,
    "conceal": 2963,
    "conceal</w>": 2964,
    "concealed</w>": 2965,
    "concei": 2966,
    "conceive</w>": 2967,
    "conceived</w>": 2968,
    "concept</w>": 2969,
    "concer": 2970,
    "concern</w>": 2971,
    "concerned</w>": 2972,
    "concerning</w>": 2973,
    "concerns</w>": 2974,
    "conci": 2975,
    "conclu": 2976,
    "conclude</w>": 2977,
    "concluded</w>": 2978,
    "conclusion</w>": 2979,
    "condem": 2980,
    "condemn</w>": 2981,
    "condemned</w>": 2982,
    "condi": 2983,
    "condition,</w>": 2984,
    "condition</w>": 2985,
    "conditions</w>": 2986,
    "conduc": 2987,
    "conduct</w>": 2988,
    "conducted</w>": 2989,
    "conf": 2990,
    "confer": 2991,
    "conference</w>": 2992,
    "confes": 2993,
    "confess": 2994,
    "confess,</w>": 2995,
    "confess</w>": 2996,
    "confessed</w>": 2997,
    "confession</w>": 2998,
    "confi": 2999,
    "confidence</w>": 3000,
    "confident</w>": 3001,
    "confin": 3002,
    "confined</w>": 3003,
    "confir": 3004,
    "confirm": 3005,
    "confirm</w>": 3006,
    "confirmed</w>": 3007,
    "conflic": 3008,
    "confound</w>": 3009,
    "confounded</w>": 3010,
    "confu": 3011,
    "confused</w>": 3012,
    "confusion,</w>": 3013,
    "confusion</w>": 3014,
    "congr": 3015,
    "congrat": 3016,
    "congrats</w>": 3017,
    "congratul": 3018,
    "congratulations</w>": 3019,
    "congre": 3020,
    "congreg": 3021,
    "congregation,</w>": 3022,
    "congregation</w>": 3023,
    "congress": 3024,
    "congress</w>": 3025,
    "congressman</w>": 3026,
    "conjec": 3027,
    "conne": 3028,
    "connec": 3029,
    "connected</w>": 3030,
    "connection</w>": 3031,
    "conqu": 3032,
    "conquer": 3033,
    "conquest</w>": 3034,
    "consci": 3035,
    "conscience,</w>": 3036,
    "conscience</w>": 3037,
    "conscious</w>": 3038,
    "consciousness</w>": 3039,
    "conse": 3040,
    "consecr": 3041,
    "consent": 3042,
    "consent,</w>": 3043,
    "consent</w>": 3044,
    "consented</w>": 3045,
    "consequ": 3046,
    "consequence</w>": 3047,
    "consequences</w>": 3048,
    "consequently</w>": 3049,
    "conserv": 3050,
    "consi": 3051,
    "consider": 3052,
    "consider</w>": 3053,
    "considerable</w>": 3054,
    "consideration</w>": 3055,
    "considered</w>": 3056,
    "considering</w>": 3057,
    "consist": 3058,
    "consisted</w>": 3059,
    "consol": 3060,
    "consolation</w>": 3061,
    "conspir": 3062,
    "const": 3063,
    "constant</w>": 3064,
    "constantly</w>": 3065,
    "constitu": 3066,
    "constru": 3067,
    "construc": 3068,
    "consu": 3069,
    "consul": 3070,
    "consult</w>": 3071,
    "consumed</w>": 3072,
    "cont": 3073,
    "contact</w>": 3074,
    "contain</w>": 3075,
    "contained</w>": 3076,
    "containing</w>": 3077,
    "contem": 3078,
    "contemp": 3079,
    "contempl": 3080,
    "contempt</w>": 3081,
    "conten": 3082,
    "content": 3083,
    "content.</w>": 3084,
    "content</w>": 3085,
    "contented</w>": 3086,
    "contents</w>": 3087,
    "contin": 3088,
    "continu": 3089,
    "continual</w>": 3090,
    "continually</w>": 3091,
    "continue</w>": 3092,
    "continued,</w>": 3093,
    "continued</w>": 3094,
    "continues</w>": 3095,
    "contr": 3096,
    "contra": 3097,
    "contract</w>": 3098,
    "contradic": 3099,
    "contrary,</w>": 3100,
    "contrary</w>": 3101,
    "contrast</w>": 3102,
    "contri": 3103,
    "contribu": 3104,
    "contributions</w>": 3105,
    "contrived</w>": 3106,
    "contro": 3107,
    "control</w>": 3108,
    "conve": 3109,
    "conven": 3110,
    "conveni": 3111,
    "convenient</w>": 3112,
    "conver": 3113,
    "convers": 3114,
    "conversation,</w>": 3115,
    "conversation.</w>": 3116,
    "conversation</w>": 3117,
    "converse</w>": 3118,
    "convert</w>": 3119,
    "convey</w>": 3120,
    "conveyed</w>": 3121,
    "convic": 3122,
    "conviction</w>": 3123,
    "convinc": 3124,
    "convince</w>": 3125,
    "convinced</w>": 3126,
    "convul": 3127,
    "coo": 3128,
    "cook</w>": 3129,
    "cool": 3130,
    "cool</w>": 3131,
    "cop": 3132,
    "cope</w>": 3133,
    "copi": 3134,
    "copied</w>": 3135,
    "copies</w>": 3136,
    "copy": 3137,
    "copy,</w>": 3138,
    "copy</w>": 3139,
    "copying,</w>": 3140,
    "copying</w>": 3141,
    "copyright</w>": 3142,
    "cor": 3143,
    "cordeli": 3144,
    "cordi": 3145,
    "cori": 3146,
    "corin": 3147,
    "corinthi": 3148,
    "corinthians</w>": 3149,
    "coriol": 3150,
    "coriolan": 3151,
    "coriolanus.</w>": 3152,
    "corn": 3153,
    "corn</w>": 3154,
    "corne": 3155,
    "corner": 3156,
    "corner,</w>": 3157,
    "corner</w>": 3158,
    "coron": 3159,
    "corp": 3160,
    "corpor": 3161,
    "corpse</w>": 3162,
    "correc": 3163,
    "correct</w>": 3164,
    "correspon": 3165,
    "corri": 3166,
    "corrup": 3167,
    "corrupt</w>": 3168,
    "corruption</w>": 3169,
    "cost</w>": 3170,
    "costar": 3171,
    "costard.</w>": 3172,
    "costs</w>": 3173,
    "cott": 3174,
    "cottage</w>": 3175,
    "cou": 3176,
    "could": 3177,
    "could,</w>": 3178,
    "could.</w>": 3179,
    "could</w>": 3180,
    "couldn't</w>": 3181,
    "couldn\u2019t</w>": 3182,
    "coun": 3183,
    "counci": 3184,
    "council</w>": 3185,
    "counsel": 3186,
    "counsel,</w>": 3187,
    "counsel</w>": 3188,
    "counsell": 3189,
    "count": 3190,
    "count,</w>": 3191,
    "count.</w>": 3192,
    "count</w>": 3193,
    "counted</w>": 3194,
    "counten": 3195,
    "countenance,</w>": 3196,
    "countenance.</w>": 3197,
    "countenance</w>": 3198,
    "counter": 3199,
    "counterfe": 3200,
    "countess.</w>": 3201,
    "countess</w>": 3202,
    "countr": 3203,
    "countri": 3204,
    "countries</w>": 3205,
    "country": 3206,
    "country!</w>": 3207,
    "country,</w>": 3208,
    "country.</w>": 3209,
    "country</w>": 3210,
    "country\u2019s</w>": 3211,
    "county</w>": 3212,
    "count\u2019s</w>": 3213,
    "couple</w>": 3214,
    "cour": 3215,
    "courage,</w>": 3216,
    "courage</w>": 3217,
    "course,</w>": 3218,
    "course.</w>": 3219,
    "course</w>": 3220,
    "courses</w>": 3221,
    "court,</w>": 3222,
    "court.</w>": 3223,
    "court</w>": 3224,
    "courtes": 3225,
    "courty": 3226,
    "cous": 3227,
    "cousin": 3228,
    "cousin,</w>": 3229,
    "cousin.</w>": 3230,
    "cousin</w>": 3231,
    "cove": 3232,
    "coven": 3233,
    "covenant</w>": 3234,
    "cover": 3235,
    "cover</w>": 3236,
    "covered</w>": 3237,
    "covering</w>": 3238,
    "cow": 3239,
    "cowar": 3240,
    "cr": 3241,
    "cra": 3242,
    "crac": 3243,
    "crack": 3244,
    "craf": 3245,
    "craft</w>": 3246,
    "cran": 3247,
    "crant": 3248,
    "craw": 3249,
    "craz": 3250,
    "crazy</w>": 3251,
    "cre": 3252,
    "crea": 3253,
    "creat": 3254,
    "create</w>": 3255,
    "created</w>": 3256,
    "creating</w>": 3257,
    "creation</w>": 3258,
    "creature": 3259,
    "creature,</w>": 3260,
    "creature</w>": 3261,
    "creatures,</w>": 3262,
    "creatures</w>": 3263,
    "cred": 3264,
    "credi": 3265,
    "credit</w>": 3266,
    "creep</w>": 3267,
    "creeping</w>": 3268,
    "crept</w>": 3269,
    "cressi": 3270,
    "cressida.</w>": 3271,
    "crew,</w>": 3272,
    "crew</w>": 3273,
    "cri": 3274,
    "cried,</w>": 3275,
    "cried.</w>": 3276,
    "cried</w>": 3277,
    "cries</w>": 3278,
    "crim": 3279,
    "crime,</w>": 3280,
    "crime</w>": 3281,
    "crimes</w>": 3282,
    "crimin": 3283,
    "criminal</w>": 3284,
    "crimson</w>": 3285,
    "cripp": 3286,
    "cris": 3287,
    "cristo": 3288,
    "cristo,</w>": 3289,
    "cristo.</w>": 3290,
    "cristo</w>": 3291,
    "critic": 3292,
    "critical</w>": 3293,
    "cro": 3294,
    "crom": 3295,
    "croo": 3296,
    "crooked</w>": 3297,
    "cros": 3298,
    "cross-": 3299,
    "cross</w>": 3300,
    "crossed</w>": 3301,
    "crossing</w>": 3302,
    "crow": 3303,
    "crowd,</w>": 3304,
    "crowd</w>": 3305,
    "crowded</w>": 3306,
    "crown": 3307,
    "crown,</w>": 3308,
    "crown</w>": 3309,
    "crowned</w>": 3310,
    "cru": 3311,
    "cruci": 3312,
    "cruel": 3313,
    "cruel</w>": 3314,
    "crum": 3315,
    "crunc": 3316,
    "crus": 3317,
    "crush</w>": 3318,
    "crushed</w>": 3319,
    "cruz</w>": 3320,
    "cry": 3321,
    "cry,</w>": 3322,
    "cry</w>": 3323,
    "crying,</w>": 3324,
    "crying</w>": 3325,
    "cryst": 3326,
    "ct</w>": 3327,
    "cted</w>": 3328,
    "cu": 3329,
    "cub": 3330,
    "cubit": 3331,
    "cuck": 3332,
    "cul": 3333,
    "cultiv": 3334,
    "cun": 3335,
    "cunning</w>": 3336,
    "cup": 3337,
    "cup</w>": 3338,
    "cur": 3339,
    "cur</w>": 3340,
    "cure</w>": 3341,
    "curi": 3342,
    "curio": 3343,
    "curiosity,</w>": 3344,
    "curiosity</w>": 3345,
    "curious</w>": 3346,
    "curiously</w>": 3347,
    "curr": 3348,
    "current</w>": 3349,
    "curse</w>": 3350,
    "cursed</w>": 3351,
    "curtain": 3352,
    "curtain</w>": 3353,
    "curtains</w>": 3354,
    "cus": 3355,
    "cus,</w>": 3356,
    "cus.</w>": 3357,
    "cus</w>": 3358,
    "cushi": 3359,
    "custo": 3360,
    "custom": 3361,
    "custom</w>": 3362,
    "cut</w>": 3363,
    "cuts</w>": 3364,
    "cutting</w>": 3365,
    "cy": 3366,
    "cy,</w>": 3367,
    "cy.</w>": 3368,
    "cy</w>": 3369,
    "cymbe": 3370,
    "cymbeline.</w>": 3371,
    "d": 3372,
    "d!</w>": 3373,
    "d!\u201d</w>": 3374,
    "d,</w>": 3375,
    "d,\u201d</w>": 3376,
    "d-": 3377,
    "d--": 3378,
    "d.": 3379,
    "d.</w>": 3380,
    "d._]</w>": 3381,
    "d.c.</w>": 3382,
    "d.\u201d</w>": 3383,
    "d:</w>": 3384,
    "d;</w>": 3385,
    "d</w>": 3386,
    "d?</w>": 3387,
    "d?\u201d</w>": 3388,
    "da": 3389,
    "da,</w>": 3390,
    "da.</w>": 3391,
    "da</w>": 3392,
    "dac": 3393,
    "dag": 3394,
    "dai": 3395,
    "daily</w>": 3396,
    "dain": 3397,
    "daisy</w>": 3398,
    "dal": 3399,
    "dale</w>": 3400,
    "dall": 3401,
    "dam": 3402,
    "damage</w>": 3403,
    "damages</w>": 3404,
    "damn</w>": 3405,
    "damned</w>": 3406,
    "dan": 3407,
    "dan,</w>": 3408,
    "dan</w>": 3409,
    "danc": 3410,
    "dance": 3411,
    "dance</w>": 3412,
    "danced</w>": 3413,
    "dancing</w>": 3414,
    "dang": 3415,
    "danger": 3416,
    "danger,</w>": 3417,
    "danger</w>": 3418,
    "dangerous</w>": 3419,
    "danglar": 3420,
    "danglars,</w>": 3421,
    "danglars</w>": 3422,
    "dani": 3423,
    "daniel</w>": 3424,
    "dant": 3425,
    "dant\u00e8": 3426,
    "dant\u00e8s,</w>": 3427,
    "dant\u00e8s</w>": 3428,
    "dar": 3429,
    "darc": 3430,
    "darcy,</w>": 3431,
    "darcy</w>": 3432,
    "dare</w>": 3433,
    "dared</w>": 3434,
    "dares</w>": 3435,
    "daring</w>": 3436,
    "dark": 3437,
    "dark,</w>": 3438,
    "dark</w>": 3439,
    "darkness,</w>": 3440,
    "darkness.</w>": 3441,
    "darkness</w>": 3442,
    "darted</w>": 3443,
    "dashed</w>": 3444,
    "dat": 3445,
    "dat</w>": 3446,
    "date</w>": 3447,
    "dated</w>": 3448,
    "daugh": 3449,
    "daughter": 3450,
    "daughter,</w>": 3451,
    "daughter.</w>": 3452,
    "daughter</w>": 3453,
    "daughters,</w>": 3454,
    "daughters</w>": 3455,
    "daughter\u2019s</w>": 3456,
    "daun": 3457,
    "daup": 3458,
    "dav": 3459,
    "davi": 3460,
    "david": 3461,
    "david,</w>": 3462,
    "david</w>": 3463,
    "daw": 3464,
    "dawn</w>": 3465,
    "day": 3466,
    "day!</w>": 3467,
    "day,</w>": 3468,
    "day.</w>": 3469,
    "day.\u201d</w>": 3470,
    "day:</w>": 3471,
    "day;</w>": 3472,
    "day</w>": 3473,
    "days,</w>": 3474,
    "days.</w>": 3475,
    "days</w>": 3476,
    "day\u2019s</w>": 3477,
    "dazz": 3478,
    "dc": 3479,
    "dd": 3480,
    "dden": 3481,
    "dden,</w>": 3482,
    "dden</w>": 3483,
    "dding</w>": 3484,
    "ddle</w>": 3485,
    "ddy</w>": 3486,
    "de": 3487,
    "de,</w>": 3488,
    "de-": 3489,
    "de.</w>": 3490,
    "de;</w>": 3491,
    "de</w>": 3492,
    "dea": 3493,
    "dead": 3494,
    "dead,</w>": 3495,
    "dead.</w>": 3496,
    "dead;</w>": 3497,
    "dead</w>": 3498,
    "deadly</w>": 3499,
    "deal": 3500,
    "deal,</w>": 3501,
    "deal.</w>": 3502,
    "deal</w>": 3503,
    "deals</w>": 3504,
    "dealt</w>": 3505,
    "dear": 3506,
    "dear,</w>": 3507,
    "dear.</w>": 3508,
    "dear</w>": 3509,
    "dearest</w>": 3510,
    "death": 3511,
    "death,</w>": 3512,
    "death-": 3513,
    "death.</w>": 3514,
    "death;</w>": 3515,
    "death</w>": 3516,
    "deb": 3517,
    "debate</w>": 3518,
    "debra": 3519,
    "debt</w>": 3520,
    "dec": 3521,
    "deca": 3522,
    "dece": 3523,
    "decei": 3524,
    "deceive</w>": 3525,
    "deceived</w>": 3526,
    "decent</w>": 3527,
    "deci": 3528,
    "decide": 3529,
    "decide</w>": 3530,
    "decided</w>": 3531,
    "decision</w>": 3532,
    "deck,</w>": 3533,
    "deck</w>": 3534,
    "decl": 3535,
    "decla": 3536,
    "declar": 3537,
    "declare</w>": 3538,
    "declared</w>": 3539,
    "declin": 3540,
    "decor": 3541,
    "decre": 3542,
    "ded": 3543,
    "ded,</w>": 3544,
    "ded.</w>": 3545,
    "ded;</w>": 3546,
    "ded</w>": 3547,
    "dedic": 3548,
    "deduc": 3549,
    "dee": 3550,
    "deed</w>": 3551,
    "deeds</w>": 3552,
    "deemed</w>": 3553,
    "deep": 3554,
    "deep,</w>": 3555,
    "deep</w>": 3556,
    "deeper</w>": 3557,
    "deepest</w>": 3558,
    "deeply</w>": 3559,
    "def": 3560,
    "defar": 3561,
    "defarge</w>": 3562,
    "defe": 3563,
    "defeat</w>": 3564,
    "defec": 3565,
    "defect</w>": 3566,
    "defective</w>": 3567,
    "defen": 3568,
    "defence</w>": 3569,
    "defend</w>": 3570,
    "defense</w>": 3571,
    "defer": 3572,
    "defi": 3573,
    "defin": 3574,
    "defy</w>": 3575,
    "degr": 3576,
    "degre": 3577,
    "degree</w>": 3578,
    "degrees</w>": 3579,
    "dejec": 3580,
    "del": 3581,
    "del</w>": 3582,
    "dela": 3583,
    "delay</w>": 3584,
    "dele": 3585,
    "deli": 3586,
    "deliber": 3587,
    "delic": 3588,
    "delicacy</w>": 3589,
    "delicate</w>": 3590,
    "delight": 3591,
    "delight,</w>": 3592,
    "delight.</w>": 3593,
    "delight</w>": 3594,
    "delighted</w>": 3595,
    "delightful</w>": 3596,
    "deliri": 3597,
    "deliver": 3598,
    "deliver</w>": 3599,
    "delivered</w>": 3600,
    "dell": 3601,
    "delu": 3602,
    "dem": 3603,
    "deman": 3604,
    "demand</w>": 3605,
    "demanded</w>": 3606,
    "demean": 3607,
    "demetri": 3608,
    "demetrius.</w>": 3609,
    "demo": 3610,
    "democr": 3611,
    "democrat": 3612,
    "democrat</w>": 3613,
    "democrats,</w>": 3614,
    "democrats</w>": 3615,
    "demoisell": 3616,
    "demon": 3617,
    "demonstr": 3618,
    "dems</w>": 3619,
    "den": 3620,
    "den,</w>": 3621,
    "den.</w>": 3622,
    "den</w>": 3623,
    "dence,</w>": 3624,
    "dence.</w>": 3625,
    "dence</w>": 3626,
    "dency</w>": 3627,
    "deni": 3628,
    "denied</w>": 3629,
    "dent": 3630,
    "dent,</w>": 3631,
    "dent.</w>": 3632,
    "dent</w>": 3633,
    "denti": 3634,
    "dential</w>": 3635,
    "dently</w>": 3636,
    "dents</w>": 3637,
    "deny</w>": 3638,
    "dep": 3639,
    "depar": 3640,
    "depart": 3641,
    "depart</w>": 3642,
    "departed,</w>": 3643,
    "departed</w>": 3644,
    "department</w>": 3645,
    "departure</w>": 3646,
    "depen": 3647,
    "depend": 3648,
    "depend</w>": 3649,
    "depends</w>": 3650,
    "depres": 3651,
    "depri": 3652,
    "deprived</w>": 3653,
    "depths</w>": 3654,
    "depu": 3655,
    "der": 3656,
    "der,</w>": 3657,
    "der.</w>": 3658,
    "der</w>": 3659,
    "dered</w>": 3660,
    "deri": 3661,
    "dering</w>": 3662,
    "deriv": 3663,
    "derivative</w>": 3664,
    "derive</w>": 3665,
    "derived</w>": 3666,
    "ders,</w>": 3667,
    "ders</w>": 3668,
    "des": 3669,
    "des,</w>": 3670,
    "des.</w>": 3671,
    "des</w>": 3672,
    "desc": 3673,
    "descen": 3674,
    "descend": 3675,
    "descend</w>": 3676,
    "descended</w>": 3677,
    "descending</w>": 3678,
    "descri": 3679,
    "describe</w>": 3680,
    "described</w>": 3681,
    "descrip": 3682,
    "description</w>": 3683,
    "desdemon": 3684,
    "desdemona.</w>": 3685,
    "deser": 3686,
    "desert</w>": 3687,
    "deserted</w>": 3688,
    "deserve</w>": 3689,
    "deserved</w>": 3690,
    "deserves</w>": 3691,
    "desi": 3692,
    "desig": 3693,
    "design": 3694,
    "design</w>": 3695,
    "desir": 3696,
    "desire,</w>": 3697,
    "desire</w>": 3698,
    "desired</w>": 3699,
    "desires</w>": 3700,
    "desiring</w>": 3701,
    "desirous</w>": 3702,
    "desol": 3703,
    "desolate</w>": 3704,
    "desp": 3705,
    "despair": 3706,
    "despair,</w>": 3707,
    "despair.</w>": 3708,
    "despair</w>": 3709,
    "despat": 3710,
    "desper": 3711,
    "desperate</w>": 3712,
    "despi": 3713,
    "despise</w>": 3714,
    "despised</w>": 3715,
    "despite</w>": 3716,
    "despon": 3717,
    "dest": 3718,
    "dest</w>": 3719,
    "destin": 3720,
    "destined</w>": 3721,
    "destiny</w>": 3722,
    "destro": 3723,
    "destroy</w>": 3724,
    "destroyed</w>": 3725,
    "destroying</w>": 3726,
    "destruc": 3727,
    "destruction</w>": 3728,
    "det": 3729,
    "detai": 3730,
    "detail</w>": 3731,
    "details</w>": 3732,
    "dete": 3733,
    "deter": 3734,
    "determin": 3735,
    "determination</w>": 3736,
    "determine</w>": 3737,
    "determined</w>": 3738,
    "detest": 3739,
    "deth</w>": 3740,
    "deu": 3741,
    "deuter": 3742,
    "deuteron": 3743,
    "deuteronomy</w>": 3744,
    "dev": 3745,
    "develo": 3746,
    "develop": 3747,
    "devi": 3748,
    "devil": 3749,
    "devil,</w>": 3750,
    "devil</w>": 3751,
    "devils</w>": 3752,
    "devo": 3753,
    "devoted</w>": 3754,
    "devotion</w>": 3755,
    "dew</w>": 3756,
    "dex": 3757,
    "dexter": 3758,
    "dg": 3759,
    "dge": 3760,
    "dge,</w>": 3761,
    "dge.</w>": 3762,
    "dge</w>": 3763,
    "dged</w>": 3764,
    "dges</w>": 3765,
    "di": 3766,
    "di</w>": 3767,
    "dialo": 3768,
    "diam": 3769,
    "diamon": 3770,
    "diamond</w>": 3771,
    "dian": 3772,
    "dic": 3773,
    "dick": 3774,
    "dick</w>": 3775,
    "dict": 3776,
    "dict</w>": 3777,
    "did": 3778,
    "did,</w>": 3779,
    "did.</w>": 3780,
    "did</w>": 3781,
    "didn": 3782,
    "didn't</w>": 3783,
    "didn\u2019t</w>": 3784,
    "didst</w>": 3785,
    "die": 3786,
    "die,</w>": 3787,
    "die.</w>": 3788,
    "die</w>": 3789,
    "died,</w>": 3790,
    "died.</w>": 3791,
    "died</w>": 3792,
    "dies</w>": 3793,
    "diff": 3794,
    "differ": 3795,
    "difference</w>": 3796,
    "different</w>": 3797,
    "diffic": 3798,
    "difficul": 3799,
    "difficult</w>": 3800,
    "difficulties</w>": 3801,
    "difficulty</w>": 3802,
    "dign": 3803,
    "digni": 3804,
    "dignity</w>": 3805,
    "dili": 3806,
    "dily</w>": 3807,
    "dim": 3808,
    "dim</w>": 3809,
    "dimin": 3810,
    "dimm": 3811,
    "dimmes": 3812,
    "dimmesdal": 3813,
    "din": 3814,
    "dine</w>": 3815,
    "dined</w>": 3816,
    "ding,</w>": 3817,
    "ding-": 3818,
    "ding</w>": 3819,
    "dining-": 3820,
    "dinn": 3821,
    "dinner": 3822,
    "dinner,</w>": 3823,
    "dinner.</w>": 3824,
    "dinner</w>": 3825,
    "diom": 3826,
    "diomed": 3827,
    "diomedes.</w>": 3828,
    "dious</w>": 3829,
    "dir": 3830,
    "dire</w>": 3831,
    "direc": 3832,
    "direct</w>": 3833,
    "directed</w>": 3834,
    "direction</w>": 3835,
    "directly</w>": 3836,
    "director</w>": 3837,
    "dirty</w>": 3838,
    "dis": 3839,
    "disa": 3840,
    "disad": 3841,
    "disadvant": 3842,
    "disagree": 3843,
    "disagreeable</w>": 3844,
    "disap": 3845,
    "disappe": 3846,
    "disappeared</w>": 3847,
    "disappoint": 3848,
    "disappointed</w>": 3849,
    "disappointment</w>": 3850,
    "disaster</w>": 3851,
    "disc": 3852,
    "discer": 3853,
    "discharge</w>": 3854,
    "discharged</w>": 3855,
    "disci": 3856,
    "discipl": 3857,
    "disciples</w>": 3858,
    "disclai": 3859,
    "disclaimer</w>": 3860,
    "disclo": 3861,
    "disco": 3862,
    "discor": 3863,
    "discour": 3864,
    "discourse,</w>": 3865,
    "discourse</w>": 3866,
    "discover": 3867,
    "discover</w>": 3868,
    "discovered</w>": 3869,
    "discovery</w>": 3870,
    "discre": 3871,
    "discus": 3872,
    "discuss</w>": 3873,
    "discussing</w>": 3874,
    "disda": 3875,
    "disea": 3876,
    "diseas": 3877,
    "disease</w>": 3878,
    "disgrac": 3879,
    "disgrace</w>": 3880,
    "disgu": 3881,
    "disgui": 3882,
    "disgust</w>": 3883,
    "dish": 3884,
    "dish</w>": 3885,
    "dishon": 3886,
    "dishonest</w>": 3887,
    "disin": 3888,
    "dislike</w>": 3889,
    "disma": 3890,
    "dismal</w>": 3891,
    "diso": 3892,
    "disobe": 3893,
    "disp": 3894,
    "dispat": 3895,
    "disper": 3896,
    "displa": 3897,
    "displayed</w>": 3898,
    "displaying,</w>": 3899,
    "displaying</w>": 3900,
    "disple": 3901,
    "displeas": 3902,
    "disposed</w>": 3903,
    "disposition,</w>": 3904,
    "disposition</w>": 3905,
    "dispute</w>": 3906,
    "dissi": 3907,
    "dissol": 3908,
    "dist": 3909,
    "distance,</w>": 3910,
    "distance</w>": 3911,
    "distant</w>": 3912,
    "distinc": 3913,
    "distinct</w>": 3914,
    "distinction</w>": 3915,
    "distinctly</w>": 3916,
    "distingu": 3917,
    "distinguish</w>": 3918,
    "distinguished</w>": 3919,
    "distr": 3920,
    "distres": 3921,
    "distress</w>": 3922,
    "distri": 3923,
    "distribu": 3924,
    "distribute</w>": 3925,
    "distributed</w>": 3926,
    "distributing</w>": 3927,
    "distribution</w>": 3928,
    "distru": 3929,
    "distur": 3930,
    "disturb</w>": 3931,
    "disturbed</w>": 3932,
    "dit": 3933,
    "dity</w>": 3934,
    "div": 3935,
    "diver": 3936,
    "divers</w>": 3937,
    "divi": 3938,
    "divide</w>": 3939,
    "divided</w>": 3940,
    "divin": 3941,
    "divine</w>": 3942,
    "dly,</w>": 3943,
    "dly</w>": 3944,
    "dmit": 3945,
    "dmitri</w>": 3946,
    "dn": 3947,
    "dness</w>": 3948,
    "do": 3949,
    "do!</w>": 3950,
    "do,</w>": 3951,
    "do,\u201d</w>": 3952,
    "do.</w>": 3953,
    "do.\u201d</w>": 3954,
    "do;</w>": 3955,
    "do</w>": 3956,
    "do?</w>": 3957,
    "do?\u201d</w>": 3958,
    "doc": 3959,
    "doctor": 3960,
    "doctor,</w>": 3961,
    "doctor.</w>": 3962,
    "doctor</w>": 3963,
    "doctor\u2019s</w>": 3964,
    "doctr": 3965,
    "doctrine</w>": 3966,
    "docum": 3967,
    "doe</w>": 3968,
    "does": 3969,
    "does</w>": 3970,
    "doesn't</w>": 3971,
    "doesn\u2019t</w>": 3972,
    "dog": 3973,
    "dog,</w>": 3974,
    "dog</w>": 3975,
    "dogs</w>": 3976,
    "doing,</w>": 3977,
    "doing.</w>": 3978,
    "doing</w>": 3979,
    "dol": 3980,
    "doll": 3981,
    "dollar</w>": 3982,
    "dollars</w>": 3983,
    "dom": 3984,
    "dom</w>": 3985,
    "domain</w>": 3986,
    "domest": 3987,
    "domestic</w>": 3988,
    "domin": 3989,
    "domini": 3990,
    "dominion</w>": 3991,
    "don": 3992,
    "don't</w>": 3993,
    "don</w>": 3994,
    "donal": 3995,
    "donald": 3996,
    "donald</w>": 3997,
    "donaldtrump</w>": 3998,
    "donate.</w>": 3999,
    "donations</w>": 4000,
    "done": 4001,
    "done!</w>": 4002,
    "done,</w>": 4003,
    "done.</w>": 4004,
    "done;</w>": 4005,
    "done</w>": 4006,
    "done?</w>": 4007,
    "don\u2019t</w>": 4008,
    "doom": 4009,
    "door": 4010,
    "door,</w>": 4011,
    "door.</w>": 4012,
    "door;</w>": 4013,
    "door</w>": 4014,
    "doors,</w>": 4015,
    "doors</w>": 4016,
    "dor": 4017,
    "doral</w>": 4018,
    "dori": 4019,
    "dorian,</w>": 4020,
    "dorian</w>": 4021,
    "dorothe": 4022,
    "dorothea,</w>": 4023,
    "dorothea</w>": 4024,
    "dorothea\u2019s</w>": 4025,
    "dost</w>": 4026,
    "doth</w>": 4027,
    "dou": 4028,
    "doub": 4029,
    "double": 4030,
    "double</w>": 4031,
    "doubt": 4032,
    "doubt,</w>": 4033,
    "doubt</w>": 4034,
    "doubted</w>": 4035,
    "doubtful</w>": 4036,
    "doubtless</w>": 4037,
    "doubts</w>": 4038,
    "doun": 4039,
    "dounia</w>": 4040,
    "dow": 4041,
    "dow</w>": 4042,
    "down": 4043,
    "down,</w>": 4044,
    "down.</w>": 4045,
    "down;</w>": 4046,
    "down</w>": 4047,
    "dozen</w>": 4048,
    "dr": 4049,
    "dr.</w>": 4050,
    "dra": 4051,
    "drag": 4052,
    "drag</w>": 4053,
    "dragged</w>": 4054,
    "dram": 4055,
    "drank</w>": 4056,
    "draw": 4057,
    "draw</w>": 4058,
    "drawer": 4059,
    "drawing-": 4060,
    "drawing</w>": 4061,
    "drawn</w>": 4062,
    "dre": 4063,
    "dread": 4064,
    "dread</w>": 4065,
    "dreaded</w>": 4066,
    "dreadful</w>": 4067,
    "dreadfully</w>": 4068,
    "dream": 4069,
    "dream,</w>": 4070,
    "dream.</w>": 4071,
    "dream</w>": 4072,
    "dreamed</w>": 4073,
    "dreams</w>": 4074,
    "dreary</w>": 4075,
    "dred</w>": 4076,
    "dres": 4077,
    "dresden</w>": 4078,
    "dress,</w>": 4079,
    "dress</w>": 4080,
    "dressed,</w>": 4081,
    "dressed</w>": 4082,
    "dressing": 4083,
    "dressing-": 4084,
    "drew</w>": 4085,
    "dri": 4086,
    "dried</w>": 4087,
    "drif": 4088,
    "driga": 4089,
    "drin": 4090,
    "drink,</w>": 4091,
    "drink</w>": 4092,
    "drinking</w>": 4093,
    "drive</w>": 4094,
    "driven</w>": 4095,
    "driving</w>": 4096,
    "dro": 4097,
    "dromi": 4098,
    "dromio</w>": 4099,
    "drop": 4100,
    "drop</w>": 4101,
    "dropped</w>": 4102,
    "dropping</w>": 4103,
    "drops</w>": 4104,
    "drove</w>": 4105,
    "drow": 4106,
    "drown</w>": 4107,
    "drowned</w>": 4108,
    "dru": 4109,
    "drug</w>": 4110,
    "drum": 4111,
    "drum</w>": 4112,
    "drun": 4113,
    "drunk</w>": 4114,
    "drunken</w>": 4115,
    "dry</w>": 4116,
    "ds": 4117,
    "ds,</w>": 4118,
    "ds.</w>": 4119,
    "ds;</w>": 4120,
    "ds</w>": 4121,
    "du": 4122,
    "du</w>": 4123,
    "duc": 4124,
    "duce</w>": 4125,
    "duced</w>": 4126,
    "duche": 4127,
    "duchess.</w>": 4128,
    "duchess</w>": 4129,
    "duct</w>": 4130,
    "due</w>": 4131,
    "duke": 4132,
    "duke,</w>": 4133,
    "duke.</w>": 4134,
    "duke</w>": 4135,
    "duke\u2019s</w>": 4136,
    "dul": 4137,
    "dull</w>": 4138,
    "dum": 4139,
    "duma": 4140,
    "dumb</w>": 4141,
    "dun": 4142,
    "dunge": 4143,
    "dur": 4144,
    "during</w>": 4145,
    "durst</w>": 4146,
    "dus": 4147,
    "dust,</w>": 4148,
    "dust</w>": 4149,
    "duties</w>": 4150,
    "duty,</w>": 4151,
    "duty</w>": 4152,
    "dwar": 4153,
    "dwe": 4154,
    "dwell": 4155,
    "dwell</w>": 4156,
    "dwelling</w>": 4157,
    "dwelt</w>": 4158,
    "dy": 4159,
    "dy,</w>": 4160,
    "dy.</w>": 4161,
    "dy</w>": 4162,
    "dya": 4163,
    "dyakov": 4164,
    "dying</w>": 4165,
    "d\u00e9": 4166,
    "d\u2014": 4167,
    "d\u2019": 4168,
    "d\u2019art": 4169,
    "d\u2019artagn": 4170,
    "d\u2019artagnan,</w>": 4171,
    "d\u2019artagnan.</w>": 4172,
    "d\u2019artagnan</w>": 4173,
    "d\u2019av": 4174,
    "d\u2019avrign": 4175,
    "d\u2019s</w>": 4176,
    "d\u2019ye</w>": 4177,
    "e": 4178,
    "e!</w>": 4179,
    "e!\u201d</w>": 4180,
    "e,</w>": 4181,
    "e,\u201d</w>": 4182,
    "e-": 4183,
    "e.": 4184,
    "e.</w>": 4185,
    "e.\u201d</w>": 4186,
    "e:</w>": 4187,
    "e;</w>": 4188,
    "e</w>": 4189,
    "e?</w>": 4190,
    "e?\u201d</w>": 4191,
    "e]</w>": 4192,
    "ea": 4193,
    "each</w>": 4194,
    "eag": 4195,
    "eager": 4196,
    "eager</w>": 4197,
    "eagerly</w>": 4198,
    "eagerness</w>": 4199,
    "ear": 4200,
    "ear,</w>": 4201,
    "ear.</w>": 4202,
    "ear</w>": 4203,
    "earl</w>": 4204,
    "earli": 4205,
    "earlier</w>": 4206,
    "earliest</w>": 4207,
    "early</w>": 4208,
    "earn": 4209,
    "earne": 4210,
    "earnest": 4211,
    "earnest</w>": 4212,
    "earnestly</w>": 4213,
    "ears,</w>": 4214,
    "ears.</w>": 4215,
    "ears</w>": 4216,
    "earth": 4217,
    "earth,</w>": 4218,
    "earth.</w>": 4219,
    "earth:</w>": 4220,
    "earth;</w>": 4221,
    "earth</w>": 4222,
    "earthly</w>": 4223,
    "eas": 4224,
    "ease,</w>": 4225,
    "ease</w>": 4226,
    "easi": 4227,
    "easier</w>": 4228,
    "easily</w>": 4229,
    "east": 4230,
    "east,</w>": 4231,
    "east</w>": 4232,
    "easy,</w>": 4233,
    "easy</w>": 4234,
    "eat": 4235,
    "eat,</w>": 4236,
    "eat</w>": 4237,
    "eaten</w>": 4238,
    "eating</w>": 4239,
    "eb": 4240,
    "ebook</w>": 4241,
    "ebooks</w>": 4242,
    "ec": 4243,
    "eccl": 4244,
    "ecclesi": 4245,
    "ecclesiast": 4246,
    "ecclesiastes</w>": 4247,
    "ece,</w>": 4248,
    "echo": 4249,
    "econ": 4250,
    "econom": 4251,
    "economic</w>": 4252,
    "economy</w>": 4253,
    "ecstas": 4254,
    "ed": 4255,
    "ed!</w>": 4256,
    "ed)</w>": 4257,
    "ed,</w>": 4258,
    "ed,\u201d</w>": 4259,
    "ed.</w>": 4260,
    "ed.\u201d</w>": 4261,
    "ed:</w>": 4262,
    "ed;</w>": 4263,
    "ed</w>": 4264,
    "ed?</w>": 4265,
    "ed?\u201d</w>": 4266,
    "eded</w>": 4267,
    "edgar.</w>": 4268,
    "edge</w>": 4269,
    "edi": 4270,
    "eding</w>": 4271,
    "editions</w>": 4272,
    "edly</w>": 4273,
    "edmon": 4274,
    "edmond</w>": 4275,
    "edmun": 4276,
    "edmund.</w>": 4277,
    "eds,</w>": 4278,
    "eds</w>": 4279,
    "educ": 4280,
    "education</w>": 4281,
    "edward,</w>": 4282,
    "edward.</w>": 4283,
    "edward</w>": 4284,
    "edy</w>": 4285,
    "ed\u2014": 4286,
    "ee": 4287,
    "ee</w>": 4288,
    "ef": 4289,
    "ef</w>": 4290,
    "eff": 4291,
    "effec": 4292,
    "effect,</w>": 4293,
    "effect</w>": 4294,
    "effects</w>": 4295,
    "effectually</w>": 4296,
    "effor": 4297,
    "effort,</w>": 4298,
    "effort</w>": 4299,
    "efforts</w>": 4300,
    "eful</w>": 4301,
    "eg": 4302,
    "ege": 4303,
    "ege</w>": 4304,
    "egg": 4305,
    "egy": 4306,
    "egyp": 4307,
    "egypt,</w>": 4308,
    "egypt.</w>": 4309,
    "egypt</w>": 4310,
    "egypti": 4311,
    "eh": 4312,
    "ei": 4313,
    "eigh": 4314,
    "eight</w>": 4315,
    "either": 4316,
    "either,</w>": 4317,
    "either</w>": 4318,
    "el": 4319,
    "el,</w>": 4320,
    "el.</w>": 4321,
    "el</w>": 4322,
    "ela": 4323,
    "elap": 4324,
    "elbow": 4325,
    "eld</w>": 4326,
    "elder": 4327,
    "elder</w>": 4328,
    "elders</w>": 4329,
    "eldest</w>": 4330,
    "ele": 4331,
    "elean": 4332,
    "elec": 4333,
    "elect</w>": 4334,
    "elected</w>": 4335,
    "election,</w>": 4336,
    "election.</w>": 4337,
    "election</w>": 4338,
    "electron": 4339,
    "electronic</w>": 4340,
    "eleg": 4341,
    "elegant</w>": 4342,
    "eleph": 4343,
    "eless</w>": 4344,
    "elev": 4345,
    "elevated</w>": 4346,
    "eleven</w>": 4347,
    "eli": 4348,
    "elij": 4349,
    "eliza": 4350,
    "elizabe": 4351,
    "elizabeth,</w>": 4352,
    "elizabeth.</w>": 4353,
    "elizabeth</w>": 4354,
    "ell": 4355,
    "elli": 4356,
    "ellio": 4357,
    "elo": 4358,
    "eloqu": 4359,
    "els</w>": 4360,
    "else": 4361,
    "else,</w>": 4362,
    "else.</w>": 4363,
    "else</w>": 4364,
    "elu": 4365,
    "ely,</w>": 4366,
    "ely.</w>": 4367,
    "ely</w>": 4368,
    "em": 4369,
    "em,</w>": 4370,
    "em.</w>": 4371,
    "em</w>": 4372,
    "email</w>": 4373,
    "embar": 4374,
    "embarras": 4375,
    "embr": 4376,
    "embrac": 4377,
    "embrace</w>": 4378,
    "embraced</w>": 4379,
    "embroi": 4380,
    "emed</w>": 4381,
    "ement": 4382,
    "ement,</w>": 4383,
    "ement.</w>": 4384,
    "ement</w>": 4385,
    "ements</w>": 4386,
    "emer": 4387,
    "emi": 4388,
    "emili": 4389,
    "emilia.</w>": 4390,
    "emin": 4391,
    "emo": 4392,
    "emotion</w>": 4393,
    "emotions</w>": 4394,
    "emp": 4395,
    "emper": 4396,
    "emperor</w>": 4397,
    "empha": 4398,
    "emplo": 4399,
    "employ": 4400,
    "employ</w>": 4401,
    "employe": 4402,
    "employed</w>": 4403,
    "employment</w>": 4404,
    "empty</w>": 4405,
    "ems</w>": 4406,
    "en": 4407,
    "en!</w>": 4408,
    "en,</w>": 4409,
    "en.</w>": 4410,
    "en:</w>": 4411,
    "en;</w>": 4412,
    "en</w>": 4413,
    "enab": 4414,
    "enable</w>": 4415,
    "enabled</w>": 4416,
    "enc": 4417,
    "ence": 4418,
    "ence!</w>": 4419,
    "ence,</w>": 4420,
    "ence.</w>": 4421,
    "ence.\u201d</w>": 4422,
    "ence:</w>": 4423,
    "ence;</w>": 4424,
    "ence</w>": 4425,
    "ence?</w>": 4426,
    "enced</w>": 4427,
    "ences,</w>": 4428,
    "ences</w>": 4429,
    "ench": 4430,
    "ench</w>": 4431,
    "enchan": 4432,
    "enched</w>": 4433,
    "encoun": 4434,
    "encounter": 4435,
    "encounter</w>": 4436,
    "encountered</w>": 4437,
    "encour": 4438,
    "encourag": 4439,
    "encourage</w>": 4440,
    "encouraged</w>": 4441,
    "ency</w>": 4442,
    "end": 4443,
    "end,</w>": 4444,
    "end.</w>": 4445,
    "end;</w>": 4446,
    "end</w>": 4447,
    "ende": 4448,
    "endeav": 4449,
    "endeavour</w>": 4450,
    "endeavoured</w>": 4451,
    "ended</w>": 4452,
    "ending</w>": 4453,
    "endless</w>": 4454,
    "endor": 4455,
    "endorse": 4456,
    "endorsement!</w>": 4457,
    "endous</w>": 4458,
    "endow": 4459,
    "ends</w>": 4460,
    "endu": 4461,
    "endure</w>": 4462,
    "endured</w>": 4463,
    "ene": 4464,
    "ened</w>": 4465,
    "enem": 4466,
    "enemi": 4467,
    "enemies,</w>": 4468,
    "enemies.</w>": 4469,
    "enemies</w>": 4470,
    "enemy,</w>": 4471,
    "enemy.</w>": 4472,
    "enemy</w>": 4473,
    "ener": 4474,
    "energ": 4475,
    "energy</w>": 4476,
    "eness</w>": 4477,
    "eneur": 4478,
    "enforce": 4479,
    "enforcement</w>": 4480,
    "eng": 4481,
    "engag": 4482,
    "engage</w>": 4483,
    "engaged</w>": 4484,
    "engagement</w>": 4485,
    "england": 4486,
    "england,</w>": 4487,
    "england.</w>": 4488,
    "england</w>": 4489,
    "england\u2019s</w>": 4490,
    "english": 4491,
    "english,</w>": 4492,
    "english</w>": 4493,
    "ength</w>": 4494,
    "ening</w>": 4495,
    "enjo": 4496,
    "enjoy": 4497,
    "enjoy!</w>": 4498,
    "enjoy</w>": 4499,
    "enjoyed</w>": 4500,
    "enjoying</w>": 4501,
    "enli": 4502,
    "enob": 4503,
    "enobarbu": 4504,
    "enobarbus.</w>": 4505,
    "enor": 4506,
    "enormous</w>": 4507,
    "enough": 4508,
    "enough,</w>": 4509,
    "enough.</w>": 4510,
    "enough;</w>": 4511,
    "enough</w>": 4512,
    "ens": 4513,
    "ens</w>": 4514,
    "ense</w>": 4515,
    "ensu": 4516,
    "ent": 4517,
    "ent!</w>": 4518,
    "ent,</w>": 4519,
    "ent.</w>": 4520,
    "ent;</w>": 4521,
    "ent</w>": 4522,
    "ental</w>": 4523,
    "ented</w>": 4524,
    "enter": 4525,
    "enter,</w>": 4526,
    "enter</w>": 4527,
    "entered,</w>": 4528,
    "entered.</w>": 4529,
    "entered</w>": 4530,
    "entering</w>": 4531,
    "enterpri": 4532,
    "entertain": 4533,
    "entertain</w>": 4534,
    "entertained</w>": 4535,
    "entertainment</w>": 4536,
    "enthu": 4537,
    "enthusi": 4538,
    "enthusias": 4539,
    "enthusiasm</w>": 4540,
    "enthusiast": 4541,
    "enti": 4542,
    "entire</w>": 4543,
    "entirely</w>": 4544,
    "entit": 4545,
    "entitled</w>": 4546,
    "entity</w>": 4547,
    "ently,</w>": 4548,
    "ently.</w>": 4549,
    "ently</w>": 4550,
    "entr": 4551,
    "entrance</w>": 4552,
    "entre": 4553,
    "entreat</w>": 4554,
    "entreated</w>": 4555,
    "entreati": 4556,
    "entrepr": 4557,
    "entrepreneur": 4558,
    "entrepreneurs:</w>": 4559,
    "ents,</w>": 4560,
    "ents.</w>": 4561,
    "ents</w>": 4562,
    "env": 4563,
    "envelo": 4564,
    "envious</w>": 4565,
    "envir": 4566,
    "envy</w>": 4567,
    "enz": 4568,
    "eous</w>": 4569,
    "ep": 4570,
    "ep</w>": 4571,
    "eper": 4572,
    "eph": 4573,
    "ephe": 4574,
    "ephesians</w>": 4575,
    "ephesus.</w>": 4576,
    "ephrai": 4577,
    "epi": 4578,
    "eping</w>": 4579,
    "epis": 4580,
    "episo": 4581,
    "equ": 4582,
    "equal</w>": 4583,
    "equally</w>": 4584,
    "equi": 4585,
    "equip": 4586,
    "equipment.</w>": 4587,
    "er": 4588,
    "er!</w>": 4589,
    "er,</w>": 4590,
    "er,\u201d</w>": 4591,
    "er-": 4592,
    "er.</w>": 4593,
    "er.\u201d</w>": 4594,
    "er:</w>": 4595,
    "er;</w>": 4596,
    "er</w>": 4597,
    "er?</w>": 4598,
    "ere</w>": 4599,
    "erec": 4600,
    "ered</w>": 4601,
    "eri": 4602,
    "eric": 4603,
    "eric</w>": 4604,
    "ering</w>": 4605,
    "ern": 4606,
    "ernal</w>": 4607,
    "ero": 4608,
    "erous": 4609,
    "err": 4610,
    "error": 4611,
    "error</w>": 4612,
    "ers": 4613,
    "ers,</w>": 4614,
    "ers.</w>": 4615,
    "ers;</w>": 4616,
    "ers</w>": 4617,
    "ery,</w>": 4618,
    "ery</w>": 4619,
    "er\u2019s</w>": 4620,
    "es": 4621,
    "es!</w>": 4622,
    "es!\u201d</w>": 4623,
    "es,</w>": 4624,
    "es,\u201d</w>": 4625,
    "es.</w>": 4626,
    "es._]</w>": 4627,
    "es.\u201d</w>": 4628,
    "es:</w>": 4629,
    "es;</w>": 4630,
    "es</w>": 4631,
    "es?</w>": 4632,
    "es?\u201d</w>": 4633,
    "esca": 4634,
    "escal": 4635,
    "escalus.</w>": 4636,
    "escap": 4637,
    "escape</w>": 4638,
    "escaped</w>": 4639,
    "escor": 4640,
    "ese</w>": 4641,
    "esi": 4642,
    "esom": 4643,
    "esome</w>": 4644,
    "espe": 4645,
    "especi": 4646,
    "especially</w>": 4647,
    "ess": 4648,
    "ess,</w>": 4649,
    "ess.</w>": 4650,
    "ess;</w>": 4651,
    "ess</w>": 4652,
    "essed</w>": 4653,
    "essenti": 4654,
    "essential</w>": 4655,
    "esses</w>": 4656,
    "ession</w>": 4657,
    "est": 4658,
    "est,</w>": 4659,
    "est</w>": 4660,
    "estab": 4661,
    "establi": 4662,
    "establish": 4663,
    "establish</w>": 4664,
    "established</w>": 4665,
    "estate</w>": 4666,
    "este": 4667,
    "esteem</w>": 4668,
    "esteemed</w>": 4669,
    "estell": 4670,
    "esther</w>": 4671,
    "estim": 4672,
    "es\u2014": 4673,
    "es\u2019</w>": 4674,
    "et": 4675,
    "et,</w>": 4676,
    "et.</w>": 4677,
    "et</w>": 4678,
    "etc": 4679,
    "etc.</w>": 4680,
    "etern": 4681,
    "eternal</w>": 4682,
    "eth</w>": 4683,
    "eti": 4684,
    "etr": 4685,
    "ets,</w>": 4686,
    "ets</w>": 4687,
    "ett": 4688,
    "ety,</w>": 4689,
    "ety</w>": 4690,
    "etz": 4691,
    "eu": 4692,
    "eug\u00e9": 4693,
    "eun": 4694,
    "eur": 4695,
    "eur</w>": 4696,
    "euro": 4697,
    "europe": 4698,
    "ev": 4699,
    "evans.</w>": 4700,
    "eve</w>": 4701,
    "eved</w>": 4702,
    "even": 4703,
    "even</w>": 4704,
    "even]</w>": 4705,
    "evening,</w>": 4706,
    "evening.</w>": 4707,
    "evening</w>": 4708,
    "event": 4709,
    "event,</w>": 4710,
    "event</w>": 4711,
    "events,</w>": 4712,
    "events</w>": 4713,
    "ever": 4714,
    "ever,</w>": 4715,
    "ever-": 4716,
    "ever.</w>": 4717,
    "ever;</w>": 4718,
    "ever</w>": 4719,
    "everlasting</w>": 4720,
    "every": 4721,
    "every</w>": 4722,
    "everybody</w>": 4723,
    "everyone</w>": 4724,
    "everything": 4725,
    "everything,</w>": 4726,
    "everything.</w>": 4727,
    "everything</w>": 4728,
    "everywhere</w>": 4729,
    "evi": 4730,
    "evidence</w>": 4731,
    "evident</w>": 4732,
    "evidently</w>": 4733,
    "evil,</w>": 4734,
    "evil</w>": 4735,
    "evol": 4736,
    "ew": 4737,
    "ex": 4738,
    "exac": 4739,
    "exact</w>": 4740,
    "exactly</w>": 4741,
    "exagger": 4742,
    "exal": 4743,
    "exam": 4744,
    "examin": 4745,
    "examine</w>": 4746,
    "examined</w>": 4747,
    "examining</w>": 4748,
    "example,</w>": 4749,
    "example</w>": 4750,
    "exasper": 4751,
    "exc": 4752,
    "exce": 4753,
    "exceed": 4754,
    "exceeding</w>": 4755,
    "exceedingly</w>": 4756,
    "excell": 4757,
    "excellenc": 4758,
    "excellent</w>": 4759,
    "excep": 4760,
    "except</w>": 4761,
    "exces": 4762,
    "excess</w>": 4763,
    "exchange</w>": 4764,
    "excit": 4765,
    "excited</w>": 4766,
    "excitement</w>": 4767,
    "exciting</w>": 4768,
    "exclai": 4769,
    "exclaimed,</w>": 4770,
    "exclaimed</w>": 4771,
    "exclam": 4772,
    "exclu": 4773,
    "excu": 4774,
    "excur": 4775,
    "excuse</w>": 4776,
    "exe": 4777,
    "exec": 4778,
    "execu": 4779,
    "execute</w>": 4780,
    "executed</w>": 4781,
    "execution": 4782,
    "execution</w>": 4783,
    "exem": 4784,
    "exempt</w>": 4785,
    "exer": 4786,
    "exerci": 4787,
    "exercise</w>": 4788,
    "exeun": 4789,
    "exhau": 4790,
    "exhausted</w>": 4791,
    "exhi": 4792,
    "exhor": 4793,
    "exi": 4794,
    "exist": 4795,
    "existence</w>": 4796,
    "exod": 4797,
    "exodus</w>": 4798,
    "exor": 4799,
    "exp": 4800,
    "expe": 4801,
    "expec": 4802,
    "expect": 4803,
    "expect</w>": 4804,
    "expectation</w>": 4805,
    "expected</w>": 4806,
    "expecting</w>": 4807,
    "expedi": 4808,
    "expen": 4809,
    "expense</w>": 4810,
    "expenses,</w>": 4811,
    "expensive</w>": 4812,
    "exper": 4813,
    "experi": 4814,
    "experience,</w>": 4815,
    "experience</w>": 4816,
    "experienced</w>": 4817,
    "experim": 4818,
    "expi": 4819,
    "explain": 4820,
    "explain</w>": 4821,
    "explained</w>": 4822,
    "explan": 4823,
    "explanation</w>": 4824,
    "explic": 4825,
    "explo": 4826,
    "exposed</w>": 4827,
    "expres": 4828,
    "express</w>": 4829,
    "expressed</w>": 4830,
    "expressing</w>": 4831,
    "expression</w>": 4832,
    "exquis": 4833,
    "exquisite</w>": 4834,
    "ext": 4835,
    "exten": 4836,
    "extended</w>": 4837,
    "extent</w>": 4838,
    "extern": 4839,
    "external</w>": 4840,
    "extingu": 4841,
    "extr": 4842,
    "extra": 4843,
    "extraordin": 4844,
    "extraordinary</w>": 4845,
    "extravag": 4846,
    "extre": 4847,
    "extrem": 4848,
    "extreme</w>": 4849,
    "extremely</w>": 4850,
    "exul": 4851,
    "ey": 4852,
    "ey,</w>": 4853,
    "ey</w>": 4854,
    "eye": 4855,
    "eye,</w>": 4856,
    "eye.</w>": 4857,
    "eye</w>": 4858,
    "eyed</w>": 4859,
    "eyes": 4860,
    "eyes,</w>": 4861,
    "eyes.</w>": 4862,
    "eyes;</w>": 4863,
    "eyes</w>": 4864,
    "ez": 4865,
    "ezeki": 4866,
    "ezekiel</w>": 4867,
    "ezra</w>": 4868,
    "e\u2014": 4869,
    "e\u2019en</w>": 4870,
    "e\u2019er</w>": 4871,
    "e\u2019s</w>": 4872,
    "f": 4873,
    "f,</w>": 4874,
    "f.</w>": 4875,
    "f</w>": 4876,
    "fa": 4877,
    "fa</w>": 4878,
    "fabi": 4879,
    "fac": 4880,
    "face": 4881,
    "face,</w>": 4882,
    "face.</w>": 4883,
    "face;</w>": 4884,
    "face</w>": 4885,
    "faced</w>": 4886,
    "faces,</w>": 4887,
    "faces</w>": 4888,
    "facili": 4889,
    "fact,</w>": 4890,
    "fact</w>": 4891,
    "factor</w>": 4892,
    "facts</w>": 4893,
    "facul": 4894,
    "faded</w>": 4895,
    "fai": 4896,
    "fail": 4897,
    "fail</w>": 4898,
    "failed</w>": 4899,
    "failing</w>": 4900,
    "failu": 4901,
    "failure</w>": 4902,
    "fain": 4903,
    "fain</w>": 4904,
    "faint</w>": 4905,
    "fair": 4906,
    "fair,</w>": 4907,
    "fair</w>": 4908,
    "fairest</w>": 4909,
    "fairfa": 4910,
    "fairly</w>": 4911,
    "fairy</w>": 4912,
    "faith": 4913,
    "faith,</w>": 4914,
    "faith.</w>": 4915,
    "faith</w>": 4916,
    "faithful</w>": 4917,
    "fake</w>": 4918,
    "fal": 4919,
    "falcon": 4920,
    "fall": 4921,
    "fall,</w>": 4922,
    "fall.</w>": 4923,
    "fall</w>": 4924,
    "fallen</w>": 4925,
    "falli": 4926,
    "falling</w>": 4927,
    "falls</w>": 4928,
    "false": 4929,
    "false,</w>": 4930,
    "false</w>": 4931,
    "falstaff": 4932,
    "falstaff.</w>": 4933,
    "fam": 4934,
    "fame,</w>": 4935,
    "fame</w>": 4936,
    "fami": 4937,
    "famili": 4938,
    "familiar</w>": 4939,
    "families</w>": 4940,
    "family": 4941,
    "family,</w>": 4942,
    "family.</w>": 4943,
    "family</w>": 4944,
    "famous</w>": 4945,
    "fan": 4946,
    "fan</w>": 4947,
    "fanc": 4948,
    "fanci": 4949,
    "fancied</w>": 4950,
    "fancy,</w>": 4951,
    "fancy</w>": 4952,
    "fantast": 4953,
    "fantastic</w>": 4954,
    "far": 4955,
    "far,</w>": 4956,
    "far</w>": 4957,
    "fare": 4958,
    "fare</w>": 4959,
    "farewell,</w>": 4960,
    "farewell.</w>": 4961,
    "farewell</w>": 4962,
    "fari": 4963,
    "farm": 4964,
    "farmer": 4965,
    "farther</w>": 4966,
    "fas": 4967,
    "fascin": 4968,
    "fashi": 4969,
    "fashion": 4970,
    "fashion,</w>": 4971,
    "fashion</w>": 4972,
    "fashioned</w>": 4973,
    "fast": 4974,
    "fast,</w>": 4975,
    "fast-": 4976,
    "fast.</w>": 4977,
    "fast</w>": 4978,
    "fastened</w>": 4979,
    "fat": 4980,
    "fat</w>": 4981,
    "fatal</w>": 4982,
    "fate,</w>": 4983,
    "fate.</w>": 4984,
    "fate</w>": 4985,
    "father": 4986,
    "father,</w>": 4987,
    "father.</w>": 4988,
    "father;</w>": 4989,
    "father</w>": 4990,
    "fathers,</w>": 4991,
    "fathers</w>": 4992,
    "father\u2019s</w>": 4993,
    "fathom": 4994,
    "fathom,</w>": 4995,
    "fathom</w>": 4996,
    "fati": 4997,
    "fatigu": 4998,
    "faul": 4999,
    "fault,</w>": 5000,
    "fault</w>": 5001,
    "faults</w>": 5002,
    "fav": 5003,
    "favor": 5004,
    "favor</w>": 5005,
    "favorite</w>": 5006,
    "favour": 5007,
    "favour,</w>": 5008,
    "favour</w>": 5009,
    "favourable</w>": 5010,
    "favoured</w>": 5011,
    "favourite</w>": 5012,
    "fb": 5013,
    "fbi</w>": 5014,
    "fe": 5015,
    "fe,</w>": 5016,
    "fe.</w>": 5017,
    "fe</w>": 5018,
    "fea": 5019,
    "fear": 5020,
    "fear,</w>": 5021,
    "fear.</w>": 5022,
    "fear</w>": 5023,
    "feared</w>": 5024,
    "fearful</w>": 5025,
    "fearing</w>": 5026,
    "fears</w>": 5027,
    "feast": 5028,
    "feast</w>": 5029,
    "feat": 5030,
    "feather": 5031,
    "features</w>": 5032,
    "fec": 5033,
    "fect</w>": 5034,
    "fed</w>": 5035,
    "feder": 5036,
    "federal</w>": 5037,
    "fee": 5038,
    "fee</w>": 5039,
    "feeble</w>": 5040,
    "feed</w>": 5041,
    "feel": 5042,
    "feel</w>": 5043,
    "feeling,</w>": 5044,
    "feeling</w>": 5045,
    "feelings,</w>": 5046,
    "feelings</w>": 5047,
    "feels</w>": 5048,
    "fees</w>": 5049,
    "feet": 5050,
    "feet,</w>": 5051,
    "feet.</w>": 5052,
    "feet</w>": 5053,
    "feig": 5054,
    "fel": 5055,
    "feli": 5056,
    "felix</w>": 5057,
    "fell": 5058,
    "fell,</w>": 5059,
    "fell</w>": 5060,
    "fellow": 5061,
    "fellow,</w>": 5062,
    "fellow-": 5063,
    "fellow.</w>": 5064,
    "fellow</w>": 5065,
    "fellows</w>": 5066,
    "felt,</w>": 5067,
    "felt</w>": 5068,
    "female</w>": 5069,
    "femin": 5070,
    "fen": 5071,
    "fer": 5072,
    "fer</w>": 5073,
    "ferdin": 5074,
    "ferdinand</w>": 5075,
    "fern": 5076,
    "festi": 5077,
    "fetch</w>": 5078,
    "fever": 5079,
    "fever</w>": 5080,
    "few.</w>": 5081,
    "few</w>": 5082,
    "ff": 5083,
    "ff,</w>": 5084,
    "ff.</w>": 5085,
    "ff</w>": 5086,
    "ffe": 5087,
    "ffer": 5088,
    "ffi": 5089,
    "ffo": 5090,
    "ffs</w>": 5091,
    "fi": 5092,
    "fic": 5093,
    "fic</w>": 5094,
    "fication,</w>": 5095,
    "fication</w>": 5096,
    "fici": 5097,
    "fideli": 5098,
    "fidi": 5099,
    "fie,</w>": 5100,
    "fie</w>": 5101,
    "fied,</w>": 5102,
    "fied.</w>": 5103,
    "fied</w>": 5104,
    "fiel": 5105,
    "field,</w>": 5106,
    "field.</w>": 5107,
    "field</w>": 5108,
    "fields</w>": 5109,
    "fiend": 5110,
    "fiend</w>": 5111,
    "fier": 5112,
    "fierce</w>": 5113,
    "fiery</w>": 5114,
    "fies</w>": 5115,
    "fif": 5116,
    "fifteen</w>": 5117,
    "fifth</w>": 5118,
    "fifty</w>": 5119,
    "fig": 5120,
    "fight": 5121,
    "fight,</w>": 5122,
    "fight.</w>": 5123,
    "fight</w>": 5124,
    "fighting</w>": 5125,
    "figu": 5126,
    "figure,</w>": 5127,
    "figure</w>": 5128,
    "figures</w>": 5129,
    "fil": 5130,
    "fil</w>": 5131,
    "file</w>": 5132,
    "fili": 5133,
    "fill": 5134,
    "fill</w>": 5135,
    "filled</w>": 5136,
    "filling</w>": 5137,
    "filthy</w>": 5138,
    "fin": 5139,
    "final</w>": 5140,
    "finally,</w>": 5141,
    "finally</w>": 5142,
    "financi": 5143,
    "financial</w>": 5144,
    "find</w>": 5145,
    "finding</w>": 5146,
    "finds</w>": 5147,
    "fine,</w>": 5148,
    "fine</w>": 5149,
    "finest</w>": 5150,
    "fing": 5151,
    "finger</w>": 5152,
    "fingers,</w>": 5153,
    "fingers</w>": 5154,
    "finish</w>": 5155,
    "finished,</w>": 5156,
    "finished</w>": 5157,
    "fir": 5158,
    "fire": 5159,
    "fire,</w>": 5160,
    "fire-": 5161,
    "fire.</w>": 5162,
    "fire;</w>": 5163,
    "fire</w>": 5164,
    "fired</w>": 5165,
    "fires</w>": 5166,
    "firm": 5167,
    "firm</w>": 5168,
    "firmly</w>": 5169,
    "first": 5170,
    "first,</w>": 5171,
    "first.</w>": 5172,
    "first</w>": 5173,
    "fis": 5174,
    "fish": 5175,
    "fish,</w>": 5176,
    "fish</w>": 5177,
    "fisher": 5178,
    "fisher</w>": 5179,
    "fit": 5180,
    "fit</w>": 5181,
    "fitness</w>": 5182,
    "fits</w>": 5183,
    "fitted</w>": 5184,
    "fitting</w>": 5185,
    "fitz": 5186,
    "fitzpatri": 5187,
    "five-": 5188,
    "five</w>": 5189,
    "fix": 5190,
    "fix</w>": 5191,
    "fixed</w>": 5192,
    "fl": 5193,
    "fla": 5194,
    "flag": 5195,
    "flam": 5196,
    "flame</w>": 5197,
    "flames</w>": 5198,
    "flas": 5199,
    "flash</w>": 5200,
    "flashed</w>": 5201,
    "flask</w>": 5202,
    "flat": 5203,
    "flat</w>": 5204,
    "flatter": 5205,
    "flatter</w>": 5206,
    "flattered</w>": 5207,
    "flattering</w>": 5208,
    "fle": 5209,
    "fled,</w>": 5210,
    "fled</w>": 5211,
    "flee": 5212,
    "flee</w>": 5213,
    "fles": 5214,
    "flesh": 5215,
    "flesh,</w>": 5216,
    "flesh</w>": 5217,
    "flew</w>": 5218,
    "fli": 5219,
    "flies</w>": 5220,
    "flight,</w>": 5221,
    "flight</w>": 5222,
    "flin": 5223,
    "fling</w>": 5224,
    "flo": 5225,
    "floating</w>": 5226,
    "flock</w>": 5227,
    "floo": 5228,
    "flood</w>": 5229,
    "floor,</w>": 5230,
    "floor.</w>": 5231,
    "floor</w>": 5232,
    "flor": 5233,
    "florent": 5234,
    "florida": 5235,
    "florida</w>": 5236,
    "floriz": 5237,
    "flouri": 5238,
    "flourish.</w>": 5239,
    "flow": 5240,
    "flow</w>": 5241,
    "flowed</w>": 5242,
    "flower</w>": 5243,
    "flowers,</w>": 5244,
    "flowers</w>": 5245,
    "flowing</w>": 5246,
    "flu": 5247,
    "fluell": 5248,
    "fluellen.</w>": 5249,
    "flung</w>": 5250,
    "flus": 5251,
    "fly,</w>": 5252,
    "fly.</w>": 5253,
    "fly</w>": 5254,
    "flying</w>": 5255,
    "fo": 5256,
    "focus</w>": 5257,
    "foe</w>": 5258,
    "foes</w>": 5259,
    "fol": 5260,
    "fold": 5261,
    "fold</w>": 5262,
    "folded</w>": 5263,
    "foli": 5264,
    "folks</w>": 5265,
    "follow": 5266,
    "follow.</w>": 5267,
    "follow</w>": 5268,
    "followed</w>": 5269,
    "following</w>": 5270,
    "follows</w>": 5271,
    "folly</w>": 5272,
    "fon": 5273,
    "fond</w>": 5274,
    "foo": 5275,
    "food,</w>": 5276,
    "food</w>": 5277,
    "fool": 5278,
    "fool,</w>": 5279,
    "fool.</w>": 5280,
    "fool</w>": 5281,
    "foolish": 5282,
    "foolish</w>": 5283,
    "fools</w>": 5284,
    "foot": 5285,
    "foot,</w>": 5286,
    "foot.</w>": 5287,
    "foot</w>": 5288,
    "for": 5289,
    "for,</w>": 5290,
    "for.</w>": 5291,
    "for</w>": 5292,
    "for]</w>": 5293,
    "forbear</w>": 5294,
    "forbi": 5295,
    "forbid</w>": 5296,
    "forbidden</w>": 5297,
    "force": 5298,
    "force,</w>": 5299,
    "force</w>": 5300,
    "forced</w>": 5301,
    "forces</w>": 5302,
    "ford": 5303,
    "ford,</w>": 5304,
    "ford.</w>": 5305,
    "ford</w>": 5306,
    "fore": 5307,
    "fore,</w>": 5308,
    "fore.</w>": 5309,
    "fore</w>": 5310,
    "forehead,</w>": 5311,
    "forehead</w>": 5312,
    "foreign": 5313,
    "foreign</w>": 5314,
    "forest,</w>": 5315,
    "forest</w>": 5316,
    "forfe": 5317,
    "forge": 5318,
    "forget": 5319,
    "forget</w>": 5320,
    "forgetting</w>": 5321,
    "forgive</w>": 5322,
    "forgiven": 5323,
    "forgot</w>": 5324,
    "forgott": 5325,
    "forgotten</w>": 5326,
    "forlor": 5327,
    "form": 5328,
    "form,</w>": 5329,
    "form.</w>": 5330,
    "form</w>": 5331,
    "formal</w>": 5332,
    "format</w>": 5333,
    "formed</w>": 5334,
    "former": 5335,
    "former</w>": 5336,
    "formerly</w>": 5337,
    "forming</w>": 5338,
    "forms</w>": 5339,
    "forsa": 5340,
    "forsake</w>": 5341,
    "forsoo": 5342,
    "fort": 5343,
    "fort</w>": 5344,
    "forth": 5345,
    "forth,</w>": 5346,
    "forth.</w>": 5347,
    "forth</w>": 5348,
    "forthwith</w>": 5349,
    "forti": 5350,
    "fortnight</w>": 5351,
    "fortun": 5352,
    "fortunate</w>": 5353,
    "fortune,</w>": 5354,
    "fortune.</w>": 5355,
    "fortune</w>": 5356,
    "fortunes</w>": 5357,
    "forty</w>": 5358,
    "forwar": 5359,
    "forward,</w>": 5360,
    "forward.</w>": 5361,
    "forward</w>": 5362,
    "fou": 5363,
    "fought</w>": 5364,
    "foul</w>": 5365,
    "foun": 5366,
    "found": 5367,
    "found,</w>": 5368,
    "found</w>": 5369,
    "foundation": 5370,
    "foundation,</w>": 5371,
    "foundation</w>": 5372,
    "foundation\u2019s</w>": 5373,
    "founded</w>": 5374,
    "fountain</w>": 5375,
    "four": 5376,
    "four</w>": 5377,
    "fourteen</w>": 5378,
    "fourth</w>": 5379,
    "fow": 5380,
    "fox": 5381,
    "fox</w>": 5382,
    "fr": 5383,
    "frag": 5384,
    "fram": 5385,
    "frame</w>": 5386,
    "fran": 5387,
    "franc": 5388,
    "france,</w>": 5389,
    "france.</w>": 5390,
    "france</w>": 5391,
    "francis": 5392,
    "francs</w>": 5393,
    "frank": 5394,
    "frank</w>": 5395,
    "franken": 5396,
    "frankenste": 5397,
    "frantic</w>": 5398,
    "franz,</w>": 5399,
    "franz</w>": 5400,
    "frau": 5401,
    "fraud</w>": 5402,
    "fre": 5403,
    "fred,</w>": 5404,
    "fred</w>": 5405,
    "freder": 5406,
    "frederick</w>": 5407,
    "free": 5408,
    "free,</w>": 5409,
    "free.</w>": 5410,
    "free</w>": 5411,
    "freed": 5412,
    "freedom</w>": 5413,
    "freely</w>": 5414,
    "fren": 5415,
    "french": 5416,
    "french,</w>": 5417,
    "french</w>": 5418,
    "frequ": 5419,
    "frequent</w>": 5420,
    "frequently</w>": 5421,
    "fres": 5422,
    "fresh": 5423,
    "fresh</w>": 5424,
    "fri": 5425,
    "friar</w>": 5426,
    "frien": 5427,
    "friend": 5428,
    "friend,</w>": 5429,
    "friend,\u201d</w>": 5430,
    "friend.</w>": 5431,
    "friend;</w>": 5432,
    "friend</w>": 5433,
    "friendly</w>": 5434,
    "friends,</w>": 5435,
    "friends.</w>": 5436,
    "friends;</w>": 5437,
    "friends</w>": 5438,
    "friendship,</w>": 5439,
    "friendship</w>": 5440,
    "friend\u2019s</w>": 5441,
    "fright": 5442,
    "fright</w>": 5443,
    "frighten": 5444,
    "frightened</w>": 5445,
    "frightful</w>": 5446,
    "fro": 5447,
    "fro</w>": 5448,
    "from": 5449,
    "from</w>": 5450,
    "fron": 5451,
    "front</w>": 5452,
    "frow": 5453,
    "frozen</w>": 5454,
    "fru": 5455,
    "fruit": 5456,
    "fruit</w>": 5457,
    "fruits</w>": 5458,
    "ft</w>": 5459,
    "fu": 5460,
    "ful": 5461,
    "ful!</w>": 5462,
    "ful,</w>": 5463,
    "ful.</w>": 5464,
    "ful;</w>": 5465,
    "ful</w>": 5466,
    "fulfil</w>": 5467,
    "fulfill": 5468,
    "full": 5469,
    "full,</w>": 5470,
    "full</w>": 5471,
    "fully,</w>": 5472,
    "fully.</w>": 5473,
    "fully</w>": 5474,
    "fulness</w>": 5475,
    "fum": 5476,
    "fun": 5477,
    "fun</w>": 5478,
    "func": 5479,
    "funer": 5480,
    "funeral</w>": 5481,
    "funny</w>": 5482,
    "fur": 5483,
    "furi": 5484,
    "furious</w>": 5485,
    "furn": 5486,
    "furnish</w>": 5487,
    "furnished</w>": 5488,
    "furnitu": 5489,
    "furniture</w>": 5490,
    "further": 5491,
    "further,</w>": 5492,
    "further.</w>": 5493,
    "further</w>": 5494,
    "fury</w>": 5495,
    "futu": 5496,
    "future,</w>": 5497,
    "future.</w>": 5498,
    "future</w>": 5499,
    "fy": 5500,
    "fy</w>": 5501,
    "fying</w>": 5502,
    "fyod": 5503,
    "fyodor": 5504,
    "fyodor</w>": 5505,
    "fyodorovit": 5506,
    "g": 5507,
    "g,</w>": 5508,
    "g.</w>": 5509,
    "g</w>": 5510,
    "ga": 5511,
    "ga</w>": 5512,
    "gabri": 5513,
    "gad": 5514,
    "gai": 5515,
    "gain": 5516,
    "gain</w>": 5517,
    "gained</w>": 5518,
    "gainst</w>": 5519,
    "gal": 5520,
    "galati": 5521,
    "galatians</w>": 5522,
    "gall": 5523,
    "gallant</w>": 5524,
    "gallop": 5525,
    "gam": 5526,
    "game,</w>": 5527,
    "game</w>": 5528,
    "gan": 5529,
    "gan</w>": 5530,
    "gaol": 5531,
    "gap": 5532,
    "gar": 5533,
    "gar,</w>": 5534,
    "gar.</w>": 5535,
    "gar</w>": 5536,
    "garden": 5537,
    "garden,</w>": 5538,
    "garden.</w>": 5539,
    "garden</w>": 5540,
    "gardin": 5541,
    "gare": 5542,
    "garments</w>": 5543,
    "garth</w>": 5544,
    "gas": 5545,
    "gas</w>": 5546,
    "gat": 5547,
    "gate": 5548,
    "gate,</w>": 5549,
    "gate.</w>": 5550,
    "gate</w>": 5551,
    "gates,</w>": 5552,
    "gates</w>": 5553,
    "gather": 5554,
    "gather</w>": 5555,
    "gathered</w>": 5556,
    "gathering</w>": 5557,
    "gation</w>": 5558,
    "gats": 5559,
    "gau": 5560,
    "gaun": 5561,
    "gav": 5562,
    "gave</w>": 5563,
    "gay</w>": 5564,
    "gaz": 5565,
    "gaze</w>": 5566,
    "gazed</w>": 5567,
    "gazing</w>": 5568,
    "ga\u00ef": 5569,
    "gd": 5570,
    "ge": 5571,
    "ge,</w>": 5572,
    "ge.</w>": 5573,
    "ge;</w>": 5574,
    "ge</w>": 5575,
    "ged,</w>": 5576,
    "ged</w>": 5577,
    "gen": 5578,
    "gen.</w>": 5579,
    "gence,</w>": 5580,
    "gence</w>": 5581,
    "gener": 5582,
    "general,</w>": 5583,
    "general</w>": 5584,
    "generally</w>": 5585,
    "generation</w>": 5586,
    "generations</w>": 5587,
    "genero": 5588,
    "generous</w>": 5589,
    "genes": 5590,
    "genesis</w>": 5591,
    "genev": 5592,
    "geni": 5593,
    "genial</w>": 5594,
    "genius</w>": 5595,
    "gent": 5596,
    "gent</w>": 5597,
    "genti": 5598,
    "gentle": 5599,
    "gentle</w>": 5600,
    "gentleman": 5601,
    "gentleman,</w>": 5602,
    "gentleman.</w>": 5603,
    "gentleman</w>": 5604,
    "gentlemen": 5605,
    "gentlemen,</w>": 5606,
    "gentlemen.</w>": 5607,
    "gentlemen</w>": 5608,
    "gently</w>": 5609,
    "genu": 5610,
    "genuine</w>": 5611,
    "geor": 5612,
    "georg": 5613,
    "george": 5614,
    "george</w>": 5615,
    "georgi": 5616,
    "ger": 5617,
    "ger,</w>": 5618,
    "ger</w>": 5619,
    "german</w>": 5620,
    "ges</w>": 5621,
    "gest</w>": 5622,
    "gestu": 5623,
    "gesture</w>": 5624,
    "get</w>": 5625,
    "gets</w>": 5626,
    "getting</w>": 5627,
    "gg": 5628,
    "gged</w>": 5629,
    "ggest</w>": 5630,
    "gging</w>": 5631,
    "ggl": 5632,
    "ggling</w>": 5633,
    "gh": 5634,
    "gh,</w>": 5635,
    "gh</w>": 5636,
    "ghast": 5637,
    "ghastly</w>": 5638,
    "gho": 5639,
    "ghost,</w>": 5640,
    "ghost</w>": 5641,
    "ght": 5642,
    "ght,</w>": 5643,
    "ght.</w>": 5644,
    "ght</w>": 5645,
    "ghte": 5646,
    "ghted</w>": 5647,
    "ghten": 5648,
    "ghtened</w>": 5649,
    "ghter</w>": 5650,
    "ghts</w>": 5651,
    "ghty</w>": 5652,
    "gi": 5653,
    "giant</w>": 5654,
    "gible</w>": 5655,
    "gif": 5656,
    "gift</w>": 5657,
    "gifts</w>": 5658,
    "gigan": 5659,
    "gigantic</w>": 5660,
    "gil": 5661,
    "ging": 5662,
    "ging</w>": 5663,
    "gir": 5664,
    "gird": 5665,
    "girl": 5666,
    "girl,</w>": 5667,
    "girl.</w>": 5668,
    "girl</w>": 5669,
    "girls,</w>": 5670,
    "girls</w>": 5671,
    "giv": 5672,
    "give</w>": 5673,
    "given": 5674,
    "given,</w>": 5675,
    "given</w>": 5676,
    "gives</w>": 5677,
    "giveth</w>": 5678,
    "giving</w>": 5679,
    "gl": 5680,
    "gla": 5681,
    "glad": 5682,
    "glad</w>": 5683,
    "gladly</w>": 5684,
    "glance</w>": 5685,
    "glanced</w>": 5686,
    "glancing</w>": 5687,
    "glas": 5688,
    "glass,</w>": 5689,
    "glass</w>": 5690,
    "gle": 5691,
    "gleam</w>": 5692,
    "gli": 5693,
    "glimp": 5694,
    "glimpse</w>": 5695,
    "glitt": 5696,
    "glittering</w>": 5697,
    "glo": 5698,
    "global</w>": 5699,
    "gloom</w>": 5700,
    "gloomy</w>": 5701,
    "glor": 5702,
    "glori": 5703,
    "glorious</w>": 5704,
    "glory,</w>": 5705,
    "glory</w>": 5706,
    "glou": 5707,
    "glouce": 5708,
    "gloucester,</w>": 5709,
    "gloucester.</w>": 5710,
    "gloucester</w>": 5711,
    "glow": 5712,
    "glowing</w>": 5713,
    "glu": 5714,
    "gn": 5715,
    "gni": 5716,
    "go": 5717,
    "go,</w>": 5718,
    "go.</w>": 5719,
    "go;</w>": 5720,
    "go</w>": 5721,
    "god": 5722,
    "god!</w>": 5723,
    "god,</w>": 5724,
    "god.</w>": 5725,
    "god:</w>": 5726,
    "god;</w>": 5727,
    "god</w>": 5728,
    "godd": 5729,
    "goddes": 5730,
    "goddess</w>": 5731,
    "gods,</w>": 5732,
    "gods</w>": 5733,
    "god\u2019s</w>": 5734,
    "goes</w>": 5735,
    "goeth</w>": 5736,
    "going,</w>": 5737,
    "going</w>": 5738,
    "gol": 5739,
    "gold": 5740,
    "gold,</w>": 5741,
    "gold-": 5742,
    "gold.</w>": 5743,
    "gold</w>": 5744,
    "golden</w>": 5745,
    "golf": 5746,
    "golf</w>": 5747,
    "gon": 5748,
    "gone": 5749,
    "gone,</w>": 5750,
    "gone.</w>": 5751,
    "gone;</w>": 5752,
    "gone</w>": 5753,
    "goneri": 5754,
    "gonzal": 5755,
    "goo": 5756,
    "good": 5757,
    "good!</w>": 5758,
    "good,</w>": 5759,
    "good-": 5760,
    "good-b": 5761,
    "good.</w>": 5762,
    "good;</w>": 5763,
    "good</w>": 5764,
    "goodly</w>": 5765,
    "goodness</w>": 5766,
    "goods</w>": 5767,
    "gop": 5768,
    "gop</w>": 5769,
    "gor": 5770,
    "gorge": 5771,
    "gospe": 5772,
    "gossi": 5773,
    "got,</w>": 5774,
    "got</w>": 5775,
    "goti": 5776,
    "gott": 5777,
    "gotten</w>": 5778,
    "gov": 5779,
    "gover": 5780,
    "govern": 5781,
    "govern</w>": 5782,
    "government,</w>": 5783,
    "government</w>": 5784,
    "governor": 5785,
    "governor</w>": 5786,
    "gow": 5787,
    "gown</w>": 5788,
    "gr": 5789,
    "gra": 5790,
    "grac": 5791,
    "grace,</w>": 5792,
    "grace.</w>": 5793,
    "grace</w>": 5794,
    "graceful</w>": 5795,
    "graces</w>": 5796,
    "graci": 5797,
    "gracious</w>": 5798,
    "gradu": 5799,
    "gradually</w>": 5800,
    "gram": 5801,
    "gran": 5802,
    "grand": 5803,
    "grand</w>": 5804,
    "grant</w>": 5805,
    "granted</w>": 5806,
    "graph": 5807,
    "gras": 5808,
    "grasp</w>": 5809,
    "grasped</w>": 5810,
    "grass</w>": 5811,
    "grat": 5812,
    "grate": 5813,
    "grateful</w>": 5814,
    "grati": 5815,
    "gratian": 5816,
    "gratiano.</w>": 5817,
    "gratitude</w>": 5818,
    "grav": 5819,
    "grave": 5820,
    "grave,</w>": 5821,
    "grave.</w>": 5822,
    "grave</w>": 5823,
    "gray</w>": 5824,
    "gre": 5825,
    "great": 5826,
    "great!\"</w>": 5827,
    "great!</w>": 5828,
    "great,</w>": 5829,
    "great-": 5830,
    "great.</w>": 5831,
    "great</w>": 5832,
    "greater</w>": 5833,
    "greatest</w>": 5834,
    "greatly</w>": 5835,
    "greatness</w>": 5836,
    "grecian</w>": 5837,
    "gree": 5838,
    "greece</w>": 5839,
    "greek</w>": 5840,
    "greeks</w>": 5841,
    "green": 5842,
    "green</w>": 5843,
    "greet</w>": 5844,
    "greg": 5845,
    "gregor": 5846,
    "gregor</w>": 5847,
    "gremi": 5848,
    "gremio.</w>": 5849,
    "grew</w>": 5850,
    "grey</w>": 5851,
    "gri": 5852,
    "grief": 5853,
    "grief,</w>": 5854,
    "grief.</w>": 5855,
    "grief</w>": 5856,
    "griev": 5857,
    "grieve</w>": 5858,
    "grieved</w>": 5859,
    "grievous</w>": 5860,
    "grigor": 5861,
    "grigory</w>": 5862,
    "grim</w>": 5863,
    "grimau": 5864,
    "grimaud</w>": 5865,
    "grin": 5866,
    "gro": 5867,
    "groan": 5868,
    "gros": 5869,
    "gross</w>": 5870,
    "grou": 5871,
    "ground": 5872,
    "ground,</w>": 5873,
    "ground.</w>": 5874,
    "ground;</w>": 5875,
    "ground</w>": 5876,
    "grounds</w>": 5877,
    "group</w>": 5878,
    "grow": 5879,
    "grow</w>": 5880,
    "growing</w>": 5881,
    "grown</w>": 5882,
    "grows</w>": 5883,
    "growth</w>": 5884,
    "gru": 5885,
    "grumi": 5886,
    "grumio.</w>": 5887,
    "grus": 5888,
    "grushen": 5889,
    "grushenk": 5890,
    "grushenka</w>": 5891,
    "gs": 5892,
    "gs,</w>": 5893,
    "gs</w>": 5894,
    "gu": 5895,
    "guar": 5896,
    "guard,</w>": 5897,
    "guard.</w>": 5898,
    "guard</w>": 5899,
    "guarded</w>": 5900,
    "guardi": 5901,
    "guards</w>": 5902,
    "gue</w>": 5903,
    "guess</w>": 5904,
    "guessed</w>": 5905,
    "guest": 5906,
    "guest</w>": 5907,
    "guests</w>": 5908,
    "gui": 5909,
    "guide": 5910,
    "guide</w>": 5911,
    "guil": 5912,
    "guild": 5913,
    "guilden": 5914,
    "guilt</w>": 5915,
    "guilty</w>": 5916,
    "guin": 5917,
    "guine": 5918,
    "gul": 5919,
    "gun": 5920,
    "gun</w>": 5921,
    "gus": 5922,
    "gutenber": 5923,
    "gutenberg": 5924,
    "gutenberg-t": 5925,
    "gutenberg-tm</w>": 5926,
    "gutenberg</w>": 5927,
    "gutenberg\u201d</w>": 5928,
    "gutenberg\u2122": 5929,
    "gutenberg\u2122</w>": 5930,
    "guy</w>": 5931,
    "gw": 5932,
    "gwen": 5933,
    "gwendol": 5934,
    "gy": 5935,
    "gy</w>": 5936,
    "g\u00e9": 5937,
    "h": 5938,
    "h!</w>": 5939,
    "h,</w>": 5940,
    "h.</w>": 5941,
    "h:</w>": 5942,
    "h;</w>": 5943,
    "h</w>": 5944,
    "ha": 5945,
    "ha!</w>": 5946,
    "ha,</w>": 5947,
    "ha</w>": 5948,
    "hab": 5949,
    "habit": 5950,
    "habit</w>": 5951,
    "habits</w>": 5952,
    "habitu": 5953,
    "hack": 5954,
    "had": 5955,
    "had,</w>": 5956,
    "had.</w>": 5957,
    "had</w>": 5958,
    "hadn\u2019t</w>": 5959,
    "hadst</w>": 5960,
    "hag": 5961,
    "hai": 5962,
    "hail,</w>": 5963,
    "hail</w>": 5964,
    "hair": 5965,
    "hair,</w>": 5966,
    "hair.</w>": 5967,
    "hair</w>": 5968,
    "hal": 5969,
    "half": 5970,
    "half-": 5971,
    "half-past</w>": 5972,
    "half</w>": 5973,
    "hall": 5974,
    "hall,</w>": 5975,
    "hall</w>": 5976,
    "hallow": 5977,
    "ham": 5978,
    "ham,</w>": 5979,
    "ham.</w>": 5980,
    "ham</w>": 5981,
    "hamlet.</w>": 5982,
    "hammer": 5983,
    "hammer</w>": 5984,
    "hamp": 5985,
    "ham\u2019s</w>": 5986,
    "han": 5987,
    "hand": 5988,
    "hand,</w>": 5989,
    "hand.</w>": 5990,
    "hand:</w>": 5991,
    "hand;</w>": 5992,
    "hand</w>": 5993,
    "handed</w>": 5994,
    "handker": 5995,
    "handkerchief</w>": 5996,
    "handle</w>": 5997,
    "hands,</w>": 5998,
    "hands.</w>": 5999,
    "hands;</w>": 6000,
    "hands</w>": 6001,
    "handsome</w>": 6002,
    "hang": 6003,
    "hang</w>": 6004,
    "hange": 6005,
    "hanged</w>": 6006,
    "hanging</w>": 6007,
    "hangs</w>": 6008,
    "hann": 6009,
    "hannah</w>": 6010,
    "hannity</w>": 6011,
    "hap": 6012,
    "happ": 6013,
    "happen": 6014,
    "happen</w>": 6015,
    "happened,</w>": 6016,
    "happened.</w>": 6017,
    "happened</w>": 6018,
    "happening</w>": 6019,
    "happens</w>": 6020,
    "happi": 6021,
    "happier</w>": 6022,
    "happily</w>": 6023,
    "happin": 6024,
    "happiness": 6025,
    "happiness,</w>": 6026,
    "happiness.</w>": 6027,
    "happiness</w>": 6028,
    "happy,</w>": 6029,
    "happy.</w>": 6030,
    "happy</w>": 6031,
    "har": 6032,
    "hard": 6033,
    "hard,</w>": 6034,
    "hard</w>": 6035,
    "harder</w>": 6036,
    "hardly</w>": 6037,
    "hare": 6038,
    "hark,</w>": 6039,
    "hark</w>": 6040,
    "harm": 6041,
    "harm</w>": 6042,
    "harmless</w>": 6043,
    "harmon": 6044,
    "harpo": 6045,
    "harpoone": 6046,
    "harpooneer</w>": 6047,
    "harry,</w>": 6048,
    "harry</w>": 6049,
    "harsh</w>": 6050,
    "harve": 6051,
    "has": 6052,
    "has,</w>": 6053,
    "has</w>": 6054,
    "hast": 6055,
    "hast</w>": 6056,
    "haste,</w>": 6057,
    "haste.</w>": 6058,
    "haste</w>": 6059,
    "hasten</w>": 6060,
    "hastened</w>": 6061,
    "hasti": 6062,
    "hastily</w>": 6063,
    "hastings.</w>": 6064,
    "hastings</w>": 6065,
    "hasty</w>": 6066,
    "hat": 6067,
    "hat,</w>": 6068,
    "hat</w>": 6069,
    "hate": 6070,
    "hate</w>": 6071,
    "hated</w>": 6072,
    "hateful</w>": 6073,
    "hath</w>": 6074,
    "hatre": 6075,
    "hatred</w>": 6076,
    "hau": 6077,
    "haugh": 6078,
    "haughty</w>": 6079,
    "haun": 6080,
    "haunted</w>": 6081,
    "have": 6082,
    "have,</w>": 6083,
    "have.</w>": 6084,
    "have</w>": 6085,
    "haven": 6086,
    "haven\u2019t</w>": 6087,
    "having</w>": 6088,
    "havis": 6089,
    "haw": 6090,
    "hay": 6091,
    "hayd\u00e9": 6092,
    "haz": 6093,
    "hazard</w>": 6094,
    "he": 6095,
    "he's</w>": 6096,
    "he,</w>": 6097,
    "he.</w>": 6098,
    "he;</w>": 6099,
    "he</w>": 6100,
    "he?</w>": 6101,
    "hea": 6102,
    "head": 6103,
    "head,</w>": 6104,
    "head.</w>": 6105,
    "head;</w>": 6106,
    "head</w>": 6107,
    "headed</w>": 6108,
    "heading</w>": 6109,
    "heads,</w>": 6110,
    "heads</w>": 6111,
    "heal": 6112,
    "health": 6113,
    "health,</w>": 6114,
    "health</w>": 6115,
    "healthcare</w>": 6116,
    "healthy</w>": 6117,
    "heap": 6118,
    "heap</w>": 6119,
    "heaps</w>": 6120,
    "hear": 6121,
    "hear,</w>": 6122,
    "hear.</w>": 6123,
    "hear</w>": 6124,
    "heard,</w>": 6125,
    "heard.</w>": 6126,
    "heard</w>": 6127,
    "hearing</w>": 6128,
    "hearken</w>": 6129,
    "hears</w>": 6130,
    "heart": 6131,
    "heart!</w>": 6132,
    "heart,</w>": 6133,
    "heart-": 6134,
    "heart.</w>": 6135,
    "heart;</w>": 6136,
    "heart</w>": 6137,
    "hearted</w>": 6138,
    "hearti": 6139,
    "heartily</w>": 6140,
    "hearts,</w>": 6141,
    "hearts</w>": 6142,
    "hearty</w>": 6143,
    "heart\u2019s</w>": 6144,
    "heat</w>": 6145,
    "heath": 6146,
    "heathcliff": 6147,
    "heathcliff</w>": 6148,
    "heav": 6149,
    "heaven": 6150,
    "heaven!</w>": 6151,
    "heaven,</w>": 6152,
    "heaven.</w>": 6153,
    "heaven</w>": 6154,
    "heavenly</w>": 6155,
    "heavens!</w>": 6156,
    "heavens,</w>": 6157,
    "heavens</w>": 6158,
    "heaven\u2019s</w>": 6159,
    "heavi": 6160,
    "heavily</w>": 6161,
    "heavy</w>": 6162,
    "hebre": 6163,
    "hebrews</w>": 6164,
    "hec": 6165,
    "hector,</w>": 6166,
    "hector.</w>": 6167,
    "hector</w>": 6168,
    "hector\u2019s</w>": 6169,
    "hed,</w>": 6170,
    "hed.</w>": 6171,
    "hed</w>": 6172,
    "hee</w>": 6173,
    "heed</w>": 6174,
    "heel": 6175,
    "heels</w>": 6176,
    "hei": 6177,
    "heigh": 6178,
    "height": 6179,
    "height</w>": 6180,
    "heir": 6181,
    "heir</w>": 6182,
    "hel": 6183,
    "held,</w>": 6184,
    "held</w>": 6185,
    "helen": 6186,
    "helen</w>": 6187,
    "helena.</w>": 6188,
    "heli": 6189,
    "helican": 6190,
    "hell": 6191,
    "hell,</w>": 6192,
    "hell.</w>": 6193,
    "hell</w>": 6194,
    "helmer.</w>": 6195,
    "help": 6196,
    "help,</w>": 6197,
    "help.</w>": 6198,
    "help</w>": 6199,
    "helped</w>": 6200,
    "helping</w>": 6201,
    "helpl": 6202,
    "helpless</w>": 6203,
    "helsing</w>": 6204,
    "hem": 6205,
    "hemi": 6206,
    "hen": 6207,
    "hence": 6208,
    "hence,</w>": 6209,
    "hence.</w>": 6210,
    "hence</w>": 6211,
    "henceforth</w>": 6212,
    "henry,</w>": 6213,
    "henry.</w>": 6214,
    "henry</w>": 6215,
    "henry\u2019s</w>": 6216,
    "her": 6217,
    "her!</w>": 6218,
    "her,</w>": 6219,
    "her.</w>": 6220,
    "her.\u201d</w>": 6221,
    "her:</w>": 6222,
    "her;</w>": 6223,
    "her</w>": 6224,
    "her?</w>": 6225,
    "heral": 6226,
    "herber": 6227,
    "herbert</w>": 6228,
    "here": 6229,
    "here!</w>": 6230,
    "here,</w>": 6231,
    "here,\u201d</w>": 6232,
    "here.</w>": 6233,
    "here.\u201d</w>": 6234,
    "here;</w>": 6235,
    "here</w>": 6236,
    "here?</w>": 6237,
    "here?\u201d</w>": 6238,
    "hereafter</w>": 6239,
    "here\u2019s</w>": 6240,
    "hermi": 6241,
    "hero": 6242,
    "hero,</w>": 6243,
    "hero.</w>": 6244,
    "hero</w>": 6245,
    "heroes</w>": 6246,
    "hers,</w>": 6247,
    "hers</w>": 6248,
    "herself": 6249,
    "herself,</w>": 6250,
    "herself.</w>": 6251,
    "herself</w>": 6252,
    "hes,</w>": 6253,
    "hes</w>": 6254,
    "hesit": 6255,
    "hesitated</w>": 6256,
    "hest</w>": 6257,
    "hester,</w>": 6258,
    "hester</w>": 6259,
    "hezeki": 6260,
    "he\u2019d</w>": 6261,
    "he\u2019ll</w>": 6262,
    "he\u2019s</w>": 6263,
    "hi": 6264,
    "hid</w>": 6265,
    "hidden</w>": 6266,
    "hide": 6267,
    "hide</w>": 6268,
    "hideous</w>": 6269,
    "hiding</w>": 6270,
    "hig": 6271,
    "high": 6272,
    "high,</w>": 6273,
    "high-": 6274,
    "high</w>": 6275,
    "higher</w>": 6276,
    "highest</w>": 6277,
    "highly</w>": 6278,
    "highness</w>": 6279,
    "hil": 6280,
    "hill": 6281,
    "hill,</w>": 6282,
    "hill</w>": 6283,
    "hillary": 6284,
    "hillary</w>": 6285,
    "hills</w>": 6286,
    "him": 6287,
    "him!</w>": 6288,
    "him!\u201d</w>": 6289,
    "him,</w>": 6290,
    "him,\u201d</w>": 6291,
    "him.</w>": 6292,
    "him.\u201d</w>": 6293,
    "him:</w>": 6294,
    "him;</w>": 6295,
    "him</w>": 6296,
    "him?</w>": 6297,
    "him?\u201d</w>": 6298,
    "himself": 6299,
    "himself,</w>": 6300,
    "himself.</w>": 6301,
    "himself;</w>": 6302,
    "himself</w>": 6303,
    "him\u2014": 6304,
    "hin": 6305,
    "hin.</w>": 6306,
    "hin</w>": 6307,
    "hinder</w>": 6308,
    "hing</w>": 6309,
    "hint</w>": 6310,
    "hinted</w>": 6311,
    "hip": 6312,
    "hippoly": 6313,
    "hire</w>": 6314,
    "hired</w>": 6315,
    "his": 6316,
    "his,</w>": 6317,
    "his.</w>": 6318,
    "his</w>": 6319,
    "his]</w>": 6320,
    "histor": 6321,
    "histori": 6322,
    "historic</w>": 6323,
    "history,</w>": 6324,
    "history.</w>": 6325,
    "history</w>": 6326,
    "hit</w>": 6327,
    "hither": 6328,
    "hither,</w>": 6329,
    "hither.</w>": 6330,
    "hither</w>": 6331,
    "hitherto</w>": 6332,
    "hn": 6333,
    "ho": 6334,
    "ho!</w>": 6335,
    "ho,</w>": 6336,
    "ho</w>": 6337,
    "hoa": 6338,
    "hoar": 6339,
    "hoi": 6340,
    "hol": 6341,
    "hold": 6342,
    "hold,</w>": 6343,
    "hold.</w>": 6344,
    "hold</w>": 6345,
    "holding</w>": 6346,
    "holds</w>": 6347,
    "hole,</w>": 6348,
    "hole</w>": 6349,
    "holes</w>": 6350,
    "holi": 6351,
    "holiday</w>": 6352,
    "holl": 6353,
    "hollow": 6354,
    "hollow</w>": 6355,
    "holmes,</w>": 6356,
    "holmes</w>": 6357,
    "holof": 6358,
    "holy</w>": 6359,
    "hom": 6360,
    "home": 6361,
    "home,</w>": 6362,
    "home.</w>": 6363,
    "home;</w>": 6364,
    "home</w>": 6365,
    "homer</w>": 6366,
    "hon": 6367,
    "honest": 6368,
    "honest,</w>": 6369,
    "honest</w>": 6370,
    "honesty</w>": 6371,
    "honey": 6372,
    "hono": 6373,
    "honor": 6374,
    "honor,</w>": 6375,
    "honor</w>": 6376,
    "honored</w>": 6377,
    "honour": 6378,
    "honour,</w>": 6379,
    "honour.</w>": 6380,
    "honour</w>": 6381,
    "honourable</w>": 6382,
    "honoured</w>": 6383,
    "honours</w>": 6384,
    "hoo": 6385,
    "hood": 6386,
    "hood,</w>": 6387,
    "hood.</w>": 6388,
    "hood</w>": 6389,
    "hop": 6390,
    "hop</w>": 6391,
    "hope": 6392,
    "hope,</w>": 6393,
    "hope.</w>": 6394,
    "hope</w>": 6395,
    "hoped</w>": 6396,
    "hopefully</w>": 6397,
    "hopeless</w>": 6398,
    "hopes</w>": 6399,
    "hoping</w>": 6400,
    "hor": 6401,
    "horati": 6402,
    "horatio.</w>": 6403,
    "horiz": 6404,
    "horn</w>": 6405,
    "horns</w>": 6406,
    "horri": 6407,
    "horrible</w>": 6408,
    "horrid</w>": 6409,
    "horror": 6410,
    "horror,</w>": 6411,
    "horror</w>": 6412,
    "horse": 6413,
    "horse,</w>": 6414,
    "horse.</w>": 6415,
    "horse</w>": 6416,
    "horses": 6417,
    "horses,</w>": 6418,
    "horses</w>": 6419,
    "horten": 6420,
    "hortensi": 6421,
    "hortensio.</w>": 6422,
    "hosea</w>": 6423,
    "hospit": 6424,
    "host": 6425,
    "host,</w>": 6426,
    "host.</w>": 6427,
    "host</w>": 6428,
    "hostess.</w>": 6429,
    "hosti": 6430,
    "hostile</w>": 6431,
    "hosts,</w>": 6432,
    "hosts</w>": 6433,
    "hot": 6434,
    "hot</w>": 6435,
    "hote": 6436,
    "hotel</w>": 6437,
    "hotspur": 6438,
    "hotspur.</w>": 6439,
    "hou": 6440,
    "hour": 6441,
    "hour,</w>": 6442,
    "hour.</w>": 6443,
    "hour</w>": 6444,
    "hours,</w>": 6445,
    "hours.</w>": 6446,
    "hours</w>": 6447,
    "house": 6448,
    "house,</w>": 6449,
    "house.</w>": 6450,
    "house:</w>": 6451,
    "house;</w>": 6452,
    "house</w>": 6453,
    "household</w>": 6454,
    "houses,</w>": 6455,
    "houses</w>": 6456,
    "how": 6457,
    "how,</w>": 6458,
    "how</w>": 6459,
    "how?</w>": 6460,
    "however,</w>": 6461,
    "however</w>": 6462,
    "howling</w>": 6463,
    "hr": 6464,
    "hroth": 6465,
    "htt": 6466,
    "http": 6467,
    "http://": 6468,
    "http://t.co/": 6469,
    "http://t.co/i": 6470,
    "http://t.co/j": 6471,
    "http://t.co/k": 6472,
    "http://t.co/x": 6473,
    "http://t.co/y": 6474,
    "https": 6475,
    "https://t.co/": 6476,
    "https://t.co/0": 6477,
    "https://t.co/1": 6478,
    "https://t.co/3": 6479,
    "https://t.co/4": 6480,
    "https://t.co/5": 6481,
    "https://t.co/6": 6482,
    "https://t.co/8": 6483,
    "https://t.co/b": 6484,
    "https://t.co/c": 6485,
    "https://t.co/d": 6486,
    "https://t.co/f": 6487,
    "https://t.co/g": 6488,
    "https://t.co/h": 6489,
    "https://t.co/i": 6490,
    "https://t.co/j": 6491,
    "https://t.co/k": 6492,
    "https://t.co/l": 6493,
    "https://t.co/m": 6494,
    "https://t.co/n": 6495,
    "https://t.co/o": 6496,
    "https://t.co/p": 6497,
    "https://t.co/q": 6498,
    "https://t.co/r": 6499,
    "https://t.co/s": 6500,
    "https://t.co/t": 6501,
    "https://t.co/u": 6502,
    "https://t.co/v": 6503,
    "https://t.co/w": 6504,
    "https://t.co/x": 6505,
    "https://t.co/y": 6506,
    "https://t.co/z": 6507,
    "hu": 6508,
    "huber": 6509,
    "hubert.</w>": 6510,
    "huge</w>": 6511,
    "hum": 6512,
    "human": 6513,
    "human</w>": 6514,
    "humanity</w>": 6515,
    "humble</w>": 6516,
    "humbly</w>": 6517,
    "humili": 6518,
    "humour</w>": 6519,
    "humph": 6520,
    "hun": 6521,
    "hundre": 6522,
    "hundred</w>": 6523,
    "hundreds</w>": 6524,
    "hung</w>": 6525,
    "hunger</w>": 6526,
    "hungr": 6527,
    "hungry</w>": 6528,
    "hunt</w>": 6529,
    "hunting</w>": 6530,
    "hunts": 6531,
    "hur": 6532,
    "hurri": 6533,
    "hurrican": 6534,
    "hurried</w>": 6535,
    "hurry</w>": 6536,
    "hurt</w>": 6537,
    "hus": 6538,
    "husb": 6539,
    "husband": 6540,
    "husband,</w>": 6541,
    "husband.</w>": 6542,
    "husband</w>": 6543,
    "husband\u2019s</w>": 6544,
    "hy": 6545,
    "hyde</w>": 6546,
    "hypo": 6547,
    "hypocr": 6548,
    "hyster": 6549,
    "i": 6550,
    "i'": 6551,
    "i'd</w>": 6552,
    "i'll</w>": 6553,
    "i'm</w>": 6554,
    "i've</w>": 6555,
    "i,</w>": 6556,
    "i.</w>": 6557,
    "i;</w>": 6558,
    "i</w>": 6559,
    "i?</w>": 6560,
    "ia,</w>": 6561,
    "ia</w>": 6562,
    "iachi": 6563,
    "iachimo.</w>": 6564,
    "iago.</w>": 6565,
    "ial</w>": 6566,
    "ian</w>": 6567,
    "ians</w>": 6568,
    "ic": 6569,
    "ic,</w>": 6570,
    "ic.</w>": 6571,
    "ic</w>": 6572,
    "ical</w>": 6573,
    "ically,</w>": 6574,
    "ically</w>": 6575,
    "ice": 6576,
    "ice,</w>": 6577,
    "ice.</w>": 6578,
    "ice;</w>": 6579,
    "ice</w>": 6580,
    "ici": 6581,
    "icious</w>": 6582,
    "ick": 6583,
    "ick,</w>": 6584,
    "ick.</w>": 6585,
    "ick</w>": 6586,
    "id": 6587,
    "id</w>": 6588,
    "ida": 6589,
    "ida</w>": 6590,
    "ide": 6591,
    "ide</w>": 6592,
    "idea": 6593,
    "idea,</w>": 6594,
    "idea</w>": 6595,
    "ideal</w>": 6596,
    "ideas</w>": 6597,
    "identi": 6598,
    "ides,</w>": 6599,
    "ides.</w>": 6600,
    "ides</w>": 6601,
    "idi": 6602,
    "idio": 6603,
    "idle</w>": 6604,
    "ido": 6605,
    "ied</w>": 6606,
    "ies,</w>": 6607,
    "ies</w>": 6608,
    "if": 6609,
    "if,</w>": 6610,
    "if</w>": 6611,
    "ig": 6612,
    "igh": 6613,
    "ight</w>": 6614,
    "ign": 6615,
    "ign,</w>": 6616,
    "ign</w>": 6617,
    "igne": 6618,
    "ignor": 6619,
    "ignorance</w>": 6620,
    "ignorant</w>": 6621,
    "ii": 6622,
    "ii.</w>": 6623,
    "ii</w>": 6624,
    "iii.</w>": 6625,
    "iii</w>": 6626,
    "il": 6627,
    "il,</w>": 6628,
    "il.</w>": 6629,
    "il</w>": 6630,
    "iled</w>": 6631,
    "ili": 6632,
    "iling</w>": 6633,
    "ill": 6634,
    "ill,</w>": 6635,
    "ill-": 6636,
    "ill.</w>": 6637,
    "ill</w>": 6638,
    "illa</w>": 6639,
    "illeg": 6640,
    "illegal</w>": 6641,
    "illu": 6642,
    "illumin": 6643,
    "illustr": 6644,
    "illustration": 6645,
    "ils</w>": 6646,
    "ilus": 6647,
    "ily": 6648,
    "ily</w>": 6649,
    "im": 6650,
    "im,</w>": 6651,
    "imag": 6652,
    "image</w>": 6653,
    "images</w>": 6654,
    "imagin": 6655,
    "imagination</w>": 6656,
    "imagine</w>": 6657,
    "imagined</w>": 6658,
    "imit": 6659,
    "immedi": 6660,
    "immediat": 6661,
    "immediate</w>": 6662,
    "immediately,</w>": 6663,
    "immediately.</w>": 6664,
    "immediately</w>": 6665,
    "immen": 6666,
    "immense</w>": 6667,
    "immigr": 6668,
    "immigration</w>": 6669,
    "immortal": 6670,
    "immortal</w>": 6671,
    "imo": 6672,
    "imogen.</w>": 6673,
    "imp": 6674,
    "impati": 6675,
    "impatience</w>": 6676,
    "impatient</w>": 6677,
    "impe": 6678,
    "impeach": 6679,
    "impeachment</w>": 6680,
    "imper": 6681,
    "imperi": 6682,
    "imperial</w>": 6683,
    "impertin": 6684,
    "implor": 6685,
    "impor": 6686,
    "import": 6687,
    "importance</w>": 6688,
    "important</w>": 6689,
    "importun": 6690,
    "imposed</w>": 6691,
    "impossi": 6692,
    "impossible": 6693,
    "impossible</w>": 6694,
    "impres": 6695,
    "impressed</w>": 6696,
    "impression</w>": 6697,
    "impressions</w>": 6698,
    "imprison": 6699,
    "impro": 6700,
    "impu": 6701,
    "impul": 6702,
    "impulse</w>": 6703,
    "in": 6704,
    "in!</w>": 6705,
    "in,</w>": 6706,
    "in-": 6707,
    "in.</w>": 6708,
    "in.\u201d</w>": 6709,
    "in:</w>": 6710,
    "in;</w>": 6711,
    "in</w>": 6712,
    "in?</w>": 6713,
    "in]</w>": 6714,
    "ina,</w>": 6715,
    "ina.</w>": 6716,
    "ina</w>": 6717,
    "inc": 6718,
    "incapable</w>": 6719,
    "incen": 6720,
    "incense</w>": 6721,
    "incess": 6722,
    "inci": 6723,
    "incident": 6724,
    "incident</w>": 6725,
    "incl": 6726,
    "inclin": 6727,
    "inclination</w>": 6728,
    "inclined</w>": 6729,
    "inclu": 6730,
    "include</w>": 6731,
    "included</w>": 6732,
    "including</w>": 6733,
    "income</w>": 6734,
    "incompe": 6735,
    "inconveni": 6736,
    "incre": 6737,
    "increa": 6738,
    "increase</w>": 6739,
    "increased</w>": 6740,
    "increasing</w>": 6741,
    "incredi": 6742,
    "incredible</w>": 6743,
    "inct</w>": 6744,
    "incur": 6745,
    "inde": 6746,
    "indeed": 6747,
    "indeed!</w>": 6748,
    "indeed,</w>": 6749,
    "indeed.</w>": 6750,
    "indeed</w>": 6751,
    "independ": 6752,
    "independent</w>": 6753,
    "indi": 6754,
    "indian</w>": 6755,
    "indic": 6756,
    "indiffer": 6757,
    "indifferent</w>": 6758,
    "indign": 6759,
    "indignation</w>": 6760,
    "indirec": 6761,
    "indirectly</w>": 6762,
    "indivi": 6763,
    "individu": 6764,
    "individual</w>": 6765,
    "indu": 6766,
    "induce</w>": 6767,
    "induced</w>": 6768,
    "indul": 6769,
    "ine": 6770,
    "ine,</w>": 6771,
    "ine.</w>": 6772,
    "ine;</w>": 6773,
    "ine</w>": 6774,
    "ined</w>": 6775,
    "ines,</w>": 6776,
    "ines</w>": 6777,
    "iness,</w>": 6778,
    "iness</w>": 6779,
    "inev": 6780,
    "ine\u2019s</w>": 6781,
    "inf": 6782,
    "infalli": 6783,
    "infam": 6784,
    "infant</w>": 6785,
    "infec": 6786,
    "infer": 6787,
    "inferior</w>": 6788,
    "infin": 6789,
    "infinite</w>": 6790,
    "inflam": 6791,
    "inflic": 6792,
    "influ": 6793,
    "influence</w>": 6794,
    "inform": 6795,
    "inform</w>": 6796,
    "information</w>": 6797,
    "informed</w>": 6798,
    "infr": 6799,
    "ing": 6800,
    "ing!</w>": 6801,
    "ing!\u201d</w>": 6802,
    "ing,</w>": 6803,
    "ing,\u201d</w>": 6804,
    "ing-": 6805,
    "ing.</w>": 6806,
    "ing.\u201d</w>": 6807,
    "ing:</w>": 6808,
    "ing;</w>": 6809,
    "ing</w>": 6810,
    "ing?</w>": 6811,
    "ing?\u201d</w>": 6812,
    "ing]</w>": 6813,
    "inged</w>": 6814,
    "ingen": 6815,
    "inging</w>": 6816,
    "ingly,</w>": 6817,
    "ingly.</w>": 6818,
    "ingly</w>": 6819,
    "ingrat": 6820,
    "ings,</w>": 6821,
    "ings.</w>": 6822,
    "ings;</w>": 6823,
    "ings</w>": 6824,
    "ingu": 6825,
    "ing\u2014": 6826,
    "inhabit": 6827,
    "inhabitants</w>": 6828,
    "inhe": 6829,
    "inher": 6830,
    "inherit": 6831,
    "inheritance</w>": 6832,
    "ini": 6833,
    "ining</w>": 6834,
    "iniqu": 6835,
    "iniquity</w>": 6836,
    "inius.</w>": 6837,
    "inju": 6838,
    "injur": 6839,
    "injured</w>": 6840,
    "injury</w>": 6841,
    "ink": 6842,
    "ink</w>": 6843,
    "inn": 6844,
    "inn,</w>": 6845,
    "inn</w>": 6846,
    "inner</w>": 6847,
    "inno": 6848,
    "innoc": 6849,
    "innocence</w>": 6850,
    "innocent</w>": 6851,
    "ino": 6852,
    "ino</w>": 6853,
    "inqu": 6854,
    "inqui": 6855,
    "inquir": 6856,
    "inquire</w>": 6857,
    "inquired</w>": 6858,
    "inquiries</w>": 6859,
    "inquiry</w>": 6860,
    "inquisi": 6861,
    "ins,</w>": 6862,
    "ins.</w>": 6863,
    "ins</w>": 6864,
    "insan": 6865,
    "inser": 6866,
    "insi": 6867,
    "inside</w>": 6868,
    "insin": 6869,
    "insinu": 6870,
    "insist</w>": 6871,
    "insisted</w>": 6872,
    "insol": 6873,
    "inspec": 6874,
    "inspi": 6875,
    "inspir": 6876,
    "inspired</w>": 6877,
    "inst": 6878,
    "instance,</w>": 6879,
    "instance</w>": 6880,
    "instances</w>": 6881,
    "instant": 6882,
    "instant,</w>": 6883,
    "instant</w>": 6884,
    "instantly</w>": 6885,
    "instead</w>": 6886,
    "instinc": 6887,
    "institu": 6888,
    "instru": 6889,
    "instruc": 6890,
    "instrum": 6891,
    "instrument</w>": 6892,
    "instruments</w>": 6893,
    "insu": 6894,
    "insul": 6895,
    "insult</w>": 6896,
    "insur": 6897,
    "int": 6898,
    "inte": 6899,
    "integr": 6900,
    "intell": 6901,
    "intellec": 6902,
    "intellectual</w>": 6903,
    "intelli": 6904,
    "intellig": 6905,
    "intelligence</w>": 6906,
    "intelligent</w>": 6907,
    "inten": 6908,
    "intend</w>": 6909,
    "intended</w>": 6910,
    "intense</w>": 6911,
    "intent</w>": 6912,
    "intention</w>": 6913,
    "inter": 6914,
    "intercourse</w>": 6915,
    "interest": 6916,
    "interest,</w>": 6917,
    "interest.</w>": 6918,
    "interest</w>": 6919,
    "interested</w>": 6920,
    "interesting</w>": 6921,
    "interests</w>": 6922,
    "interfer": 6923,
    "internal</w>": 6924,
    "international</w>": 6925,
    "interpre": 6926,
    "interpretation</w>": 6927,
    "interpreted</w>": 6928,
    "interrup": 6929,
    "interrupted</w>": 6930,
    "interval": 6931,
    "interval</w>": 6932,
    "interview": 6933,
    "interview</w>": 6934,
    "interviewed</w>": 6935,
    "intim": 6936,
    "intimate</w>": 6937,
    "into": 6938,
    "into</w>": 6939,
    "intro": 6940,
    "introduc": 6941,
    "introduce</w>": 6942,
    "introduced</w>": 6943,
    "introduction</w>": 6944,
    "intru": 6945,
    "inv": 6946,
    "inval": 6947,
    "invari": 6948,
    "inve": 6949,
    "inven": 6950,
    "invest": 6951,
    "investi": 6952,
    "investig": 6953,
    "invisible</w>": 6954,
    "invit": 6955,
    "invitation</w>": 6956,
    "invite</w>": 6957,
    "invited</w>": 6958,
    "invol": 6959,
    "involun": 6960,
    "involved</w>": 6961,
    "inward</w>": 6962,
    "in\u2019</w>": 6963,
    "in\u2019s</w>": 6964,
    "ior</w>": 6965,
    "ious</w>": 6966,
    "iow": 6967,
    "iowa</w>": 6968,
    "ip": 6969,
    "ir": 6970,
    "ir,</w>": 6971,
    "ir</w>": 6972,
    "ira": 6973,
    "iran</w>": 6974,
    "iraq</w>": 6975,
    "ire": 6976,
    "ire</w>": 6977,
    "iri": 6978,
    "iron": 6979,
    "iron,</w>": 6980,
    "iron</w>": 6981,
    "irre": 6982,
    "irresi": 6983,
    "irresisti": 6984,
    "irrit": 6985,
    "is": 6986,
    "is!</w>": 6987,
    "is,</w>": 6988,
    "is,\u201d</w>": 6989,
    "is.</w>": 6990,
    "is.\u201d</w>": 6991,
    "is:</w>": 6992,
    "is;</w>": 6993,
    "is</w>": 6994,
    "is]</w>": 6995,
    "isa": 6996,
    "isabell": 6997,
    "isabella.</w>": 6998,
    "isai": 6999,
    "isaiah</w>": 7000,
    "ise</w>": 7001,
    "ised</w>": 7002,
    "isell": 7003,
    "ish": 7004,
    "ish,</w>": 7005,
    "ish.</w>": 7006,
    "ish</w>": 7007,
    "ishe": 7008,
    "ished,</w>": 7009,
    "ished.</w>": 7010,
    "ished</w>": 7011,
    "ishing</w>": 7012,
    "ish\u2019d</w>": 7013,
    "isi": 7014,
    "ising</w>": 7015,
    "isis</w>": 7016,
    "island</w>": 7017,
    "ism,</w>": 7018,
    "ism</w>": 7019,
    "isn't</w>": 7020,
    "isn\u2019t</w>": 7021,
    "isra": 7022,
    "israel": 7023,
    "israel,</w>": 7024,
    "israel.</w>": 7025,
    "israel:</w>": 7026,
    "israel;</w>": 7027,
    "israel</w>": 7028,
    "issu": 7029,
    "issue</w>": 7030,
    "issued</w>": 7031,
    "ist</w>": 7032,
    "ister</w>": 7033,
    "is\u2019t</w>": 7034,
    "it": 7035,
    "it!</w>": 7036,
    "it!\u201d</w>": 7037,
    "it's</w>": 7038,
    "it,</w>": 7039,
    "it,\u201d</w>": 7040,
    "it.</w>": 7041,
    "it.\u201d</w>": 7042,
    "it:</w>": 7043,
    "it;</w>": 7044,
    "it</w>": 7045,
    "it?</w>": 7046,
    "it?\u201d</w>": 7047,
    "itable</w>": 7048,
    "ital": 7049,
    "itali": 7050,
    "italian</w>": 7051,
    "italy,</w>": 7052,
    "italy</w>": 7053,
    "itbart": 7054,
    "itch</w>": 7055,
    "ite,</w>": 7056,
    "ite.</w>": 7057,
    "ite</w>": 7058,
    "ited</w>": 7059,
    "itely</w>": 7060,
    "ites,</w>": 7061,
    "ites</w>": 7062,
    "ith": 7063,
    "ither</w>": 7064,
    "ities</w>": 7065,
    "iting</w>": 7066,
    "its,</w>": 7067,
    "its</w>": 7068,
    "itself": 7069,
    "itself,</w>": 7070,
    "itself.</w>": 7071,
    "itself</w>": 7072,
    "itu": 7073,
    "itude,</w>": 7074,
    "itude</w>": 7075,
    "iture</w>": 7076,
    "itute</w>": 7077,
    "ity": 7078,
    "ity!</w>": 7079,
    "ity,</w>": 7080,
    "ity.</w>": 7081,
    "ity:</w>": 7082,
    "ity;</w>": 7083,
    "ity</w>": 7084,
    "it\u2014": 7085,
    "it\u2019s</w>": 7086,
    "ius,</w>": 7087,
    "ius.</w>": 7088,
    "iv": 7089,
    "iv.</w>": 7090,
    "iv</w>": 7091,
    "ivan": 7092,
    "ivan</w>": 7093,
    "ivankat": 7094,
    "ivanov": 7095,
    "ivanovna,</w>": 7096,
    "ivanovna</w>": 7097,
    "ivory</w>": 7098,
    "ix.</w>": 7099,
    "iz": 7100,
    "i\u2019": 7101,
    "i\u2019</w>": 7102,
    "i\u2019d</w>": 7103,
    "i\u2019ll</w>": 7104,
    "i\u2019m</w>": 7105,
    "i\u2019ve</w>": 7106,
    "j": 7107,
    "j.</w>": 7108,
    "j</w>": 7109,
    "ja": 7110,
    "jac": 7111,
    "jack": 7112,
    "jack.</w>": 7113,
    "jack</w>": 7114,
    "jacob": 7115,
    "jacob</w>": 7116,
    "jacqu": 7117,
    "jagg": 7118,
    "jail": 7119,
    "jailer.</w>": 7120,
    "jam": 7121,
    "james": 7122,
    "james</w>": 7123,
    "jami": 7124,
    "jamies": 7125,
    "jan": 7126,
    "jane,</w>": 7127,
    "jane</w>": 7128,
    "janu": 7129,
    "jap": 7130,
    "jaqu": 7131,
    "jaques.</w>": 7132,
    "jar": 7133,
    "jaw": 7134,
    "je": 7135,
    "jeal": 7136,
    "jealous": 7137,
    "jealous</w>": 7138,
    "jealousy</w>": 7139,
    "jeb</w>": 7140,
    "jec": 7141,
    "ject</w>": 7142,
    "jeff": 7143,
    "jeho": 7144,
    "jeky": 7145,
    "jen": 7146,
    "jer": 7147,
    "jeremi": 7148,
    "jeremiah</w>": 7149,
    "jerobo": 7150,
    "jerusal": 7151,
    "jerusalem": 7152,
    "jerusalem,</w>": 7153,
    "jerusalem.</w>": 7154,
    "jerusalem</w>": 7155,
    "jes": 7156,
    "jessi": 7157,
    "jest": 7158,
    "jest</w>": 7159,
    "jesu": 7160,
    "jesus,</w>": 7161,
    "jesus</w>": 7162,
    "jew": 7163,
    "jewe": 7164,
    "jewel": 7165,
    "jewel</w>": 7166,
    "jewell": 7167,
    "jewels</w>": 7168,
    "jews</w>": 7169,
    "ji": 7170,
    "jim": 7171,
    "jim</w>": 7172,
    "jo": 7173,
    "jo's</w>": 7174,
    "jo,</w>": 7175,
    "jo</w>": 7176,
    "job": 7177,
    "job!</w>": 7178,
    "job</w>": 7179,
    "jobs,</w>": 7180,
    "jobs</w>": 7181,
    "joe,</w>": 7182,
    "joe</w>": 7183,
    "joh": 7184,
    "john": 7185,
    "john,</w>": 7186,
    "john.</w>": 7187,
    "john</w>": 7188,
    "join": 7189,
    "join</w>": 7190,
    "joined</w>": 7191,
    "joining</w>": 7192,
    "joint</w>": 7193,
    "joke</w>": 7194,
    "jolly</w>": 7195,
    "jon": 7196,
    "jonah</w>": 7197,
    "jonathan": 7198,
    "jonathan</w>": 7199,
    "jones,</w>": 7200,
    "jones</w>": 7201,
    "jor": 7202,
    "jordan</w>": 7203,
    "jose": 7204,
    "joseph</w>": 7205,
    "joshu": 7206,
    "joshua</w>": 7207,
    "jour": 7208,
    "journ": 7209,
    "journal</w>": 7210,
    "journe": 7211,
    "journey,</w>": 7212,
    "journey</w>": 7213,
    "jove,</w>": 7214,
    "jove</w>": 7215,
    "joy": 7216,
    "joy,</w>": 7217,
    "joy.</w>": 7218,
    "joy</w>": 7219,
    "joyful</w>": 7220,
    "joyou": 7221,
    "jr": 7222,
    "ju": 7223,
    "juan</w>": 7224,
    "jud": 7225,
    "juda": 7226,
    "judah,</w>": 7227,
    "judah</w>": 7228,
    "judg": 7229,
    "judge": 7230,
    "judge,</w>": 7231,
    "judge</w>": 7232,
    "judged</w>": 7233,
    "judgement</w>": 7234,
    "judges</w>": 7235,
    "judgment,</w>": 7236,
    "judgment</w>": 7237,
    "judi": 7238,
    "juli": 7239,
    "julia.</w>": 7240,
    "julie": 7241,
    "juliet.</w>": 7242,
    "jum": 7243,
    "jump</w>": 7244,
    "jumped</w>": 7245,
    "jun": 7246,
    "junc": 7247,
    "june</w>": 7248,
    "jup": 7249,
    "jupit": 7250,
    "jur": 7251,
    "jure</w>": 7252,
    "just": 7253,
    "just,</w>": 7254,
    "just</w>": 7255,
    "justi": 7256,
    "justic": 7257,
    "justice,</w>": 7258,
    "justice.</w>": 7259,
    "justice</w>": 7260,
    "justified</w>": 7261,
    "justify</w>": 7262,
    "justly</w>": 7263,
    "k": 7264,
    "k!</w>": 7265,
    "k,</w>": 7266,
    "k-": 7267,
    "k.</w>": 7268,
    "k:</w>": 7269,
    "k;</w>": 7270,
    "k</w>": 7271,
    "k?</w>": 7272,
    "ka": 7273,
    "ka</w>": 7274,
    "kar": 7275,
    "karamaz": 7276,
    "karamazov": 7277,
    "kat": 7278,
    "kate</w>": 7279,
    "kater": 7280,
    "katerina</w>": 7281,
    "kath": 7282,
    "kathar": 7283,
    "katharine.</w>": 7284,
    "kather": 7285,
    "katherina.</w>": 7286,
    "katrum": 7287,
    "ke": 7288,
    "ke!</w>": 7289,
    "ke,</w>": 7290,
    "ke.</w>": 7291,
    "ke:</w>": 7292,
    "ke;</w>": 7293,
    "ke</w>": 7294,
    "ked": 7295,
    "ked,</w>": 7296,
    "ked.</w>": 7297,
    "ked</w>": 7298,
    "keen": 7299,
    "keen</w>": 7300,
    "keep": 7301,
    "keep</w>": 7302,
    "keeper": 7303,
    "keeper</w>": 7304,
    "keeping</w>": 7305,
    "keeps</w>": 7306,
    "kelly</w>": 7307,
    "ken": 7308,
    "ken,</w>": 7309,
    "ken.</w>": 7310,
    "ken;</w>": 7311,
    "ken</w>": 7312,
    "kened</w>": 7313,
    "kenste": 7314,
    "kent": 7315,
    "kent.</w>": 7316,
    "kept</w>": 7317,
    "ker": 7318,
    "ker,</w>": 7319,
    "ker</w>": 7320,
    "kers</w>": 7321,
    "ker\u2019s</w>": 7322,
    "kes,</w>": 7323,
    "kes.</w>": 7324,
    "kes</w>": 7325,
    "ket,</w>": 7326,
    "ket</w>": 7327,
    "keth</w>": 7328,
    "key": 7329,
    "key,</w>": 7330,
    "key</w>": 7331,
    "ki": 7332,
    "kic": 7333,
    "kil": 7334,
    "kill": 7335,
    "kill</w>": 7336,
    "killed</w>": 7337,
    "killing</w>": 7338,
    "kim</w>": 7339,
    "kin": 7340,
    "kin,</w>": 7341,
    "kin</w>": 7342,
    "kind": 7343,
    "kind,</w>": 7344,
    "kind.</w>": 7345,
    "kind</w>": 7346,
    "kindled</w>": 7347,
    "kindly</w>": 7348,
    "kindness</w>": 7349,
    "kinds</w>": 7350,
    "king": 7351,
    "king!</w>": 7352,
    "king,</w>": 7353,
    "king-": 7354,
    "king.</w>": 7355,
    "king:</w>": 7356,
    "king;</w>": 7357,
    "king</w>": 7358,
    "king?</w>": 7359,
    "kingdom": 7360,
    "kingdom,</w>": 7361,
    "kingdom</w>": 7362,
    "kingdome</w>": 7363,
    "kingly</w>": 7364,
    "kings,</w>": 7365,
    "kings</w>": 7366,
    "king\u2019s</w>": 7367,
    "kins": 7368,
    "kins</w>": 7369,
    "kir": 7370,
    "kis": 7371,
    "kiss</w>": 7372,
    "kissed</w>": 7373,
    "kisses</w>": 7374,
    "kissing</w>": 7375,
    "kit": 7376,
    "kitche": 7377,
    "kitchen,</w>": 7378,
    "kitchen</w>": 7379,
    "kn": 7380,
    "kna": 7381,
    "knav": 7382,
    "knave</w>": 7383,
    "kne": 7384,
    "knee,</w>": 7385,
    "knee</w>": 7386,
    "kneel": 7387,
    "kneel</w>": 7388,
    "knees,</w>": 7389,
    "knees</w>": 7390,
    "knew": 7391,
    "knew,</w>": 7392,
    "knew</w>": 7393,
    "kni": 7394,
    "knife,</w>": 7395,
    "knife</w>": 7396,
    "knight": 7397,
    "knight,</w>": 7398,
    "knight</w>": 7399,
    "knit": 7400,
    "kno": 7401,
    "knock": 7402,
    "knock</w>": 7403,
    "knocked</w>": 7404,
    "knocking</w>": 7405,
    "know": 7406,
    "know,</w>": 7407,
    "know,\u201d</w>": 7408,
    "know.</w>": 7409,
    "know.\u201d</w>": 7410,
    "know;</w>": 7411,
    "know</w>": 7412,
    "knowest</w>": 7413,
    "knoweth</w>": 7414,
    "knowing</w>": 7415,
    "knowle": 7416,
    "knowledg": 7417,
    "knowledge": 7418,
    "knowledge,</w>": 7419,
    "knowledge.</w>": 7420,
    "knowledge</w>": 7421,
    "known,</w>": 7422,
    "known.</w>": 7423,
    "known</w>": 7424,
    "knows,</w>": 7425,
    "knows</w>": 7426,
    "know\u2019st</w>": 7427,
    "ko": 7428,
    "kol": 7429,
    "kolya</w>": 7430,
    "kore": 7431,
    "korea</w>": 7432,
    "kov": 7433,
    "krog": 7434,
    "krogst": 7435,
    "krogstad.</w>": 7436,
    "ks,</w>": 7437,
    "ks.</w>": 7438,
    "ks</w>": 7439,
    "ku": 7440,
    "ky": 7441,
    "ky</w>": 7442,
    "k\u2019d</w>": 7443,
    "k\u2019s</w>": 7444,
    "l": 7445,
    "l!</w>": 7446,
    "l,</w>": 7447,
    "l-": 7448,
    "l.</w>": 7449,
    "l:</w>": 7450,
    "l;</w>": 7451,
    "l</w>": 7452,
    "la": 7453,
    "la,</w>": 7454,
    "la.</w>": 7455,
    "la</w>": 7456,
    "lab": 7457,
    "labour": 7458,
    "labour</w>": 7459,
    "lac": 7460,
    "lace</w>": 7461,
    "lack</w>": 7462,
    "lad": 7463,
    "lad,</w>": 7464,
    "lad</w>": 7465,
    "ladder</w>": 7466,
    "ladi": 7467,
    "ladies,</w>": 7468,
    "ladies</w>": 7469,
    "ladis": 7470,
    "ladislaw</w>": 7471,
    "lady": 7472,
    "lady,</w>": 7473,
    "lady.</w>": 7474,
    "lady;</w>": 7475,
    "lady</w>": 7476,
    "ladyship</w>": 7477,
    "lady\u2019s</w>": 7478,
    "laer": 7479,
    "laertes.</w>": 7480,
    "lafew.</w>": 7481,
    "lai": 7482,
    "laid</w>": 7483,
    "lake</w>": 7484,
    "lam": 7485,
    "lamb</w>": 7486,
    "lament": 7487,
    "lamentations</w>": 7488,
    "lamp": 7489,
    "lamp</w>": 7490,
    "lan": 7491,
    "lanca": 7492,
    "lance.</w>": 7493,
    "lance</w>": 7494,
    "land": 7495,
    "land,</w>": 7496,
    "land.</w>": 7497,
    "land;</w>": 7498,
    "land</w>": 7499,
    "landed</w>": 7500,
    "landlady</w>": 7501,
    "landlord,</w>": 7502,
    "landlord</w>": 7503,
    "lands": 7504,
    "lands,</w>": 7505,
    "lands</w>": 7506,
    "langu": 7507,
    "language,</w>": 7508,
    "language</w>": 7509,
    "lap": 7510,
    "lar": 7511,
    "lar</w>": 7512,
    "large": 7513,
    "large,</w>": 7514,
    "large</w>": 7515,
    "larger</w>": 7516,
    "largest</w>": 7517,
    "lars</w>": 7518,
    "las": 7519,
    "las</w>": 7520,
    "last": 7521,
    "last,</w>": 7522,
    "last.</w>": 7523,
    "last</w>": 7524,
    "lasted</w>": 7525,
    "lasting</w>": 7526,
    "lat": 7527,
    "late": 7528,
    "late,</w>": 7529,
    "late.</w>": 7530,
    "late</w>": 7531,
    "lately</w>": 7532,
    "later,</w>": 7533,
    "later</w>": 7534,
    "latest</w>": 7535,
    "lating</w>": 7536,
    "latter</w>": 7537,
    "lau": 7538,
    "laug": 7539,
    "laugh": 7540,
    "laugh,</w>": 7541,
    "laugh.</w>": 7542,
    "laugh</w>": 7543,
    "laughed,</w>": 7544,
    "laughed.</w>": 7545,
    "laughed</w>": 7546,
    "laughing,</w>": 7547,
    "laughing.</w>": 7548,
    "laughing</w>": 7549,
    "laughter</w>": 7550,
    "laun": 7551,
    "launcele": 7552,
    "laur": 7553,
    "lauri": 7554,
    "laurie,</w>": 7555,
    "laurie</w>": 7556,
    "lav": 7557,
    "lavini": 7558,
    "law": 7559,
    "law,</w>": 7560,
    "law.</w>": 7561,
    "law;</w>": 7562,
    "law</w>": 7563,
    "lawes</w>": 7564,
    "lawful</w>": 7565,
    "lawr": 7566,
    "lawrence.</w>": 7567,
    "laws,</w>": 7568,
    "laws.</w>": 7569,
    "laws</w>": 7570,
    "lawy": 7571,
    "lawyer,</w>": 7572,
    "lawyer</w>": 7573,
    "lay": 7574,
    "lay,</w>": 7575,
    "lay</w>": 7576,
    "laying</w>": 7577,
    "ld": 7578,
    "ld,</w>": 7579,
    "ld.</w>": 7580,
    "ld</w>": 7581,
    "lded</w>": 7582,
    "lding</w>": 7583,
    "le": 7584,
    "le!</w>": 7585,
    "le,</w>": 7586,
    "le-": 7587,
    "le.</w>": 7588,
    "le.\u201d</w>": 7589,
    "le:</w>": 7590,
    "le;</w>": 7591,
    "le</w>": 7592,
    "le?</w>": 7593,
    "lea": 7594,
    "lead": 7595,
    "lead,</w>": 7596,
    "lead</w>": 7597,
    "leader": 7598,
    "leader</w>": 7599,
    "leaders</w>": 7600,
    "leadership</w>": 7601,
    "leading</w>": 7602,
    "leads</w>": 7603,
    "leagu": 7604,
    "league</w>": 7605,
    "leagues</w>": 7606,
    "lean": 7607,
    "lean</w>": 7608,
    "leaned</w>": 7609,
    "leaning</w>": 7610,
    "leap": 7611,
    "leap</w>": 7612,
    "leaped</w>": 7613,
    "lear": 7614,
    "lear.</w>": 7615,
    "learn": 7616,
    "learn</w>": 7617,
    "learned</w>": 7618,
    "learning</w>": 7619,
    "learnt</w>": 7620,
    "least,</w>": 7621,
    "least</w>": 7622,
    "leav": 7623,
    "leave,</w>": 7624,
    "leave.</w>": 7625,
    "leave</w>": 7626,
    "leaves</w>": 7627,
    "leaving</w>": 7628,
    "lec": 7629,
    "lect</w>": 7630,
    "led,</w>": 7631,
    "led.</w>": 7632,
    "led;</w>": 7633,
    "led</w>": 7634,
    "lee": 7635,
    "lef": 7636,
    "left,</w>": 7637,
    "left.</w>": 7638,
    "left</w>": 7639,
    "leg": 7640,
    "leg,</w>": 7641,
    "leg</w>": 7642,
    "legal</w>": 7643,
    "legi": 7644,
    "legis": 7645,
    "legs,</w>": 7646,
    "legs</w>": 7647,
    "leip": 7648,
    "leis": 7649,
    "leisure</w>": 7650,
    "len": 7651,
    "lend</w>": 7652,
    "leness</w>": 7653,
    "leng": 7654,
    "length,</w>": 7655,
    "length</w>": 7656,
    "lent</w>": 7657,
    "leon": 7658,
    "leona": 7659,
    "leonato.</w>": 7660,
    "leontes.</w>": 7661,
    "ler": 7662,
    "ler,</w>": 7663,
    "ler</w>": 7664,
    "les": 7665,
    "les,</w>": 7666,
    "les.</w>": 7667,
    "les;</w>": 7668,
    "les</w>": 7669,
    "less": 7670,
    "less,</w>": 7671,
    "less.</w>": 7672,
    "less</w>": 7673,
    "lesse</w>": 7674,
    "lessly</w>": 7675,
    "lessness</w>": 7676,
    "lesson</w>": 7677,
    "lessons</w>": 7678,
    "lest</w>": 7679,
    "let": 7680,
    "let's</w>": 7681,
    "let,</w>": 7682,
    "let.</w>": 7683,
    "let</w>": 7684,
    "lets</w>": 7685,
    "lett": 7686,
    "letter": 7687,
    "letter,</w>": 7688,
    "letter.</w>": 7689,
    "letter</w>": 7690,
    "letters,</w>": 7691,
    "letters</w>": 7692,
    "letting</w>": 7693,
    "let\u2019s</w>": 7694,
    "lev": 7695,
    "leve": 7696,
    "level</w>": 7697,
    "levi": 7698,
    "leviathan": 7699,
    "leviathan</w>": 7700,
    "levit": 7701,
    "levites</w>": 7702,
    "levitic": 7703,
    "leviticus</w>": 7704,
    "lewi": 7705,
    "ley": 7706,
    "ley,</w>": 7707,
    "ley.</w>": 7708,
    "ley</w>": 7709,
    "le\u2019s</w>": 7710,
    "li": 7711,
    "li</w>": 7712,
    "lia.</w>": 7713,
    "liability,</w>": 7714,
    "liable</w>": 7715,
    "liar</w>": 7716,
    "liber": 7717,
    "liberal</w>": 7718,
    "liberty,</w>": 7719,
    "liberty</w>": 7720,
    "libr": 7721,
    "library</w>": 7722,
    "lic": 7723,
    "lic</w>": 7724,
    "licen": 7725,
    "license,</w>": 7726,
    "license.</w>": 7727,
    "license</w>": 7728,
    "licity</w>": 7729,
    "lict</w>": 7730,
    "lie": 7731,
    "lie,</w>": 7732,
    "lie.</w>": 7733,
    "lie</w>": 7734,
    "lied,</w>": 7735,
    "lied.</w>": 7736,
    "lied</w>": 7737,
    "liege": 7738,
    "liege,</w>": 7739,
    "lies,</w>": 7740,
    "lies.</w>": 7741,
    "lies</w>": 7742,
    "liest</w>": 7743,
    "lieu</w>": 7744,
    "lieuten": 7745,
    "lieutenant</w>": 7746,
    "liev": 7747,
    "lif": 7748,
    "life": 7749,
    "life!</w>": 7750,
    "life,</w>": 7751,
    "life-": 7752,
    "life.</w>": 7753,
    "life;</w>": 7754,
    "life</w>": 7755,
    "life?</w>": 7756,
    "lift</w>": 7757,
    "lifted</w>": 7758,
    "lifting</w>": 7759,
    "ligh": 7760,
    "light": 7761,
    "light,</w>": 7762,
    "light.</w>": 7763,
    "light;</w>": 7764,
    "light</w>": 7765,
    "lighted</w>": 7766,
    "lightly</w>": 7767,
    "lightn": 7768,
    "lightning</w>": 7769,
    "lights</w>": 7770,
    "like": 7771,
    "like,</w>": 7772,
    "like.</w>": 7773,
    "like</w>": 7774,
    "liked</w>": 7775,
    "likely</w>": 7776,
    "liken": 7777,
    "likeness</w>": 7778,
    "likes</w>": 7779,
    "likewise,</w>": 7780,
    "likewise</w>": 7781,
    "lim": 7782,
    "limb": 7783,
    "limbs</w>": 7784,
    "limit": 7785,
    "limitation</w>": 7786,
    "limited</w>": 7787,
    "lin": 7788,
    "lin</w>": 7789,
    "linde": 7790,
    "linde.</w>": 7791,
    "line": 7792,
    "line,</w>": 7793,
    "line.</w>": 7794,
    "line</w>": 7795,
    "linen</w>": 7796,
    "lines</w>": 7797,
    "liness</w>": 7798,
    "ling": 7799,
    "ling,</w>": 7800,
    "ling.</w>": 7801,
    "ling</w>": 7802,
    "link</w>": 7803,
    "linked</w>": 7804,
    "links</w>": 7805,
    "linqu": 7806,
    "linton</w>": 7807,
    "lion,</w>": 7808,
    "lion</w>": 7809,
    "lip": 7810,
    "lips,</w>": 7811,
    "lips.</w>": 7812,
    "lips</w>": 7813,
    "liqu": 7814,
    "lis": 7815,
    "lish": 7816,
    "lish</w>": 7817,
    "list": 7818,
    "list</w>": 7819,
    "listen": 7820,
    "listen,</w>": 7821,
    "listen</w>": 7822,
    "listened</w>": 7823,
    "listening</w>": 7824,
    "lit": 7825,
    "lit</w>": 7826,
    "liter": 7827,
    "literary</w>": 7828,
    "litt": 7829,
    "little,</w>": 7830,
    "little.</w>": 7831,
    "little</w>": 7832,
    "lity.</w>": 7833,
    "lity</w>": 7834,
    "liv": 7835,
    "live": 7836,
    "live,</w>": 7837,
    "live.</w>": 7838,
    "live</w>": 7839,
    "lived</w>": 7840,
    "lively</w>": 7841,
    "lives,</w>": 7842,
    "lives.</w>": 7843,
    "lives</w>": 7844,
    "living,</w>": 7845,
    "living</w>": 7846,
    "lizz": 7847,
    "ll": 7848,
    "ll,</w>": 7849,
    "ll.</w>": 7850,
    "ll</w>": 7851,
    "lled</w>": 7852,
    "llen</w>": 7853,
    "ller": 7854,
    "lli": 7855,
    "lling</w>": 7856,
    "llow": 7857,
    "llow</w>": 7858,
    "lls</w>": 7859,
    "lly": 7860,
    "lly,</w>": 7861,
    "lly.</w>": 7862,
    "lly</w>": 7863,
    "lo": 7864,
    "lo!</w>": 7865,
    "lo,</w>": 7866,
    "lo.</w>": 7867,
    "lo</w>": 7868,
    "loa": 7869,
    "load": 7870,
    "load</w>": 7871,
    "loaded</w>": 7872,
    "loath": 7873,
    "loc": 7874,
    "local</w>": 7875,
    "located</w>": 7876,
    "lock": 7877,
    "lock.</w>": 7878,
    "lock</w>": 7879,
    "locke": 7880,
    "locked</w>": 7881,
    "locks</w>": 7882,
    "lodg": 7883,
    "lodge</w>": 7884,
    "lodged</w>": 7885,
    "lof": 7886,
    "lofty</w>": 7887,
    "log": 7888,
    "log</w>": 7889,
    "logi": 7890,
    "logical</w>": 7891,
    "logy</w>": 7892,
    "lom": 7893,
    "lon": 7894,
    "london": 7895,
    "london,</w>": 7896,
    "london.</w>": 7897,
    "london</w>": 7898,
    "lonely</w>": 7899,
    "long": 7900,
    "long,</w>": 7901,
    "long-": 7902,
    "long.</w>": 7903,
    "long</w>": 7904,
    "longa": 7905,
    "longbour": 7906,
    "longe": 7907,
    "longed</w>": 7908,
    "longer,</w>": 7909,
    "longer.</w>": 7910,
    "longer</w>": 7911,
    "longing</w>": 7912,
    "loo": 7913,
    "look": 7914,
    "look,</w>": 7915,
    "look.</w>": 7916,
    "look</w>": 7917,
    "looked</w>": 7918,
    "looking</w>": 7919,
    "looks,</w>": 7920,
    "looks</w>": 7921,
    "loose</w>": 7922,
    "lor": 7923,
    "lor</w>": 7924,
    "lord": 7925,
    "lord!</w>": 7926,
    "lord,</w>": 7927,
    "lord,\u201d</w>": 7928,
    "lord.</w>": 7929,
    "lord:</w>": 7930,
    "lord;</w>": 7931,
    "lord</w>": 7932,
    "lord?</w>": 7933,
    "lords,</w>": 7934,
    "lords.</w>": 7935,
    "lords</w>": 7936,
    "lordship</w>": 7937,
    "lord\u2019s</w>": 7938,
    "lorenz": 7939,
    "lorry</w>": 7940,
    "los": 7941,
    "los</w>": 7942,
    "lose</w>": 7943,
    "loser": 7944,
    "losing</w>": 7945,
    "loss</w>": 7946,
    "lost,</w>": 7947,
    "lost.</w>": 7948,
    "lost</w>": 7949,
    "lot</w>": 7950,
    "lots</w>": 7951,
    "lott": 7952,
    "lou": 7953,
    "loud</w>": 7954,
    "louis</w>": 7955,
    "lov": 7956,
    "love": 7957,
    "love,</w>": 7958,
    "love-": 7959,
    "love.</w>": 7960,
    "love;</w>": 7961,
    "love</w>": 7962,
    "love?</w>": 7963,
    "loved,</w>": 7964,
    "loved</w>": 7965,
    "lovely</w>": 7966,
    "lover": 7967,
    "lover,</w>": 7968,
    "lover</w>": 7969,
    "lovers</w>": 7970,
    "loves</w>": 7971,
    "love\u2019s</w>": 7972,
    "loving</w>": 7973,
    "lov\u2019d</w>": 7974,
    "low": 7975,
    "low,</w>": 7976,
    "low</w>": 7977,
    "lower</w>": 7978,
    "lowest</w>": 7979,
    "lowi": 7980,
    "loy": 7981,
    "loyal</w>": 7982,
    "ls": 7983,
    "ls,</w>": 7984,
    "ls.</w>": 7985,
    "ls</w>": 7986,
    "lt</w>": 7987,
    "lu": 7988,
    "luc": 7989,
    "luce": 7990,
    "lucenti": 7991,
    "lucentio.</w>": 7992,
    "luci": 7993,
    "lucio.</w>": 7994,
    "lucius.</w>": 7995,
    "luck": 7996,
    "luck</w>": 7997,
    "lucky</w>": 7998,
    "luct": 7999,
    "lucy,</w>": 8000,
    "lucy</w>": 8001,
    "luke</w>": 8002,
    "lum": 8003,
    "lun": 8004,
    "lur": 8005,
    "lust</w>": 8006,
    "lux": 8007,
    "luxury</w>": 8008,
    "lv": 8009,
    "lvani": 8010,
    "ly": 8011,
    "ly!</w>": 8012,
    "ly,</w>": 8013,
    "ly,\u201d</w>": 8014,
    "ly-": 8015,
    "ly.</w>": 8016,
    "ly.\u201d</w>": 8017,
    "ly:</w>": 8018,
    "ly;</w>": 8019,
    "ly</w>": 8020,
    "ly?</w>": 8021,
    "lydg": 8022,
    "lydgate": 8023,
    "lydgate,</w>": 8024,
    "lydgate</w>": 8025,
    "lydgate\u2019s</w>": 8026,
    "lydi": 8027,
    "lydia</w>": 8028,
    "lying</w>": 8029,
    "lysan": 8030,
    "ly\u2014": 8031,
    "l\u2019": 8032,
    "l\u2019s</w>": 8033,
    "m": 8034,
    "m!</w>": 8035,
    "m,</w>": 8036,
    "m-": 8037,
    "m.</w>": 8038,
    "m;</w>": 8039,
    "m</w>": 8040,
    "ma": 8041,
    "ma,</w>": 8042,
    "ma</w>": 8043,
    "mac": 8044,
    "macbe": 8045,
    "macbeth.</w>": 8046,
    "macdu": 8047,
    "macduff.</w>": 8048,
    "mach": 8049,
    "machin": 8050,
    "mad": 8051,
    "mad,</w>": 8052,
    "mad.</w>": 8053,
    "mad</w>": 8054,
    "madam": 8055,
    "madam,</w>": 8056,
    "madam,\u201d</w>": 8057,
    "madam.</w>": 8058,
    "madam</w>": 8059,
    "madame,</w>": 8060,
    "madame,\u201d</w>": 8061,
    "madame</w>": 8062,
    "made": 8063,
    "made,</w>": 8064,
    "made.</w>": 8065,
    "made</w>": 8066,
    "mademoisell": 8067,
    "mademoiselle</w>": 8068,
    "madness</w>": 8069,
    "mag": 8070,
    "maga</w>": 8071,
    "magaz": 8072,
    "mage</w>": 8073,
    "magi": 8074,
    "magic</w>": 8075,
    "magistr": 8076,
    "magn": 8077,
    "magni": 8078,
    "magnific": 8079,
    "magnificent</w>": 8080,
    "mai": 8081,
    "maid,</w>": 8082,
    "maid.</w>": 8083,
    "maid</w>": 8084,
    "maiden": 8085,
    "maiden</w>": 8086,
    "maids</w>": 8087,
    "main": 8088,
    "main-": 8089,
    "main</w>": 8090,
    "maintain</w>": 8091,
    "maintained</w>": 8092,
    "maj": 8093,
    "majest": 8094,
    "majesty,</w>": 8095,
    "majesty.</w>": 8096,
    "majesty</w>": 8097,
    "major</w>": 8098,
    "majority</w>": 8099,
    "mak": 8100,
    "make": 8101,
    "make,</w>": 8102,
    "make</w>": 8103,
    "makes</w>": 8104,
    "maketh</w>": 8105,
    "making</w>": 8106,
    "mal": 8107,
    "mal</w>": 8108,
    "malcol": 8109,
    "male</w>": 8110,
    "mali": 8111,
    "malice</w>": 8112,
    "malicious</w>": 8113,
    "malign": 8114,
    "malvolio.</w>": 8115,
    "mam": 8116,
    "man": 8117,
    "man!</w>": 8118,
    "man,</w>": 8119,
    "man,\u201d</w>": 8120,
    "man.</w>": 8121,
    "man.\u201d</w>": 8122,
    "man:</w>": 8123,
    "man;</w>": 8124,
    "man</w>": 8125,
    "man?</w>": 8126,
    "manag": 8127,
    "manage</w>": 8128,
    "managed</w>": 8129,
    "management</w>": 8130,
    "manager</w>": 8131,
    "manasse": 8132,
    "manett": 8133,
    "mang": 8134,
    "mani": 8135,
    "manif": 8136,
    "manife": 8137,
    "manifest</w>": 8138,
    "mankind,</w>": 8139,
    "mankind</w>": 8140,
    "manly</w>": 8141,
    "mann": 8142,
    "manner": 8143,
    "manner,</w>": 8144,
    "manner.</w>": 8145,
    "manner</w>": 8146,
    "manners,</w>": 8147,
    "manners</w>": 8148,
    "mans</w>": 8149,
    "mant": 8150,
    "manu": 8151,
    "manufac": 8152,
    "manus": 8153,
    "manuscri": 8154,
    "many,</w>": 8155,
    "many</w>": 8156,
    "man\u2019s</w>": 8157,
    "mar": 8158,
    "mar</w>": 8159,
    "marble</w>": 8160,
    "march": 8161,
    "march,</w>": 8162,
    "march</w>": 8163,
    "marcus.</w>": 8164,
    "marfa</w>": 8165,
    "marg": 8166,
    "margare": 8167,
    "margaret.</w>": 8168,
    "mari": 8169,
    "maria.</w>": 8170,
    "marin": 8171,
    "marina.</w>": 8172,
    "mark": 8173,
    "mark,</w>": 8174,
    "mark</w>": 8175,
    "marke": 8176,
    "marked</w>": 8177,
    "market-": 8178,
    "market</w>": 8179,
    "marks</w>": 8180,
    "marqu": 8181,
    "marri": 8182,
    "marriage,</w>": 8183,
    "marriage.</w>": 8184,
    "marriage</w>": 8185,
    "married,</w>": 8186,
    "married</w>": 8187,
    "marry,</w>": 8188,
    "marry</w>": 8189,
    "marrying</w>": 8190,
    "mars</w>": 8191,
    "marse": 8192,
    "marseill": 8193,
    "marsha": 8194,
    "marth": 8195,
    "marti": 8196,
    "martial</w>": 8197,
    "martius.</w>": 8198,
    "marvell": 8199,
    "marvellous</w>": 8200,
    "mary,</w>": 8201,
    "mary</w>": 8202,
    "mas": 8203,
    "mas</w>": 8204,
    "mass</w>": 8205,
    "massi": 8206,
    "massive</w>": 8207,
    "mast-": 8208,
    "master": 8209,
    "master,</w>": 8210,
    "master.</w>": 8211,
    "master</w>": 8212,
    "masters,</w>": 8213,
    "masters</w>": 8214,
    "master\u2019s</w>": 8215,
    "mat": 8216,
    "match</w>": 8217,
    "mate,</w>": 8218,
    "mate</w>": 8219,
    "materi": 8220,
    "material</w>": 8221,
    "mates,</w>": 8222,
    "mates</w>": 8223,
    "matri": 8224,
    "matt": 8225,
    "matter": 8226,
    "matter,</w>": 8227,
    "matter.</w>": 8228,
    "matter</w>": 8229,
    "matter?</w>": 8230,
    "matters</w>": 8231,
    "matthe": 8232,
    "matthew</w>": 8233,
    "matty</w>": 8234,
    "mau": 8235,
    "maxi": 8236,
    "maximili": 8237,
    "may": 8238,
    "may,</w>": 8239,
    "may</w>": 8240,
    "maybe</w>": 8241,
    "mayest</w>": 8242,
    "mayor</w>": 8243,
    "mayst</w>": 8244,
    "mazar": 8245,
    "mazarin,</w>": 8246,
    "mazarin</w>": 8247,
    "ma\u2019": 8248,
    "mb": 8249,
    "mbe": 8250,
    "mber": 8251,
    "mber</w>": 8252,
    "mbl": 8253,
    "mble</w>": 8254,
    "mbr": 8255,
    "mc": 8256,
    "mcca": 8257,
    "me": 8258,
    "me!</w>": 8259,
    "me!\u201d</w>": 8260,
    "me,</w>": 8261,
    "me,\u201d</w>": 8262,
    "me.</w>": 8263,
    "me.\u201d</w>": 8264,
    "me:</w>": 8265,
    "me;</w>": 8266,
    "me</w>": 8267,
    "me?</w>": 8268,
    "me?\u201d</w>": 8269,
    "mead": 8270,
    "meal</w>": 8271,
    "mean": 8272,
    "mean,</w>": 8273,
    "mean</w>": 8274,
    "mean?</w>": 8275,
    "mean?\u201d</w>": 8276,
    "meaning</w>": 8277,
    "means,</w>": 8278,
    "means</w>": 8279,
    "meant</w>": 8280,
    "meantime,</w>": 8281,
    "meantime</w>": 8282,
    "meanwhile,</w>": 8283,
    "meanwhile</w>": 8284,
    "meas": 8285,
    "measure": 8286,
    "measure</w>": 8287,
    "measured</w>": 8288,
    "measures</w>": 8289,
    "meat,</w>": 8290,
    "meat</w>": 8291,
    "mechan": 8292,
    "med": 8293,
    "med,</w>": 8294,
    "med.</w>": 8295,
    "med</w>": 8296,
    "medi": 8297,
    "media</w>": 8298,
    "medic": 8299,
    "medical</w>": 8300,
    "medit": 8301,
    "medium,</w>": 8302,
    "medium</w>": 8303,
    "mee": 8304,
    "meet": 8305,
    "meet,</w>": 8306,
    "meet</w>": 8307,
    "meeting</w>": 8308,
    "meets</w>": 8309,
    "meg": 8310,
    "meg,</w>": 8311,
    "meg</w>": 8312,
    "megyn": 8313,
    "mel": 8314,
    "melan": 8315,
    "melancho": 8316,
    "melanchol": 8317,
    "melancholy</w>": 8318,
    "mele": 8319,
    "melo": 8320,
    "melvi": 8321,
    "mely</w>": 8322,
    "member": 8323,
    "member</w>": 8324,
    "members</w>": 8325,
    "memor": 8326,
    "memorial</w>": 8327,
    "memory,</w>": 8328,
    "memory</w>": 8329,
    "men": 8330,
    "men,</w>": 8331,
    "men.</w>": 8332,
    "men;</w>": 8333,
    "men</w>": 8334,
    "menac": 8335,
    "mend</w>": 8336,
    "menen": 8337,
    "menenius.</w>": 8338,
    "ment": 8339,
    "ment!</w>": 8340,
    "ment,</w>": 8341,
    "ment.</w>": 8342,
    "ment:</w>": 8343,
    "ment;</w>": 8344,
    "ment</w>": 8345,
    "mental</w>": 8346,
    "mented</w>": 8347,
    "mention": 8348,
    "mention</w>": 8349,
    "mentioned</w>": 8350,
    "ments,</w>": 8351,
    "ments.</w>": 8352,
    "ments</w>": 8353,
    "men\u2019s</w>": 8354,
    "mer": 8355,
    "mer.</w>": 8356,
    "mer</w>": 8357,
    "merc": 8358,
    "merch": 8359,
    "merchant": 8360,
    "merchant</w>": 8361,
    "merci": 8362,
    "mercu": 8363,
    "mercuti": 8364,
    "mercutio.</w>": 8365,
    "mercy,</w>": 8366,
    "mercy</w>": 8367,
    "merc\u00e9d": 8368,
    "merc\u00e9d\u00e8": 8369,
    "mere</w>": 8370,
    "merely</w>": 8371,
    "merit</w>": 8372,
    "merri": 8373,
    "merry</w>": 8374,
    "mes": 8375,
    "mes,</w>": 8376,
    "mes</w>": 8377,
    "mess": 8378,
    "mess</w>": 8379,
    "message</w>": 8380,
    "messeng": 8381,
    "messenger.</w>": 8382,
    "messenger</w>": 8383,
    "met,</w>": 8384,
    "met</w>": 8385,
    "meth": 8386,
    "meth</w>": 8387,
    "methinks</w>": 8388,
    "metho": 8389,
    "method</w>": 8390,
    "methods</w>": 8391,
    "metri": 8392,
    "mexic": 8393,
    "mexico</w>": 8394,
    "me\u2014": 8395,
    "mi": 8396,
    "mic": 8397,
    "micha": 8398,
    "michael": 8399,
    "michael</w>": 8400,
    "michig": 8401,
    "mid": 8402,
    "midd": 8403,
    "middle": 8404,
    "middle-": 8405,
    "middle</w>": 8406,
    "middlemarch</w>": 8407,
    "midnight</w>": 8408,
    "midst</w>": 8409,
    "migh": 8410,
    "might": 8411,
    "might,</w>": 8412,
    "might</w>": 8413,
    "mighty</w>": 8414,
    "migr": 8415,
    "mike": 8416,
    "mike</w>": 8417,
    "mil": 8418,
    "mild": 8419,
    "mild</w>": 8420,
    "mile</w>": 8421,
    "miles</w>": 8422,
    "mili": 8423,
    "milit": 8424,
    "military,</w>": 8425,
    "military</w>": 8426,
    "milk</w>": 8427,
    "mill": 8428,
    "miller</w>": 8429,
    "milli": 8430,
    "million</w>": 8431,
    "millions</w>": 8432,
    "min": 8433,
    "mina</w>": 8434,
    "mind": 8435,
    "mind,</w>": 8436,
    "mind.</w>": 8437,
    "mind;</w>": 8438,
    "mind</w>": 8439,
    "minded</w>": 8440,
    "minds</w>": 8441,
    "mine,</w>": 8442,
    "mine.</w>": 8443,
    "mine;</w>": 8444,
    "mine</w>": 8445,
    "ming": 8446,
    "ming</w>": 8447,
    "mingled</w>": 8448,
    "mini": 8449,
    "minister": 8450,
    "minister,</w>": 8451,
    "minister</w>": 8452,
    "ministers</w>": 8453,
    "minu": 8454,
    "minut": 8455,
    "minute": 8456,
    "minute,</w>": 8457,
    "minute</w>": 8458,
    "minutes,</w>": 8459,
    "minutes</w>": 8460,
    "mir": 8461,
    "mirac": 8462,
    "miran": 8463,
    "mis": 8464,
    "mischief</w>": 8465,
    "miser": 8466,
    "miserable</w>": 8467,
    "misery,</w>": 8468,
    "misery</w>": 8469,
    "misfortun": 8470,
    "misfortune</w>": 8471,
    "miss</w>": 8472,
    "missed</w>": 8473,
    "missi": 8474,
    "missing</w>": 8475,
    "mission</w>": 8476,
    "mississi": 8477,
    "mississipp": 8478,
    "mist": 8479,
    "mist</w>": 8480,
    "mista": 8481,
    "mistake</w>": 8482,
    "mistaken</w>": 8483,
    "mistres": 8484,
    "mistress,</w>": 8485,
    "mistress.</w>": 8486,
    "mistress</w>": 8487,
    "mit": 8488,
    "mit</w>": 8489,
    "mitted</w>": 8490,
    "mittrom": 8491,
    "mity": 8492,
    "mitya,</w>": 8493,
    "mitya</w>": 8494,
    "mix": 8495,
    "mixed</w>": 8496,
    "mixture</w>": 8497,
    "mm": 8498,
    "mmer</w>": 8499,
    "mn": 8500,
    "mo": 8501,
    "mo.</w>": 8502,
    "mo</w>": 8503,
    "moby</w>": 8504,
    "mock": 8505,
    "mock</w>": 8506,
    "mode": 8507,
    "mode</w>": 8508,
    "model</w>": 8509,
    "moder": 8510,
    "moderate</w>": 8511,
    "modern</w>": 8512,
    "modest": 8513,
    "modest</w>": 8514,
    "modi": 8515,
    "moi": 8516,
    "mom": 8517,
    "moment": 8518,
    "moment,</w>": 8519,
    "moment.</w>": 8520,
    "moment</w>": 8521,
    "moments,</w>": 8522,
    "moments</w>": 8523,
    "moment\u2019s</w>": 8524,
    "mon": 8525,
    "mon</w>": 8526,
    "monarch": 8527,
    "monarch</w>": 8528,
    "monaster": 8529,
    "monday</w>": 8530,
    "mone": 8531,
    "money": 8532,
    "money,</w>": 8533,
    "money.</w>": 8534,
    "money</w>": 8535,
    "moni": 8536,
    "monimi": 8537,
    "mono": 8538,
    "monseigne": 8539,
    "monsi": 8540,
    "monsieur": 8541,
    "monsieur</w>": 8542,
    "monster": 8543,
    "monster</w>": 8544,
    "monstr": 8545,
    "monstrous</w>": 8546,
    "mont": 8547,
    "montagu": 8548,
    "montan": 8549,
    "monte</w>": 8550,
    "month": 8551,
    "month,</w>": 8552,
    "month</w>": 8553,
    "months,</w>": 8554,
    "months</w>": 8555,
    "monum": 8556,
    "moo": 8557,
    "mood</w>": 8558,
    "moon": 8559,
    "moon,</w>": 8560,
    "moon</w>": 8561,
    "mor": 8562,
    "moral</w>": 8563,
    "morcer": 8564,
    "morcerf</w>": 8565,
    "mordaun": 8566,
    "more": 8567,
    "more!</w>": 8568,
    "more,</w>": 8569,
    "more.</w>": 8570,
    "more;</w>": 8571,
    "more</w>": 8572,
    "moreover,</w>": 8573,
    "moreover</w>": 8574,
    "morgan</w>": 8575,
    "morn": 8576,
    "morning": 8577,
    "morning,</w>": 8578,
    "morning.</w>": 8579,
    "morning</w>": 8580,
    "morrel": 8581,
    "morrel,</w>": 8582,
    "morrel</w>": 8583,
    "morrow": 8584,
    "morrow,</w>": 8585,
    "morrow</w>": 8586,
    "mortal": 8587,
    "mortal</w>": 8588,
    "morti": 8589,
    "mosc": 8590,
    "moses,</w>": 8591,
    "moses</w>": 8592,
    "most,</w>": 8593,
    "most</w>": 8594,
    "mostly</w>": 8595,
    "moth.</w>": 8596,
    "mother": 8597,
    "mother,</w>": 8598,
    "mother.</w>": 8599,
    "mother</w>": 8600,
    "mother\u2019s</w>": 8601,
    "motion": 8602,
    "motion</w>": 8603,
    "motive</w>": 8604,
    "motives</w>": 8605,
    "mou": 8606,
    "mould": 8607,
    "moun": 8608,
    "mount</w>": 8609,
    "mountain": 8610,
    "mountain</w>": 8611,
    "mountains,</w>": 8612,
    "mountains</w>": 8613,
    "mounted</w>": 8614,
    "mour": 8615,
    "mourn": 8616,
    "mournful</w>": 8617,
    "mourning</w>": 8618,
    "mous": 8619,
    "mous</w>": 8620,
    "mouse</w>": 8621,
    "mousque": 8622,
    "mouth": 8623,
    "mouth,</w>": 8624,
    "mouth.</w>": 8625,
    "mouth</w>": 8626,
    "mov": 8627,
    "move": 8628,
    "move</w>": 8629,
    "moved</w>": 8630,
    "movement</w>": 8631,
    "moving</w>": 8632,
    "mow": 8633,
    "mowbra": 8634,
    "mp": 8635,
    "mr": 8636,
    "mr.</w>": 8637,
    "mr</w>": 8638,
    "mrs.</w>": 8639,
    "mrs</w>": 8640,
    "ms": 8641,
    "ms,</w>": 8642,
    "ms.</w>": 8643,
    "ms</w>": 8644,
    "mu": 8645,
    "much": 8646,
    "much,</w>": 8647,
    "much.</w>": 8648,
    "much</w>": 8649,
    "muell": 8650,
    "mueller</w>": 8651,
    "muff": 8652,
    "mul": 8653,
    "multip": 8654,
    "multitu": 8655,
    "multitude</w>": 8656,
    "mum": 8657,
    "mun": 8658,
    "mur": 8659,
    "murder": 8660,
    "murder,</w>": 8661,
    "murder</w>": 8662,
    "murdered</w>": 8663,
    "murderer.</w>": 8664,
    "murderer</w>": 8665,
    "murmu": 8666,
    "murmur": 8667,
    "murmur</w>": 8668,
    "murmured</w>": 8669,
    "mus": 8670,
    "musi": 8671,
    "music": 8672,
    "music,</w>": 8673,
    "music.</w>": 8674,
    "music</w>": 8675,
    "musical</w>": 8676,
    "musici": 8677,
    "muske": 8678,
    "muskete": 8679,
    "must": 8680,
    "must,</w>": 8681,
    "must</w>": 8682,
    "mutter": 8683,
    "muttered</w>": 8684,
    "mutual</w>": 8685,
    "my": 8686,
    "my</w>": 8687,
    "myr": 8688,
    "myself": 8689,
    "myself,</w>": 8690,
    "myself.</w>": 8691,
    "myself.\u201d</w>": 8692,
    "myself;</w>": 8693,
    "myself</w>": 8694,
    "myster": 8695,
    "mysterious</w>": 8696,
    "mystery</w>": 8697,
    "m\u00e9": 8698,
    "n": 8699,
    "n't</w>": 8700,
    "n,</w>": 8701,
    "n-": 8702,
    "n.</w>": 8703,
    "n:</w>": 8704,
    "n;</w>": 8705,
    "n</w>": 8706,
    "na": 8707,
    "na,</w>": 8708,
    "na.</w>": 8709,
    "na</w>": 8710,
    "nai": 8711,
    "naked</w>": 8712,
    "nal</w>": 8713,
    "nam": 8714,
    "name": 8715,
    "name,</w>": 8716,
    "name.</w>": 8717,
    "name;</w>": 8718,
    "name</w>": 8719,
    "name?</w>": 8720,
    "named</w>": 8721,
    "namely,</w>": 8722,
    "names,</w>": 8723,
    "names</w>": 8724,
    "nan": 8725,
    "nancy</w>": 8726,
    "nantucke": 8727,
    "nantucket</w>": 8728,
    "nap": 8729,
    "nar": 8730,
    "narcis": 8731,
    "narr": 8732,
    "narrow": 8733,
    "narrow</w>": 8734,
    "nasty</w>": 8735,
    "nat": 8736,
    "nation": 8737,
    "nation,</w>": 8738,
    "nation</w>": 8739,
    "national</w>": 8740,
    "nations,</w>": 8741,
    "nations</w>": 8742,
    "native</w>": 8743,
    "natur": 8744,
    "natural</w>": 8745,
    "naturall</w>": 8746,
    "naturally</w>": 8747,
    "nature": 8748,
    "nature,</w>": 8749,
    "nature.</w>": 8750,
    "nature;</w>": 8751,
    "nature</w>": 8752,
    "natured</w>": 8753,
    "nature\u2019s</w>": 8754,
    "nau": 8755,
    "naught</w>": 8756,
    "nav": 8757,
    "navy</w>": 8758,
    "nay,</w>": 8759,
    "nay</w>": 8760,
    "na\u2019s</w>": 8761,
    "nbc</w>": 8762,
    "ne": 8763,
    "ne,</w>": 8764,
    "ne.</w>": 8765,
    "ne</w>": 8766,
    "near": 8767,
    "near,</w>": 8768,
    "near</w>": 8769,
    "nearer</w>": 8770,
    "nearest</w>": 8771,
    "nearly</w>": 8772,
    "neath</w>": 8773,
    "necess": 8774,
    "necessarily</w>": 8775,
    "necessary,</w>": 8776,
    "necessary</w>": 8777,
    "necessity</w>": 8778,
    "neck": 8779,
    "neck,</w>": 8780,
    "neck.</w>": 8781,
    "neck</w>": 8782,
    "ned,</w>": 8783,
    "ned.</w>": 8784,
    "ned;</w>": 8785,
    "ned</w>": 8786,
    "nee": 8787,
    "need": 8788,
    "need</w>": 8789,
    "needed</w>": 8790,
    "needs</w>": 8791,
    "neg": 8792,
    "negative</w>": 8793,
    "neglec": 8794,
    "neglect</w>": 8795,
    "neglected</w>": 8796,
    "negli": 8797,
    "negoti": 8798,
    "nehemi": 8799,
    "nehemiah</w>": 8800,
    "nei": 8801,
    "neigh": 8802,
    "neighbor": 8803,
    "neighbour": 8804,
    "neighbour</w>": 8805,
    "neighbourhood</w>": 8806,
    "neither</w>": 8807,
    "nephe": 8808,
    "nephew</w>": 8809,
    "ner": 8810,
    "ner,</w>": 8811,
    "ner</w>": 8812,
    "neris": 8813,
    "ners</w>": 8814,
    "nerv": 8815,
    "nerves</w>": 8816,
    "nervous</w>": 8817,
    "nes": 8818,
    "ness": 8819,
    "ness!</w>": 8820,
    "ness,</w>": 8821,
    "ness.</w>": 8822,
    "ness:</w>": 8823,
    "ness;</w>": 8824,
    "ness</w>": 8825,
    "ness\u2019</w>": 8826,
    "net": 8827,
    "net</w>": 8828,
    "neth</w>": 8829,
    "nether": 8830,
    "nett": 8831,
    "nev": 8832,
    "never": 8833,
    "never,</w>": 8834,
    "never</w>": 8835,
    "neverthe": 8836,
    "nevertheless,</w>": 8837,
    "nevertheless</w>": 8838,
    "new": 8839,
    "new-": 8840,
    "new</w>": 8841,
    "newly</w>": 8842,
    "news": 8843,
    "news!</w>": 8844,
    "news,</w>": 8845,
    "news.</w>": 8846,
    "news</w>": 8847,
    "news?</w>": 8848,
    "newspa": 8849,
    "nex": 8850,
    "next,</w>": 8851,
    "next</w>": 8852,
    "ney": 8853,
    "ney,</w>": 8854,
    "ney.</w>": 8855,
    "ney</w>": 8856,
    "ne\u2019er</w>": 8857,
    "ni": 8858,
    "nic": 8859,
    "nice": 8860,
    "nice,</w>": 8861,
    "nice</w>": 8862,
    "nick": 8863,
    "nie": 8864,
    "nie</w>": 8865,
    "niece</w>": 8866,
    "nietz": 8867,
    "nietzsc": 8868,
    "nigg": 8869,
    "nigh</w>": 8870,
    "night": 8871,
    "night,</w>": 8872,
    "night-": 8873,
    "night.</w>": 8874,
    "night.\u201d</w>": 8875,
    "night;</w>": 8876,
    "night</w>": 8877,
    "nighting": 8878,
    "nightingal": 8879,
    "nights</w>": 8880,
    "night\u2019s</w>": 8881,
    "niko": 8882,
    "nikolay</w>": 8883,
    "nikov": 8884,
    "nin": 8885,
    "nine": 8886,
    "nine</w>": 8887,
    "ning,</w>": 8888,
    "ning.</w>": 8889,
    "ning</w>": 8890,
    "nis": 8891,
    "no": 8892,
    "no!</w>": 8893,
    "no,</w>": 8894,
    "no,\u201d</w>": 8895,
    "no.</w>": 8896,
    "no;</w>": 8897,
    "no</w>": 8898,
    "nobl": 8899,
    "noble": 8900,
    "noble</w>": 8901,
    "nobody</w>": 8902,
    "nod": 8903,
    "nodded</w>": 8904,
    "noi": 8905,
    "noir": 8906,
    "noirti": 8907,
    "noirtier</w>": 8908,
    "nois": 8909,
    "noise</w>": 8910,
    "nomin": 8911,
    "non": 8912,
    "non-": 8913,
    "non.</w>": 8914,
    "non</w>": 8915,
    "none,</w>": 8916,
    "none.</w>": 8917,
    "none</w>": 8918,
    "nonsen": 8919,
    "nor": 8920,
    "nor</w>": 8921,
    "nora.</w>": 8922,
    "norfol": 8923,
    "norfolk.</w>": 8924,
    "north": 8925,
    "north,</w>": 8926,
    "north</w>": 8927,
    "northern</w>": 8928,
    "northum": 8929,
    "northumber": 8930,
    "northumberland.</w>": 8931,
    "nose,</w>": 8932,
    "nose</w>": 8933,
    "nostri": 8934,
    "not": 8935,
    "not,</w>": 8936,
    "not,\u201d</w>": 8937,
    "not.</w>": 8938,
    "not:</w>": 8939,
    "not;</w>": 8940,
    "not</w>": 8941,
    "not?</w>": 8942,
    "not?\u201d</w>": 8943,
    "note": 8944,
    "note,</w>": 8945,
    "note</w>": 8946,
    "noted</w>": 8947,
    "notes</w>": 8948,
    "nothing": 8949,
    "nothing,</w>": 8950,
    "nothing.</w>": 8951,
    "nothing;</w>": 8952,
    "nothing</w>": 8953,
    "noti": 8954,
    "notic": 8955,
    "notice": 8956,
    "notice</w>": 8957,
    "noticed</w>": 8958,
    "notion</w>": 8959,
    "notwith": 8960,
    "notwithstanding</w>": 8961,
    "nouri": 8962,
    "nove": 8963,
    "novel": 8964,
    "november</w>": 8965,
    "now": 8966,
    "now!</w>": 8967,
    "now,</w>": 8968,
    "now,\u201d</w>": 8969,
    "now.</w>": 8970,
    "now.\u201d</w>": 8971,
    "now;</w>": 8972,
    "now</w>": 8973,
    "now?</w>": 8974,
    "now?\u201d</w>": 8975,
    "ns,</w>": 8976,
    "ns</w>": 8977,
    "nu": 8978,
    "nuclear</w>": 8979,
    "num": 8980,
    "number": 8981,
    "number</w>": 8982,
    "numbered</w>": 8983,
    "numbers</w>": 8984,
    "numer": 8985,
    "numerous</w>": 8986,
    "nun": 8987,
    "nur": 8988,
    "nurse,</w>": 8989,
    "nurse.</w>": 8990,
    "nurse</w>": 8991,
    "nut": 8992,
    "ny": 8993,
    "ny,</w>": 8994,
    "ny</w>": 8995,
    "n\u2019d</w>": 8996,
    "n\u2019t</w>": 8997,
    "o": 8998,
    "o!</w>": 8999,
    "o'": 9000,
    "o,</w>": 9001,
    "o.</w>": 9002,
    "o._]</w>": 9003,
    "o:</w>": 9004,
    "o</w>": 9005,
    "o?</w>": 9006,
    "oa": 9007,
    "oar": 9008,
    "oath": 9009,
    "oath,</w>": 9010,
    "oath</w>": 9011,
    "oaths</w>": 9012,
    "ob": 9013,
    "obam": 9014,
    "obama's</w>": 9015,
    "obama</w>": 9016,
    "obamac": 9017,
    "obamacare</w>": 9018,
    "obe": 9019,
    "obedi": 9020,
    "obedience</w>": 9021,
    "obey</w>": 9022,
    "obeyed</w>": 9023,
    "objec": 9024,
    "object,</w>": 9025,
    "object</w>": 9026,
    "objection</w>": 9027,
    "objects</w>": 9028,
    "obli": 9029,
    "oblig": 9030,
    "obligation</w>": 9031,
    "obliged</w>": 9032,
    "obo": 9033,
    "obsc": 9034,
    "obscure</w>": 9035,
    "obser": 9036,
    "observ": 9037,
    "observation</w>": 9038,
    "observe</w>": 9039,
    "observed,</w>": 9040,
    "observed</w>": 9041,
    "observing</w>": 9042,
    "obstin": 9043,
    "obstruc": 9044,
    "obtain</w>": 9045,
    "obtained</w>": 9046,
    "obtaining</w>": 9047,
    "obvious</w>": 9048,
    "obviously</w>": 9049,
    "oc": 9050,
    "occasi": 9051,
    "occasion": 9052,
    "occasion,</w>": 9053,
    "occasion.</w>": 9054,
    "occasion</w>": 9055,
    "occasionally</w>": 9056,
    "occasioned</w>": 9057,
    "occasions</w>": 9058,
    "occup": 9059,
    "occupied</w>": 9060,
    "occur": 9061,
    "occurred</w>": 9062,
    "oce": 9063,
    "ocean,</w>": 9064,
    "ocean</w>": 9065,
    "octa": 9066,
    "octo": 9067,
    "od": 9068,
    "od,</w>": 9069,
    "od.</w>": 9070,
    "od</w>": 9071,
    "odd": 9072,
    "odd</w>": 9073,
    "odi": 9074,
    "od\u2019s</w>": 9075,
    "of": 9076,
    "of,</w>": 9077,
    "of-": 9078,
    "of.</w>": 9079,
    "of;</w>": 9080,
    "of</w>": 9081,
    "of]</w>": 9082,
    "off": 9083,
    "off,</w>": 9084,
    "off.</w>": 9085,
    "off;</w>": 9086,
    "off</w>": 9087,
    "offen": 9088,
    "offence</w>": 9089,
    "offend</w>": 9090,
    "offended</w>": 9091,
    "offer": 9092,
    "offer</w>": 9093,
    "offered</w>": 9094,
    "offering,</w>": 9095,
    "offering</w>": 9096,
    "offerings</w>": 9097,
    "offers</w>": 9098,
    "offic": 9099,
    "office,</w>": 9100,
    "office.</w>": 9101,
    "office</w>": 9102,
    "officer,</w>": 9103,
    "officer.</w>": 9104,
    "officer</w>": 9105,
    "officers,</w>": 9106,
    "officers</w>": 9107,
    "offices</w>": 9108,
    "offici": 9109,
    "official</w>": 9110,
    "oft</w>": 9111,
    "often": 9112,
    "often,</w>": 9113,
    "often</w>": 9114,
    "oh": 9115,
    "oh!</w>": 9116,
    "oh,</w>": 9117,
    "oh</w>": 9118,
    "ohi": 9119,
    "oil,</w>": 9120,
    "oil</w>": 9121,
    "ok</w>": 9122,
    "ol": 9123,
    "ol</w>": 9124,
    "old": 9125,
    "old,</w>": 9126,
    "old-": 9127,
    "old.</w>": 9128,
    "old</w>": 9129,
    "older</w>": 9130,
    "oli": 9131,
    "olivia.</w>": 9132,
    "om": 9133,
    "om,</w>": 9134,
    "om.</w>": 9135,
    "om</w>": 9136,
    "omen": 9137,
    "omi": 9138,
    "omin": 9139,
    "omit": 9140,
    "omni": 9141,
    "omy</w>": 9142,
    "on": 9143,
    "on!</w>": 9144,
    "on,</w>": 9145,
    "on,\u201d</w>": 9146,
    "on-": 9147,
    "on.</w>": 9148,
    "on.\u201d</w>": 9149,
    "on:</w>": 9150,
    "on;</w>": 9151,
    "on</w>": 9152,
    "on?</w>": 9153,
    "once": 9154,
    "once,</w>": 9155,
    "once.</w>": 9156,
    "once</w>": 9157,
    "ond</w>": 9158,
    "one": 9159,
    "one!</w>": 9160,
    "one,</w>": 9161,
    "one-": 9162,
    "one.</w>": 9163,
    "one.\u201d</w>": 9164,
    "one:</w>": 9165,
    "one;</w>": 9166,
    "one</w>": 9167,
    "one?</w>": 9168,
    "one]</w>": 9169,
    "oned</w>": 9170,
    "onely</w>": 9171,
    "ones,</w>": 9172,
    "ones.</w>": 9173,
    "ones</w>": 9174,
    "one\u2019s</w>": 9175,
    "ong": 9176,
    "ong</w>": 9177,
    "oni": 9178,
    "onians</w>": 9179,
    "oning</w>": 9180,
    "online</w>": 9181,
    "only,</w>": 9182,
    "only</w>": 9183,
[...]
