{
  "vocab_size": 8192,
  "vocab": {
    "!": 0,
    "!!": 1,
    "!!!</w>": 2,
    "!!</w>": 3,
    "!\"\"\"</w>": 4,
    "!\"\"</w>": 5,
    "!\"</w>": 6,
    "!</w>": 7,
    "!\u2014": 8,
    "!\u2019</w>": 9,
    "!\u201d</w>": 10,
    "\"": 11,
    "\"\"": 12,
    "\"\"\"": 13,
    "\"\"\"</w>": 14,
    "\"\"\"@": 15,
    "\"\"\"@j": 16,
    "\"\"</w>": 17,
    "\"</w>": 18,
    "\"i</w>": 19,
    "\"rt</w>": 20,
    "#": 21,
    "#maga</w>": 22,
    "#make": 23,
    "#makeameric": 24,
    "#makeamericagreat": 25,
    "#makeamericagreatagain</w>": 26,
    "#trump": 27,
    "#trump2016": 28,
    "#trump2016</w>": 29,
    "$": 30,
    "%": 31,
    "%</w>": 32,
    "&": 33,
    "&amp": 34,
    "&amp,</w>": 35,
    "&amp;</w>": 36,
    "'": 37,
    "'</w>": 38,
    "'s</w>": 39,
    "'t</w>": 40,
    "(": 41,
    "(and</w>": 42,
    "(as</w>": 43,
    "(cont": 44,
    "(cont)</w>": 45,
    "(for</w>": 46,
    "(the</w>": 47,
    "(which</w>": 48,
    ")": 49,
    "),</w>": 50,
    ").</w>": 51,
    ")</w>": 52,
    "*": 53,
    "**": 54,
    "*</w>": 55,
    "+": 56,
    ",": 57,
    ",\"</w>": 58,
    ",)</w>": 59,
    ",--": 60,
    ",--</w>": 61,
    ",00": 62,
    ",000</w>": 63,
    ",</w>": 64,
    ",\u2014": 65,
    ",\u2014</w>": 66,
    ",\u2019</w>": 67,
    ",\u201d</w>": 68,
    "-": 69,
    "--": 70,
    "----": 71,
    "--------": 72,
    "--</w>": 73,
    "--and</w>": 74,
    "--i</w>": 75,
    "-</w>": 76,
    "-in-": 77,
    "-like</w>": 78,
    ".": 79,
    ".\"\"\"</w>": 80,
    ".\"\"</w>": 81,
    ".\"</w>": 82,
    ".)</w>": 83,
    ".,</w>": 84,
    ".--": 85,
    "..": 86,
    "...": 87,
    "....": 88,
    "....</w>": 89,
    "...</w>": 90,
    ".</w>": 91,
    ".@": 92,
    ".]</w>": 93,
    "._</w>": 94,
    "._]</w>": 95,
    ".m.</w>": 96,
    ".org": 97,
    ".}</w>": 98,
    ".\u2014": 99,
    ".\u2019</w>": 100,
    ".\u201d": 101,
    ".\u201d--": 102,
    ".\u201d</w>": 103,
    "/": 104,
    "//": 105,
    "0": 106,
    "00": 107,
    "00:0": 108,
    "00</w>": 109,
    "0</w>": 110,
    "1": 111,
    "1.": 112,
    "1.</w>": 113,
    "1.e.": 114,
    "1.f": 115,
    "1.f.": 116,
    "10": 117,
    "100": 118,
    "10</w>": 119,
    "11": 120,
    "12": 121,
    "13": 122,
    "14": 123,
    "15": 124,
    "16": 125,
    "17": 126,
    "18": 127,
    "19": 128,
    "1:": 129,
    "1:1": 130,
    "1:</w>": 131,
    "1</w>": 132,
    "2": 133,
    "2.</w>": 134,
    "20": 135,
    "201": 136,
    "2016": 137,
    "2016</w>": 138,
    "20</w>": 139,
    "21": 140,
    "22": 141,
    "23": 142,
    "24": 143,
    "25": 144,
    "26": 145,
    "27": 146,
    "28": 147,
    "29": 148,
    "2:": 149,
    "2</w>": 150,
    "3": 151,
    "3.</w>": 152,
    "30": 153,
    "32": 154,
    "33": 155,
    "34": 156,
    "36": 157,
    "3:": 158,
    "3</w>": 159,
    "4": 160,
    "4.</w>": 161,
    "40": 162,
    "4:": 163,
    "4</w>": 164,
    "5": 165,
    "5.</w>": 166,
    "50": 167,
    "50</w>": 168,
    "5:": 169,
    "5</w>": 170,
    "6": 171,
    "6:": 172,
    "6</w>": 173,
    "7": 174,
    "7.</w>": 175,
    "7:": 176,
    "7</w>": 177,
    "8": 178,
    "8.</w>": 179,
    "8:": 180,
    "8</w>": 181,
    "9": 182,
    "9.</w>": 183,
    "9:": 184,
    "9</w>": 185,
    ":": 186,
    ":--</w>": 187,
    ":/": 188,
    "://": 189,
    "://t.": 190,
    "://t.co/": 191,
    ":0": 192,
    ":1": 193,
    ":10</w>": 194,
    ":11</w>": 195,
    ":12</w>": 196,
    ":13</w>": 197,
    ":14</w>": 198,
    ":15</w>": 199,
    ":16</w>": 200,
    ":17</w>": 201,
    ":18</w>": 202,
    ":19</w>": 203,
    ":1</w>": 204,
    ":2": 205,
    ":20</w>": 206,
    ":21</w>": 207,
    ":22</w>": 208,
    ":23</w>": 209,
    ":24</w>": 210,
    ":25</w>": 211,
    ":26</w>": 212,
    ":27</w>": 213,
    ":28</w>": 214,
    ":29</w>": 215,
    ":2</w>": 216,
    ":3": 217,
    ":30</w>": 218,
    ":31</w>": 219,
    ":32</w>": 220,
    ":33</w>": 221,
    ":3</w>": 222,
    ":4": 223,
    ":4</w>": 224,
    ":5</w>": 225,
    ":6</w>": 226,
    ":7</w>": 227,
    ":8</w>": 228,
    ":9</w>": 229,
    ":</w>": 230,
    ";": 231,
    ";</w>": 232,
    "<": 233,
    "</w>": 234,
    "=": 235,
    ">": 236,
    "?": 237,
    "?\"\"</w>": 238,
    "?\"</w>": 239,
    "?</w>": 240,
    "?\u2014": 241,
    "?\u2019</w>": 242,
    "?\u201d</w>": 243,
    "@": 244,
    "@apprenticen": 245,
    "@apprenticenbc</w>": 246,
    "@barack": 247,
    "@barackobama</w>": 248,
    "@d": 249,
    "@fox": 250,
    "@foxand": 251,
    "@foxandfriends</w>": 252,
    "@foxnews</w>": 253,
    "@n": 254,
    "@ny": 255,
    "@real": 256,
    "@realdonald": 257,
    "@realdonaldtrump": 258,
    "@realdonaldtrump</w>": 259,
    "@trump": 260,
    "[": 261,
    "[_": 262,
    "[_aside": 263,
    "[_aside_.]</w>": 264,
    "[_ex": 265,
    "[_exeun": 266,
    "[_exeunt._]</w>": 267,
    "[_exeunt</w>": 268,
    "[_exit": 269,
    "[_exit._]</w>": 270,
    "[_exit</w>": 271,
    "[_to</w>": 272,
    "[am": 273,
    "[am]</w>": 274,
    "[and]</w>": 275,
    "[are]</w>": 276,
    "[be]</w>": 277,
    "[even]</w>": 278,
    "[illustration": 279,
    "[illustration:</w>": 280,
    "[is]</w>": 281,
    "[it": 282,
    "[it</w>": 283,
    "[it]</w>": 284,
    "[shall</w>": 285,
    "[that</w>": 286,
    "[that]</w>": 287,
    "[the</w>": 288,
    "[them": 289,
    "[them]</w>": 290,
    "[there</w>": 291,
    "[was]</w>": 292,
    "[were]</w>": 293,
    "\\": 294,
    "]": 295,
    "],</w>": 296,
    "].</w>": 297,
    "]</w>": 298,
    "^": 299,
    "_": 300,
    "_,</w>": 301,
    "_.</w>": 302,
    "_.]</w>": 303,
    "_</w>": 304,
    "_[": 305,
    "_]</w>": 306,
    "_i": 307,
    "`": 308,
    "a": 309,
    "a!</w>": 310,
    "a's</w>": 311,
    "a,</w>": 312,
    "a-": 313,
    "a.</w>": 314,
    "a:</w>": 315,
    "a;</w>": 316,
    "a</w>": 317,
    "aar": 318,
    "ab": 319,
    "ab</w>": 320,
    "aband": 321,
    "abb": 322,
    "abb\u00e9": 323,
    "abhor": 324,
    "abi": 325,
    "abili": 326,
    "ability</w>": 327,
    "able": 328,
    "able,</w>": 329,
    "able.</w>": 330,
    "able</w>": 331,
    "ably</w>": 332,
    "abo": 333,
    "abomin": 334,
    "about": 335,
    "about,</w>": 336,
    "about.</w>": 337,
    "about</w>": 338,
    "above</w>": 339,
    "abra": 340,
    "abs": 341,
    "absence</w>": 342,
    "absolu": 343,
    "absolute</w>": 344,
    "absolutely</w>": 345,
    "absur": 346,
    "abu": 347,
    "ac": 348,
    "acc": 349,
    "accep": 350,
    "accept</w>": 351,
    "accepted</w>": 352,
    "access</w>": 353,
    "acci": 354,
    "accompani": 355,
    "accompanied</w>": 356,
    "accompli": 357,
    "accor": 358,
    "accord": 359,
    "according</w>": 360,
    "accoun": 361,
    "account</w>": 362,
    "accur": 363,
    "accus": 364,
    "accusto": 365,
    "accustomed</w>": 366,
    "ace</w>": 367,
    "ach": 368,
    "ach,</w>": 369,
    "ach</w>": 370,
    "ache": 371,
    "ached</w>": 372,
    "acher": 373,
    "achi": 374,
    "achill": 375,
    "achilles</w>": 376,
    "aching</w>": 377,
    "aci": 378,
    "ack": 379,
    "ack,</w>": 380,
    "ack</w>": 381,
    "acknowledg": 382,
    "acle</w>": 383,
    "acqu": 384,
    "acquain": 385,
    "acquaint": 386,
    "acquaintance</w>": 387,
    "acquainted</w>": 388,
    "across</w>": 389,
    "act</w>": 390,
    "acted</w>": 391,
    "action</w>": 392,
    "actions</w>": 393,
    "active</w>": 394,
    "acts</w>": 395,
    "actu": 396,
    "actually</w>": 397,
    "acy</w>": 398,
    "ad": 399,
    "ad,</w>": 400,
    "ad.</w>": 401,
    "ad</w>": 402,
    "add</w>": 403,
    "added,</w>": 404,
    "added</w>": 405,
    "addi": 406,
    "additional</w>": 407,
    "addres": 408,
    "address</w>": 409,
    "addressed</w>": 410,
    "ade": 411,
    "ade</w>": 412,
    "aded</w>": 413,
    "adi": 414,
    "adieu": 415,
    "adily</w>": 416,
    "ading</w>": 417,
    "adm": 418,
    "admini": 419,
    "administr": 420,
    "admir": 421,
    "admit</w>": 422,
    "ador": 423,
    "adri": 424,
    "adu": 425,
    "adv": 426,
    "advanced</w>": 427,
    "advant": 428,
    "advantage</w>": 429,
    "advent": 430,
    "advice</w>": 431,
    "af": 432,
    "aff": 433,
    "affair": 434,
    "affair</w>": 435,
    "affairs</w>": 436,
    "affec": 437,
    "affected</w>": 438,
    "affection": 439,
    "affection</w>": 440,
    "afflic": 441,
    "afr": 442,
    "afrai": 443,
    "afraid</w>": 444,
    "after": 445,
    "after</w>": 446,
    "afterno": 447,
    "afterwards</w>": 448,
    "ag": 449,
    "ag</w>": 450,
    "again": 451,
    "again!</w>": 452,
    "again,</w>": 453,
    "again.</w>": 454,
    "again;</w>": 455,
    "again</w>": 456,
    "against</w>": 457,
    "age": 458,
    "age,</w>": 459,
    "age.</w>": 460,
    "age;</w>": 461,
    "age</w>": 462,
    "aged</w>": 463,
    "ages,</w>": 464,
    "ages</w>": 465,
    "agger": 466,
    "agit": 467,
    "agn": 468,
    "ago": 469,
    "ago,</w>": 470,
    "ago.</w>": 471,
    "ago</w>": 472,
    "agre": 473,
    "agreat": 474,
    "agree": 475,
    "agree</w>": 476,
    "agreeable</w>": 477,
    "agreed</w>": 478,
    "agreement,</w>": 479,
    "agreement</w>": 480,
    "agu": 481,
    "ague</w>": 482,
    "ah": 483,
    "ah!</w>": 484,
    "ah,</w>": 485,
    "ah</w>": 486,
    "aha": 487,
    "ahab": 488,
    "ahab,</w>": 489,
    "ahab</w>": 490,
    "ai": 491,
    "aid</w>": 492,
    "aig": 493,
    "aign": 494,
    "aign</w>": 495,
    "ail": 496,
    "ail</w>": 497,
    "ailed</w>": 498,
    "ain": 499,
    "ain</w>": 500,
    "ain\u2019t</w>": 501,
    "air": 502,
    "air,</w>": 503,
    "air.</w>": 504,
    "air</w>": 505,
    "aja": 506,
    "ak</w>": 507,
    "al": 508,
    "al,</w>": 509,
    "al.</w>": 510,
    "al;</w>": 511,
    "al</w>": 512,
    "alar": 513,
    "alas": 514,
    "alas!</w>": 515,
    "alas,</w>": 516,
    "alber": 517,
    "albert</w>": 518,
    "ale</w>": 519,
    "aled</w>": 520,
    "alex": 521,
    "alexand": 522,
    "ali": 523,
    "alice</w>": 524,
    "aling</w>": 525,
    "ality,</w>": 526,
    "ality</w>": 527,
    "alive</w>": 528,
    "all": 529,
    "all,</w>": 530,
    "all-": 531,
    "all.</w>": 532,
    "all;</w>": 533,
    "all</w>": 534,
    "alli": 535,
    "allow": 536,
    "allow</w>": 537,
    "allowed</w>": 538,
    "allworth": 539,
    "ally,</w>": 540,
    "ally.</w>": 541,
    "ally</w>": 542,
    "almost</w>": 543,
    "alo": 544,
    "alone": 545,
    "alone,</w>": 546,
    "alone.</w>": 547,
    "alone</w>": 548,
    "along": 549,
    "along,</w>": 550,
    "along</w>": 551,
    "alou": 552,
    "alread": 553,
    "already</w>": 554,
    "als,</w>": 555,
    "als</w>": 556,
    "also,</w>": 557,
    "also</w>": 558,
    "alter": 559,
    "although</w>": 560,
    "altogether</w>": 561,
    "always</w>": 562,
    "alyo": 563,
    "alyosha": 564,
    "alyosha,</w>": 565,
    "alyosha</w>": 566,
    "am": 567,
    "am,</w>": 568,
    "am.</w>": 569,
    "am</w>": 570,
    "amaz": 571,
    "amazing</w>": 572,
    "ambi": 573,
    "ame</w>": 574,
    "amed</w>": 575,
    "amend": 576,
    "americ": 577,
    "america</w>": 578,
    "american</w>": 579,
    "americans</w>": 580,
    "ami": 581,
    "aming</w>": 582,
    "among": 583,
    "among</w>": 584,
    "amongst</w>": 585,
    "amoun": 586,
    "amp": 587,
    "ample</w>": 588,
    "ams</w>": 589,
    "amy</w>": 590,
    "an": 591,
    "an,</w>": 592,
    "an.</w>": 593,
    "an;</w>": 594,
    "an</w>": 595,
    "ana.</w>": 596,
    "anc": 597,
    "ance": 598,
    "ance,</w>": 599,
    "ance.</w>": 600,
    "ance;</w>": 601,
    "ance</w>": 602,
    "anced</w>": 603,
    "ances,</w>": 604,
    "ances</w>": 605,
    "anci": 606,
    "ancient</w>": 607,
    "ancing</w>": 608,
    "ancy</w>": 609,
    "and": 610,
    "and,</w>": 611,
    "and-": 612,
    "and</w>": 613,
    "and]</w>": 614,
    "andre": 615,
    "ands</w>": 616,
    "ang": 617,
    "ang</w>": 618,
    "ange": 619,
    "ange</w>": 620,
    "anged</w>": 621,
    "angel</w>": 622,
    "anger</w>": 623,
    "angr": 624,
    "angry</w>": 625,
    "angu": 626,
    "ani": 627,
    "anim": 628,
    "anio.</w>": 629,
    "ann": 630,
    "anno": 631,
    "announ": 632,
    "announced</w>": 633,
    "ano": 634,
    "another": 635,
    "another,</w>": 636,
    "another.</w>": 637,
    "another</w>": 638,
    "ans": 639,
    "ans,</w>": 640,
    "ans.</w>": 641,
    "ans</w>": 642,
    "answer": 643,
    "answer,</w>": 644,
    "answer.</w>": 645,
    "answer</w>": 646,
    "answered,</w>": 647,
    "answered</w>": 648,
    "ant": 649,
    "ant,</w>": 650,
    "ant.</w>": 651,
    "ant</w>": 652,
    "anti": 653,
    "antip": 654,
    "antiphol": 655,
    "antipholus</w>": 656,
    "antly</w>": 657,
    "anton": 658,
    "antoni": 659,
    "antonio.</w>": 660,
    "antony.</w>": 661,
    "ants,</w>": 662,
    "ants</w>": 663,
    "anxi": 664,
    "anxious</w>": 665,
    "any": 666,
    "any</w>": 667,
    "anybody</w>": 668,
    "anyone</w>": 669,
    "anything": 670,
    "anything</w>": 671,
    "anywhere</w>": 672,
    "ap": 673,
    "apart": 674,
    "ape": 675,
    "apo": 676,
    "apost": 677,
    "app": 678,
    "appar": 679,
    "apparently</w>": 680,
    "appe": 681,
    "appear": 682,
    "appear</w>": 683,
    "appearance</w>": 684,
    "appeared</w>": 685,
    "appears</w>": 686,
    "applic": 687,
    "appointed</w>": 688,
    "appreci": 689,
    "apprehen": 690,
    "appren": 691,
    "apprentic": 692,
    "apprentice</w>": 693,
    "apprenticen": 694,
    "appro": 695,
    "approach</w>": 696,
    "approached</w>": 697,
    "ar": 698,
    "ar,</w>": 699,
    "ar.</w>": 700,
    "ar</w>": 701,
    "aram": 702,
    "arbu": 703,
    "arch": 704,
    "archi": 705,
    "archive</w>": 706,
    "arcit": 707,
    "ard": 708,
    "ard</w>": 709,
    "are": 710,
    "are,</w>": 711,
    "are.</w>": 712,
    "are</w>": 713,
    "are]</w>": 714,
    "ared,</w>": 715,
    "ared</w>": 716,
    "arg": 717,
    "argum": 718,
    "ari": 719,
    "arily</w>": 720,
    "aring</w>": 721,
    "aris": 722,
    "arly</w>": 723,
    "arm": 724,
    "arm,</w>": 725,
    "arm</w>": 726,
    "armed</w>": 727,
    "arms,</w>": 728,
    "arms.</w>": 729,
    "arms</w>": 730,
    "army</w>": 731,
    "aro": 732,
    "arose</w>": 733,
    "around</w>": 734,
    "arr": 735,
    "arrange": 736,
    "arri": 737,
    "arrival</w>": 738,
    "arrived</w>": 739,
    "ars,</w>": 740,
    "ars</w>": 741,
    "art": 742,
    "art,</w>": 743,
    "art</w>": 744,
    "arti": 745,
    "artic": 746,
    "ary": 747,
    "ary,</w>": 748,
    "ary.</w>": 749,
    "ary</w>": 750,
    "as": 751,
    "as,</w>": 752,
    "as.</w>": 753,
    "as</w>": 754,
    "ase</w>": 755,
    "ased</w>": 756,
    "ash": 757,
    "ash</w>": 758,
    "asha": 759,
    "ashamed</w>": 760,
    "ashed</w>": 761,
    "ashing</w>": 762,
    "asi": 763,
    "aside": 764,
    "aside</w>": 765,
    "asing</w>": 766,
    "ask": 767,
    "ask</w>": 768,
    "asked,</w>": 769,
    "asked.</w>": 770,
    "asked</w>": 771,
    "asking</w>": 772,
    "asle": 773,
    "asleep": 774,
    "aspe": 775,
    "ass": 776,
    "ass</w>": 777,
    "asse": 778,
    "assemb": 779,
    "assembl": 780,
    "asser": 781,
    "assi": 782,
    "assist": 783,
    "assistance</w>": 784,
    "associ": 785,
    "associated</w>": 786,
    "assu": 787,
    "assur": 788,
    "assure</w>": 789,
    "assured</w>": 790,
    "ast": 791,
    "ast,</w>": 792,
    "ast</w>": 793,
    "aston": 794,
    "astonish": 795,
    "at": 796,
    "at,</w>": 797,
    "at.</w>": 798,
    "at</w>": 799,
    "ate": 800,
    "ate,</w>": 801,
    "ate.</w>": 802,
    "ate</w>": 803,
    "ated,</w>": 804,
    "ated.</w>": 805,
    "ated</w>": 806,
    "ately</w>": 807,
    "ates</w>": 808,
    "ath": 809,
    "ath</w>": 810,
    "athan": 811,
    "athan</w>": 812,
    "ather": 813,
    "atho": 814,
    "athos,</w>": 815,
    "athos</w>": 816,
    "ati": 817,
    "atic</w>": 818,
    "ating</w>": 819,
    "ation": 820,
    "ation,</w>": 821,
    "ation.</w>": 822,
    "ation;</w>": 823,
    "ation</w>": 824,
    "ations,</w>": 825,
    "ations.</w>": 826,
    "ations</w>": 827,
    "ative</w>": 828,
    "ats,</w>": 829,
    "ats</w>": 830,
    "att": 831,
    "attac": 832,
    "attached</w>": 833,
    "attack</w>": 834,
    "attemp": 835,
    "attempt</w>": 836,
    "atten": 837,
    "attend": 838,
    "attend</w>": 839,
    "attended</w>": 840,
    "attention</w>": 841,
    "atter": 842,
    "attrac": 843,
    "au": 844,
    "audi": 845,
    "augu": 846,
    "aun": 847,
    "aunt</w>": 848,
    "auth": 849,
    "author": 850,
    "authority</w>": 851,
    "av": 852,
    "aven": 853,
    "aver": 854,
    "avo": 855,
    "avoid</w>": 856,
    "aw": 857,
    "awa": 858,
    "aware</w>": 859,
    "away,</w>": 860,
    "away.</w>": 861,
    "away;</w>": 862,
    "away</w>": 863,
    "awful</w>": 864,
    "ax": 865,
    "ay": 866,
    "ay,</w>": 867,
    "aye,</w>": 868,
    "az": 869,
    "a\u2019s</w>": 870,
    "b": 871,
    "b,</w>": 872,
    "b.</w>": 873,
    "b</w>": 874,
    "ba": 875,
    "bab": 876,
    "bac": 877,
    "back": 878,
    "back,</w>": 879,
    "back.</w>": 880,
    "back</w>": 881,
    "bad": 882,
    "bad</w>": 883,
    "bade</w>": 884,
    "badly</w>": 885,
    "bag": 886,
    "bal": 887,
    "ball": 888,
    "ball</w>": 889,
    "ban": 890,
    "band": 891,
    "bank": 892,
    "bap": 893,
    "bappren": 894,
    "bapti": 895,
    "bar": 896,
    "barack": 897,
    "barbar": 898,
    "bardol": 899,
    "bare</w>": 900,
    "barr": 901,
    "bart": 902,
    "bas": 903,
    "base</w>": 904,
    "based</w>": 905,
    "bastar": 906,
    "basti": 907,
    "bat": 908,
    "batt": 909,
    "battle</w>": 910,
    "baw": 911,
    "bb": 912,
    "bbing</w>": 913,
    "bc": 914,
    "bc</w>": 915,
    "be": 916,
    "be,</w>": 917,
    "be.</w>": 918,
    "be</w>": 919,
    "be]</w>": 920,
    "bear": 921,
    "bear</w>": 922,
    "bearing</w>": 923,
    "bears</w>": 924,
    "beast": 925,
    "beast</w>": 926,
    "beat": 927,
    "beat</w>": 928,
    "beatri": 929,
    "beau": 930,
    "beauti": 931,
    "beautiful</w>": 932,
    "beauty,</w>": 933,
    "beauty</w>": 934,
    "became</w>": 935,
    "because</w>": 936,
    "become</w>": 937,
    "becomes</w>": 938,
    "becoming</w>": 939,
    "bed": 940,
    "bed,</w>": 941,
    "bed.</w>": 942,
    "bed</w>": 943,
    "bee": 944,
    "been,</w>": 945,
    "been</w>": 946,
    "before": 947,
    "before,</w>": 948,
    "before.</w>": 949,
    "before</w>": 950,
    "beg": 951,
    "beg</w>": 952,
    "began</w>": 953,
    "begged</w>": 954,
    "begin": 955,
    "begin</w>": 956,
    "beginning</w>": 957,
    "begins</w>": 958,
    "begun</w>": 959,
    "beha": 960,
    "behavi": 961,
    "behaviour</w>": 962,
    "beheld</w>": 963,
    "behin": 964,
    "behind</w>": 965,
    "beho": 966,
    "behold,</w>": 967,
    "behold</w>": 968,
    "being</w>": 969,
    "bel": 970,
    "belie": 971,
    "believ": 972,
    "believe,</w>": 973,
    "believe</w>": 974,
    "believed</w>": 975,
    "bell": 976,
    "bell</w>": 977,
    "belong": 978,
    "beloved</w>": 979,
    "below": 980,
    "below.</w>": 981,
    "below</w>": 982,
    "ben": 983,
    "bene": 984,
    "benea": 985,
    "beneath</w>": 986,
    "benedi": 987,
    "benef": 988,
    "benefit</w>": 989,
    "benjam": 990,
    "benne": 991,
    "bennet</w>": 992,
    "bent</w>": 993,
    "ber": 994,
    "ber</w>": 995,
    "berow": 996,
    "berowne.</w>": 997,
    "bert</w>": 998,
    "bes": 999,
    "bes</w>": 1000,
    "besee": 1001,
    "beseech</w>": 1002,
    "beside</w>": 1003,
    "besides,</w>": 1004,
    "besides</w>": 1005,
    "best</w>": 1006,
    "bestow": 1007,
    "beth": 1008,
    "betra": 1009,
    "bett": 1010,
    "better": 1011,
    "better,</w>": 1012,
    "better.</w>": 1013,
    "better</w>": 1014,
    "betwe": 1015,
    "between</w>": 1016,
    "bey": 1017,
    "beyond</w>": 1018,
    "bi": 1019,
    "bid</w>": 1020,
    "biden</w>": 1021,
    "big</w>": 1022,
    "bigg": 1023,
    "bili": 1024,
    "bility</w>": 1025,
    "bill": 1026,
    "bill</w>": 1027,
    "billi": 1028,
    "bin": 1029,
    "bing": 1030,
    "bingle": 1031,
    "bingley</w>": 1032,
    "bir": 1033,
    "bird</w>": 1034,
    "birds</w>": 1035,
    "birth": 1036,
    "bis": 1037,
    "bit": 1038,
    "bit</w>": 1039,
    "bitter": 1040,
    "bitter</w>": 1041,
    "bl": 1042,
    "bla": 1043,
    "black": 1044,
    "black</w>": 1045,
    "blam": 1046,
    "blame</w>": 1047,
    "blan": 1048,
    "ble": 1049,
    "ble,</w>": 1050,
    "ble.</w>": 1051,
    "ble;</w>": 1052,
    "ble</w>": 1053,
    "bled</w>": 1054,
    "bles</w>": 1055,
    "bless": 1056,
    "bless</w>": 1057,
    "blessed</w>": 1058,
    "bli": 1059,
    "blin": 1060,
    "blind</w>": 1061,
    "bling</w>": 1062,
    "blo": 1063,
    "bloo": 1064,
    "blood": 1065,
    "blood,</w>": 1066,
    "blood.</w>": 1067,
    "blood</w>": 1068,
    "bloody</w>": 1069,
    "blow": 1070,
    "blow</w>": 1071,
    "blu": 1072,
    "blue</w>": 1073,
    "blus": 1074,
    "bly</w>": 1075,
    "bo": 1076,
    "boar": 1077,
    "board</w>": 1078,
    "boat": 1079,
    "boat,</w>": 1080,
    "boat</w>": 1081,
    "boats</w>": 1082,
    "bod": 1083,
    "bodi": 1084,
    "body,</w>": 1085,
    "body.</w>": 1086,
    "body</w>": 1087,
    "bol": 1088,
    "bold": 1089,
    "bold</w>": 1090,
    "boling": 1091,
    "bon": 1092,
    "bones</w>": 1093,
    "boo": 1094,
    "book": 1095,
    "book,</w>": 1096,
    "book.</w>": 1097,
    "book</w>": 1098,
    "books</w>": 1099,
    "bor": 1100,
    "border</w>": 1101,
    "bore</w>": 1102,
    "born</w>": 1103,
    "borne</w>": 1104,
    "bos": 1105,
    "bosom": 1106,
    "bosom</w>": 1107,
    "bot": 1108,
    "both,</w>": 1109,
    "both</w>": 1110,
    "bott": 1111,
    "bottom</w>": 1112,
    "bou": 1113,
    "bought</w>": 1114,
    "boun": 1115,
    "bound</w>": 1116,
    "bour": 1117,
    "bow": 1118,
    "bow</w>": 1119,
    "bowed</w>": 1120,
    "box": 1121,
    "box</w>": 1122,
    "boy": 1123,
    "boy,</w>": 1124,
    "boy.</w>": 1125,
    "boy</w>": 1126,
    "boys</w>": 1127,
    "br": 1128,
    "bra": 1129,
    "brain</w>": 1130,
    "bran": 1131,
    "brand": 1132,
    "brave</w>": 1133,
    "bre": 1134,
    "brea": 1135,
    "bread": 1136,
    "bread</w>": 1137,
    "break": 1138,
    "break</w>": 1139,
    "breaking</w>": 1140,
    "breast,</w>": 1141,
    "breast</w>": 1142,
    "breath": 1143,
    "breath,</w>": 1144,
    "breath</w>": 1145,
    "brethr": 1146,
    "brethren,</w>": 1147,
    "bri": 1148,
    "brief": 1149,
    "brief</w>": 1150,
    "bright": 1151,
    "bright</w>": 1152,
    "brilli": 1153,
    "bring</w>": 1154,
    "bringing</w>": 1155,
    "brit": 1156,
    "bro": 1157,
    "broad</w>": 1158,
    "broke</w>": 1159,
    "broken</w>": 1160,
    "broo": 1161,
    "brother": 1162,
    "brother,</w>": 1163,
    "brother.</w>": 1164,
    "brother</w>": 1165,
    "brother\u2019s</w>": 1166,
    "brought</w>": 1167,
    "brow": 1168,
    "brown</w>": 1169,
    "bru": 1170,
    "brut": 1171,
    "brutus.</w>": 1172,
    "bs": 1173,
    "bs,</w>": 1174,
    "bs</w>": 1175,
    "bu": 1176,
    "buck": 1177,
    "bucking": 1178,
    "buckingham.</w>": 1179,
    "bui": 1180,
    "build": 1181,
    "build</w>": 1182,
    "building</w>": 1183,
    "built</w>": 1184,
    "bul": 1185,
    "bull": 1186,
    "bulstro": 1187,
    "bun": 1188,
    "bur": 1189,
    "buried</w>": 1190,
    "burn": 1191,
    "burn</w>": 1192,
    "burning</w>": 1193,
    "burnt</w>": 1194,
    "burst</w>": 1195,
    "bury</w>": 1196,
    "bush</w>": 1197,
    "busin": 1198,
    "business": 1199,
    "business,</w>": 1200,
    "business.</w>": 1201,
    "business</w>": 1202,
    "busy</w>": 1203,
    "but": 1204,
    "but,</w>": 1205,
    "but</w>": 1206,
    "butt": 1207,
    "buy</w>": 1208,
    "by": 1209,
    "by,</w>": 1210,
    "by.</w>": 1211,
    "by:</w>": 1212,
    "by</w>": 1213,
    "c": 1214,
    "c,</w>": 1215,
    "c.</w>": 1216,
    "c</w>": 1217,
    "ca": 1218,
    "ca.</w>": 1219,
    "cab": 1220,
    "cad": 1221,
    "caderous": 1222,
    "caes": 1223,
    "caesar": 1224,
    "caesar.</w>": 1225,
    "caesar</w>": 1226,
    "cai": 1227,
    "cal": 1228,
    "cal</w>": 1229,
    "calcul": 1230,
    "cali": 1231,
    "call": 1232,
    "call</w>": 1233,
    "called</w>": 1234,
    "calling</w>": 1235,
    "calls</w>": 1236,
    "calm": 1237,
    "calm</w>": 1238,
    "cam": 1239,
    "came,</w>": 1240,
    "came</w>": 1241,
    "camill": 1242,
    "camp": 1243,
    "camp</w>": 1244,
    "campaign</w>": 1245,
    "can": 1246,
    "can't</w>": 1247,
    "can,</w>": 1248,
    "can</w>": 1249,
    "cand": 1250,
    "candid": 1251,
    "cannot</w>": 1252,
    "canst</w>": 1253,
    "can\u2019t</w>": 1254,
    "cap": 1255,
    "capable</w>": 1256,
    "capit": 1257,
    "captain": 1258,
    "captain,</w>": 1259,
    "captain</w>": 1260,
    "capu": 1261,
    "capulet.</w>": 1262,
    "car": 1263,
    "cardin": 1264,
    "cardinal</w>": 1265,
    "care": 1266,
    "care,</w>": 1267,
    "care</w>": 1268,
    "careful</w>": 1269,
    "carefully</w>": 1270,
    "carol": 1271,
    "carri": 1272,
    "carriage</w>": 1273,
    "carried</w>": 1274,
    "carry</w>": 1275,
    "carrying</w>": 1276,
    "cas": 1277,
    "casau": 1278,
    "casaub": 1279,
    "casaubon</w>": 1280,
    "case,</w>": 1281,
    "case</w>": 1282,
    "casi": 1283,
    "cassi": 1284,
    "cassius.</w>": 1285,
    "cast": 1286,
    "cast</w>": 1287,
    "castle</w>": 1288,
    "cat": 1289,
    "catch</w>": 1290,
    "cather": 1291,
    "catherine</w>": 1292,
    "cau": 1293,
    "caught</w>": 1294,
    "cause,</w>": 1295,
    "cause</w>": 1296,
    "caused</w>": 1297,
    "ce": 1298,
    "ce,</w>": 1299,
    "ce.</w>": 1300,
    "ce;</w>": 1301,
    "ce</w>": 1302,
    "cea": 1303,
    "ceased</w>": 1304,
    "ceci": 1305,
    "ced</w>": 1306,
    "cei": 1307,
    "cele": 1308,
    "celeba": 1309,
    "celebappren": 1310,
    "celebapprentice</w>": 1311,
    "celebr": 1312,
    "cell": 1313,
    "cely</w>": 1314,
    "cen": 1315,
    "cent": 1316,
    "cent</w>": 1317,
    "cep": 1318,
    "cept</w>": 1319,
    "ception</w>": 1320,
    "cer": 1321,
    "cerem": 1322,
    "certain": 1323,
    "certain</w>": 1324,
    "certainly</w>": 1325,
    "ces</w>": 1326,
    "cess": 1327,
    "ch": 1328,
    "ch,</w>": 1329,
    "ch.</w>": 1330,
    "ch;</w>": 1331,
    "ch</w>": 1332,
    "cha": 1333,
    "chair": 1334,
    "chair,</w>": 1335,
    "chair</w>": 1336,
    "chall": 1337,
    "cham": 1338,
    "chamber": 1339,
    "chamber,</w>": 1340,
    "chamber</w>": 1341,
    "champ": 1342,
    "champi": 1343,
    "chan": 1344,
    "chance</w>": 1345,
    "chang": 1346,
    "change": 1347,
    "change</w>": 1348,
    "changed</w>": 1349,
    "chap": 1350,
    "chapter</w>": 1351,
    "char": 1352,
    "charac": 1353,
    "character": 1354,
    "character,</w>": 1355,
    "character</w>": 1356,
    "charge</w>": 1357,
    "charged</w>": 1358,
    "chari": 1359,
    "chario": 1360,
    "charles</w>": 1361,
    "charlott": 1362,
    "charming</w>": 1363,
    "chast": 1364,
    "che": 1365,
    "check</w>": 1366,
    "ched</w>": 1367,
    "chee": 1368,
    "cheeks</w>": 1369,
    "cheer": 1370,
    "cher": 1371,
    "cheri": 1372,
    "ches,</w>": 1373,
    "ches</w>": 1374,
    "chi": 1375,
    "chic": 1376,
    "chief": 1377,
    "chief</w>": 1378,
    "child": 1379,
    "child,</w>": 1380,
    "child.</w>": 1381,
    "child</w>": 1382,
    "childr": 1383,
    "children": 1384,
    "children,</w>": 1385,
    "children</w>": 1386,
    "chim": 1387,
    "chin": 1388,
    "china</w>": 1389,
    "ching</w>": 1390,
    "cho": 1391,
    "choice</w>": 1392,
    "chol": 1393,
    "choo": 1394,
    "choose</w>": 1395,
    "chor": 1396,
    "chosen</w>": 1397,
    "chri": 1398,
    "christ": 1399,
    "christ</w>": 1400,
    "christi": 1401,
    "christian</w>": 1402,
    "chronic": 1403,
    "chronicles</w>": 1404,
    "chu": 1405,
    "chur": 1406,
    "church": 1407,
    "church,</w>": 1408,
    "church</w>": 1409,
    "ch\u00e2": 1410,
    "ch\u2019d</w>": 1411,
    "ci": 1412,
    "cian</w>": 1413,
    "cin": 1414,
    "cing</w>": 1415,
    "cip": 1416,
    "cir": 1417,
    "circ": 1418,
    "circum": 1419,
    "circumst": 1420,
    "circumstance</w>": 1421,
    "circumstances</w>": 1422,
    "cis": 1423,
    "cise</w>": 1424,
    "cit": 1425,
    "citi": 1426,
    "cities</w>": 1427,
    "citiz": 1428,
    "citizen": 1429,
    "citizen.</w>": 1430,
    "city,</w>": 1431,
    "city</w>": 1432,
    "civi": 1433,
    "civil</w>": 1434,
    "civili": 1435,
    "civill</w>": 1436,
    "ck": 1437,
    "ck,</w>": 1438,
    "ck.</w>": 1439,
    "ck;</w>": 1440,
    "ck</w>": 1441,
    "cke": 1442,
    "cked</w>": 1443,
    "cking</w>": 1444,
    "cks,</w>": 1445,
    "cks</w>": 1446,
    "cl": 1447,
    "cla": 1448,
    "clai": 1449,
    "claim</w>": 1450,
    "clam": 1451,
    "clar": 1452,
    "clas": 1453,
    "clau": 1454,
    "claudi": 1455,
    "claudio.</w>": 1456,
    "cle": 1457,
    "clean": 1458,
    "clean</w>": 1459,
    "clear": 1460,
    "clear</w>": 1461,
    "clearly</w>": 1462,
    "cleop": 1463,
    "cleopat": 1464,
    "cleopatra": 1465,
    "cleopatra.</w>": 1466,
    "cler": 1467,
    "clergy": 1468,
    "cli": 1469,
    "clif": 1470,
    "cliff": 1471,
    "clin": 1472,
    "clinton</w>": 1473,
    "clo": 1474,
    "close</w>": 1475,
    "closed</w>": 1476,
    "cloth": 1477,
    "clothes</w>": 1478,
    "clou": 1479,
    "cloud</w>": 1480,
    "clouds</w>": 1481,
    "clown.</w>": 1482,
    "clu": 1483,
    "cn": 1484,
    "cnn</w>": 1485,
    "co": 1486,
    "co/": 1487,
    "coach": 1488,
    "coat</w>": 1489,
    "cof": 1490,
    "col": 1491,
    "cold": 1492,
    "cold,</w>": 1493,
    "cold</w>": 1494,
    "coll": 1495,
    "collec": 1496,
    "collu": 1497,
    "colon": 1498,
    "colour</w>": 1499,
    "com": 1500,
    "comb": 1501,
    "come": 1502,
    "come,</w>": 1503,
    "come.</w>": 1504,
    "come</w>": 1505,
    "comes</w>": 1506,
    "cometh</w>": 1507,
    "comfor": 1508,
    "comfort</w>": 1509,
    "comfortable</w>": 1510,
    "coming</w>": 1511,
    "comm": 1512,
    "comman": 1513,
    "command": 1514,
    "command</w>": 1515,
    "commanded</w>": 1516,
    "commen": 1517,
    "commend</w>": 1518,
    "commis": 1519,
    "commit": 1520,
    "commit</w>": 1521,
    "committed</w>": 1522,
    "commo": 1523,
    "common": 1524,
    "common-": 1525,
    "common-weal": 1526,
    "common</w>": 1527,
    "commun": 1528,
    "communic": 1529,
    "comp": 1530,
    "compa": 1531,
    "compan": 1532,
    "compani": 1533,
    "companion</w>": 1534,
    "company,</w>": 1535,
    "company.</w>": 1536,
    "company</w>": 1537,
    "compe": 1538,
    "complain": 1539,
    "comple": 1540,
    "complete</w>": 1541,
    "completely</w>": 1542,
    "complexi": 1543,
    "compli": 1544,
    "comply</w>": 1545,
    "comprehen": 1546,
    "con": 1547,
    "conce": 1548,
    "conceal</w>": 1549,
    "concei": 1550,
    "concer": 1551,
    "concerning</w>": 1552,
    "conci": 1553,
    "conclu": 1554,
    "concluded</w>": 1555,
    "condem": 1556,
    "condi": 1557,
    "condition</w>": 1558,
    "conduc": 1559,
    "conduct</w>": 1560,
    "conf": 1561,
    "confer": 1562,
    "confess</w>": 1563,
    "confi": 1564,
    "confidence</w>": 1565,
    "confin": 1566,
    "confir": 1567,
    "confirmed</w>": 1568,
    "confu": 1569,
    "congrat": 1570,
    "congratul": 1571,
    "congratulations</w>": 1572,
    "congre": 1573,
    "congress": 1574,
    "congress</w>": 1575,
    "conjec": 1576,
    "conne": 1577,
    "connec": 1578,
    "conqu": 1579,
    "consci": 1580,
    "conscience</w>": 1581,
    "conscious</w>": 1582,
    "consent</w>": 1583,
    "consequ": 1584,
    "consequence</w>": 1585,
    "consi": 1586,
    "consider": 1587,
    "consider</w>": 1588,
    "considerable</w>": 1589,
    "considered</w>": 1590,
    "considering</w>": 1591,
    "consol": 1592,
    "const": 1593,
    "constant</w>": 1594,
    "constitu": 1595,
    "consu": 1596,
    "consul": 1597,
    "cont": 1598,
    "cont)</w>": 1599,
    "contact</w>": 1600,
    "containing</w>": 1601,
    "contem": 1602,
    "contemp": 1603,
    "contempl": 1604,
    "conten": 1605,
    "content</w>": 1606,
    "contents</w>": 1607,
    "contin": 1608,
    "continu": 1609,
    "continually</w>": 1610,
    "continue</w>": 1611,
    "continued</w>": 1612,
    "contr": 1613,
    "contra": 1614,
    "contrary,</w>": 1615,
    "contrary</w>": 1616,
    "contri": 1617,
    "contribu": 1618,
    "contro": 1619,
    "conve": 1620,
    "conven": 1621,
    "conveni": 1622,
    "conver": 1623,
    "convers": 1624,
    "conversation</w>": 1625,
    "convic": 1626,
    "convinc": 1627,
    "convinced</w>": 1628,
    "coo": 1629,
    "cool": 1630,
    "cool</w>": 1631,
    "cop": 1632,
    "copi": 1633,
    "copies</w>": 1634,
    "copy": 1635,
    "copy</w>": 1636,
    "copyright</w>": 1637,
    "cor": 1638,
    "cori": 1639,
    "corin": 1640,
    "corinthi": 1641,
    "corinthians</w>": 1642,
    "coriol": 1643,
    "coriolan": 1644,
    "coriolanus.</w>": 1645,
    "corn": 1646,
    "corner</w>": 1647,
    "corp": 1648,
    "correc": 1649,
    "correspon": 1650,
    "corrup": 1651,
    "corrupt</w>": 1652,
    "cost</w>": 1653,
    "cott": 1654,
    "cou": 1655,
    "could": 1656,
    "could</w>": 1657,
    "couldn\u2019t</w>": 1658,
    "coun": 1659,
    "counci": 1660,
    "counsel": 1661,
    "counsel</w>": 1662,
    "count": 1663,
    "count,</w>": 1664,
    "count</w>": 1665,
    "counten": 1666,
    "countenance</w>": 1667,
    "counter": 1668,
    "countr": 1669,
    "countri": 1670,
    "countries</w>": 1671,
    "country": 1672,
    "country,</w>": 1673,
    "country.</w>": 1674,
    "country</w>": 1675,
    "couple</w>": 1676,
    "cour": 1677,
    "courage</w>": 1678,
    "course,</w>": 1679,
    "course</w>": 1680,
    "court,</w>": 1681,
    "court</w>": 1682,
    "courtes": 1683,
    "cous": 1684,
    "cousin": 1685,
    "cousin,</w>": 1686,
    "cousin</w>": 1687,
    "coven": 1688,
    "cover": 1689,
    "cover</w>": 1690,
    "covered</w>": 1691,
    "cow": 1692,
    "cowar": 1693,
    "cr": 1694,
    "cra": 1695,
    "cran": 1696,
    "craz": 1697,
    "cre": 1698,
    "creat": 1699,
    "create</w>": 1700,
    "created</w>": 1701,
    "creating</w>": 1702,
    "creature": 1703,
    "creature</w>": 1704,
    "creatures</w>": 1705,
    "credi": 1706,
    "credit</w>": 1707,
    "cressi": 1708,
    "cressida.</w>": 1709,
    "cri": 1710,
    "cried,</w>": 1711,
    "cried</w>": 1712,
    "cries</w>": 1713,
    "crime,</w>": 1714,
    "crime</w>": 1715,
    "crimin": 1716,
    "cris": 1717,
    "cristo": 1718,
    "cristo</w>": 1719,
    "cro": 1720,
    "croo": 1721,
    "crooked</w>": 1722,
    "cros": 1723,
    "cross</w>": 1724,
    "crossed</w>": 1725,
    "crow": 1726,
    "crowd</w>": 1727,
    "crown</w>": 1728,
    "cru": 1729,
    "cruel</w>": 1730,
    "crus": 1731,
    "cry": 1732,
    "cry</w>": 1733,
    "crying</w>": 1734,
    "ct</w>": 1735,
    "cted</w>": 1736,
    "cu": 1737,
    "cul": 1738,
    "cun": 1739,
    "cunning</w>": 1740,
    "cup": 1741,
    "cup</w>": 1742,
    "cur": 1743,
    "curio": 1744,
    "curiosity</w>": 1745,
    "curious</w>": 1746,
    "curse</w>": 1747,
    "cursed</w>": 1748,
    "cus": 1749,
    "cus.</w>": 1750,
    "cus</w>": 1751,
    "custo": 1752,
    "cut</w>": 1753,
    "cy": 1754,
    "cy,</w>": 1755,
    "cy</w>": 1756,
    "d": 1757,
    "d!</w>": 1758,
    "d,</w>": 1759,
    "d,\u201d</w>": 1760,
    "d-": 1761,
    "d.</w>": 1762,
    "d.\u201d</w>": 1763,
    "d:</w>": 1764,
    "d;</w>": 1765,
    "d</w>": 1766,
    "d?</w>": 1767,
    "da": 1768,
    "da.</w>": 1769,
    "dag": 1770,
    "dai": 1771,
    "daily</w>": 1772,
    "dal": 1773,
    "dam": 1774,
    "dan": 1775,
    "dan</w>": 1776,
    "dance</w>": 1777,
    "dang": 1778,
    "danger": 1779,
    "danger</w>": 1780,
    "dangerous</w>": 1781,
    "danglar": 1782,
    "danglars</w>": 1783,
    "dani": 1784,
    "daniel</w>": 1785,
    "dant": 1786,
    "dant\u00e8": 1787,
    "dant\u00e8s</w>": 1788,
    "dar": 1789,
    "darcy</w>": 1790,
    "dare</w>": 1791,
    "dared</w>": 1792,
    "dark": 1793,
    "dark,</w>": 1794,
    "dark</w>": 1795,
    "darkness</w>": 1796,
    "dat": 1797,
    "date</w>": 1798,
    "daugh": 1799,
    "daughter": 1800,
    "daughter,</w>": 1801,
    "daughter.</w>": 1802,
    "daughter</w>": 1803,
    "daughters</w>": 1804,
    "davi": 1805,
    "david</w>": 1806,
    "day": 1807,
    "day!</w>": 1808,
    "day,</w>": 1809,
    "day.</w>": 1810,
    "day;</w>": 1811,
    "day</w>": 1812,
    "days,</w>": 1813,
    "days.</w>": 1814,
    "days</w>": 1815,
    "dd": 1816,
    "dden": 1817,
    "dden</w>": 1818,
    "dding</w>": 1819,
    "ddy</w>": 1820,
    "de": 1821,
    "de,</w>": 1822,
    "de.</w>": 1823,
    "de;</w>": 1824,
    "de</w>": 1825,
    "dea": 1826,
    "dead": 1827,
    "dead,</w>": 1828,
    "dead.</w>": 1829,
    "dead</w>": 1830,
    "deadly</w>": 1831,
    "deal": 1832,
    "deal</w>": 1833,
    "dear": 1834,
    "dear,</w>": 1835,
    "dear</w>": 1836,
    "dearest</w>": 1837,
    "death": 1838,
    "death,</w>": 1839,
    "death.</w>": 1840,
    "death</w>": 1841,
    "deb": 1842,
    "debate</w>": 1843,
    "debt</w>": 1844,
    "deca": 1845,
    "dece": 1846,
    "decei": 1847,
    "deci": 1848,
    "decided</w>": 1849,
    "decl": 1850,
    "decla": 1851,
    "declare</w>": 1852,
    "declared</w>": 1853,
    "decre": 1854,
    "ded,</w>": 1855,
    "ded.</w>": 1856,
    "ded</w>": 1857,
    "deed</w>": 1858,
    "deep": 1859,
    "deep</w>": 1860,
    "deeply</w>": 1861,
    "def": 1862,
    "defec": 1863,
    "defend</w>": 1864,
    "defi": 1865,
    "defin": 1866,
    "degre": 1867,
    "degree</w>": 1868,
    "dela": 1869,
    "deli": 1870,
    "deliber": 1871,
    "delic": 1872,
    "delicate</w>": 1873,
    "delight": 1874,
    "delight</w>": 1875,
    "delighted</w>": 1876,
    "delightful</w>": 1877,
    "deliver": 1878,
    "deliver</w>": 1879,
    "delivered</w>": 1880,
    "dem": 1881,
    "deman": 1882,
    "demand</w>": 1883,
    "demanded</w>": 1884,
    "demetri": 1885,
    "demo": 1886,
    "democr": 1887,
    "democrat</w>": 1888,
    "democrats</w>": 1889,
    "demoisell": 1890,
    "demon": 1891,
    "dems</w>": 1892,
    "den": 1893,
    "den,</w>": 1894,
    "den</w>": 1895,
    "dence,</w>": 1896,
    "dence</w>": 1897,
    "dent": 1898,
    "dent,</w>": 1899,
    "dent.</w>": 1900,
    "dent</w>": 1901,
    "denti": 1902,
    "dential</w>": 1903,
    "dently</w>": 1904,
    "deny</w>": 1905,
    "dep": 1906,
    "depar": 1907,
    "departed</w>": 1908,
    "depen": 1909,
    "der": 1910,
    "der,</w>": 1911,
    "der.</w>": 1912,
    "der</w>": 1913,
    "dered</w>": 1914,
    "deri": 1915,
    "dering</w>": 1916,
    "ders,</w>": 1917,
    "ders</w>": 1918,
    "des": 1919,
    "des,</w>": 1920,
    "des</w>": 1921,
    "desc": 1922,
    "descen": 1923,
    "descri": 1924,
    "described</w>": 1925,
    "descrip": 1926,
    "desdemon": 1927,
    "desdemona.</w>": 1928,
    "deser": 1929,
    "deserve</w>": 1930,
    "desi": 1931,
    "design": 1932,
    "desir": 1933,
    "desire</w>": 1934,
    "desired</w>": 1935,
    "desol": 1936,
    "desp": 1937,
    "despair</w>": 1938,
    "desper": 1939,
    "desperate</w>": 1940,
    "despite</w>": 1941,
    "dest": 1942,
    "dest</w>": 1943,
    "destin": 1944,
    "destro": 1945,
    "destroy</w>": 1946,
    "destroyed</w>": 1947,
    "destruc": 1948,
    "detai": 1949,
    "dete": 1950,
    "deter": 1951,
    "determin": 1952,
    "determined</w>": 1953,
    "deth</w>": 1954,
    "deu": 1955,
    "deuter": 1956,
    "deuteron": 1957,
    "deuteronomy</w>": 1958,
    "dev": 1959,
    "develo": 1960,
    "devi": 1961,
    "devil": 1962,
    "devil</w>": 1963,
    "devo": 1964,
    "devoted</w>": 1965,
    "dg": 1966,
    "dge": 1967,
    "dge,</w>": 1968,
    "dge</w>": 1969,
    "di": 1970,
    "di</w>": 1971,
    "diam": 1972,
    "dian": 1973,
    "dic": 1974,
    "did": 1975,
    "did,</w>": 1976,
    "did.</w>": 1977,
    "did</w>": 1978,
    "didn't</w>": 1979,
    "didn\u2019t</w>": 1980,
    "didst</w>": 1981,
    "die,</w>": 1982,
    "die.</w>": 1983,
    "die</w>": 1984,
    "died</w>": 1985,
    "dies</w>": 1986,
    "diff": 1987,
    "differ": 1988,
    "difference</w>": 1989,
    "different</w>": 1990,
    "diffic": 1991,
    "difficul": 1992,
    "difficult</w>": 1993,
    "difficulty</w>": 1994,
    "dign": 1995,
    "dignity</w>": 1996,
    "dim</w>": 1997,
    "din": 1998,
    "ding</w>": 1999,
    "dinn": 2000,
    "dinner</w>": 2001,
    "diom": 2002,
    "dious</w>": 2003,
    "dir": 2004,
    "direc": 2005,
    "direct</w>": 2006,
    "directed</w>": 2007,
    "direction</w>": 2008,
    "directly</w>": 2009,
    "dis": 2010,
    "disa": 2011,
    "disap": 2012,
    "disappe": 2013,
    "disappoint": 2014,
    "disc": 2015,
    "disci": 2016,
    "discipl": 2017,
    "disclai": 2018,
    "discour": 2019,
    "discover": 2020,
    "discover</w>": 2021,
    "discovered</w>": 2022,
    "discre": 2023,
    "discus": 2024,
    "disda": 2025,
    "disgrac": 2026,
    "disgu": 2027,
    "dish": 2028,
    "dish</w>": 2029,
    "dishon": 2030,
    "disp": 2031,
    "displa": 2032,
    "disple": 2033,
    "disposed</w>": 2034,
    "disposition</w>": 2035,
    "dist": 2036,
    "distance</w>": 2037,
    "distant</w>": 2038,
    "distinc": 2039,
    "distingu": 2040,
    "distr": 2041,
    "distres": 2042,
    "distri": 2043,
    "distribu": 2044,
    "distribute</w>": 2045,
    "distributing</w>": 2046,
    "distribution</w>": 2047,
    "distur": 2048,
    "dit": 2049,
    "div": 2050,
    "diver": 2051,
    "divi": 2052,
    "divided</w>": 2053,
    "divin": 2054,
    "divine</w>": 2055,
    "dly,</w>": 2056,
    "dly</w>": 2057,
    "dmit": 2058,
    "dmitri</w>": 2059,
    "dness</w>": 2060,
    "do": 2061,
    "do,</w>": 2062,
    "do.</w>": 2063,
    "do</w>": 2064,
    "doc": 2065,
    "doctor,</w>": 2066,
    "doctor</w>": 2067,
    "doctr": 2068,
    "does": 2069,
    "does</w>": 2070,
    "doesn't</w>": 2071,
    "doesn\u2019t</w>": 2072,
    "dog": 2073,
    "dog</w>": 2074,
    "doing</w>": 2075,
    "dol": 2076,
    "doll": 2077,
    "dollars</w>": 2078,
    "dom": 2079,
    "dom</w>": 2080,
    "don": 2081,
    "don't</w>": 2082,
    "don</w>": 2083,
    "donal": 2084,
    "donald": 2085,
    "donald</w>": 2086,
    "donations</w>": 2087,
    "done,</w>": 2088,
    "done.</w>": 2089,
    "done</w>": 2090,
    "don\u2019t</w>": 2091,
    "door": 2092,
    "door,</w>": 2093,
    "door.</w>": 2094,
    "door</w>": 2095,
    "doors</w>": 2096,
    "dor": 2097,
    "dori": 2098,
    "dorian</w>": 2099,
    "dorothe": 2100,
    "dorothea</w>": 2101,
    "dost</w>": 2102,
    "doth</w>": 2103,
    "dou": 2104,
    "doub": 2105,
    "double</w>": 2106,
    "doubt": 2107,
    "doubt,</w>": 2108,
    "doubt</w>": 2109,
    "doun": 2110,
    "dow": 2111,
    "dow</w>": 2112,
    "down": 2113,
    "down,</w>": 2114,
    "down.</w>": 2115,
    "down</w>": 2116,
    "dozen</w>": 2117,
    "dr": 2118,
    "dr.</w>": 2119,
    "dra": 2120,
    "drag": 2121,
    "dram": 2122,
    "draw": 2123,
    "draw</w>": 2124,
    "drawing</w>": 2125,
    "drawn</w>": 2126,
    "dre": 2127,
    "dread": 2128,
    "dread</w>": 2129,
    "dreadful</w>": 2130,
    "dream": 2131,
    "dream</w>": 2132,
    "dreams</w>": 2133,
    "dred</w>": 2134,
    "dres": 2135,
    "dress</w>": 2136,
    "dressed</w>": 2137,
    "drew</w>": 2138,
    "dri": 2139,
    "drin": 2140,
    "drink</w>": 2141,
    "drive</w>": 2142,
    "driven</w>": 2143,
    "dro": 2144,
    "dromi": 2145,
    "dromio</w>": 2146,
    "drop</w>": 2147,
    "dropped</w>": 2148,
    "drops</w>": 2149,
    "drove</w>": 2150,
    "drow": 2151,
    "dru": 2152,
    "drum": 2153,
    "drun": 2154,
    "drunk</w>": 2155,
    "dry</w>": 2156,
    "ds,</w>": 2157,
    "ds.</w>": 2158,
    "ds</w>": 2159,
    "du": 2160,
    "duc": 2161,
    "duce</w>": 2162,
    "duced</w>": 2163,
    "duche": 2164,
    "duct</w>": 2165,
    "due</w>": 2166,
    "duke": 2167,
    "duke.</w>": 2168,
    "duke</w>": 2169,
    "dul": 2170,
    "dull</w>": 2171,
    "dum": 2172,
    "dumb</w>": 2173,
    "dun": 2174,
    "dur": 2175,
    "during</w>": 2176,
    "dust</w>": 2177,
    "duty</w>": 2178,
    "dwe": 2179,
    "dwell": 2180,
    "dwell</w>": 2181,
    "dwelt</w>": 2182,
    "dy": 2183,
    "dy</w>": 2184,
    "dya": 2185,
    "dyakov": 2186,
    "dying</w>": 2187,
    "d\u2014": 2188,
    "d\u2019": 2189,
    "d\u2019art": 2190,
    "d\u2019artagn": 2191,
    "d\u2019artagnan,</w>": 2192,
    "d\u2019artagnan</w>": 2193,
    "d\u2019s</w>": 2194,
    "e": 2195,
    "e!</w>": 2196,
    "e!\u201d</w>": 2197,
    "e,</w>": 2198,
    "e,\u201d</w>": 2199,
    "e-": 2200,
    "e.": 2201,
    "e.</w>": 2202,
    "e.\u201d</w>": 2203,
    "e:</w>": 2204,
    "e;</w>": 2205,
    "e</w>": 2206,
    "e?</w>": 2207,
    "e?\u201d</w>": 2208,
    "e]</w>": 2209,
    "ea": 2210,
    "each</w>": 2211,
    "eag": 2212,
    "eager": 2213,
    "eager</w>": 2214,
    "ear": 2215,
    "ear</w>": 2216,
    "earl</w>": 2217,
    "earli": 2218,
    "early</w>": 2219,
    "earn": 2220,
    "earne": 2221,
    "ears</w>": 2222,
    "earth": 2223,
    "earth,</w>": 2224,
    "earth.</w>": 2225,
    "earth</w>": 2226,
    "earthly</w>": 2227,
    "eas": 2228,
    "ease</w>": 2229,
    "easi": 2230,
    "easily</w>": 2231,
    "east</w>": 2232,
    "easy</w>": 2233,
    "eat": 2234,
    "eat</w>": 2235,
    "ebook</w>": 2236,
    "ebooks</w>": 2237,
    "ec": 2238,
    "eccl": 2239,
    "ecclesi": 2240,
    "ecclesiast": 2241,
    "econ": 2242,
    "econom": 2243,
    "economy</w>": 2244,
    "ed": 2245,
    "ed!</w>": 2246,
    "ed,</w>": 2247,
    "ed.</w>": 2248,
    "ed.\u201d</w>": 2249,
    "ed:</w>": 2250,
    "ed;</w>": 2251,
    "ed</w>": 2252,
    "ed?</w>": 2253,
    "eded</w>": 2254,
    "edge</w>": 2255,
    "edi": 2256,
    "eding</w>": 2257,
    "edmon": 2258,
    "eds</w>": 2259,
    "educ": 2260,
    "edward.</w>": 2261,
    "edward</w>": 2262,
    "edy</w>": 2263,
    "ee": 2264,
    "ef": 2265,
    "ef</w>": 2266,
    "effec": 2267,
    "effect</w>": 2268,
    "effor": 2269,
    "effort</w>": 2270,
    "efforts</w>": 2271,
    "eful</w>": 2272,
    "eg": 2273,
    "ege</w>": 2274,
    "egy": 2275,
    "egyp": 2276,
    "eh": 2277,
    "ei": 2278,
    "eigh": 2279,
    "eight</w>": 2280,
    "either</w>": 2281,
    "el": 2282,
    "el,</w>": 2283,
    "el.</w>": 2284,
    "el</w>": 2285,
    "eld</w>": 2286,
    "elder</w>": 2287,
    "ele": 2288,
    "elec": 2289,
    "election</w>": 2290,
    "electron": 2291,
    "electronic</w>": 2292,
    "eleg": 2293,
    "elev": 2294,
    "eli": 2295,
    "eliza": 2296,
    "elizabe": 2297,
    "elizabeth,</w>": 2298,
    "elizabeth.</w>": 2299,
    "elizabeth</w>": 2300,
    "ell": 2301,
    "elo": 2302,
    "els</w>": 2303,
    "else": 2304,
    "else,</w>": 2305,
    "else.</w>": 2306,
    "else</w>": 2307,
    "ely,</w>": 2308,
    "ely.</w>": 2309,
    "ely</w>": 2310,
    "em": 2311,
    "em,</w>": 2312,
    "em.</w>": 2313,
    "em</w>": 2314,
    "embar": 2315,
    "embarras": 2316,
    "embr": 2317,
    "embrac": 2318,
    "emed</w>": 2319,
    "ement,</w>": 2320,
    "ement.</w>": 2321,
    "ement</w>": 2322,
    "emer": 2323,
    "emi": 2324,
    "emilia.</w>": 2325,
    "emin": 2326,
    "emo": 2327,
    "emp": 2328,
    "emper": 2329,
    "emplo": 2330,
    "employ": 2331,
    "employed</w>": 2332,
    "empty</w>": 2333,
    "en": 2334,
    "en,</w>": 2335,
    "en.</w>": 2336,
    "en;</w>": 2337,
    "en</w>": 2338,
    "enc": 2339,
    "ence": 2340,
    "ence,</w>": 2341,
    "ence.</w>": 2342,
    "ence;</w>": 2343,
    "ence</w>": 2344,
    "enced</w>": 2345,
    "ences</w>": 2346,
    "encour": 2347,
    "ency</w>": 2348,
    "end": 2349,
    "end,</w>": 2350,
    "end.</w>": 2351,
    "end</w>": 2352,
    "ende": 2353,
    "endeav": 2354,
    "endeavoured</w>": 2355,
    "ended</w>": 2356,
    "ending</w>": 2357,
    "endor": 2358,
    "endorse": 2359,
    "endorsement!</w>": 2360,
    "endous</w>": 2361,
    "ends</w>": 2362,
    "endu": 2363,
    "endure</w>": 2364,
    "ene": 2365,
    "ened</w>": 2366,
    "enem": 2367,
    "enemi": 2368,
    "enemies</w>": 2369,
    "enemy</w>": 2370,
    "ener": 2371,
    "energ": 2372,
    "energy</w>": 2373,
    "eness</w>": 2374,
    "eng": 2375,
    "engag": 2376,
    "engaged</w>": 2377,
    "england": 2378,
    "england,</w>": 2379,
    "england</w>": 2380,
    "english": 2381,
    "english</w>": 2382,
    "ength</w>": 2383,
    "ening</w>": 2384,
    "enjo": 2385,
    "enjoy": 2386,
    "enjoy</w>": 2387,
    "enjoyed</w>": 2388,
    "enob": 2389,
    "enobarbu": 2390,
    "enough": 2391,
    "enough,</w>": 2392,
    "enough.</w>": 2393,
    "enough</w>": 2394,
    "ens</w>": 2395,
    "ense</w>": 2396,
    "ent": 2397,
    "ent,</w>": 2398,
    "ent.</w>": 2399,
    "ent;</w>": 2400,
    "ent</w>": 2401,
    "ented</w>": 2402,
    "enter": 2403,
    "enter</w>": 2404,
    "entered</w>": 2405,
    "entering</w>": 2406,
    "entertain": 2407,
    "enthu": 2408,
    "enthusi": 2409,
    "enthusias": 2410,
    "enti": 2411,
    "entire</w>": 2412,
    "entirely</w>": 2413,
    "ently,</w>": 2414,
    "ently</w>": 2415,
    "entr": 2416,
    "entre": 2417,
    "entreat</w>": 2418,
    "entrepr": 2419,
    "ents,</w>": 2420,
    "ents.</w>": 2421,
    "ents</w>": 2422,
    "enz": 2423,
    "ep": 2424,
    "ep</w>": 2425,
    "eper": 2426,
    "eph": 2427,
    "ephe": 2428,
    "ephesus.</w>": 2429,
    "epi": 2430,
    "equ": 2431,
    "equal</w>": 2432,
    "equally</w>": 2433,
    "equi": 2434,
    "er": 2435,
    "er,</w>": 2436,
    "er.</w>": 2437,
    "er:</w>": 2438,
    "er;</w>": 2439,
    "er</w>": 2440,
    "ere</w>": 2441,
    "ered</w>": 2442,
    "eri": 2443,
    "eric": 2444,
    "ering</w>": 2445,
    "ern": 2446,
    "erous": 2447,
    "err": 2448,
    "ers,</w>": 2449,
    "ers.</w>": 2450,
    "ers</w>": 2451,
    "ery</w>": 2452,
    "er\u2019s</w>": 2453,
    "es": 2454,
    "es!</w>": 2455,
    "es,</w>": 2456,
    "es.</w>": 2457,
    "es.\u201d</w>": 2458,
    "es:</w>": 2459,
    "es;</w>": 2460,
    "es</w>": 2461,
    "es?</w>": 2462,
    "esca": 2463,
    "escap": 2464,
    "escape</w>": 2465,
    "escaped</w>": 2466,
    "ese</w>": 2467,
    "esi": 2468,
    "esom": 2469,
    "esome</w>": 2470,
    "espe": 2471,
    "especi": 2472,
    "especially</w>": 2473,
    "ess": 2474,
    "ess,</w>": 2475,
    "ess.</w>": 2476,
    "ess;</w>": 2477,
    "ess</w>": 2478,
    "essed</w>": 2479,
    "ession</w>": 2480,
    "est": 2481,
    "est,</w>": 2482,
    "est</w>": 2483,
    "estab": 2484,
    "establi": 2485,
    "este": 2486,
    "es\u2014": 2487,
    "es\u2019</w>": 2488,
    "et": 2489,
    "et,</w>": 2490,
    "et.</w>": 2491,
    "et</w>": 2492,
    "etern": 2493,
    "eternal</w>": 2494,
    "eth</w>": 2495,
    "etr": 2496,
    "ets</w>": 2497,
    "ett": 2498,
    "ety</w>": 2499,
    "eu": 2500,
    "eun": 2501,
    "eur": 2502,
    "eur</w>": 2503,
    "euro": 2504,
    "ev": 2505,
    "eve</w>": 2506,
    "even": 2507,
    "even</w>": 2508,
    "even]</w>": 2509,
    "evening,</w>": 2510,
    "evening</w>": 2511,
    "event</w>": 2512,
    "events</w>": 2513,
    "ever": 2514,
    "ever,</w>": 2515,
    "ever.</w>": 2516,
    "ever</w>": 2517,
    "every": 2518,
    "every</w>": 2519,
    "everybody</w>": 2520,
    "everyone</w>": 2521,
    "everything</w>": 2522,
    "evi": 2523,
    "evidence</w>": 2524,
    "evidently</w>": 2525,
    "evil</w>": 2526,
    "evol": 2527,
    "ex": 2528,
    "exac": 2529,
    "exactly</w>": 2530,
    "exam": 2531,
    "examin": 2532,
    "exc": 2533,
    "exce": 2534,
    "exceed": 2535,
    "excell": 2536,
    "excellent</w>": 2537,
    "excep": 2538,
    "except</w>": 2539,
    "excit": 2540,
    "excited</w>": 2541,
    "exclai": 2542,
    "exclaimed</w>": 2543,
    "exclu": 2544,
    "excuse</w>": 2545,
    "exec": 2546,
    "execu": 2547,
    "exer": 2548,
    "exhau": 2549,
    "exhi": 2550,
    "exi": 2551,
    "exist": 2552,
    "exod": 2553,
    "exodus</w>": 2554,
    "exp": 2555,
    "expe": 2556,
    "expec": 2557,
    "expect": 2558,
    "expect</w>": 2559,
    "expected</w>": 2560,
    "expedi": 2561,
    "expen": 2562,
    "exper": 2563,
    "experi": 2564,
    "experience</w>": 2565,
    "explain</w>": 2566,
    "explained</w>": 2567,
    "explan": 2568,
    "expres": 2569,
    "express</w>": 2570,
    "expressed</w>": 2571,
    "expression</w>": 2572,
    "ext": 2573,
    "exten": 2574,
    "extr": 2575,
    "extra": 2576,
    "extraordinary</w>": 2577,
    "extre": 2578,
    "extreme</w>": 2579,
    "extremely</w>": 2580,
    "ey": 2581,
    "ey</w>": 2582,
    "eye": 2583,
    "eye,</w>": 2584,
    "eye</w>": 2585,
    "eyes,</w>": 2586,
    "eyes.</w>": 2587,
    "eyes</w>": 2588,
    "ez": 2589,
    "ezeki": 2590,
    "ezekiel</w>": 2591,
    "ezra</w>": 2592,
    "e\u2014": 2593,
    "e\u2019er</w>": 2594,
    "e\u2019s</w>": 2595,
    "f": 2596,
    "f,</w>": 2597,
    "f.</w>": 2598,
    "f</w>": 2599,
    "fa": 2600,
    "fac": 2601,
    "face,</w>": 2602,
    "face.</w>": 2603,
    "face</w>": 2604,
    "faces</w>": 2605,
    "fact,</w>": 2606,
    "fact</w>": 2607,
    "fai": 2608,
    "fail</w>": 2609,
    "failed</w>": 2610,
    "failing</w>": 2611,
    "fain": 2612,
    "fain</w>": 2613,
    "faint</w>": 2614,
    "fair": 2615,
    "fair,</w>": 2616,
    "fair</w>": 2617,
    "fairly</w>": 2618,
    "faith": 2619,
    "faith,</w>": 2620,
    "faith</w>": 2621,
    "faithful</w>": 2622,
    "fake</w>": 2623,
    "fal": 2624,
    "fall": 2625,
    "fall</w>": 2626,
    "fallen</w>": 2627,
    "falling</w>": 2628,
    "false</w>": 2629,
    "falstaff": 2630,
    "falstaff.</w>": 2631,
    "fam": 2632,
    "fami": 2633,
    "famili": 2634,
    "familiar</w>": 2635,
    "families</w>": 2636,
    "family,</w>": 2637,
    "family</w>": 2638,
    "famous</w>": 2639,
    "fan": 2640,
    "fanc": 2641,
    "fanci": 2642,
    "fancy</w>": 2643,
    "fantast": 2644,
    "fantastic</w>": 2645,
    "far": 2646,
    "far</w>": 2647,
    "fare": 2648,
    "fare</w>": 2649,
    "farewell,</w>": 2650,
    "fas": 2651,
    "fashi": 2652,
    "fast": 2653,
    "fast,</w>": 2654,
    "fast</w>": 2655,
    "fat": 2656,
    "fat</w>": 2657,
    "fatal</w>": 2658,
    "fate</w>": 2659,
    "father": 2660,
    "father,</w>": 2661,
    "father.</w>": 2662,
    "father</w>": 2663,
    "fathers</w>": 2664,
    "father\u2019s</w>": 2665,
    "fathom": 2666,
    "fati": 2667,
    "faul": 2668,
    "fault</w>": 2669,
    "fav": 2670,
    "favor": 2671,
    "favour": 2672,
    "favour</w>": 2673,
    "fb": 2674,
    "fe": 2675,
    "fe,</w>": 2676,
    "fe</w>": 2677,
    "fear": 2678,
    "fear,</w>": 2679,
    "fear</w>": 2680,
    "feared</w>": 2681,
    "fearful</w>": 2682,
    "fears</w>": 2683,
    "feast</w>": 2684,
    "feat": 2685,
    "feather": 2686,
    "fec": 2687,
    "fect</w>": 2688,
    "fed</w>": 2689,
    "feder": 2690,
    "federal</w>": 2691,
    "fee": 2692,
    "fee</w>": 2693,
    "feed</w>": 2694,
    "feel": 2695,
    "feel</w>": 2696,
    "feeling</w>": 2697,
    "feelings</w>": 2698,
    "feet,</w>": 2699,
    "feet</w>": 2700,
    "fell</w>": 2701,
    "fellow": 2702,
    "fellow,</w>": 2703,
    "fellow-": 2704,
    "fellow</w>": 2705,
    "fellows</w>": 2706,
    "felt</w>": 2707,
    "fer": 2708,
    "fer</w>": 2709,
    "fetch</w>": 2710,
    "few</w>": 2711,
    "ff": 2712,
    "ff.</w>": 2713,
    "ff</w>": 2714,
    "ffer": 2715,
    "fi": 2716,
    "fic": 2717,
    "fic</w>": 2718,
    "fication</w>": 2719,
    "fied</w>": 2720,
    "fiel": 2721,
    "field,</w>": 2722,
    "field.</w>": 2723,
    "field</w>": 2724,
    "fields</w>": 2725,
    "fier": 2726,
    "fierce</w>": 2727,
    "fif": 2728,
    "fifteen</w>": 2729,
    "fifty</w>": 2730,
    "fig": 2731,
    "fight": 2732,
    "fight</w>": 2733,
    "fighting</w>": 2734,
    "figu": 2735,
    "figure</w>": 2736,
    "fil": 2737,
    "fill": 2738,
    "fill</w>": 2739,
    "filled</w>": 2740,
    "fin": 2741,
    "final</w>": 2742,
    "finally</w>": 2743,
    "find</w>": 2744,
    "finding</w>": 2745,
    "fine</w>": 2746,
    "fing": 2747,
    "finger</w>": 2748,
    "fingers</w>": 2749,
    "finished</w>": 2750,
    "fir": 2751,
    "fire": 2752,
    "fire,</w>": 2753,
    "fire.</w>": 2754,
    "fire</w>": 2755,
    "firm": 2756,
    "firm</w>": 2757,
    "first": 2758,
    "first,</w>": 2759,
    "first.</w>": 2760,
    "first</w>": 2761,
    "fis": 2762,
    "fish": 2763,
    "fish</w>": 2764,
    "fisher": 2765,
    "fit": 2766,
    "fit</w>": 2767,
    "fitz": 2768,
    "five</w>": 2769,
    "fix": 2770,
    "fix</w>": 2771,
    "fixed</w>": 2772,
    "fl": 2773,
    "fla": 2774,
    "flam": 2775,
    "flat": 2776,
    "flatter": 2777,
    "fle": 2778,
    "fled</w>": 2779,
    "fles": 2780,
    "flesh</w>": 2781,
    "flew</w>": 2782,
    "fli": 2783,
    "flo": 2784,
    "floo": 2785,
    "floor</w>": 2786,
    "flor": 2787,
    "flouri": 2788,
    "flow": 2789,
    "flowers</w>": 2790,
    "flu": 2791,
    "flung</w>": 2792,
    "fly</w>": 2793,
    "flying</w>": 2794,
    "fo": 2795,
    "fol": 2796,
    "fold</w>": 2797,
    "follow": 2798,
    "follow</w>": 2799,
    "followed</w>": 2800,
    "following</w>": 2801,
    "fon": 2802,
    "fond</w>": 2803,
    "foo": 2804,
    "food</w>": 2805,
    "fool": 2806,
    "fool,</w>": 2807,
    "fool.</w>": 2808,
    "fool</w>": 2809,
    "foolish</w>": 2810,
    "foot": 2811,
    "foot</w>": 2812,
    "for": 2813,
    "for,</w>": 2814,
    "for.</w>": 2815,
    "for</w>": 2816,
    "for]</w>": 2817,
    "forbi": 2818,
    "force": 2819,
    "force</w>": 2820,
    "forced</w>": 2821,
    "ford,</w>": 2822,
    "ford.</w>": 2823,
    "ford</w>": 2824,
    "fore": 2825,
    "fore,</w>": 2826,
    "fore.</w>": 2827,
    "fore</w>": 2828,
    "foreign</w>": 2829,
    "forest</w>": 2830,
    "forge": 2831,
    "forget</w>": 2832,
    "forgive</w>": 2833,
    "forgot</w>": 2834,
    "forgott": 2835,
    "forgotten</w>": 2836,
    "form": 2837,
    "form,</w>": 2838,
    "form</w>": 2839,
    "formed</w>": 2840,
    "former": 2841,
    "former</w>": 2842,
    "fort": 2843,
    "forth,</w>": 2844,
    "forth</w>": 2845,
    "fortun": 2846,
    "fortune,</w>": 2847,
    "fortune</w>": 2848,
    "fortunes</w>": 2849,
    "forty</w>": 2850,
    "forward</w>": 2851,
    "fou": 2852,
    "fought</w>": 2853,
    "foul</w>": 2854,
    "foun": 2855,
    "found": 2856,
    "found</w>": 2857,
    "foundation": 2858,
    "foundation,</w>": 2859,
    "foundation</w>": 2860,
    "four": 2861,
    "four</w>": 2862,
    "fourth</w>": 2863,
    "fow": 2864,
    "fox": 2865,
    "fox</w>": 2866,
    "fr": 2867,
    "frag": 2868,
    "fram": 2869,
    "fran": 2870,
    "franc": 2871,
    "france,</w>": 2872,
    "france</w>": 2873,
    "frank": 2874,
    "franz</w>": 2875,
    "frau": 2876,
    "fre": 2877,
    "fred</w>": 2878,
    "freder": 2879,
    "free</w>": 2880,
    "freed": 2881,
    "freedom</w>": 2882,
    "freely</w>": 2883,
    "fren": 2884,
    "french</w>": 2885,
    "frequ": 2886,
    "frequently</w>": 2887,
    "fres": 2888,
    "fresh": 2889,
    "fresh</w>": 2890,
    "fri": 2891,
    "friar</w>": 2892,
    "frien": 2893,
    "friend": 2894,
    "friend,</w>": 2895,
    "friend.</w>": 2896,
    "friend</w>": 2897,
    "friendly</w>": 2898,
    "friends,</w>": 2899,
    "friends.</w>": 2900,
    "friends</w>": 2901,
    "friendship</w>": 2902,
    "fright": 2903,
    "frighten": 2904,
    "frightened</w>": 2905,
    "fro": 2906,
    "from</w>": 2907,
    "fron": 2908,
    "front</w>": 2909,
    "frow": 2910,
    "fru": 2911,
    "fruit</w>": 2912,
    "ft</w>": 2913,
    "fu": 2914,
    "ful": 2915,
    "ful,</w>": 2916,
    "ful.</w>": 2917,
    "ful</w>": 2918,
    "full": 2919,
    "full</w>": 2920,
    "fully,</w>": 2921,
    "fully.</w>": 2922,
    "fully</w>": 2923,
    "fulness</w>": 2924,
    "fun": 2925,
    "funer": 2926,
    "fur": 2927,
    "furn": 2928,
    "further</w>": 2929,
    "fury</w>": 2930,
    "future</w>": 2931,
    "fy": 2932,
    "fy</w>": 2933,
    "fying</w>": 2934,
    "fyod": 2935,
    "fyodor": 2936,
    "fyodor</w>": 2937,
    "fyodorovit": 2938,
    "g": 2939,
    "g,</w>": 2940,
    "g.</w>": 2941,
    "g</w>": 2942,
    "ga": 2943,
    "gain": 2944,
    "gain</w>": 2945,
    "gained</w>": 2946,
    "gal": 2947,
    "gall": 2948,
    "gam": 2949,
    "game</w>": 2950,
    "gan": 2951,
    "gar": 2952,
    "gar.</w>": 2953,
    "gar</w>": 2954,
    "garden": 2955,
    "garden</w>": 2956,
    "gardin": 2957,
    "gare": 2958,
    "gas": 2959,
    "gat": 2960,
    "gate,</w>": 2961,
    "gate</w>": 2962,
    "gates</w>": 2963,
    "gather": 2964,
    "gather</w>": 2965,
    "gathered</w>": 2966,
    "gation</w>": 2967,
    "gave</w>": 2968,
    "gaz": 2969,
    "gazed</w>": 2970,
    "ge": 2971,
    "ge,</w>": 2972,
    "ge.</w>": 2973,
    "ge</w>": 2974,
    "ged,</w>": 2975,
    "ged</w>": 2976,
    "gen": 2977,
    "gen.</w>": 2978,
    "gener": 2979,
    "general</w>": 2980,
    "generally</w>": 2981,
    "generous</w>": 2982,
    "genes": 2983,
    "genesis</w>": 2984,
    "geni": 2985,
    "gent": 2986,
    "gentle": 2987,
    "gentle</w>": 2988,
    "gentleman,</w>": 2989,
    "gentleman.</w>": 2990,
    "gentleman</w>": 2991,
    "gentlemen": 2992,
    "gentlemen,</w>": 2993,
    "gentlemen</w>": 2994,
    "gently</w>": 2995,
    "geor": 2996,
    "george</w>": 2997,
    "georgi": 2998,
    "ger": 2999,
    "ger</w>": 3000,
    "german</w>": 3001,
    "ges</w>": 3002,
    "gest</w>": 3003,
    "get</w>": 3004,
    "gets</w>": 3005,
    "getting</w>": 3006,
    "gg": 3007,
    "gged</w>": 3008,
    "ggl": 3009,
    "gh": 3010,
    "gh,</w>": 3011,
    "gh</w>": 3012,
    "gho": 3013,
    "ghost</w>": 3014,
    "ght": 3015,
    "ght,</w>": 3016,
    "ght.</w>": 3017,
    "ght</w>": 3018,
    "ghte": 3019,
    "ghted</w>": 3020,
    "ghten": 3021,
    "ghts</w>": 3022,
    "gi": 3023,
    "gif": 3024,
    "gift</w>": 3025,
    "ging</w>": 3026,
    "gir": 3027,
    "girl": 3028,
    "girl,</w>": 3029,
    "girl</w>": 3030,
    "girls</w>": 3031,
    "giv": 3032,
    "give</w>": 3033,
    "given": 3034,
    "given</w>": 3035,
    "gives</w>": 3036,
    "giving</w>": 3037,
    "gl": 3038,
    "gla": 3039,
    "glad</w>": 3040,
    "glance</w>": 3041,
    "glanced</w>": 3042,
    "glas": 3043,
    "glass</w>": 3044,
    "gle": 3045,
    "gli": 3046,
    "glo": 3047,
    "gloomy</w>": 3048,
    "glor": 3049,
    "glorious</w>": 3050,
    "glory</w>": 3051,
    "glou": 3052,
    "glouce": 3053,
    "gloucester.</w>": 3054,
    "gn": 3055,
    "gni": 3056,
    "go": 3057,
    "go,</w>": 3058,
    "go.</w>": 3059,
    "go</w>": 3060,
    "god": 3061,
    "god!</w>": 3062,
    "god,</w>": 3063,
    "god.</w>": 3064,
    "god;</w>": 3065,
    "god</w>": 3066,
    "gods,</w>": 3067,
    "gods</w>": 3068,
    "god\u2019s</w>": 3069,
    "goes</w>": 3070,
    "going</w>": 3071,
    "gol": 3072,
    "gold": 3073,
    "gold,</w>": 3074,
    "gold</w>": 3075,
    "golden</w>": 3076,
    "golf</w>": 3077,
    "gon": 3078,
    "gone": 3079,
    "gone,</w>": 3080,
    "gone.</w>": 3081,
    "gone</w>": 3082,
    "goo": 3083,
    "good": 3084,
    "good,</w>": 3085,
    "good-": 3086,
    "good.</w>": 3087,
    "good</w>": 3088,
    "goodness</w>": 3089,
    "gop</w>": 3090,
    "gor": 3091,
    "got</w>": 3092,
    "goti": 3093,
    "gott": 3094,
    "gover": 3095,
    "govern": 3096,
    "government</w>": 3097,
    "governor</w>": 3098,
    "gr": 3099,
    "gra": 3100,
    "grac": 3101,
    "grace,</w>": 3102,
    "grace</w>": 3103,
    "gracious</w>": 3104,
    "gradu": 3105,
    "gradually</w>": 3106,
    "gran": 3107,
    "grand": 3108,
    "grand</w>": 3109,
    "grant</w>": 3110,
    "gras": 3111,
    "grat": 3112,
    "grate": 3113,
    "grateful</w>": 3114,
    "grati": 3115,
    "grav": 3116,
    "grave": 3117,
    "grave</w>": 3118,
    "gray</w>": 3119,
    "gre": 3120,
    "great": 3121,
    "great!</w>": 3122,
    "great,</w>": 3123,
    "great</w>": 3124,
    "greater</w>": 3125,
    "greatest</w>": 3126,
    "greatly</w>": 3127,
    "gree": 3128,
    "green": 3129,
    "green</w>": 3130,
    "grew</w>": 3131,
    "grey</w>": 3132,
    "gri": 3133,
    "grief": 3134,
    "grief</w>": 3135,
    "griev": 3136,
    "grimau": 3137,
    "grin": 3138,
    "gro": 3139,
    "grou": 3140,
    "ground,</w>": 3141,
    "ground.</w>": 3142,
    "ground</w>": 3143,
    "group</w>": 3144,
    "grow": 3145,
    "grow</w>": 3146,
    "growing</w>": 3147,
    "grown</w>": 3148,
    "gru": 3149,
    "grus": 3150,
    "grushen": 3151,
    "gs</w>": 3152,
    "gu": 3153,
    "guar": 3154,
    "guard</w>": 3155,
    "gue</w>": 3156,
    "guess</w>": 3157,
    "guest": 3158,
    "gui": 3159,
    "guil": 3160,
    "guilty</w>": 3161,
    "gun": 3162,
    "gutenber": 3163,
    "gutenberg": 3164,
    "gutenberg</w>": 3165,
    "gutenberg\u2122": 3166,
    "gutenberg\u2122</w>": 3167,
    "gy": 3168,
    "h": 3169,
    "h,</w>": 3170,
    "h.</w>": 3171,
    "h</w>": 3172,
    "ha": 3173,
    "ha!</w>": 3174,
    "ha,</w>": 3175,
    "hab": 3176,
    "habit": 3177,
    "habit</w>": 3178,
    "had": 3179,
    "had,</w>": 3180,
    "had</w>": 3181,
    "hair": 3182,
    "hair,</w>": 3183,
    "hair</w>": 3184,
    "hal": 3185,
    "half": 3186,
    "half-": 3187,
    "half</w>": 3188,
    "hall": 3189,
    "hall</w>": 3190,
    "ham": 3191,
    "ham,</w>": 3192,
    "ham.</w>": 3193,
    "ham</w>": 3194,
    "hamlet.</w>": 3195,
    "han": 3196,
    "hand": 3197,
    "hand,</w>": 3198,
    "hand.</w>": 3199,
    "hand;</w>": 3200,
    "hand</w>": 3201,
    "handker": 3202,
    "hands,</w>": 3203,
    "hands.</w>": 3204,
    "hands</w>": 3205,
    "handsome</w>": 3206,
    "hang": 3207,
    "hang</w>": 3208,
    "hanging</w>": 3209,
    "hann": 3210,
    "happ": 3211,
    "happen": 3212,
    "happen</w>": 3213,
    "happened</w>": 3214,
    "happi": 3215,
    "happin": 3216,
    "happiness</w>": 3217,
    "happy,</w>": 3218,
    "happy</w>": 3219,
    "har": 3220,
    "hard</w>": 3221,
    "hardly</w>": 3222,
    "harm": 3223,
    "harm</w>": 3224,
    "harpo": 3225,
    "harpoone": 3226,
    "has</w>": 3227,
    "hast": 3228,
    "hast</w>": 3229,
    "haste</w>": 3230,
    "hasti": 3231,
    "hat": 3232,
    "hat</w>": 3233,
    "hate": 3234,
    "hate</w>": 3235,
    "hated</w>": 3236,
    "hath</w>": 3237,
    "hau": 3238,
    "have": 3239,
    "have,</w>": 3240,
    "have</w>": 3241,
    "haven": 3242,
    "haven\u2019t</w>": 3243,
    "having</w>": 3244,
    "havis": 3245,
    "haw": 3246,
    "haz": 3247,
    "he": 3248,
    "he's</w>": 3249,
    "he,</w>": 3250,
    "he.</w>": 3251,
    "he</w>": 3252,
    "hea": 3253,
    "head": 3254,
    "head,</w>": 3255,
    "head.</w>": 3256,
    "head</w>": 3257,
    "heads</w>": 3258,
    "heal": 3259,
    "health": 3260,
    "health</w>": 3261,
    "heap": 3262,
    "hear": 3263,
    "hear,</w>": 3264,
    "hear</w>": 3265,
    "heard,</w>": 3266,
    "heard</w>": 3267,
    "hearing</w>": 3268,
    "heart": 3269,
    "heart,</w>": 3270,
    "heart.</w>": 3271,
    "heart</w>": 3272,
    "hearti": 3273,
    "hearts</w>": 3274,
    "heat</w>": 3275,
    "heath": 3276,
    "heav": 3277,
    "heaven": 3278,
    "heaven,</w>": 3279,
    "heaven.</w>": 3280,
    "heaven</w>": 3281,
    "heavenly</w>": 3282,
    "heavens</w>": 3283,
    "heavi": 3284,
    "heavy</w>": 3285,
    "hebre": 3286,
    "hebrews</w>": 3287,
    "hec": 3288,
    "hector</w>": 3289,
    "hed,</w>": 3290,
    "hed</w>": 3291,
    "hei": 3292,
    "hel": 3293,
    "held</w>": 3294,
    "helen": 3295,
    "helena.</w>": 3296,
    "hell": 3297,
    "hell</w>": 3298,
    "help": 3299,
    "help,</w>": 3300,
    "help</w>": 3301,
    "helped</w>": 3302,
    "hemi": 3303,
    "hen": 3304,
    "hence": 3305,
    "hence,</w>": 3306,
    "hence</w>": 3307,
    "henry,</w>": 3308,
    "henry.</w>": 3309,
    "henry</w>": 3310,
    "her": 3311,
    "her,</w>": 3312,
    "her.</w>": 3313,
    "her;</w>": 3314,
    "her</w>": 3315,
    "her?</w>": 3316,
    "heral": 3317,
    "here": 3318,
    "here,</w>": 3319,
    "here.</w>": 3320,
    "here</w>": 3321,
    "here?</w>": 3322,
    "here\u2019s</w>": 3323,
    "hermi": 3324,
    "hero": 3325,
    "hero</w>": 3326,
    "herself,</w>": 3327,
    "herself.</w>": 3328,
    "herself</w>": 3329,
    "hes</w>": 3330,
    "hesit": 3331,
    "hest</w>": 3332,
    "hester</w>": 3333,
    "he\u2019ll</w>": 3334,
    "he\u2019s</w>": 3335,
    "hi": 3336,
    "hid</w>": 3337,
    "hidden</w>": 3338,
    "hide": 3339,
    "hide</w>": 3340,
    "hig": 3341,
    "high": 3342,
    "high</w>": 3343,
    "higher</w>": 3344,
    "highest</w>": 3345,
    "highly</w>": 3346,
    "hill": 3347,
    "hill</w>": 3348,
    "hillary</w>": 3349,
    "him": 3350,
    "him!</w>": 3351,
    "him,</w>": 3352,
    "him.</w>": 3353,
    "him.\u201d</w>": 3354,
    "him:</w>": 3355,
    "him;</w>": 3356,
    "him</w>": 3357,
    "him?</w>": 3358,
    "him?\u201d</w>": 3359,
    "himself": 3360,
    "himself,</w>": 3361,
    "himself.</w>": 3362,
    "himself</w>": 3363,
    "hin": 3364,
    "hin</w>": 3365,
    "hing</w>": 3366,
    "his": 3367,
    "his</w>": 3368,
    "histor": 3369,
    "histori": 3370,
    "history</w>": 3371,
    "hit</w>": 3372,
    "hither": 3373,
    "hither</w>": 3374,
    "hitherto</w>": 3375,
    "ho": 3376,
    "ho!</w>": 3377,
    "hoi": 3378,
    "hol": 3379,
    "hold": 3380,
    "hold,</w>": 3381,
    "hold</w>": 3382,
    "holding</w>": 3383,
    "holds</w>": 3384,
    "holi": 3385,
    "holy</w>": 3386,
    "hom": 3387,
    "home,</w>": 3388,
    "home.</w>": 3389,
    "home</w>": 3390,
    "hon": 3391,
    "honest": 3392,
    "honest</w>": 3393,
    "honey": 3394,
    "honor": 3395,
    "honor</w>": 3396,
    "honour": 3397,
    "honour,</w>": 3398,
    "honour</w>": 3399,
    "honourable</w>": 3400,
    "hoo": 3401,
    "hood,</w>": 3402,
    "hood</w>": 3403,
    "hop": 3404,
    "hope": 3405,
    "hope,</w>": 3406,
    "hope</w>": 3407,
    "hoped</w>": 3408,
    "hopes</w>": 3409,
    "hor": 3410,
    "horati": 3411,
    "horri": 3412,
    "horrible</w>": 3413,
    "horror": 3414,
    "horror</w>": 3415,
    "horse": 3416,
    "horse,</w>": 3417,
    "horse</w>": 3418,
    "horses</w>": 3419,
    "hospit": 3420,
    "host": 3421,
    "host</w>": 3422,
    "hot": 3423,
    "hot</w>": 3424,
    "hote": 3425,
    "hotel</w>": 3426,
    "hou": 3427,
    "hour": 3428,
    "hour,</w>": 3429,
    "hour</w>": 3430,
    "hours</w>": 3431,
    "house": 3432,
    "house,</w>": 3433,
    "house.</w>": 3434,
    "house;</w>": 3435,
    "house</w>": 3436,
    "houses</w>": 3437,
    "how": 3438,
    "how,</w>": 3439,
    "how</w>": 3440,
    "however,</w>": 3441,
    "however</w>": 3442,
    "htt": 3443,
    "http": 3444,
    "http://t.co/": 3445,
    "https": 3446,
    "https://t.co/": 3447,
    "hu": 3448,
    "huge</w>": 3449,
    "hum": 3450,
    "human": 3451,
    "human</w>": 3452,
    "humble</w>": 3453,
    "humour</w>": 3454,
    "hun": 3455,
    "hundre": 3456,
    "hundred</w>": 3457,
    "hung</w>": 3458,
    "hungr": 3459,
    "hunt</w>": 3460,
    "hur": 3461,
    "hurri": 3462,
    "hurried</w>": 3463,
    "hurt</w>": 3464,
    "hus": 3465,
    "husb": 3466,
    "husband": 3467,
    "husband,</w>": 3468,
    "husband</w>": 3469,
    "hy": 3470,
    "hypo": 3471,
    "i": 3472,
    "i'": 3473,
    "i'll</w>": 3474,
    "i'm</w>": 3475,
    "i've</w>": 3476,
    "i,</w>": 3477,
    "i.</w>": 3478,
    "i</w>": 3479,
    "ia</w>": 3480,
    "iago.</w>": 3481,
    "ian</w>": 3482,
    "ic": 3483,
    "ic</w>": 3484,
    "ical</w>": 3485,
    "ically</w>": 3486,
    "ice,</w>": 3487,
    "ice.</w>": 3488,
    "ice</w>": 3489,
    "ici": 3490,
    "icious</w>": 3491,
    "ick": 3492,
    "ick,</w>": 3493,
    "ick</w>": 3494,
    "id": 3495,
    "id</w>": 3496,
    "ide": 3497,
    "ide</w>": 3498,
    "idea</w>": 3499,
    "ideas</w>": 3500,
    "ides,</w>": 3501,
    "ides</w>": 3502,
    "idi": 3503,
    "ido": 3504,
    "ied</w>": 3505,
    "ies</w>": 3506,
    "if": 3507,
    "if,</w>": 3508,
    "if</w>": 3509,
    "ig": 3510,
    "igh": 3511,
    "ight</w>": 3512,
    "ign": 3513,
    "ign</w>": 3514,
    "ignor": 3515,
    "ignorant</w>": 3516,
    "ii.</w>": 3517,
    "ii</w>": 3518,
    "iii.</w>": 3519,
    "il": 3520,
    "il,</w>": 3521,
    "il</w>": 3522,
    "iled</w>": 3523,
    "ili": 3524,
    "ill": 3525,
    "ill,</w>": 3526,
    "ill-": 3527,
    "ill</w>": 3528,
    "illeg": 3529,
    "illegal</w>": 3530,
    "illustr": 3531,
    "illustration": 3532,
    "ily</w>": 3533,
    "im": 3534,
    "imag": 3535,
    "image</w>": 3536,
    "imagin": 3537,
    "imagination</w>": 3538,
    "imagine</w>": 3539,
    "imagined</w>": 3540,
    "immedi": 3541,
    "immediat": 3542,
    "immediate</w>": 3543,
    "immediately</w>": 3544,
    "immen": 3545,
    "immigr": 3546,
    "imo": 3547,
    "imp": 3548,
    "impati": 3549,
    "impe": 3550,
    "impeach": 3551,
    "imper": 3552,
    "import": 3553,
    "important</w>": 3554,
    "impossi": 3555,
    "impossible</w>": 3556,
    "impres": 3557,
    "impression</w>": 3558,
    "impro": 3559,
    "impu": 3560,
    "impul": 3561,
    "in": 3562,
    "in,</w>": 3563,
    "in-": 3564,
    "in.</w>": 3565,
    "in;</w>": 3566,
    "in</w>": 3567,
    "ina</w>": 3568,
    "inc": 3569,
    "inci": 3570,
    "incl": 3571,
    "inclin": 3572,
    "inclined</w>": 3573,
    "inclu": 3574,
    "including</w>": 3575,
    "incre": 3576,
    "increase</w>": 3577,
    "increased</w>": 3578,
    "incredi": 3579,
    "incredible</w>": 3580,
    "inct</w>": 3581,
    "inde": 3582,
    "indeed,</w>": 3583,
    "indeed</w>": 3584,
    "independ": 3585,
    "indi": 3586,
    "indic": 3587,
    "indiffer": 3588,
    "indign": 3589,
    "indivi": 3590,
    "individu": 3591,
    "individual</w>": 3592,
    "indu": 3593,
    "indul": 3594,
    "ine": 3595,
    "ine,</w>": 3596,
    "ine.</w>": 3597,
    "ine</w>": 3598,
    "ined</w>": 3599,
    "ines</w>": 3600,
    "iness</w>": 3601,
    "inf": 3602,
    "infer": 3603,
    "infin": 3604,
    "influ": 3605,
    "influence</w>": 3606,
    "inform": 3607,
    "information</w>": 3608,
    "informed</w>": 3609,
    "ing": 3610,
    "ing!</w>": 3611,
    "ing,</w>": 3612,
    "ing,\u201d</w>": 3613,
    "ing-": 3614,
    "ing.</w>": 3615,
    "ing.\u201d</w>": 3616,
    "ing:</w>": 3617,
    "ing;</w>": 3618,
    "ing</w>": 3619,
    "ing?</w>": 3620,
    "inging</w>": 3621,
    "ingly,</w>": 3622,
    "ingly</w>": 3623,
    "ings,</w>": 3624,
    "ings.</w>": 3625,
    "ings</w>": 3626,
    "ingu": 3627,
    "inhabit": 3628,
    "inhabitants</w>": 3629,
    "inher": 3630,
    "inherit": 3631,
    "ini": 3632,
    "ining</w>": 3633,
    "inius.</w>": 3634,
    "inju": 3635,
    "ink": 3636,
    "inno": 3637,
    "innoc": 3638,
    "innocent</w>": 3639,
    "inqu": 3640,
    "inqui": 3641,
    "inquir": 3642,
    "inquired</w>": 3643,
    "ins,</w>": 3644,
    "ins</w>": 3645,
    "insi": 3646,
    "inspi": 3647,
    "inspir": 3648,
    "inst": 3649,
    "instant</w>": 3650,
    "instantly</w>": 3651,
    "instead</w>": 3652,
    "instinc": 3653,
    "instruc": 3654,
    "instrum": 3655,
    "insul": 3656,
    "int": 3657,
    "inte": 3658,
    "intell": 3659,
    "intellec": 3660,
    "intelli": 3661,
    "intellig": 3662,
    "inten": 3663,
    "intend</w>": 3664,
    "intended</w>": 3665,
    "intention</w>": 3666,
    "inter": 3667,
    "interest": 3668,
    "interest</w>": 3669,
    "interested</w>": 3670,
    "interesting</w>": 3671,
    "interpre": 3672,
    "interrup": 3673,
    "interrupted</w>": 3674,
    "interview": 3675,
    "interview</w>": 3676,
    "intim": 3677,
    "into</w>": 3678,
    "intro": 3679,
    "introduc": 3680,
    "introduced</w>": 3681,
    "inv": 3682,
    "inve": 3683,
    "investi": 3684,
    "invit": 3685,
    "invited</w>": 3686,
    "invol": 3687,
    "ior</w>": 3688,
    "ious</w>": 3689,
    "iow": 3690,
    "ir": 3691,
    "ir,</w>": 3692,
    "ir</w>": 3693,
    "ire</w>": 3694,
    "iron</w>": 3695,
    "irrit": 3696,
    "is": 3697,
    "is,</w>": 3698,
    "is.</w>": 3699,
    "is</w>": 3700,
    "is]</w>": 3701,
    "isa": 3702,
    "isabell": 3703,
    "isai": 3704,
    "isaiah</w>": 3705,
    "ise</w>": 3706,
    "ised</w>": 3707,
    "isell": 3708,
    "ish": 3709,
    "ish,</w>": 3710,
    "ish</w>": 3711,
    "ishe": 3712,
    "ished,</w>": 3713,
    "ished</w>": 3714,
    "ishing</w>": 3715,
    "isi": 3716,
    "ising</w>": 3717,
    "island</w>": 3718,
    "ism</w>": 3719,
    "isn\u2019t</w>": 3720,
    "isra": 3721,
    "israel": 3722,
    "israel,</w>": 3723,
    "israel.</w>": 3724,
    "israel</w>": 3725,
    "issu": 3726,
    "issue</w>": 3727,
    "is\u2019t</w>": 3728,
    "it": 3729,
    "it!</w>": 3730,
    "it's</w>": 3731,
    "it,</w>": 3732,
    "it,\u201d</w>": 3733,
    "it.</w>": 3734,
    "it.\u201d</w>": 3735,
    "it:</w>": 3736,
    "it;</w>": 3737,
    "it</w>": 3738,
    "it?</w>": 3739,
    "it?\u201d</w>": 3740,
    "itable</w>": 3741,
    "ital": 3742,
    "itali": 3743,
    "ite,</w>": 3744,
    "ite</w>": 3745,
    "ited</w>": 3746,
    "ither</w>": 3747,
    "ities</w>": 3748,
    "iting</w>": 3749,
    "its</w>": 3750,
    "itself,</w>": 3751,
    "itself</w>": 3752,
    "itu": 3753,
    "itude</w>": 3754,
    "ity": 3755,
    "ity,</w>": 3756,
    "ity.</w>": 3757,
    "ity;</w>": 3758,
    "ity</w>": 3759,
    "it\u2019s</w>": 3760,
    "ius.</w>": 3761,
    "iv": 3762,
    "iv.</w>": 3763,
    "ivan": 3764,
    "ivan</w>": 3765,
    "ivanov": 3766,
    "iz": 3767,
    "i\u2019": 3768,
    "i\u2019</w>": 3769,
    "i\u2019d</w>": 3770,
    "i\u2019ll</w>": 3771,
    "i\u2019m</w>": 3772,
    "i\u2019ve</w>": 3773,
    "j": 3774,
    "j</w>": 3775,
    "ja": 3776,
    "jac": 3777,
    "jack": 3778,
    "jacob": 3779,
    "jail": 3780,
    "jam": 3781,
    "james</w>": 3782,
    "jan": 3783,
    "jane</w>": 3784,
    "jaw": 3785,
    "je": 3786,
    "jeal": 3787,
    "jealous": 3788,
    "jec": 3789,
    "ject</w>": 3790,
    "jeky": 3791,
    "jen": 3792,
    "jer": 3793,
    "jeremi": 3794,
    "jeremiah</w>": 3795,
    "jerusal": 3796,
    "jerusalem,</w>": 3797,
    "jes": 3798,
    "jesus</w>": 3799,
    "jewe": 3800,
    "ji": 3801,
    "jim": 3802,
    "jim</w>": 3803,
    "jo": 3804,
    "jo,</w>": 3805,
    "jo</w>": 3806,
    "job": 3807,
    "job</w>": 3808,
    "jobs</w>": 3809,
    "joe</w>": 3810,
    "joh": 3811,
    "john": 3812,
    "john,</w>": 3813,
    "john.</w>": 3814,
    "john</w>": 3815,
    "join": 3816,
    "join</w>": 3817,
    "joined</w>": 3818,
    "jon": 3819,
    "jones,</w>": 3820,
    "jones</w>": 3821,
    "jor": 3822,
    "jose": 3823,
    "joshu": 3824,
    "joshua</w>": 3825,
    "jour": 3826,
    "journe": 3827,
    "journey</w>": 3828,
    "jove</w>": 3829,
    "joy": 3830,
    "joy,</w>": 3831,
    "joy</w>": 3832,
    "ju": 3833,
    "juda": 3834,
    "judah,</w>": 3835,
    "judah</w>": 3836,
    "judg": 3837,
    "judge": 3838,
    "judge</w>": 3839,
    "judges</w>": 3840,
    "judgment</w>": 3841,
    "judi": 3842,
    "juli": 3843,
    "julie": 3844,
    "juliet.</w>": 3845,
    "jum": 3846,
    "jumped</w>": 3847,
    "jun": 3848,
    "jur": 3849,
    "just": 3850,
    "just</w>": 3851,
    "justi": 3852,
    "justic": 3853,
    "justice,</w>": 3854,
    "justice</w>": 3855,
    "k": 3856,
    "k!</w>": 3857,
    "k,</w>": 3858,
    "k-": 3859,
    "k.</w>": 3860,
    "k;</w>": 3861,
    "k</w>": 3862,
    "ka</w>": 3863,
    "kar": 3864,
    "kat": 3865,
    "kater": 3866,
    "katerina</w>": 3867,
    "kather": 3868,
    "ke": 3869,
    "ke,</w>": 3870,
    "ke.</w>": 3871,
    "ke;</w>": 3872,
    "ke</w>": 3873,
    "ked,</w>": 3874,
    "ked.</w>": 3875,
    "ked</w>": 3876,
    "keep": 3877,
    "keep</w>": 3878,
    "keeper": 3879,
    "keeping</w>": 3880,
    "keeps</w>": 3881,
    "ken": 3882,
    "ken,</w>": 3883,
    "ken.</w>": 3884,
    "ken</w>": 3885,
    "kened</w>": 3886,
    "kept</w>": 3887,
    "ker": 3888,
    "ker,</w>": 3889,
    "ker</w>": 3890,
    "kes,</w>": 3891,
    "kes</w>": 3892,
    "ket</w>": 3893,
    "keth</w>": 3894,
    "key</w>": 3895,
    "ki": 3896,
    "kill": 3897,
    "kill</w>": 3898,
    "killed</w>": 3899,
    "kin": 3900,
    "kin</w>": 3901,
    "kind": 3902,
    "kind,</w>": 3903,
    "kind.</w>": 3904,
    "kind</w>": 3905,
    "kindly</w>": 3906,
    "kindness</w>": 3907,
    "king": 3908,
    "king,</w>": 3909,
    "king.</w>": 3910,
    "king;</w>": 3911,
    "king</w>": 3912,
    "kingdom": 3913,
    "kingdom</w>": 3914,
    "kings</w>": 3915,
    "king\u2019s</w>": 3916,
    "kins": 3917,
    "kis": 3918,
    "kiss</w>": 3919,
    "kissed</w>": 3920,
    "kit": 3921,
    "kitche": 3922,
    "kn": 3923,
    "kna": 3924,
    "kne": 3925,
    "knees</w>": 3926,
    "knew": 3927,
    "knew</w>": 3928,
    "kni": 3929,
    "kno": 3930,
    "know": 3931,
    "know,</w>": 3932,
    "know.</w>": 3933,
    "know</w>": 3934,
    "knowing</w>": 3935,
    "knowle": 3936,
    "knowledg": 3937,
    "knowledge</w>": 3938,
    "known,</w>": 3939,
    "known</w>": 3940,
    "knows</w>": 3941,
    "ko": 3942,
    "kol": 3943,
    "kolnikov": 3944,
    "kore": 3945,
    "kov": 3946,
    "ks,</w>": 3947,
    "ks.</w>": 3948,
    "ks</w>": 3949,
    "ky": 3950,
    "ky</w>": 3951,
    "l": 3952,
    "l,</w>": 3953,
    "l-": 3954,
    "l.</w>": 3955,
    "l;</w>": 3956,
    "l</w>": 3957,
    "la": 3958,
    "la.</w>": 3959,
    "la</w>": 3960,
    "lab": 3961,
    "lac": 3962,
    "lack</w>": 3963,
    "lad": 3964,
    "ladi": 3965,
    "ladies</w>": 3966,
    "lady": 3967,
    "lady,</w>": 3968,
    "lady.</w>": 3969,
    "lady</w>": 3970,
    "lai": 3971,
    "laid</w>": 3972,
    "lam": 3973,
    "lament": 3974,
    "lamp": 3975,
    "lan": 3976,
    "land": 3977,
    "land,</w>": 3978,
    "land.</w>": 3979,
    "land</w>": 3980,
    "langu": 3981,
    "language</w>": 3982,
    "lap": 3983,
    "lar": 3984,
    "lar</w>": 3985,
    "large</w>": 3986,
    "lars</w>": 3987,
    "las": 3988,
    "last": 3989,
    "last,</w>": 3990,
    "last</w>": 3991,
    "lasting</w>": 3992,
    "lat": 3993,
    "late,</w>": 3994,
    "late</w>": 3995,
    "lately</w>": 3996,
    "later</w>": 3997,
    "lating</w>": 3998,
    "latter</w>": 3999,
    "lau": 4000,
    "laug": 4001,
    "laugh": 4002,
    "laugh</w>": 4003,
    "laughed</w>": 4004,
    "laughing</w>": 4005,
    "laun": 4006,
    "lauri": 4007,
    "laurie</w>": 4008,
    "lav": 4009,
    "law": 4010,
    "law,</w>": 4011,
    "law.</w>": 4012,
    "law</w>": 4013,
    "lawr": 4014,
    "laws</w>": 4015,
    "lawy": 4016,
    "lay</w>": 4017,
    "laying</w>": 4018,
    "ld": 4019,
    "ld,</w>": 4020,
    "ld.</w>": 4021,
    "ld</w>": 4022,
    "lded</w>": 4023,
    "lding</w>": 4024,
    "le": 4025,
    "le,</w>": 4026,
    "le-": 4027,
    "le.</w>": 4028,
    "le:</w>": 4029,
    "le;</w>": 4030,
    "le</w>": 4031,
    "lea": 4032,
    "lead": 4033,
    "lead</w>": 4034,
    "leader": 4035,
    "leader</w>": 4036,
    "leading</w>": 4037,
    "lean": 4038,
    "leaning</w>": 4039,
    "leap": 4040,
    "lear": 4041,
    "lear.</w>": 4042,
    "learn": 4043,
    "learn</w>": 4044,
    "learned</w>": 4045,
    "least,</w>": 4046,
    "least</w>": 4047,
    "leav": 4048,
    "leave</w>": 4049,
    "leaves</w>": 4050,
    "leaving</w>": 4051,
    "lec": 4052,
    "lect</w>": 4053,
    "led,</w>": 4054,
    "led.</w>": 4055,
    "led</w>": 4056,
    "lef": 4057,
    "left,</w>": 4058,
    "left</w>": 4059,
    "leg": 4060,
    "leg</w>": 4061,
    "legal</w>": 4062,
    "legs</w>": 4063,
    "leis": 4064,
    "len": 4065,
    "lend</w>": 4066,
    "leng": 4067,
    "length</w>": 4068,
    "leon": 4069,
    "leona": 4070,
    "ler": 4071,
    "ler</w>": 4072,
    "les": 4073,
    "les,</w>": 4074,
    "les.</w>": 4075,
    "les</w>": 4076,
    "less": 4077,
    "less,</w>": 4078,
    "less.</w>": 4079,
    "less</w>": 4080,
    "lest</w>": 4081,
    "let": 4082,
    "let,</w>": 4083,
    "let.</w>": 4084,
    "let</w>": 4085,
    "lets</w>": 4086,
    "lett": 4087,
    "letter": 4088,
    "letter,</w>": 4089,
    "letter</w>": 4090,
    "letters</w>": 4091,
    "let\u2019s</w>": 4092,
    "level</w>": 4093,
    "levi": 4094,
    "levit": 4095,
    "levitic": 4096,
    "leviticus</w>": 4097,
    "ley</w>": 4098,
    "li": 4099,
    "lia.</w>": 4100,
    "liar</w>": 4101,
    "liber": 4102,
    "liberty</w>": 4103,
    "libr": 4104,
    "lic": 4105,
    "licen": 4106,
    "license</w>": 4107,
    "lie": 4108,
    "lie</w>": 4109,
    "lied</w>": 4110,
    "lies</w>": 4111,
    "lieuten": 4112,
    "liev": 4113,
    "lif": 4114,
    "life": 4115,
    "life,</w>": 4116,
    "life.</w>": 4117,
    "life;</w>": 4118,
    "life</w>": 4119,
    "lift</w>": 4120,
    "lifted</w>": 4121,
    "light": 4122,
    "light,</w>": 4123,
    "light.</w>": 4124,
    "light</w>": 4125,
    "lighted</w>": 4126,
    "like": 4127,
    "like,</w>": 4128,
    "like</w>": 4129,
    "liked</w>": 4130,
    "likely</w>": 4131,
    "likewise</w>": 4132,
    "lim": 4133,
    "limb": 4134,
    "limit": 4135,
    "limited</w>": 4136,
    "lin": 4137,
    "line.</w>": 4138,
    "line</w>": 4139,
    "lines</w>": 4140,
    "ling": 4141,
    "ling,</w>": 4142,
    "ling.</w>": 4143,
    "ling</w>": 4144,
    "lion</w>": 4145,
    "lip": 4146,
    "lips,</w>": 4147,
    "lips.</w>": 4148,
    "lips</w>": 4149,
    "lish": 4150,
    "lish</w>": 4151,
    "list": 4152,
    "listen": 4153,
    "listen</w>": 4154,
    "listened</w>": 4155,
    "listening</w>": 4156,
    "lit": 4157,
    "lit</w>": 4158,
    "liter": 4159,
    "literary</w>": 4160,
    "litt": 4161,
    "little,</w>": 4162,
    "little</w>": 4163,
    "liv": 4164,
    "live": 4165,
    "live,</w>": 4166,
    "live</w>": 4167,
    "lived</w>": 4168,
    "lives</w>": 4169,
    "living</w>": 4170,
    "ll": 4171,
    "ll,</w>": 4172,
    "ll.</w>": 4173,
    "ll</w>": 4174,
    "lled</w>": 4175,
    "lli": 4176,
    "lling</w>": 4177,
    "llow": 4178,
    "llow</w>": 4179,
    "lls</w>": 4180,
    "lly,</w>": 4181,
    "lly</w>": 4182,
    "lo": 4183,
    "lo,</w>": 4184,
    "lo.</w>": 4185,
    "lo</w>": 4186,
    "loc": 4187,
    "located</w>": 4188,
    "lock</w>": 4189,
    "locked</w>": 4190,
    "lodg": 4191,
    "lof": 4192,
    "log": 4193,
    "logi": 4194,
    "lon": 4195,
    "london": 4196,
    "london,</w>": 4197,
    "london.</w>": 4198,
    "london</w>": 4199,
    "long": 4200,
    "long,</w>": 4201,
    "long</w>": 4202,
    "longed</w>": 4203,
    "longer</w>": 4204,
    "loo": 4205,
    "look": 4206,
    "look,</w>": 4207,
    "look</w>": 4208,
    "looked</w>": 4209,
    "looking</w>": 4210,
    "looks</w>": 4211,
    "loose</w>": 4212,
    "lor": 4213,
    "lor</w>": 4214,
    "lord": 4215,
    "lord,</w>": 4216,
    "lord.</w>": 4217,
    "lord:</w>": 4218,
    "lord;</w>": 4219,
    "lord</w>": 4220,
    "lord?</w>": 4221,
    "lords,</w>": 4222,
    "lords</w>": 4223,
    "los": 4224,
    "lose</w>": 4225,
    "losing</w>": 4226,
    "loss</w>": 4227,
    "lost</w>": 4228,
    "lot</w>": 4229,
    "lott": 4230,
    "lou": 4231,
    "loud</w>": 4232,
    "lov": 4233,
    "love": 4234,
    "love,</w>": 4235,
    "love.</w>": 4236,
    "love</w>": 4237,
    "loved</w>": 4238,
    "lovely</w>": 4239,
    "loves</w>": 4240,
    "loving</w>": 4241,
    "low": 4242,
    "low</w>": 4243,
    "lower</w>": 4244,
    "loy": 4245,
    "ls,</w>": 4246,
    "ls</w>": 4247,
    "lt</w>": 4248,
    "lu": 4249,
    "luc": 4250,
    "luci": 4251,
    "lucius.</w>": 4252,
    "luck": 4253,
    "lucy</w>": 4254,
    "luke</w>": 4255,
    "lun": 4256,
    "lux": 4257,
    "lv": 4258,
    "lvani": 4259,
    "ly": 4260,
    "ly,</w>": 4261,
    "ly,\u201d</w>": 4262,
    "ly.</w>": 4263,
    "ly.\u201d</w>": 4264,
    "ly:</w>": 4265,
    "ly;</w>": 4266,
    "ly</w>": 4267,
    "lydg": 4268,
    "lydgate</w>": 4269,
    "lydi": 4270,
    "lying</w>": 4271,
    "m": 4272,
    "m,</w>": 4273,
    "m.</w>": 4274,
    "m</w>": 4275,
    "ma": 4276,
    "ma</w>": 4277,
    "mac": 4278,
    "macbe": 4279,
    "macbeth.</w>": 4280,
    "mad": 4281,
    "mad</w>": 4282,
    "madam": 4283,
    "madam,</w>": 4284,
    "madame</w>": 4285,
    "made,</w>": 4286,
    "made</w>": 4287,
    "mademoisell": 4288,
    "mag": 4289,
    "maga</w>": 4290,
    "mage</w>": 4291,
    "magi": 4292,
    "magistr": 4293,
    "magni": 4294,
    "magnific": 4295,
    "mai": 4296,
    "maid,</w>": 4297,
    "maid</w>": 4298,
    "main": 4299,
    "main</w>": 4300,
    "maj": 4301,
    "majest": 4302,
    "majesty</w>": 4303,
    "major</w>": 4304,
    "make": 4305,
    "make</w>": 4306,
    "makes</w>": 4307,
    "making</w>": 4308,
    "mal": 4309,
    "male</w>": 4310,
    "mam": 4311,
    "man": 4312,
    "man!</w>": 4313,
    "man,</w>": 4314,
    "man.</w>": 4315,
    "man;</w>": 4316,
    "man</w>": 4317,
    "man?</w>": 4318,
    "manag": 4319,
    "mani": 4320,
    "manife": 4321,
    "mann": 4322,
    "manner": 4323,
    "manner,</w>": 4324,
    "manner.</w>": 4325,
    "manner</w>": 4326,
    "manners</w>": 4327,
    "mant": 4328,
    "manu": 4329,
    "many,</w>": 4330,
    "many</w>": 4331,
    "man\u2019s</w>": 4332,
    "mar": 4333,
    "march</w>": 4334,
    "margare": 4335,
    "margaret.</w>": 4336,
    "mari": 4337,
    "marin": 4338,
    "mark": 4339,
    "mark</w>": 4340,
    "marke": 4341,
    "marked</w>": 4342,
    "market</w>": 4343,
    "marks</w>": 4344,
    "marri": 4345,
    "marriage</w>": 4346,
    "married</w>": 4347,
    "marry,</w>": 4348,
    "marry</w>": 4349,
    "marti": 4350,
    "mary</w>": 4351,
    "mas": 4352,
    "mas</w>": 4353,
    "massi": 4354,
    "massive</w>": 4355,
    "master": 4356,
    "master,</w>": 4357,
    "master.</w>": 4358,
    "master</w>": 4359,
    "mat": 4360,
    "match</w>": 4361,
    "mate</w>": 4362,
    "materi": 4363,
    "matter": 4364,
    "matter,</w>": 4365,
    "matter.</w>": 4366,
    "matter</w>": 4367,
    "matters</w>": 4368,
    "matthe": 4369,
    "matthew</w>": 4370,
    "mau": 4371,
    "maxi": 4372,
    "may": 4373,
    "may,</w>": 4374,
    "may</w>": 4375,
    "maybe</w>": 4376,
    "mazar": 4377,
    "mb": 4378,
    "mber": 4379,
    "mber</w>": 4380,
    "mbl": 4381,
    "mbr": 4382,
    "mc": 4383,
    "me": 4384,
    "me!</w>": 4385,
    "me,</w>": 4386,
    "me,\u201d</w>": 4387,
    "me.</w>": 4388,
    "me.\u201d</w>": 4389,
    "me:</w>": 4390,
    "me;</w>": 4391,
    "me</w>": 4392,
    "me?</w>": 4393,
    "me?\u201d</w>": 4394,
    "mean": 4395,
    "mean,</w>": 4396,
    "mean</w>": 4397,
    "meaning</w>": 4398,
    "means</w>": 4399,
    "meant</w>": 4400,
    "meas": 4401,
    "measure</w>": 4402,
    "meat</w>": 4403,
    "med,</w>": 4404,
    "med.</w>": 4405,
    "med</w>": 4406,
    "medi": 4407,
    "media</w>": 4408,
    "medit": 4409,
    "mee": 4410,
    "meet": 4411,
    "meet</w>": 4412,
    "meeting</w>": 4413,
    "meg</w>": 4414,
    "mel": 4415,
    "melan": 4416,
    "melancho": 4417,
    "melancholy</w>": 4418,
    "mely</w>": 4419,
    "member": 4420,
    "memor": 4421,
    "memory</w>": 4422,
    "men": 4423,
    "men,</w>": 4424,
    "men.</w>": 4425,
    "men;</w>": 4426,
    "men</w>": 4427,
    "menen": 4428,
    "menenius.</w>": 4429,
    "ment": 4430,
    "ment!</w>": 4431,
    "ment,</w>": 4432,
    "ment.</w>": 4433,
    "ment;</w>": 4434,
    "ment</w>": 4435,
    "mention": 4436,
    "mention</w>": 4437,
    "mentioned</w>": 4438,
    "ments,</w>": 4439,
    "ments.</w>": 4440,
    "ments</w>": 4441,
    "men\u2019s</w>": 4442,
    "mer": 4443,
    "mer.</w>": 4444,
    "mer</w>": 4445,
    "merc": 4446,
    "merch": 4447,
    "merci": 4448,
    "mercu": 4449,
    "mercuti": 4450,
    "mercy</w>": 4451,
    "mere</w>": 4452,
    "merely</w>": 4453,
    "merry</w>": 4454,
    "mes": 4455,
    "mes,</w>": 4456,
    "mes</w>": 4457,
    "mess": 4458,
    "messeng": 4459,
    "messenger.</w>": 4460,
    "met</w>": 4461,
    "meth": 4462,
    "methinks</w>": 4463,
    "metri": 4464,
    "mexic": 4465,
    "mi": 4466,
    "mic": 4467,
    "micha": 4468,
    "mid": 4469,
    "midd": 4470,
    "middle": 4471,
    "middle</w>": 4472,
    "midst</w>": 4473,
    "migh": 4474,
    "might": 4475,
    "might</w>": 4476,
    "mighty</w>": 4477,
    "migr": 4478,
    "mil": 4479,
    "miles</w>": 4480,
    "mili": 4481,
    "milit": 4482,
    "military</w>": 4483,
    "mill": 4484,
    "milli": 4485,
    "million</w>": 4486,
    "millions</w>": 4487,
    "min": 4488,
    "mind,</w>": 4489,
    "mind.</w>": 4490,
    "mind</w>": 4491,
    "minds</w>": 4492,
    "mine,</w>": 4493,
    "mine.</w>": 4494,
    "mine</w>": 4495,
    "ming": 4496,
    "ming</w>": 4497,
    "mini": 4498,
    "minister": 4499,
    "minister</w>": 4500,
    "minu": 4501,
    "minut": 4502,
    "minute</w>": 4503,
    "minutes</w>": 4504,
    "mir": 4505,
    "mirac": 4506,
    "mis": 4507,
    "miser": 4508,
    "miserable</w>": 4509,
    "misery</w>": 4510,
    "miss</w>": 4511,
    "missed</w>": 4512,
    "mission</w>": 4513,
    "mist": 4514,
    "mista": 4515,
    "mistake</w>": 4516,
    "mistres": 4517,
    "mistress,</w>": 4518,
    "mistress</w>": 4519,
    "mit": 4520,
    "mit</w>": 4521,
    "mitted</w>": 4522,
    "mittrom": 4523,
    "mity": 4524,
    "mitya</w>": 4525,
    "mix": 4526,
    "mm": 4527,
    "mn": 4528,
    "mo": 4529,
    "mock</w>": 4530,
    "mode": 4531,
    "moder": 4532,
    "modern</w>": 4533,
    "mom": 4534,
    "moment": 4535,
    "moment,</w>": 4536,
    "moment.</w>": 4537,
    "moment</w>": 4538,
    "moments</w>": 4539,
    "mon": 4540,
    "mone": 4541,
    "money": 4542,
    "money,</w>": 4543,
    "money.</w>": 4544,
    "money</w>": 4545,
    "moni": 4546,
    "monsi": 4547,
    "monsieur": 4548,
    "monsieur</w>": 4549,
    "monster</w>": 4550,
    "monstr": 4551,
    "mont": 4552,
    "monte</w>": 4553,
    "month": 4554,
    "month</w>": 4555,
    "months</w>": 4556,
    "moon": 4557,
    "moon</w>": 4558,
    "mor": 4559,
    "moral</w>": 4560,
    "morcer": 4561,
    "more": 4562,
    "more,</w>": 4563,
    "more.</w>": 4564,
    "more</w>": 4565,
    "moreover,</w>": 4566,
    "morn": 4567,
    "morning,</w>": 4568,
    "morning.</w>": 4569,
    "morning</w>": 4570,
    "morrel</w>": 4571,
    "morrow": 4572,
    "morrow,</w>": 4573,
    "morrow</w>": 4574,
    "mortal": 4575,
    "mortal</w>": 4576,
    "morti": 4577,
    "moses,</w>": 4578,
    "moses</w>": 4579,
    "most</w>": 4580,
    "mother": 4581,
    "mother,</w>": 4582,
    "mother.</w>": 4583,
    "mother</w>": 4584,
    "mother\u2019s</w>": 4585,
    "motion": 4586,
    "mou": 4587,
    "moun": 4588,
    "mount</w>": 4589,
    "mountain": 4590,
    "mountain</w>": 4591,
    "mountains</w>": 4592,
    "mounted</w>": 4593,
    "mour": 4594,
    "mourn": 4595,
    "mous</w>": 4596,
    "mouth": 4597,
    "mouth,</w>": 4598,
    "mouth</w>": 4599,
    "move": 4600,
    "move</w>": 4601,
    "moved</w>": 4602,
    "moving</w>": 4603,
    "mp": 4604,
    "mr": 4605,
    "mr.</w>": 4606,
    "mr</w>": 4607,
    "mrs.</w>": 4608,
    "mrs</w>": 4609,
    "ms,</w>": 4610,
    "ms</w>": 4611,
    "mu": 4612,
    "much": 4613,
    "much,</w>": 4614,
    "much.</w>": 4615,
    "much</w>": 4616,
    "mul": 4617,
    "multitude</w>": 4618,
    "mun": 4619,
    "mur": 4620,
    "murder": 4621,
    "murder</w>": 4622,
    "murdered</w>": 4623,
    "murmu": 4624,
    "murmured</w>": 4625,
    "mus": 4626,
    "musi": 4627,
    "music</w>": 4628,
    "must</w>": 4629,
    "muttered</w>": 4630,
    "my": 4631,
    "my</w>": 4632,
    "myself": 4633,
    "myself,</w>": 4634,
    "myself.</w>": 4635,
    "myself</w>": 4636,
    "myster": 4637,
    "n": 4638,
    "n't</w>": 4639,
    "n,</w>": 4640,
    "n.</w>": 4641,
    "n;</w>": 4642,
    "n</w>": 4643,
    "na": 4644,
    "na,</w>": 4645,
    "na</w>": 4646,
    "nal</w>": 4647,
    "nam": 4648,
    "name,</w>": 4649,
    "name.</w>": 4650,
    "name</w>": 4651,
    "named</w>": 4652,
    "names</w>": 4653,
    "nan": 4654,
    "nantucke": 4655,
    "nar": 4656,
    "narr": 4657,
    "narrow</w>": 4658,
    "nat": 4659,
    "nation": 4660,
    "nation</w>": 4661,
    "national</w>": 4662,
    "nations</w>": 4663,
    "native</w>": 4664,
    "natur": 4665,
    "natural</w>": 4666,
    "naturally</w>": 4667,
    "nature": 4668,
    "nature,</w>": 4669,
    "nature</w>": 4670,
    "nau": 4671,
    "nav": 4672,
    "nay,</w>": 4673,
    "ne": 4674,
    "ne.</w>": 4675,
    "ne</w>": 4676,
    "near": 4677,
    "near</w>": 4678,
    "nearer</w>": 4679,
    "nearly</w>": 4680,
    "necess": 4681,
    "necessary</w>": 4682,
    "necessity</w>": 4683,
    "neck</w>": 4684,
    "ned,</w>": 4685,
    "ned.</w>": 4686,
    "ned</w>": 4687,
    "need": 4688,
    "need</w>": 4689,
    "needed</w>": 4690,
    "needs</w>": 4691,
    "neg": 4692,
    "neglec": 4693,
    "negoti": 4694,
    "nehemi": 4695,
    "nehemiah</w>": 4696,
    "nei": 4697,
    "neigh": 4698,
    "neighbor": 4699,
    "neighbour": 4700,
    "neither</w>": 4701,
    "nephe": 4702,
    "ner": 4703,
    "ner</w>": 4704,
    "nerv": 4705,
    "nes": 4706,
    "ness": 4707,
    "ness,</w>": 4708,
    "ness.</w>": 4709,
    "ness;</w>": 4710,
    "ness</w>": 4711,
    "never": 4712,
    "never</w>": 4713,
    "neverthe": 4714,
    "nevertheless,</w>": 4715,
    "new": 4716,
    "new</w>": 4717,
    "news,</w>": 4718,
    "news.</w>": 4719,
    "news</w>": 4720,
    "nex": 4721,
    "next</w>": 4722,
    "ney</w>": 4723,
    "ne\u2019er</w>": 4724,
    "ni": 4725,
    "nic": 4726,
    "nice</w>": 4727,
    "nie</w>": 4728,
    "nigh</w>": 4729,
    "night": 4730,
    "night,</w>": 4731,
    "night.</w>": 4732,
    "night;</w>": 4733,
    "night</w>": 4734,
    "nikov": 4735,
    "nin": 4736,
    "nine</w>": 4737,
    "ning,</w>": 4738,
    "ning.</w>": 4739,
    "ning</w>": 4740,
    "no": 4741,
    "no,</w>": 4742,
    "no.</w>": 4743,
    "no;</w>": 4744,
    "no</w>": 4745,
    "nobl": 4746,
    "noble</w>": 4747,
    "nobody</w>": 4748,
    "noi": 4749,
    "noir": 4750,
    "noirti": 4751,
    "noise</w>": 4752,
    "non": 4753,
    "non.</w>": 4754,
    "non</w>": 4755,
    "none</w>": 4756,
    "nor": 4757,
    "nor</w>": 4758,
    "nora.</w>": 4759,
    "north</w>": 4760,
    "northum": 4761,
    "northumber": 4762,
    "nose</w>": 4763,
    "not": 4764,
    "not,</w>": 4765,
    "not.</w>": 4766,
    "not;</w>": 4767,
    "not</w>": 4768,
    "not?</w>": 4769,
    "note</w>": 4770,
    "notes</w>": 4771,
    "nothing": 4772,
    "nothing,</w>": 4773,
    "nothing.</w>": 4774,
    "nothing</w>": 4775,
    "notic": 4776,
    "notice</w>": 4777,
    "noticed</w>": 4778,
    "notwith": 4779,
    "notwithstanding</w>": 4780,
    "nove": 4781,
    "now": 4782,
    "now!</w>": 4783,
    "now,</w>": 4784,
    "now,\u201d</w>": 4785,
    "now.</w>": 4786,
    "now</w>": 4787,
    "now?</w>": 4788,
    "ns</w>": 4789,
    "nu": 4790,
    "num": 4791,
    "number": 4792,
    "number</w>": 4793,
    "numbers</w>": 4794,
    "numer": 4795,
    "nur": 4796,
    "nurse.</w>": 4797,
    "ny": 4798,
    "ny</w>": 4799,
    "n\u2019d</w>": 4800,
    "n\u2019t</w>": 4801,
    "o": 4802,
    "o!</w>": 4803,
    "o,</w>": 4804,
    "o.</w>": 4805,
    "o</w>": 4806,
    "oa": 4807,
    "oath": 4808,
    "ob": 4809,
    "obam": 4810,
    "obama</w>": 4811,
    "obamac": 4812,
    "obamacare</w>": 4813,
    "obe": 4814,
    "obedi": 4815,
    "obey</w>": 4816,
    "objec": 4817,
    "object</w>": 4818,
    "obli": 4819,
    "obliged</w>": 4820,
    "obsc": 4821,
    "obser": 4822,
    "observ": 4823,
    "observe</w>": 4824,
    "observed</w>": 4825,
    "obtain</w>": 4826,
    "oc": 4827,
    "occasi": 4828,
    "occasion": 4829,
    "occasion</w>": 4830,
    "occup": 4831,
    "occupied</w>": 4832,
    "occur": 4833,
    "occurred</w>": 4834,
    "oce": 4835,
    "od": 4836,
    "od,</w>": 4837,
    "od.</w>": 4838,
    "od</w>": 4839,
    "odd</w>": 4840,
    "of": 4841,
    "of,</w>": 4842,
    "of.</w>": 4843,
    "of</w>": 4844,
    "of]</w>": 4845,
    "off": 4846,
    "off,</w>": 4847,
    "off.</w>": 4848,
    "off</w>": 4849,
    "offen": 4850,
    "offer": 4851,
    "offer</w>": 4852,
    "offered</w>": 4853,
    "offering</w>": 4854,
    "offic": 4855,
    "office,</w>": 4856,
    "office</w>": 4857,
    "officer</w>": 4858,
    "officers</w>": 4859,
    "offici": 4860,
    "official</w>": 4861,
    "oft</w>": 4862,
    "often</w>": 4863,
    "oh": 4864,
    "oh!</w>": 4865,
    "oh,</w>": 4866,
    "oh</w>": 4867,
    "oil</w>": 4868,
    "ok</w>": 4869,
    "ol": 4870,
    "ol</w>": 4871,
    "old": 4872,
    "old,</w>": 4873,
    "old</w>": 4874,
    "oli": 4875,
    "om": 4876,
    "om,</w>": 4877,
    "om.</w>": 4878,
    "om</w>": 4879,
    "omi": 4880,
    "omin": 4881,
    "omy</w>": 4882,
    "on": 4883,
    "on!</w>": 4884,
    "on,</w>": 4885,
    "on.</w>": 4886,
    "on.\u201d</w>": 4887,
    "on:</w>": 4888,
    "on;</w>": 4889,
    "on</w>": 4890,
    "once": 4891,
    "once,</w>": 4892,
    "once.</w>": 4893,
    "once</w>": 4894,
    "ond</w>": 4895,
    "one": 4896,
    "one,</w>": 4897,
    "one.</w>": 4898,
    "one;</w>": 4899,
    "one</w>": 4900,
    "oned</w>": 4901,
    "onely</w>": 4902,
    "ones</w>": 4903,
    "one\u2019s</w>": 4904,
    "ong": 4905,
    "ong</w>": 4906,
    "oni": 4907,
    "only</w>": 4908,
    "ons,</w>": 4909,
    "ons.</w>": 4910,
    "ons</w>": 4911,
    "ony</w>": 4912,
    "on\u2019s</w>": 4913,
    "op": 4914,
    "op</w>": 4915,
    "open": 4916,
    "open,</w>": 4917,
    "open</w>": 4918,
    "opened</w>": 4919,
    "opening</w>": 4920,
    "oper": 4921,
    "opini": 4922,
    "opinion,</w>": 4923,
    "opinion</w>": 4924,
    "opportun": 4925,
    "opportunity</w>": 4926,
    "oppos": 4927,
    "opposite</w>": 4928,
    "oppres": 4929,
    "or": 4930,
    "or,</w>": 4931,
    "or.</w>": 4932,
    "or</w>": 4933,
    "order": 4934,
    "order</w>": 4935,
    "ordered</w>": 4936,
    "orders</w>": 4937,
    "ordin": 4938,
    "ordinary</w>": 4939,
    "org": 4940,
    "orig": 4941,
    "origin": 4942,
    "original</w>": 4943,
    "orlan": 4944,
    "ornam": 4945,
    "ors</w>": 4946,
    "ory</w>": 4947,
    "os": 4948,
    "os</w>": 4949,
    "ose</w>": 4950,
    "othe": 4951,
    "othell": 4952,
    "othello.</w>": 4953,
    "other": 4954,
    "other,</w>": 4955,
    "other.</w>": 4956,
    "other</w>": 4957,
    "others,</w>": 4958,
    "others.</w>": 4959,
    "others</w>": 4960,
    "otherwise</w>": 4961,
    "ou": 4962,
    "ough": 4963,
    "ough</w>": 4964,
    "ought</w>": 4965,
    "ould": 4966,
    "ould</w>": 4967,
    "ouldn\u2019t</w>": 4968,
    "oun": 4969,
    "ound": 4970,
    "ound,</w>": 4971,
    "ound.</w>": 4972,
    "ound;</w>": 4973,
    "ound</w>": 4974,
    "ounded</w>": 4975,
    "ounding</w>": 4976,
    "ounds,</w>": 4977,
    "ounds</w>": 4978,
    "our": 4979,
    "our,</w>": 4980,
    "our.</w>": 4981,
    "our</w>": 4982,
    "oured</w>": 4983,
    "ouri": 4984,
    "ouring</w>": 4985,
    "ours,</w>": 4986,
    "ours</w>": 4987,
    "oursel": 4988,
    "ourselves</w>": 4989,
    "ous": 4990,
    "ous,</w>": 4991,
    "ous.</w>": 4992,
    "ous</w>": 4993,
    "ously,</w>": 4994,
    "ously.</w>": 4995,
    "ously</w>": 4996,
    "ousness</w>": 4997,
    "out": 4998,
    "out,</w>": 4999,
    "out.</w>": 5000,
    "out</w>": 5001,
    "outside</w>": 5002,
    "ov": 5003,
    "over": 5004,
    "over,</w>": 5005,
    "over.</w>": 5006,
    "over</w>": 5007,
    "overwhel": 5008,
    "ovit": 5009,
    "ow": 5010,
    "ow,</w>": 5011,
    "ow</w>": 5012,
    "owe</w>": 5013,
    "owed</w>": 5014,
    "owing</w>": 5015,
    "own": 5016,
    "own,</w>": 5017,
    "own.</w>": 5018,
    "own</w>": 5019,
    "owner</w>": 5020,
    "ox": 5021,
    "o\u2019": 5022,
    "o\u2019</w>": 5023,
    "o\u2019clo": 5024,
    "o\u2019clock</w>": 5025,
    "o\u2019er": 5026,
    "o\u2019er</w>": 5027,
    "o\u2019s</w>": 5028,
    "p": 5029,
    "p,</w>": 5030,
    "p.</w>": 5031,
    "p</w>": 5032,
    "pa": 5033,
    "pac": 5034,
    "page.</w>": 5035,
    "page</w>": 5036,
    "paid</w>": 5037,
    "pain": 5038,
    "pain</w>": 5039,
    "painful</w>": 5040,
    "pains</w>": 5041,
    "painted</w>": 5042,
    "pair</w>": 5043,
    "pal": 5044,
    "palac": 5045,
    "palace.</w>": 5046,
    "palace</w>": 5047,
    "palam": 5048,
    "palamon.</w>": 5049,
    "pale,</w>": 5050,
    "pale</w>": 5051,
    "pan": 5052,
    "pand": 5053,
    "pandar": 5054,
    "pandarus.</w>": 5055,
    "pap": 5056,
    "paper": 5057,
    "paper</w>": 5058,
    "par": 5059,
    "parag": 5060,
    "paragra": 5061,
    "paragraph</w>": 5062,
    "pardon": 5063,
    "pardon</w>": 5064,
    "pare</w>": 5065,
    "paris": 5066,
    "paris,</w>": 5067,
    "paris.</w>": 5068,
    "paris</w>": 5069,
    "paro": 5070,
    "paroll": 5071,
    "parolles.</w>": 5072,
    "part": 5073,
    "part,</w>": 5074,
    "part</w>": 5075,
    "parted</w>": 5076,
    "parti": 5077,
    "particu": 5078,
    "particular": 5079,
    "particular</w>": 5080,
    "particularly</w>": 5081,
    "partly</w>": 5082,
    "partri": 5083,
    "parts</w>": 5084,
    "party</w>": 5085,
    "pas": 5086,
    "pass,</w>": 5087,
    "pass</w>": 5088,
    "passage</w>": 5089,
    "passed</w>": 5090,
    "passing</w>": 5091,
    "passion": 5092,
    "passion,</w>": 5093,
    "passion</w>": 5094,
    "past,</w>": 5095,
    "past</w>": 5096,
    "pat": 5097,
    "path</w>": 5098,
    "pati": 5099,
    "patience</w>": 5100,
    "patient</w>": 5101,
    "patri": 5102,
    "patro": 5103,
    "pau": 5104,
    "paul</w>": 5105,
    "pav": 5106,
    "pavlo": 5107,
    "pay": 5108,
    "pay</w>": 5109,
    "paying</w>": 5110,
    "pe": 5111,
    "pe,</w>": 5112,
    "pe.</w>": 5113,
    "pe</w>": 5114,
    "peac": 5115,
    "peace,</w>": 5116,
    "peace.</w>": 5117,
    "peace</w>": 5118,
    "pear": 5119,
    "peas": 5120,
    "pecu": 5121,
    "peculiar</w>": 5122,
    "ped,</w>": 5123,
    "ped</w>": 5124,
    "pedro": 5125,
    "pen": 5126,
    "pen</w>": 5127,
    "pend": 5128,
    "penetr": 5129,
    "penn": 5130,
    "pennsylvani": 5131,
    "peop": 5132,
    "people": 5133,
    "people,</w>": 5134,
    "people.</w>": 5135,
    "people</w>": 5136,
    "pequ": 5137,
    "per": 5138,
    "per</w>": 5139,
    "percei": 5140,
    "perceive</w>": 5141,
    "perceived</w>": 5142,
    "perfec": 5143,
    "perfect</w>": 5144,
    "perfectly</w>": 5145,
    "perfor": 5146,
    "perform": 5147,
    "performan": 5148,
    "performance</w>": 5149,
    "perha": 5150,
    "perhaps,</w>": 5151,
    "perhaps</w>": 5152,
    "peri": 5153,
    "peric": 5154,
    "period</w>": 5155,
    "permission</w>": 5156,
    "permitted</w>": 5157,
    "perpe": 5158,
    "persi": 5159,
    "person": 5160,
    "person,</w>": 5161,
    "person</w>": 5162,
    "personal</w>": 5163,
    "persons</w>": 5164,
    "persu": 5165,
    "persuade</w>": 5166,
    "persuaded</w>": 5167,
    "pes</w>": 5168,
    "peter": 5169,
    "peter</w>": 5170,
    "petro": 5171,
    "petru": 5172,
    "petruchi": 5173,
    "petruchio.</w>": 5174,
    "ph": 5175,
    "ph,</w>": 5176,
    "ph.</w>": 5177,
    "ph</w>": 5178,
    "pha": 5179,
    "phara": 5180,
    "phe": 5181,
    "pher": 5182,
    "phi": 5183,
    "phili": 5184,
    "philist": 5185,
    "philo": 5186,
    "philoso": 5187,
    "philosoph": 5188,
    "pho": 5189,
    "phon": 5190,
    "phras": 5191,
    "phrase</w>": 5192,
    "phy": 5193,
    "physi": 5194,
    "physical</w>": 5195,
    "physici": 5196,
    "pi": 5197,
    "pic": 5198,
    "picked</w>": 5199,
    "pictu": 5200,
    "picture</w>": 5201,
    "pie": 5202,
    "piec": 5203,
    "piece</w>": 5204,
    "pieces</w>": 5205,
    "pier": 5206,
    "pil": 5207,
    "pill": 5208,
    "pin": 5209,
    "ping</w>": 5210,
    "pip": 5211,
    "pir": 5212,
    "pis": 5213,
    "pisto": 5214,
    "pit": 5215,
    "piti": 5216,
    "pity</w>": 5217,
    "pl": 5218,
    "pla": 5219,
    "plac": 5220,
    "place,</w>": 5221,
    "place.</w>": 5222,
    "place</w>": 5223,
    "placed</w>": 5224,
    "places</w>": 5225,
    "plague</w>": 5226,
    "plain": 5227,
    "plain,</w>": 5228,
    "plain</w>": 5229,
    "plained</w>": 5230,
    "plainly</w>": 5231,
    "plan": 5232,
    "plan</w>": 5233,
    "play": 5234,
    "play</w>": 5235,
    "played</w>": 5236,
    "playing</w>": 5237,
    "ple": 5238,
    "ple,</w>": 5239,
    "ple</w>": 5240,
    "plea": 5241,
    "pleas": 5242,
    "pleasant</w>": 5243,
    "please</w>": 5244,
    "pleased</w>": 5245,
    "pleasure": 5246,
    "pleasure,</w>": 5247,
    "pleasure</w>": 5248,
    "plent": 5249,
    "ples</w>": 5250,
    "plu": 5251,
    "pluck</w>": 5252,
    "plun": 5253,
    "pm</w>": 5254,
    "po": 5255,
    "pocke": 5256,
    "pocket</w>": 5257,
    "poin": 5258,
    "point": 5259,
    "point</w>": 5260,
    "pointed</w>": 5261,
    "pointing</w>": 5262,
    "points</w>": 5263,
    "pois": 5264,
    "poli": 5265,
    "polic": 5266,
    "police</w>": 5267,
    "politi": 5268,
    "politic": 5269,
    "political</w>": 5270,
    "poll": 5271,
    "poll</w>": 5272,
    "pom": 5273,
    "pompe": 5274,
    "pon": 5275,
    "poor": 5276,
    "poor,</w>": 5277,
    "poor</w>": 5278,
    "popu": 5279,
    "por": 5280,
    "port": 5281,
    "port</w>": 5282,
    "portho": 5283,
    "porti": 5284,
    "portion</w>": 5285,
    "portra": 5286,
    "portun": 5287,
    "pos": 5288,
    "pose</w>": 5289,
    "posed</w>": 5290,
    "posi": 5291,
    "posing</w>": 5292,
    "position,</w>": 5293,
    "position</w>": 5294,
    "poss": 5295,
    "posses": 5296,
    "possess</w>": 5297,
    "possessed</w>": 5298,
    "possession</w>": 5299,
    "possi": 5300,
    "possible,</w>": 5301,
    "possible</w>": 5302,
    "possibly</w>": 5303,
    "post": 5304,
    "post</w>": 5305,
    "posted</w>": 5306,
    "poured</w>": 5307,
    "pover": 5308,
    "pow": 5309,
    "power": 5310,
    "power,</w>": 5311,
    "power</w>": 5312,
    "powerful</w>": 5313,
    "powers</w>": 5314,
    "pp": 5315,
    "pped</w>": 5316,
    "pper": 5317,
    "pping</w>": 5318,
    "ppren": 5319,
    "pr": 5320,
    "pra": 5321,
    "prac": 5322,
    "practi": 5323,
    "practic": 5324,
    "prai": 5325,
    "praise</w>": 5326,
    "pray": 5327,
    "pray,</w>": 5328,
    "pray</w>": 5329,
    "prayers</w>": 5330,
    "pre": 5331,
    "prece": 5332,
    "preci": 5333,
    "precious</w>": 5334,
    "prefer": 5335,
    "prehen": 5336,
    "prepa": 5337,
    "prepar": 5338,
    "prepare</w>": 5339,
    "prepared</w>": 5340,
    "pres": 5341,
    "presence</w>": 5342,
    "present": 5343,
    "present,</w>": 5344,
    "present</w>": 5345,
    "presented</w>": 5346,
    "presently</w>": 5347,
    "preserve</w>": 5348,
    "presi": 5349,
    "president": 5350,
    "president</w>": 5351,
    "presidential</w>": 5352,
    "press</w>": 5353,
    "pressed</w>": 5354,
    "presu": 5355,
    "preten": 5356,
    "pretty</w>": 5357,
    "prev": 5358,
    "prevent</w>": 5359,
    "previous</w>": 5360,
    "pri": 5361,
    "price</w>": 5362,
    "pride</w>": 5363,
    "priest": 5364,
    "priest</w>": 5365,
    "priests</w>": 5366,
    "prin": 5367,
    "princ": 5368,
    "prince,</w>": 5369,
    "prince.</w>": 5370,
    "prince</w>": 5371,
    "princes</w>": 5372,
    "princi": 5373,
    "princip": 5374,
    "printed</w>": 5375,
    "prison": 5376,
    "prison</w>": 5377,
    "prisoner</w>": 5378,
    "priv": 5379,
    "private</w>": 5380,
    "privi": 5381,
    "pro": 5382,
    "probab": 5383,
    "probably</w>": 5384,
    "proble": 5385,
    "proc": 5386,
    "proce": 5387,
    "proceed</w>": 5388,
    "proceeded</w>": 5389,
    "procu": 5390,
    "produc": 5391,
    "produce</w>": 5392,
    "produced</w>": 5393,
    "prof": 5394,
    "profes": 5395,
    "profess": 5396,
    "profession": 5397,
    "professor</w>": 5398,
    "profound</w>": 5399,
    "progre": 5400,
    "projec": 5401,
    "project</w>": 5402,
    "prom": 5403,
    "promi": 5404,
    "promise</w>": 5405,
    "promised</w>": 5406,
    "promo": 5407,
    "pron": 5408,
    "pronoun": 5409,
    "pronounced</w>": 5410,
    "proof</w>": 5411,
    "prop": 5412,
    "proper": 5413,
    "proper</w>": 5414,
    "property</w>": 5415,
    "prophe": 5416,
    "propos": 5417,
    "proposed</w>": 5418,
    "propri": 5419,
    "prosecu": 5420,
    "prospect</w>": 5421,
    "prosper": 5422,
    "prote": 5423,
    "protec": 5424,
    "protect</w>": 5425,
    "protected</w>": 5426,
    "proteus.</w>": 5427,
    "prou": 5428,
    "proud</w>": 5429,
    "prove</w>": 5430,
    "proved</w>": 5431,
    "prover": 5432,
    "proverbs</w>": 5433,
    "provi": 5434,
    "provide</w>": 5435,
    "provided</w>": 5436,
    "provo": 5437,
    "pru": 5438,
    "pryn": 5439,
    "ps,</w>": 5440,
    "ps</w>": 5441,
    "psal": 5442,
    "psalm</w>": 5443,
    "pt</w>": 5444,
    "pu": 5445,
    "pub": 5446,
    "publi": 5447,
    "public": 5448,
    "public</w>": 5449,
    "pul": 5450,
    "pulled</w>": 5451,
    "pum": 5452,
    "pun": 5453,
    "punish": 5454,
    "pup": 5455,
    "pur": 5456,
    "purcha": 5457,
    "pure</w>": 5458,
    "purpo": 5459,
    "purpose,</w>": 5460,
    "purpose.</w>": 5461,
    "purpose</w>": 5462,
    "pursu": 5463,
    "pursued</w>": 5464,
    "pus": 5465,
    "put</w>": 5466,
    "putting</w>": 5467,
    "py": 5468,
    "pyo": 5469,
    "pyotr</w>": 5470,
    "q": 5471,
    "q</w>": 5472,
    "qu": 5473,
    "qua": 5474,
    "quali": 5475,
    "quality</w>": 5476,
    "quar": 5477,
    "quarrel</w>": 5478,
    "quarter": 5479,
    "quarter</w>": 5480,
    "que": 5481,
    "que</w>": 5482,
    "quee": 5483,
    "queen": 5484,
    "queen,</w>": 5485,
    "queen.</w>": 5486,
    "queen</w>": 5487,
    "queeque": 5488,
    "queequeg</w>": 5489,
    "questi": 5490,
    "question": 5491,
    "question,</w>": 5492,
    "question</w>": 5493,
    "questions</w>": 5494,
    "qui": 5495,
    "quick": 5496,
    "quick</w>": 5497,
    "quickly</w>": 5498,
    "quiet": 5499,
    "quiet</w>": 5500,
    "quietly</w>": 5501,
    "quin": 5502,
    "quired</w>": 5503,
    "quis": 5504,
    "quit": 5505,
    "quit</w>": 5506,
    "quite</w>": 5507,
    "quo": 5508,
    "r": 5509,
    "r</w>": 5510,
    "ra": 5511,
    "ra</w>": 5512,
    "rac": 5513,
    "race</w>": 5514,
    "radi": 5515,
    "radical</w>": 5516,
    "rag": 5517,
    "rage</w>": 5518,
    "rai": 5519,
    "rain</w>": 5520,
    "raise</w>": 5521,
    "raised</w>": 5522,
    "raising</w>": 5523,
    "ram": 5524,
    "ran": 5525,
    "ran</w>": 5526,
    "rang</w>": 5527,
    "rank</w>": 5528,
    "rant</w>": 5529,
    "raou": 5530,
    "rap": 5531,
    "rapi": 5532,
    "ras": 5533,
    "raskol": 5534,
    "raskolnikov": 5535,
    "raskolnikov</w>": 5536,
    "rat": 5537,
    "rate</w>": 5538,
    "rather</w>": 5539,
    "rav": 5540,
    "ray</w>": 5541,
    "raz": 5542,
    "razumi": 5543,
    "re": 5544,
    "re,</w>": 5545,
    "re-": 5546,
    "re.</w>": 5547,
    "re:</w>": 5548,
    "re;</w>": 5549,
    "re</w>": 5550,
    "reach</w>": 5551,
    "reached</w>": 5552,
    "read": 5553,
    "read</w>": 5554,
    "reader</w>": 5555,
    "reading</w>": 5556,
    "ready</w>": 5557,
    "real": 5558,
    "real</w>": 5559,
    "reali": 5560,
    "really</w>": 5561,
    "reas": 5562,
    "reason": 5563,
    "reason,</w>": 5564,
    "reason</w>": 5565,
    "reasonable</w>": 5566,
    "reasons</w>": 5567,
    "rebe": 5568,
    "rec": 5569,
    "recei": 5570,
    "receive</w>": 5571,
    "received</w>": 5572,
    "receiving</w>": 5573,
    "reck": 5574,
    "reco": 5575,
    "recogni": 5576,
    "recollec": 5577,
    "reconci": 5578,
    "recor": 5579,
    "record</w>": 5580,
    "recover": 5581,
    "rect</w>": 5582,
    "red": 5583,
    "red,</w>": 5584,
    "red.</w>": 5585,
    "red</w>": 5586,
    "rede": 5587,
    "ref": 5588,
    "refer": 5589,
    "reflec": 5590,
    "refu": 5591,
    "refund</w>": 5592,
    "refuse</w>": 5593,
    "refused</w>": 5594,
    "reg": 5595,
    "regar": 5596,
    "regard</w>": 5597,
    "regarded</w>": 5598,
    "regi": 5599,
    "regre": 5600,
    "regu": 5601,
    "regular</w>": 5602,
    "reig": 5603,
    "rejo": 5604,
    "rejoic": 5605,
    "rel": 5606,
    "rel,</w>": 5607,
    "rel</w>": 5608,
    "rele": 5609,
    "reli": 5610,
    "relie": 5611,
    "religi": 5612,
    "rely</w>": 5613,
    "rema": 5614,
    "remain": 5615,
    "remain</w>": 5616,
    "remained</w>": 5617,
    "remaining</w>": 5618,
    "remains</w>": 5619,
    "remar": 5620,
    "remark": 5621,
    "remarkable</w>": 5622,
    "reme": 5623,
    "remember": 5624,
    "remember,</w>": 5625,
    "remember</w>": 5626,
    "remembered</w>": 5627,
    "remembr": 5628,
    "remembrance</w>": 5629,
    "remin": 5630,
    "remo": 5631,
    "remor": 5632,
    "remove</w>": 5633,
    "removed</w>": 5634,
    "ren": 5635,
    "render</w>": 5636,
    "rendered</w>": 5637,
    "rene": 5638,
    "rent</w>": 5639,
    "rep": 5640,
    "repe": 5641,
    "repeated</w>": 5642,
    "repl": 5643,
    "replac": 5644,
    "replacement</w>": 5645,
    "repli": 5646,
    "replied,</w>": 5647,
    "replied</w>": 5648,
    "repor": 5649,
    "report</w>": 5650,
    "represent": 5651,
    "repro": 5652,
    "repu": 5653,
    "republi": 5654,
    "republican": 5655,
    "republican</w>": 5656,
    "republicans</w>": 5657,
    "reputation</w>": 5658,
    "requ": 5659,
    "reque": 5660,
    "request</w>": 5661,
    "requi": 5662,
    "require": 5663,
    "require</w>": 5664,
    "required</w>": 5665,
    "res": 5666,
    "res,</w>": 5667,
    "res.</w>": 5668,
    "res</w>": 5669,
    "rescu": 5670,
    "resembl": 5671,
    "resent": 5672,
    "resi": 5673,
    "resol": 5674,
    "resolu": 5675,
    "resolution</w>": 5676,
    "resolved</w>": 5677,
    "resp": 5678,
    "respec": 5679,
    "respect</w>": 5680,
    "respon": 5681,
    "rest": 5682,
    "rest,</w>": 5683,
    "rest.</w>": 5684,
    "rest</w>": 5685,
    "rested</w>": 5686,
    "resto": 5687,
    "restra": 5688,
    "resu": 5689,
    "resul": 5690,
    "result</w>": 5691,
    "reti": 5692,
    "retired</w>": 5693,
    "retur": 5694,
    "return": 5695,
    "return,</w>": 5696,
    "return</w>": 5697,
    "returned</w>": 5698,
    "returning</w>": 5699,
    "rev": 5700,
    "reve": 5701,
    "revel": 5702,
    "revelation</w>": 5703,
    "reven": 5704,
    "reveng": 5705,
    "revenge</w>": 5706,
    "rever": 5707,
    "reverend</w>": 5708,
    "revi": 5709,
    "revol": 5710,
    "ri": 5711,
    "ri</w>": 5712,
    "ric": 5713,
    "rich": 5714,
    "rich</w>": 5715,
    "richar": 5716,
    "richard.</w>": 5717,
    "richard</w>": 5718,
    "rid</w>": 5719,
    "ridi": 5720,
    "ridicul": 5721,
    "ried</w>": 5722,
    "ries</w>": 5723,
    "right": 5724,
    "right,</w>": 5725,
    "right.</w>": 5726,
    "right</w>": 5727,
    "righte": 5728,
    "rin": 5729,
    "ring</w>": 5730,
    "rio": 5731,
    "rious</w>": 5732,
    "ris": 5733,
    "rise</w>": 5734,
    "rising</w>": 5735,
    "rit": 5736,
    "rit</w>": 5737,
    "river": 5738,
    "river</w>": 5739,
    "ro": 5740,
    "road": 5741,
    "road,</w>": 5742,
    "road</w>": 5743,
    "rob": 5744,
    "roche": 5745,
    "rog": 5746,
    "rolled</w>": 5747,
    "rom": 5748,
    "roman": 5749,
    "roman</w>": 5750,
    "romans</w>": 5751,
    "rome": 5752,
    "rome,</w>": 5753,
    "rome.</w>": 5754,
    "rome</w>": 5755,
    "romeo.</w>": 5756,
    "ron": 5757,
    "ron</w>": 5758,
    "ronic": 5759,
    "roo": 5760,
    "room": 5761,
    "room,</w>": 5762,
    "room.</w>": 5763,
    "room</w>": 5764,
    "rooms</w>": 5765,
    "ror": 5766,
    "ror</w>": 5767,
    "ros": 5768,
    "rosal": 5769,
    "rosalin": 5770,
    "rosalind.</w>": 5771,
    "rosam": 5772,
    "rose</w>": 5773,
    "ross</w>": 5774,
    "rou": 5775,
    "rough</w>": 5776,
    "round,</w>": 5777,
    "round</w>": 5778,
    "row": 5779,
    "row</w>": 5780,
    "roy": 5781,
    "royal": 5782,
    "royal</w>": 5783,
    "rt</w>": 5784,
    "ru": 5785,
    "rue</w>": 5786,
    "ruin</w>": 5787,
    "rule</w>": 5788,
    "rum": 5789,
    "run": 5790,
    "run</w>": 5791,
    "running</w>": 5792,
    "rup": 5793,
    "rus": 5794,
    "rushed</w>": 5795,
    "russi": 5796,
    "russia</w>": 5797,
    "russian</w>": 5798,
    "ry": 5799,
    "ry,</w>": 5800,
    "ry.</w>": 5801,
    "ry</w>": 5802,
    "rying</w>": 5803,
    "s": 5804,
    "s!</w>": 5805,
    "s!\u201d</w>": 5806,
    "s)</w>": 5807,
    "s,</w>": 5808,
    "s,\u201d</w>": 5809,
    "s-": 5810,
    "s--": 5811,
    "s.": 5812,
    "s.</w>": 5813,
    "s._]</w>": 5814,
    "s.\u201d</w>": 5815,
    "s://t.co/": 5816,
    "s:</w>": 5817,
    "s;</w>": 5818,
    "s</w>": 5819,
    "s?</w>": 5820,
    "s?\u201d</w>": 5821,
    "sa": 5822,
    "sa</w>": 5823,
    "sac": 5824,
    "sacred</w>": 5825,
    "sacri": 5826,
    "sacrif": 5827,
    "sacrific": 5828,
    "sacrifice</w>": 5829,
    "sad": 5830,
    "sad</w>": 5831,
    "safe": 5832,
    "safe</w>": 5833,
    "safety</w>": 5834,
    "sag": 5835,
    "sage</w>": 5836,
    "sai": 5837,
    "said": 5838,
    "said,</w>": 5839,
    "said.</w>": 5840,
    "said:</w>": 5841,
    "said</w>": 5842,
    "sail</w>": 5843,
    "sailor": 5844,
    "sain": 5845,
    "saint</w>": 5846,
    "saith</w>": 5847,
    "sake,</w>": 5848,
    "sake</w>": 5849,
    "sal": 5850,
    "salis": 5851,
    "salv": 5852,
    "sam": 5853,
    "same.</w>": 5854,
    "same</w>": 5855,
    "samuel</w>": 5856,
    "san": 5857,
    "san</w>": 5858,
    "sanc": 5859,
    "sand": 5860,
    "sank</w>": 5861,
    "sar": 5862,
    "sat": 5863,
    "sat</w>": 5864,
    "satis": 5865,
    "satisfac": 5866,
    "satisfaction</w>": 5867,
    "satisfi": 5868,
    "satisfied</w>": 5869,
    "satur": 5870,
    "sau": 5871,
    "sav": 5872,
    "savage</w>": 5873,
    "save</w>": 5874,
    "saved</w>": 5875,
    "saw</w>": 5876,
    "say": 5877,
    "say,</w>": 5878,
    "say.</w>": 5879,
    "say</w>": 5880,
    "saying,</w>": 5881,
    "saying</w>": 5882,
    "says,</w>": 5883,
    "says:</w>": 5884,
    "says</w>": 5885,
    "sc": 5886,
    "sca": 5887,
    "scand": 5888,
    "scar": 5889,
    "scarce</w>": 5890,
    "scarcely</w>": 5891,
    "scarlet</w>": 5892,
    "scatter": 5893,
    "scen": 5894,
    "scene</w>": 5895,
    "sch": 5896,
    "sche": 5897,
    "scho": 5898,
    "school": 5899,
    "school</w>": 5900,
    "sci": 5901,
    "sco": 5902,
    "scor": 5903,
    "scot": 5904,
    "scra": 5905,
    "scre": 5906,
    "scri": 5907,
    "scrip": 5908,
    "scroo": 5909,
    "scrup": 5910,
    "scu": 5911,
    "se": 5912,
    "se!</w>": 5913,
    "se,</w>": 5914,
    "se,\u201d</w>": 5915,
    "se-": 5916,
    "se.</w>": 5917,
    "se.\u201d</w>": 5918,
    "se:</w>": 5919,
    "se;</w>": 5920,
    "se</w>": 5921,
    "se?</w>": 5922,
    "sea": 5923,
    "sea,</w>": 5924,
    "sea-": 5925,
    "sea.</w>": 5926,
    "sea</w>": 5927,
    "sear": 5928,
    "search</w>": 5929,
    "seas": 5930,
    "season</w>": 5931,
    "seat</w>": 5932,
    "seated</w>": 5933,
    "sebasti": 5934,
    "sec": 5935,
    "secon": 5936,
    "second</w>": 5937,
    "secre": 5938,
    "secret</w>": 5939,
    "section</w>": 5940,
    "secu": 5941,
    "secur": 5942,
    "secure</w>": 5943,
    "security</w>": 5944,
    "sed,</w>": 5945,
    "sed.</w>": 5946,
    "sed;</w>": 5947,
    "sed</w>": 5948,
    "see": 5949,
    "see,</w>": 5950,
    "see.</w>": 5951,
    "see</w>": 5952,
    "seeing</w>": 5953,
    "seek</w>": 5954,
    "seeking</w>": 5955,
    "seem": 5956,
    "seem</w>": 5957,
    "seemed</w>": 5958,
    "seems</w>": 5959,
    "seen,</w>": 5960,
    "seen</w>": 5961,
    "sees</w>": 5962,
    "sei": 5963,
    "seized</w>": 5964,
    "sel": 5965,
    "sel</w>": 5966,
    "seldom</w>": 5967,
    "seless</w>": 5968,
    "self": 5969,
    "self,</w>": 5970,
    "self-": 5971,
    "self.</w>": 5972,
    "self</w>": 5973,
    "sell": 5974,
    "sell</w>": 5975,
    "sely</w>": 5976,
    "sembl": 5977,
    "sen": 5978,
    "sen</w>": 5979,
    "sena": 5980,
    "senate</w>": 5981,
    "send</w>": 5982,
    "sending</w>": 5983,
    "sens": 5984,
    "sense,</w>": 5985,
    "sense</w>": 5986,
    "sensi": 5987,
    "sensible</w>": 5988,
    "sent": 5989,
    "sent</w>": 5990,
    "sentence</w>": 5991,
    "senti": 5992,
    "separ": 5993,
    "sequ": 5994,
    "ser": 5995,
    "ser</w>": 5996,
    "seri": 5997,
    "serious</w>": 5998,
    "serp": 5999,
    "serv": 6000,
    "servant": 6001,
    "servant,</w>": 6002,
    "servant.</w>": 6003,
    "servant</w>": 6004,
    "servants,</w>": 6005,
    "servants</w>": 6006,
    "serve</w>": 6007,
    "served</w>": 6008,
    "servic": 6009,
    "service,</w>": 6010,
    "service</w>": 6011,
    "ses": 6012,
    "ses,</w>": 6013,
    "ses.</w>": 6014,
    "ses</w>": 6015,
    "set,</w>": 6016,
    "set</w>": 6017,
    "seth</w>": 6018,
    "sett": 6019,
    "setting</w>": 6020,
    "settled</w>": 6021,
    "seven": 6022,
    "seven</w>": 6023,
    "sevent": 6024,
    "sever": 6025,
    "several</w>": 6026,
    "sh": 6027,
    "sh,</w>": 6028,
    "sh.</w>": 6029,
    "sh</w>": 6030,
    "sha": 6031,
    "shadow": 6032,
    "shadow</w>": 6033,
    "shake</w>": 6034,
    "shaking</w>": 6035,
    "shall</w>": 6036,
    "shallow": 6037,
    "shallow.</w>": 6038,
    "shalt</w>": 6039,
    "shame": 6040,
    "shame,</w>": 6041,
    "shame</w>": 6042,
    "shape</w>": 6043,
    "shar": 6044,
    "share</w>": 6045,
    "sharp</w>": 6046,
    "she": 6047,
    "she,</w>": 6048,
    "she</w>": 6049,
    "shed</w>": 6050,
    "sheep": 6051,
    "shel": 6052,
    "shepher": 6053,
    "she\u2019s</w>": 6054,
    "shi": 6055,
    "shine</w>": 6056,
    "shining</w>": 6057,
    "ship": 6058,
    "ship,</w>": 6059,
    "ship.</w>": 6060,
    "ship</w>": 6061,
    "ships</w>": 6062,
    "ship\u2019s</w>": 6063,
    "shir": 6064,
    "sho": 6065,
    "shoo": 6066,
    "shook</w>": 6067,
    "shop": 6068,
    "shor": 6069,
    "short,</w>": 6070,
    "short</w>": 6071,
    "shot</w>": 6072,
    "shou": 6073,
    "shoul": 6074,
    "should": 6075,
    "should</w>": 6076,
    "show": 6077,
    "show</w>": 6078,
    "showed</w>": 6079,
    "showing</w>": 6080,
    "shown</w>": 6081,
    "shows</w>": 6082,
    "shri": 6083,
    "shu": 6084,
    "shud": 6085,
    "shut</w>": 6086,
    "si": 6087,
    "sible</w>": 6088,
    "sic": 6089,
    "sick": 6090,
    "sick</w>": 6091,
    "side": 6092,
    "side,</w>": 6093,
    "side.</w>": 6094,
    "side</w>": 6095,
    "sides</w>": 6096,
    "sie</w>": 6097,
    "sig": 6098,
    "sigh": 6099,
    "sight": 6100,
    "sight,</w>": 6101,
    "sight</w>": 6102,
    "sign": 6103,
    "sign</w>": 6104,
    "signed</w>": 6105,
    "signi": 6106,
    "signific": 6107,
    "signs</w>": 6108,
    "sil": 6109,
    "silence,</w>": 6110,
    "silence.</w>": 6111,
    "silence</w>": 6112,
    "silent</w>": 6113,
    "silver</w>": 6114,
    "sim": 6115,
    "simi": 6116,
    "similar</w>": 6117,
    "simp": 6118,
    "simple</w>": 6119,
    "simply</w>": 6120,
    "sin": 6121,
    "sin,</w>": 6122,
    "sin</w>": 6123,
    "since</w>": 6124,
    "sincer": 6125,
    "sing": 6126,
    "sing,</w>": 6127,
    "sing</w>": 6128,
    "single</w>": 6129,
    "sion": 6130,
    "sion,</w>": 6131,
    "sion.</w>": 6132,
    "sion</w>": 6133,
    "sions</w>": 6134,
    "sir": 6135,
    "sir,</w>": 6136,
    "sir,\u201d</w>": 6137,
    "sir.</w>": 6138,
    "sir;</w>": 6139,
    "sir</w>": 6140,
    "sir?</w>": 6141,
    "sirra": 6142,
    "sister": 6143,
    "sister,</w>": 6144,
    "sister</w>": 6145,
    "sit": 6146,
    "sit</w>": 6147,
    "sitting</w>": 6148,
    "situ": 6149,
    "situation</w>": 6150,
    "sity</w>": 6151,
    "sive</w>": 6152,
    "six": 6153,
    "six</w>": 6154,
    "sk": 6155,
    "ske": 6156,
    "ski": 6157,
    "skin": 6158,
    "skin</w>": 6159,
    "sky</w>": 6160,
    "sl": 6161,
    "sla": 6162,
    "slain</w>": 6163,
    "slaugh": 6164,
    "sle": 6165,
    "sleep": 6166,
    "sleep,</w>": 6167,
    "sleep.</w>": 6168,
    "sleep</w>": 6169,
    "slen": 6170,
    "slept</w>": 6171,
    "slew</w>": 6172,
    "sli": 6173,
    "slight": 6174,
    "slight</w>": 6175,
    "slow": 6176,
    "slow</w>": 6177,
    "slowly</w>": 6178,
    "sm": 6179,
    "sma": 6180,
    "small": 6181,
    "small</w>": 6182,
    "smar": 6183,
    "smart</w>": 6184,
    "sme": 6185,
    "smer": 6186,
    "smerdya": 6187,
    "smerdyakov": 6188,
    "smi": 6189,
    "smile,</w>": 6190,
    "smile</w>": 6191,
    "smiled</w>": 6192,
    "smiling</w>": 6193,
    "smo": 6194,
    "smoo": 6195,
    "sn": 6196,
    "sna": 6197,
    "snat": 6198,
    "sne": 6199,
    "snow": 6200,
    "snu": 6201,
    "so": 6202,
    "so,</w>": 6203,
    "so.</w>": 6204,
    "so;</w>": 6205,
    "so</w>": 6206,
    "so?</w>": 6207,
    "soci": 6208,
    "social</w>": 6209,
    "societ": 6210,
    "society</w>": 6211,
    "soever</w>": 6212,
    "sof": 6213,
    "soft</w>": 6214,
    "sol": 6215,
    "sold</w>": 6216,
    "soldi": 6217,
    "soldier.</w>": 6218,
    "soldier</w>": 6219,
    "soldiers</w>": 6220,
    "sole": 6221,
    "sole</w>": 6222,
    "solem": 6223,
    "solemn": 6224,
    "solemn</w>": 6225,
    "soli": 6226,
    "solic": 6227,
    "solit": 6228,
    "solom": 6229,
    "solomon</w>": 6230,
    "solu": 6231,
    "som": 6232,
    "some": 6233,
    "some</w>": 6234,
    "somebody</w>": 6235,
    "someone</w>": 6236,
    "somer": 6237,
    "something</w>": 6238,
    "sometimes</w>": 6239,
    "somewhat</w>": 6240,
    "son": 6241,
    "son,</w>": 6242,
    "son.</w>": 6243,
    "son</w>": 6244,
    "song": 6245,
    "song</w>": 6246,
    "sons,</w>": 6247,
    "sons</w>": 6248,
    "son\u2019s</w>": 6249,
    "soo": 6250,
    "soon": 6251,
    "soon</w>": 6252,
    "sooner</w>": 6253,
    "sophi": 6254,
    "sophia,</w>": 6255,
    "sophia</w>": 6256,
    "sor": 6257,
    "sorrow": 6258,
    "sorrow</w>": 6259,
    "sorry</w>": 6260,
    "sort</w>": 6261,
    "sou": 6262,
    "sought</w>": 6263,
    "soul": 6264,
    "soul,</w>": 6265,
    "soul.</w>": 6266,
    "soul</w>": 6267,
    "souls</w>": 6268,
    "sound": 6269,
    "sound</w>": 6270,
    "sounds</w>": 6271,
    "sour": 6272,
    "south</w>": 6273,
    "sover": 6274,
    "soveraign": 6275,
    "soveraign</w>": 6276,
    "sovere": 6277,
    "sp": 6278,
    "spa": 6279,
    "space</w>": 6280,
    "spake</w>": 6281,
    "span": 6282,
    "spar": 6283,
    "spare</w>": 6284,
    "spe": 6285,
    "spea": 6286,
    "speak": 6287,
    "speak,</w>": 6288,
    "speak.</w>": 6289,
    "speak</w>": 6290,
    "speaking</w>": 6291,
    "speaks</w>": 6292,
    "spec": 6293,
    "speci": 6294,
    "special</w>": 6295,
    "spect</w>": 6296,
    "spectac": 6297,
    "spee": 6298,
    "speech</w>": 6299,
    "speed.</w>": 6300,
    "spend</w>": 6301,
    "spent</w>": 6302,
    "sper": 6303,
    "sperm</w>": 6304,
    "spi": 6305,
    "spir": 6306,
    "spirit": 6307,
    "spirit,</w>": 6308,
    "spirit</w>": 6309,
    "spirits</w>": 6310,
    "spiritu": 6311,
    "spit": 6312,
    "spite</w>": 6313,
    "splen": 6314,
    "spo": 6315,
    "spoke</w>": 6316,
    "spoken</w>": 6317,
    "spor": 6318,
    "sport</w>": 6319,
    "spot</w>": 6320,
    "spr": 6321,
    "sprang</w>": 6322,
    "spre": 6323,
    "spread</w>": 6324,
    "spring</w>": 6325,
    "spur": 6326,
    "squ": 6327,
    "squi": 6328,
    "squire</w>": 6329,
    "ss": 6330,
    "ss,</w>": 6331,
    "ss.</w>": 6332,
    "ss</w>": 6333,
    "ssi": 6334,
    "st": 6335,
    "st!</w>": 6336,
    "st,</w>": 6337,
    "st-": 6338,
    "st.</w>": 6339,
    "st;</w>": 6340,
    "st</w>": 6341,
    "sta": 6342,
    "staf": 6343,
    "staff": 6344,
    "stain": 6345,
    "stain</w>": 6346,
    "stained</w>": 6347,
    "stair": 6348,
    "stairs</w>": 6349,
    "stan": 6350,
    "stand": 6351,
    "stand,</w>": 6352,
    "stand</w>": 6353,
    "standing</w>": 6354,
    "stands</w>": 6355,
    "star": 6356,
    "star</w>": 6357,
    "starbu": 6358,
    "stars</w>": 6359,
    "start": 6360,
    "start</w>": 6361,
    "started</w>": 6362,
    "starting</w>": 6363,
    "stat": 6364,
    "state,</w>": 6365,
    "state</w>": 6366,
    "states,</w>": 6367,
    "states.</w>": 6368,
    "states</w>": 6369,
    "stay,</w>": 6370,
    "stay</w>": 6371,
    "stayed</w>": 6372,
    "ste": 6373,
    "stead": 6374,
    "stead</w>": 6375,
    "steal</w>": 6376,
    "sted</w>": 6377,
    "steel</w>": 6378,
    "step": 6379,
    "step</w>": 6380,
    "steps</w>": 6381,
    "ster": 6382,
    "ster,</w>": 6383,
    "ster.</w>": 6384,
    "ster</w>": 6385,
    "stered</w>": 6386,
    "stern": 6387,
    "stern</w>": 6388,
    "sters</w>": 6389,
    "ster\u2019s</w>": 6390,
    "sti": 6391,
    "stic": 6392,
    "stic</w>": 6393,
    "stick</w>": 6394,
    "still": 6395,
    "still,</w>": 6396,
    "still</w>": 6397,
    "stin": 6398,
    "sting</w>": 6399,
    "stir": 6400,
    "stir</w>": 6401,
    "stly</w>": 6402,
    "sto": 6403,
    "stock</w>": 6404,
    "stol": 6405,
    "ston": 6406,
    "stone,</w>": 6407,
    "stone.</w>": 6408,
    "stone</w>": 6409,
    "stones</w>": 6410,
    "stood,</w>": 6411,
    "stood</w>": 6412,
    "stop": 6413,
    "stop</w>": 6414,
    "stopped</w>": 6415,
    "stor": 6416,
    "stori": 6417,
    "stories</w>": 6418,
    "storm</w>": 6419,
    "story</w>": 6420,
    "str": 6421,
    "stra": 6422,
    "strai": 6423,
    "straight</w>": 6424,
    "strang": 6425,
    "strange": 6426,
    "strange</w>": 6427,
    "stranger</w>": 6428,
    "stre": 6429,
    "street": 6430,
    "street,</w>": 6431,
    "street.</w>": 6432,
    "street</w>": 6433,
    "streets</w>": 6434,
    "streng": 6435,
    "strength</w>": 6436,
    "stretched</w>": 6437,
    "stri": 6438,
    "stric": 6439,
    "strike</w>": 6440,
    "stro": 6441,
    "strong": 6442,
    "strong</w>": 6443,
    "stronger</w>": 6444,
    "strongly</w>": 6445,
    "stru": 6446,
    "struc": 6447,
    "struck</w>": 6448,
    "strugg": 6449,
    "strum": 6450,
    "sts,</w>": 6451,
    "sts</w>": 6452,
    "stu": 6453,
    "stub": 6454,
    "stubb": 6455,
    "stubb</w>": 6456,
    "stud": 6457,
    "study</w>": 6458,
    "stum": 6459,
    "stup": 6460,
    "sty": 6461,
    "sty</w>": 6462,
    "su": 6463,
    "sub": 6464,
    "subjec": 6465,
    "subject,</w>": 6466,
    "subject</w>": 6467,
    "subjects</w>": 6468,
    "subst": 6469,
    "suc": 6470,
    "succ": 6471,
    "succe": 6472,
    "succeeded</w>": 6473,
    "success": 6474,
    "success</w>": 6475,
    "successful</w>": 6476,
    "such</w>": 6477,
    "sudden": 6478,
    "sudden</w>": 6479,
    "suddenly</w>": 6480,
    "suf": 6481,
    "suff": 6482,
    "suffer": 6483,
    "suffer</w>": 6484,
    "suffered</w>": 6485,
    "suffici": 6486,
    "sufficient</w>": 6487,
    "suffol": 6488,
    "sug": 6489,
    "sugge": 6490,
    "suit</w>": 6491,
    "sul": 6492,
    "sum": 6493,
    "sum</w>": 6494,
    "summ": 6495,
    "summer</w>": 6496,
    "summon": 6497,
    "sun": 6498,
    "sun,</w>": 6499,
    "sun</w>": 6500,
    "sunday</w>": 6501,
    "sup": 6502,
    "super": 6503,
    "superi": 6504,
    "superior</w>": 6505,
    "supp": 6506,
    "supper": 6507,
    "suppo": 6508,
    "suppor": 6509,
    "support</w>": 6510,
    "suppose</w>": 6511,
    "supposed</w>": 6512,
    "supre": 6513,
    "supreme</w>": 6514,
    "sur": 6515,
    "sure": 6516,
    "sure,</w>": 6517,
    "sure</w>": 6518,
    "surely</w>": 6519,
    "surge": 6520,
    "surpri": 6521,
    "surprise</w>": 6522,
    "surprised</w>": 6523,
    "surr": 6524,
    "surve": 6525,
    "survi": 6526,
    "sus": 6527,
    "sus.</w>": 6528,
    "susp": 6529,
    "suspe": 6530,
    "suspen": 6531,
    "suspici": 6532,
    "sw": 6533,
    "swa": 6534,
    "swall": 6535,
    "swe": 6536,
    "swear</w>": 6537,
    "sweet": 6538,
    "sweet</w>": 6539,
    "swell": 6540,
    "swi": 6541,
    "swif": 6542,
    "swift</w>": 6543,
    "swor": 6544,
    "sword,</w>": 6545,
    "sword</w>": 6546,
    "swore</w>": 6547,
    "sworn</w>": 6548,
    "sy": 6549,
    "sy</w>": 6550,
    "sylvani": 6551,
    "sym": 6552,
    "symp": 6553,
    "sympa": 6554,
    "sympathy</w>": 6555,
    "syrac": 6556,
    "syracuse.</w>": 6557,
    "syri": 6558,
    "s\u2014": 6559,
    "s\u2019</w>": 6560,
    "s\u2019d</w>": 6561,
    "t": 6562,
    "t!</w>": 6563,
    "t,</w>": 6564,
    "t,\u201d</w>": 6565,
    "t-": 6566,
    "t.": 6567,
    "t.</w>": 6568,
    "t._]</w>": 6569,
    "t.co": 6570,
    "t.\u201d</w>": 6571,
    "t:</w>": 6572,
    "t;</w>": 6573,
    "t</w>": 6574,
    "t?</w>": 6575,
    "ta": 6576,
    "ta</w>": 6577,
    "tab": 6578,
    "tabern": 6579,
    "table,</w>": 6580,
    "table.</w>": 6581,
    "table</w>": 6582,
    "tac": 6583,
    "tai": 6584,
    "tain": 6585,
    "tain</w>": 6586,
    "tained</w>": 6587,
    "taining</w>": 6588,
    "tains</w>": 6589,
    "take</w>": 6590,
    "taken</w>": 6591,
    "takes</w>": 6592,
    "taking</w>": 6593,
    "tal": 6594,
    "tal</w>": 6595,
    "talbo": 6596,
    "tale</w>": 6597,
    "talk</w>": 6598,
    "talked</w>": 6599,
    "talking</w>": 6600,
    "tall</w>": 6601,
    "tam": 6602,
    "tan": 6603,
    "tar": 6604,
    "tar</w>": 6605,
    "tari": 6606,
    "tary</w>": 6607,
    "task</w>": 6608,
    "tast": 6609,
    "taste</w>": 6610,
    "tation</w>": 6611,
    "taught</w>": 6612,
    "tax": 6613,
    "tax</w>": 6614,
    "tch</w>": 6615,
    "tched</w>": 6616,
    "te": 6617,
    "te,</w>": 6618,
    "te.</w>": 6619,
    "te</w>": 6620,
    "tea</w>": 6621,
    "teach</w>": 6622,
    "tear": 6623,
    "tear</w>": 6624,
    "tears,</w>": 6625,
    "tears</w>": 6626,
    "teau": 6627,
    "ted": 6628,
    "ted,</w>": 6629,
    "ted.</w>": 6630,
    "ted;</w>": 6631,
    "ted</w>": 6632,
    "tee": 6633,
    "teen</w>": 6634,
    "teeth</w>": 6635,
    "tell": 6636,
    "tell</w>": 6637,
    "telling</w>": 6638,
    "tells</w>": 6639,
    "tely</w>": 6640,
    "tem": 6641,
    "temp": 6642,
    "temper": 6643,
    "tempt</w>": 6644,
    "ten": 6645,
    "ten,</w>": 6646,
    "ten.</w>": 6647,
    "ten</w>": 6648,
    "tenber": 6649,
    "tender": 6650,
    "tender</w>": 6651,
    "tent</w>": 6652,
    "teous</w>": 6653,
    "ter": 6654,
    "ter,</w>": 6655,
    "ter.</w>": 6656,
    "ter</w>": 6657,
    "terms</w>": 6658,
    "tern": 6659,
    "teron": 6660,
    "terri": 6661,
    "terrible</w>": 6662,
    "terror": 6663,
    "terror</w>": 6664,
    "ters</w>": 6665,
    "tes": 6666,
    "tes.</w>": 6667,
    "tes</w>": 6668,
    "test": 6669,
    "test</w>": 6670,
    "testim": 6671,
    "teth</w>": 6672,
    "tex": 6673,
    "th": 6674,
    "th,</w>": 6675,
    "th.</w>": 6676,
    "th:</w>": 6677,
    "th;</w>": 6678,
    "th</w>": 6679,
    "than": 6680,
    "than</w>": 6681,
    "thank": 6682,
    "thank</w>": 6683,
    "thanks": 6684,
    "thanks!\"</w>": 6685,
    "thanks,</w>": 6686,
    "thanks.\"</w>": 6687,
    "thanks.</w>": 6688,
    "thanks</w>": 6689,
    "that": 6690,
    "that's</w>": 6691,
    "that,</w>": 6692,
    "that.</w>": 6693,
    "that</w>": 6694,
    "that?</w>": 6695,
    "that]</w>": 6696,
    "that\u2019s</w>": 6697,
    "the": 6698,
    "the</w>": 6699,
    "theat": 6700,
    "thee,</w>": 6701,
    "thee.</w>": 6702,
    "thee:</w>": 6703,
    "thee;</w>": 6704,
    "thee</w>": 6705,
    "thee?</w>": 6706,
    "their": 6707,
    "their</w>": 6708,
    "them": 6709,
    "them,</w>": 6710,
    "them.</w>": 6711,
    "them.\u201d</w>": 6712,
    "them:</w>": 6713,
    "them;</w>": 6714,
    "them</w>": 6715,
    "themsel": 6716,
    "themselves,</w>": 6717,
    "themselves</w>": 6718,
    "then": 6719,
    "then,</w>": 6720,
    "then.</w>": 6721,
    "then</w>": 6722,
    "then?</w>": 6723,
    "then?\u201d</w>": 6724,
    "thence</w>": 6725,
    "ther": 6726,
    "ther,</w>": 6727,
    "ther.</w>": 6728,
    "ther</w>": 6729,
    "there": 6730,
    "there,</w>": 6731,
    "there.</w>": 6732,
    "there;</w>": 6733,
    "there</w>": 6734,
    "there?</w>": 6735,
    "therefore,</w>": 6736,
    "therefore</w>": 6737,
    "thereof,</w>": 6738,
    "thereof</w>": 6739,
    "there\u2019s</w>": 6740,
    "thern</w>": 6741,
    "thes": 6742,
    "thes</w>": 6743,
    "these": 6744,
    "these,</w>": 6745,
    "these</w>": 6746,
    "they": 6747,
    "they</w>": 6748,
    "thi": 6749,
    "thick</w>": 6750,
    "thin": 6751,
    "thin</w>": 6752,
    "thine</w>": 6753,
    "thing": 6754,
    "thing,</w>": 6755,
    "thing.</w>": 6756,
    "thing</w>": 6757,
    "things,</w>": 6758,
    "things.</w>": 6759,
    "things</w>": 6760,
    "think": 6761,
    "think,</w>": 6762,
    "think</w>": 6763,
    "thinking</w>": 6764,
    "thinks</w>": 6765,
    "thir": 6766,
    "third</w>": 6767,
    "thirty</w>": 6768,
    "this": 6769,
    "this,</w>": 6770,
    "this.</w>": 6771,
    "this</w>": 6772,
    "this?</w>": 6773,
    "tho": 6774,
    "thom": 6775,
    "thomas</w>": 6776,
    "thor": 6777,
    "thorough": 6778,
    "those</w>": 6779,
    "thou": 6780,
    "thou,</w>": 6781,
    "thou</w>": 6782,
    "though,</w>": 6783,
    "though</w>": 6784,
    "thought": 6785,
    "thought,</w>": 6786,
    "thought</w>": 6787,
    "thoughts,</w>": 6788,
    "thoughts</w>": 6789,
    "thous": 6790,
    "thousand</w>": 6791,
    "thousands</w>": 6792,
    "thr": 6793,
    "thre": 6794,
    "threat": 6795,
    "three</w>": 6796,
    "threw</w>": 6797,
    "thri": 6798,
    "thro": 6799,
    "through": 6800,
    "through</w>": 6801,
    "throughout</w>": 6802,
    "throw": 6803,
    "throw</w>": 6804,
    "throwing</w>": 6805,
    "thrown</w>": 6806,
    "thru": 6807,
    "thrust</w>": 6808,
    "ths</w>": 6809,
    "thu": 6810,
    "thum": 6811,
    "thunder": 6812,
    "thunder</w>": 6813,
    "thur": 6814,
    "thus,</w>": 6815,
    "thus</w>": 6816,
    "thy": 6817,
    "thy</w>": 6818,
    "thyself</w>": 6819,
    "th\u2019</w>": 6820,
    "ti": 6821,
    "tic": 6822,
    "tic</w>": 6823,
    "tical</w>": 6824,
    "tice": 6825,
    "tice</w>": 6826,
    "tid": 6827,
    "tied</w>": 6828,
    "ties,</w>": 6829,
    "ties.</w>": 6830,
    "ties</w>": 6831,
    "till</w>": 6832,
    "tim": 6833,
    "time": 6834,
    "time,</w>": 6835,
    "time.</w>": 6836,
    "time;</w>": 6837,
    "time</w>": 6838,
    "times,</w>": 6839,
    "times</w>": 6840,
    "timon": 6841,
    "timon.</w>": 6842,
    "tin": 6843,
    "ting,</w>": 6844,
    "ting</w>": 6845,
    "tion": 6846,
    "tion!</w>": 6847,
    "tion,</w>": 6848,
    "tion.</w>": 6849,
    "tion;</w>": 6850,
    "tion</w>": 6851,
    "tional</w>": 6852,
    "tions,</w>": 6853,
    "tions.</w>": 6854,
    "tions</w>": 6855,
    "tious</w>": 6856,
    "tip": 6857,
    "tired</w>": 6858,
    "tis</w>": 6859,
    "tit": 6860,
    "title</w>": 6861,
    "titu": 6862,
    "titude</w>": 6863,
    "tiv": 6864,
    "tive,</w>": 6865,
    "tive</w>": 6866,
    "tively</w>": 6867,
    "tle</w>": 6868,
    "tly,</w>": 6869,
    "tly.</w>": 6870,
    "tly</w>": 6871,
    "to": 6872,
    "to,</w>": 6873,
    "to-": 6874,
    "to.</w>": 6875,
    "to</w>": 6876,
    "toby.</w>": 6877,
    "today": 6878,
    "today,</w>": 6879,
    "today.</w>": 6880,
    "today</w>": 6881,
    "toge": 6882,
    "together": 6883,
    "together,</w>": 6884,
    "together.</w>": 6885,
    "together</w>": 6886,
    "told</w>": 6887,
    "toler": 6888,
    "tom": 6889,
    "tom</w>": 6890,
    "tomb": 6891,
    "tomorrow": 6892,
    "tomorrow</w>": 6893,
    "ton": 6894,
    "ton,</w>": 6895,
    "ton.</w>": 6896,
    "ton</w>": 6897,
    "tone</w>": 6898,
    "tongu": 6899,
    "tongue,</w>": 6900,
    "tongue</w>": 6901,
    "toni": 6902,
    "tonight": 6903,
    "tonight</w>": 6904,
    "too": 6905,
    "too,</w>": 6906,
    "too.</w>": 6907,
    "too</w>": 6908,
    "took</w>": 6909,
    "top": 6910,
    "top</w>": 6911,
    "tor": 6912,
    "tor,</w>": 6913,
    "tor.</w>": 6914,
    "tor</w>": 6915,
    "tori": 6916,
    "tors,</w>": 6917,
    "tors</w>": 6918,
    "tory</w>": 6919,
    "tor\u2019s</w>": 6920,
    "tos": 6921,
    "tot": 6922,
    "total</w>": 6923,
    "totally</w>": 6924,
    "tou": 6925,
    "touch": 6926,
    "touch</w>": 6927,
    "touched</w>": 6928,
    "touching</w>": 6929,
    "tough</w>": 6930,
    "tow": 6931,
    "toward</w>": 6932,
    "towards</w>": 6933,
    "tower": 6934,
    "tower</w>": 6935,
    "town": 6936,
    "town,</w>": 6937,
    "town</w>": 6938,
    "tr": 6939,
    "tr</w>": 6940,
    "tra": 6941,
    "trac": 6942,
    "trade": 6943,
    "trade</w>": 6944,
    "trademar": 6945,
    "trademark</w>": 6946,
    "trag": 6947,
    "trai": 6948,
    "train": 6949,
    "train</w>": 6950,
    "tran": 6951,
    "trans": 6952,
    "trave": 6953,
    "travell": 6954,
    "tre": 6955,
    "treacher": 6956,
    "treas": 6957,
    "treat": 6958,
    "treat</w>": 6959,
    "treated</w>": 6960,
    "tree</w>": 6961,
    "trees</w>": 6962,
    "trem": 6963,
    "trembl": 6964,
    "trembling</w>": 6965,
    "tremendous</w>": 6966,
    "tri": 6967,
    "tribu": 6968,
    "tried</w>": 6969,
    "trium": 6970,
    "triumph": 6971,
    "tro": 6972,
    "troil": 6973,
    "troilus.</w>": 6974,
    "troj": 6975,
    "trom": 6976,
    "tron": 6977,
    "troop": 6978,
    "trou": 6979,
    "trouble</w>": 6980,
    "troubled</w>": 6981,
    "tru": 6982,
    "true": 6983,
    "true,</w>": 6984,
    "true.</w>": 6985,
    "true</w>": 6986,
    "truly</w>": 6987,
    "trum": 6988,
    "trump": 6989,
    "trump</w>": 6990,
    "trumpe": 6991,
    "trust</w>": 6992,
    "truth": 6993,
    "truth,</w>": 6994,
    "truth.</w>": 6995,
    "truth</w>": 6996,
    "try</w>": 6997,
    "trying</w>": 6998,
    "ts": 6999,
    "ts,</w>": 7000,
    "ts.</w>": 7001,
    "ts;</w>": 7002,
    "ts</w>": 7003,
    "tt": 7004,
    "tt</w>": 7005,
    "tted</w>": 7006,
    "tter": 7007,
    "tter</w>": 7008,
    "ttered</w>": 7009,
    "tti": 7010,
    "tting</w>": 7011,
    "ttp": 7012,
    "tty</w>": 7013,
    "tu": 7014,
    "tual</w>": 7015,
    "tucke": 7016,
    "tum": 7017,
    "tun": 7018,
    "tuous</w>": 7019,
    "tur": 7020,
    "ture,</w>": 7021,
    "ture.</w>": 7022,
    "ture</w>": 7023,
    "tured</w>": 7024,
    "tures</w>": 7025,
    "turn": 7026,
    "turn</w>": 7027,
    "turned</w>": 7028,
    "turning</w>": 7029,
    "turns</w>": 7030,
    "tw": 7031,
    "twe": 7032,
    "twel": 7033,
    "twelve</w>": 7034,
    "twent": 7035,
    "twenty-": 7036,
    "twenty</w>": 7037,
    "twi": 7038,
    "twice</w>": 7039,
    "twixt</w>": 7040,
    "two": 7041,
    "two,</w>": 7042,
    "two</w>": 7043,
    "ty": 7044,
    "ty,</w>": 7045,
    "ty-": 7046,
    "ty.</w>": 7047,
    "ty;</w>": 7048,
    "ty</w>": 7049,
    "tybal": 7050,
    "t\u2019s</w>": 7051,
    "u": 7052,
    "u.": 7053,
    "u.s.</w>": 7054,
    "u</w>": 7055,
    "ub": 7056,
    "ue</w>": 7057,
    "uel</w>": 7058,
    "ug": 7059,
    "ugh": 7060,
    "ught</w>": 7061,
    "ul": 7062,
    "ular</w>": 7063,
    "ult</w>": 7064,
    "uly": 7065,
    "um": 7066,
    "um,</w>": 7067,
    "um.</w>": 7068,
    "um</w>": 7069,
    "umber": 7070,
    "umi": 7071,
    "un": 7072,
    "un</w>": 7073,
    "unable</w>": 7074,
    "unc": 7075,
    "uncle": 7076,
    "uncle,</w>": 7077,
    "uncle</w>": 7078,
    "und": 7079,
    "und</w>": 7080,
    "under": 7081,
    "under</w>": 7082,
    "understand": 7083,
    "understand,</w>": 7084,
    "understand</w>": 7085,
    "understanding</w>": 7086,
    "understood</w>": 7087,
    "uneas": 7088,
    "unfortun": 7089,
    "unfortunate</w>": 7090,
    "ung</w>": 7091,
    "unhappy</w>": 7092,
    "uni": 7093,
    "united</w>": 7094,
    "univers": 7095,
    "unknown</w>": 7096,
    "unless</w>": 7097,
    "unt</w>": 7098,
    "unti": 7099,
    "until</w>": 7100,
    "unto</w>": 7101,
    "up": 7102,
    "up,</w>": 7103,
    "up.</w>": 7104,
    "up</w>": 7105,
    "upon</w>": 7106,
    "upper</w>": 7107,
    "ur": 7108,
    "ur</w>": 7109,
    "ure": 7110,
    "ure,</w>": 7111,
    "ure.</w>": 7112,
    "ure</w>": 7113,
    "ured</w>": 7114,
    "ures</w>": 7115,
    "ury</w>": 7116,
    "us": 7117,
    "us!</w>": 7118,
    "us,</w>": 7119,
    "us.</w>": 7120,
    "us:</w>": 7121,
    "us;</w>": 7122,
    "us</w>": 7123,
    "us?</w>": 7124,
    "usa": 7125,
    "usa</w>": 7126,
    "usal": 7127,
    "use": 7128,
    "use.</w>": 7129,
    "use</w>": 7130,
    "used</w>": 7131,
    "using</w>": 7132,
    "ustr": 7133,
    "ustra": 7134,
    "ustra</w>": 7135,
    "usu": 7136,
    "usual</w>": 7137,
    "usually</w>": 7138,
    "usur": 7139,
    "us\u2019</w>": 7140,
    "ut": 7141,
    "ute</w>": 7142,
    "uten": 7143,
    "utmost</w>": 7144,
    "utter": 7145,
    "utter</w>": 7146,
    "uttered</w>": 7147,
    "utterly</w>": 7148,
    "v": 7149,
    "v.</w>": 7150,
    "v</w>": 7151,
    "vac": 7152,
    "vain": 7153,
    "vain</w>": 7154,
    "val": 7155,
    "val,</w>": 7156,
    "val</w>": 7157,
    "valanc": 7158,
    "valancy</w>": 7159,
    "valent": 7160,
    "valentine.</w>": 7161,
    "valentine</w>": 7162,
    "vali": 7163,
    "valiant</w>": 7164,
    "vall": 7165,
    "valu": 7166,
    "value</w>": 7167,
    "van": 7168,
    "van</w>": 7169,
    "var": 7170,
    "vari": 7171,
    "various</w>": 7172,
    "vast</w>": 7173,
    "ve": 7174,
    "ve!</w>": 7175,
    "ve,</w>": 7176,
    "ve-": 7177,
    "ve.</w>": 7178,
    "ve;</w>": 7179,
    "ve</w>": 7180,
    "ved,</w>": 7181,
    "ved.</w>": 7182,
    "ved</w>": 7183,
    "vel": 7184,
    "vel</w>": 7185,
    "vell": 7186,
    "velo": 7187,
    "vely</w>": 7188,
    "ven": 7189,
    "ven</w>": 7190,
    "venge": 7191,
    "vengeance</w>": 7192,
    "vent": 7193,
    "vented</w>": 7194,
    "ver": 7195,
    "ver,</w>": 7196,
    "ver.</w>": 7197,
    "ver</w>": 7198,
    "veri": 7199,
    "vers": 7200,
    "vers</w>": 7201,
    "verse</w>": 7202,
    "very</w>": 7203,
    "ves": 7204,
    "ves,</w>": 7205,
    "ves.</w>": 7206,
    "ves</w>": 7207,
    "vessel": 7208,
    "vessel</w>": 7209,
    "veth</w>": 7210,
    "vex": 7211,
    "vi": 7212,
    "vi.</w>": 7213,
    "via.</w>": 7214,
    "via</w>": 7215,
    "vic": 7216,
    "victor": 7217,
    "vie": 7218,
    "view": 7219,
    "view</w>": 7220,
    "vii.</w>": 7221,
    "vile</w>": 7222,
    "vill": 7223,
    "villain": 7224,
    "ville": 7225,
    "villefor": 7226,
    "villefort,</w>": 7227,
    "villefort</w>": 7228,
    "vin": 7229,
    "vinc": 7230,
    "ving</w>": 7231,
    "vio": 7232,
    "viol": 7233,
    "violence</w>": 7234,
    "violent</w>": 7235,
    "vious</w>": 7236,
    "viously</w>": 7237,
    "vir": 7238,
    "virg": 7239,
    "virtu": 7240,
    "virtue</w>": 7241,
    "vis": 7242,
    "visi": 7243,
    "visible</w>": 7244,
    "vision</w>": 7245,
    "visit</w>": 7246,
    "visited</w>": 7247,
    "vit": 7248,
    "vitch</w>": 7249,
    "vo": 7250,
    "voc": 7251,
    "voic": 7252,
    "voice,</w>": 7253,
    "voice.</w>": 7254,
    "voice</w>": 7255,
    "vol": 7256,
    "voli": 7257,
    "volio.</w>": 7258,
    "volu": 7259,
    "volum": 7260,
    "volun": 7261,
    "volunte": 7262,
    "volunteers</w>": 7263,
    "vote": 7264,
    "vote</w>": 7265,
    "vow": 7266,
    "voy": 7267,
    "vul": 7268,
    "vy</w>": 7269,
    "w": 7270,
    "w,</w>": 7271,
    "w.": 7272,
    "w.</w>": 7273,
    "w/": 7274,
    "w</w>": 7275,
    "wa": 7276,
    "wag": 7277,
    "wai": 7278,
    "wait": 7279,
    "wait</w>": 7280,
    "waited</w>": 7281,
    "waiting</w>": 7282,
    "wake</w>": 7283,
    "wal": 7284,
    "walk</w>": 7285,
    "walked</w>": 7286,
    "walking</w>": 7287,
    "wall": 7288,
    "wall,</w>": 7289,
    "wall.</w>": 7290,
    "wall</w>": 7291,
    "walls</w>": 7292,
    "wan": 7293,
    "want": 7294,
    "want</w>": 7295,
    "wanted</w>": 7296,
    "wants</w>": 7297,
    "war": 7298,
    "war,</w>": 7299,
    "war</w>": 7300,
    "ward": 7301,
    "ward,</w>": 7302,
    "ward.</w>": 7303,
    "ward</w>": 7304,
    "wards,</w>": 7305,
    "wards</w>": 7306,
    "warm": 7307,
    "warm</w>": 7308,
    "warn\u2019t</w>": 7309,
    "warran": 7310,
    "warrant</w>": 7311,
    "warri": 7312,
    "warwi": 7313,
    "warwick.</w>": 7314,
    "was": 7315,
    "was,</w>": 7316,
    "was.</w>": 7317,
    "was</w>": 7318,
    "was]</w>": 7319,
    "wash": 7320,
    "wash</w>": 7321,
    "washing": 7322,
    "washington</w>": 7323,
    "wasn\u2019t</w>": 7324,
    "wast": 7325,
    "waste</w>": 7326,
    "wat": 7327,
    "watch": 7328,
    "watch.</w>": 7329,
    "watch</w>": 7330,
    "watched</w>": 7331,
    "watching</w>": 7332,
    "water": 7333,
    "water,</w>": 7334,
    "water.</w>": 7335,
    "water</w>": 7336,
    "waters</w>": 7337,
    "way": 7338,
    "way,</w>": 7339,
    "way.</w>": 7340,
    "way</w>": 7341,
    "ways,</w>": 7342,
    "ways</w>": 7343,
    "we": 7344,
    "we</w>": 7345,
    "wea": 7346,
    "weak": 7347,
    "weak</w>": 7348,
    "weal": 7349,
    "wealth</w>": 7350,
    "weap": 7351,
    "wear</w>": 7352,
    "weary</w>": 7353,
    "weather</w>": 7354,
    "wed</w>": 7355,
    "wee": 7356,
    "week": 7357,
    "week</w>": 7358,
    "weeks</w>": 7359,
    "weep": 7360,
    "weep</w>": 7361,
    "wei": 7362,
    "weight</w>": 7363,
    "wel": 7364,
    "welcome,</w>": 7365,
    "welcome</w>": 7366,
    "well": 7367,
    "well,</w>": 7368,
    "well-": 7369,
    "well.</w>": 7370,
    "well;</w>": 7371,
    "well</w>": 7372,
    "wen": 7373,
    "went</w>": 7374,
    "wer": 7375,
    "wer</w>": 7376,
    "were,</w>": 7377,
    "were</w>": 7378,
    "were]</w>": 7379,
    "west": 7380,
    "west</w>": 7381,
    "we\u2019ll</w>": 7382,
    "wh": 7383,
    "wha": 7384,
    "whale": 7385,
    "whale,</w>": 7386,
    "whale-": 7387,
    "whale</w>": 7388,
    "whales</w>": 7389,
    "whale\u2019s</w>": 7390,
    "what": 7391,
    "what,</w>": 7392,
    "what</w>": 7393,
    "whate": 7394,
    "whatever</w>": 7395,
    "whatsoever</w>": 7396,
    "what\u2019s</w>": 7397,
    "whe": 7398,
    "whel": 7399,
    "when": 7400,
    "when,</w>": 7401,
    "when</w>": 7402,
    "whence</w>": 7403,
    "whenever</w>": 7404,
    "where": 7405,
    "where,</w>": 7406,
    "where</w>": 7407,
    "wherefore</w>": 7408,
    "wherein</w>": 7409,
    "whereof</w>": 7410,
    "where\u2019s</w>": 7411,
    "whether</w>": 7412,
    "whi": 7413,
    "which,</w>": 7414,
    "which</w>": 7415,
    "whil": 7416,
    "while,</w>": 7417,
    "while</w>": 7418,
    "whilst</w>": 7419,
    "whir": 7420,
    "whisper": 7421,
    "whispered</w>": 7422,
    "whist": 7423,
    "white": 7424,
    "white</w>": 7425,
    "whither</w>": 7426,
    "who": 7427,
    "who,</w>": 7428,
    "who</w>": 7429,
    "whole</w>": 7430,
    "wholly</w>": 7431,
    "whom</w>": 7432,
    "whose</w>": 7433,
    "who\u2019s</w>": 7434,
    "why,</w>": 7435,
    "why</w>": 7436,
    "wi": 7437,
    "wick": 7438,
    "wicke": 7439,
    "wicked</w>": 7440,
    "wide</w>": 7441,
    "widow": 7442,
    "wif": 7443,
    "wife": 7444,
    "wife,</w>": 7445,
    "wife.</w>": 7446,
    "wife</w>": 7447,
    "wil": 7448,
    "wild": 7449,
    "wild</w>": 7450,
    "wilder": 7451,
    "wilkin": 7452,
    "will": 7453,
    "will,</w>": 7454,
    "will.</w>": 7455,
    "will</w>": 7456,
    "willi": 7457,
    "william</w>": 7458,
    "willing</w>": 7459,
    "wilt</w>": 7460,
    "win": 7461,
    "win</w>": 7462,
    "wind": 7463,
    "wind,</w>": 7464,
    "wind</w>": 7465,
    "window": 7466,
    "window,</w>": 7467,
    "window</w>": 7468,
    "windows</w>": 7469,
    "wine,</w>": 7470,
    "wine</w>": 7471,
    "wing</w>": 7472,
    "winter</w>": 7473,
    "wis": 7474,
    "wisdom": 7475,
    "wisdom</w>": 7476,
    "wise,</w>": 7477,
    "wise</w>": 7478,
    "wish": 7479,
    "wish</w>": 7480,
    "wishe": 7481,
    "wished</w>": 7482,
    "wishes</w>": 7483,
    "wit": 7484,
    "wit</w>": 7485,
    "witch</w>": 7486,
    "with": 7487,
    "with,</w>": 7488,
    "with</w>": 7489,
    "within": 7490,
    "within</w>": 7491,
    "withou": 7492,
    "without</w>": 7493,
    "witness</w>": 7494,
    "wn</w>": 7495,
    "wo": 7496,
    "woe</w>": 7497,
    "wol": 7498,
    "wom": 7499,
    "woman": 7500,
    "woman,</w>": 7501,
    "woman.</w>": 7502,
    "woman</w>": 7503,
    "woman\u2019s</w>": 7504,
    "women,</w>": 7505,
    "women</w>": 7506,
    "won": 7507,
    "won't</w>": 7508,
    "won</w>": 7509,
    "wonder": 7510,
    "wonder</w>": 7511,
    "wonderful</w>": 7512,
    "wondr": 7513,
    "won\u2019t</w>": 7514,
    "woo": 7515,
    "wood": 7516,
    "wood,</w>": 7517,
    "wood</w>": 7518,
    "wor": 7519,
    "word": 7520,
    "word,</w>": 7521,
    "word.</w>": 7522,
    "word</w>": 7523,
    "words,</w>": 7524,
    "words.</w>": 7525,
    "words</w>": 7526,
    "wore</w>": 7527,
    "work": 7528,
    "work,</w>": 7529,
    "work.</w>": 7530,
    "work</w>": 7531,
    "worked</w>": 7532,
    "working</w>": 7533,
    "works,</w>": 7534,
    "works.</w>": 7535,
    "works</w>": 7536,
    "world": 7537,
    "world,</w>": 7538,
    "world.</w>": 7539,
    "world</w>": 7540,
    "worn</w>": 7541,
    "worse</w>": 7542,
    "worship</w>": 7543,
    "worst</w>": 7544,
    "worth": 7545,
    "worth</w>": 7546,
    "worthy</w>": 7547,
    "wou": 7548,
    "would": 7549,
    "would,</w>": 7550,
    "would</w>": 7551,
    "wouldn\u2019t</w>": 7552,
    "wouldst</w>": 7553,
    "wound</w>": 7554,
    "wounded</w>": 7555,
    "wr": 7556,
    "wra": 7557,
    "wre": 7558,
    "wret": 7559,
    "wretched</w>": 7560,
    "writ": 7561,
    "write</w>": 7562,
    "writing</w>": 7563,
    "written</w>": 7564,
    "wro": 7565,
    "wrong": 7566,
    "wrong,</w>": 7567,
    "wrong</w>": 7568,
    "wrote</w>": 7569,
    "wrought</w>": 7570,
    "ws</w>": 7571,
    "ww": 7572,
    "www.": 7573,
    "www.gutenberg": 7574,
    "www.gutenberg.org": 7575,
    "x": 7576,
    "x,</w>": 7577,
    "x.</w>": 7578,
    "x</w>": 7579,
    "xi": 7580,
    "xic": 7581,
    "xt</w>": 7582,
    "xx": 7583,
    "y": 7584,
    "y!</w>": 7585,
    "y!\u201d</w>": 7586,
    "y,</w>": 7587,
    "y,\u201d</w>": 7588,
    "y-": 7589,
    "y.</w>": 7590,
    "y.\u201d</w>": 7591,
    "y:</w>": 7592,
    "y;</w>": 7593,
    "y</w>": 7594,
    "y?</w>": 7595,
    "y?\u201d</w>": 7596,
    "ya</w>": 7597,
    "yar": 7598,
    "ye": 7599,
    "ye,</w>": 7600,
    "ye</w>": 7601,
    "yea,</w>": 7602,
    "year": 7603,
    "year,</w>": 7604,
    "year.</w>": 7605,
    "year</w>": 7606,
    "years,</w>": 7607,
    "years.</w>": 7608,
    "years</w>": 7609,
    "yed,</w>": 7610,
    "yed</w>": 7611,
    "yellow</w>": 7612,
    "yes": 7613,
    "yes,</w>": 7614,
    "yes.</w>": 7615,
    "yes;</w>": 7616,
    "yester": 7617,
    "yesterday</w>": 7618,
    "yet,</w>": 7619,
    "yet.</w>": 7620,
    "yet</w>": 7621,
    "yi": 7622,
    "yiel": 7623,
    "yield</w>": 7624,
    "ying</w>": 7625,
    "yl": 7626,
    "yn": 7627,
    "yo": 7628,
    "yon": 7629,
    "yor": 7630,
    "york.</w>": 7631,
    "york</w>": 7632,
    "you": 7633,
    "you!</w>": 7634,
    "you'": 7635,
    "you're</w>": 7636,
    "you,</w>": 7637,
    "you,\u201d</w>": 7638,
    "you.\"</w>": 7639,
    "you.</w>": 7640,
    "you.\u201d</w>": 7641,
    "you:</w>": 7642,
    "you;</w>": 7643,
    "you</w>": 7644,
    "you?</w>": 7645,
    "you?\u201d</w>": 7646,
    "youn": 7647,
    "young</w>": 7648,
    "younger</w>": 7649,
    "your": 7650,
    "your</w>": 7651,
    "yours,</w>": 7652,
    "yours</w>": 7653,
    "yoursel": 7654,
    "yourself": 7655,
    "yourself,</w>": 7656,
    "yourself</w>": 7657,
    "youth": 7658,
    "youth,</w>": 7659,
    "youth</w>": 7660,
    "you\u2019": 7661,
    "you\u2019d</w>": 7662,
    "you\u2019ll</w>": 7663,
    "you\u2019re</w>": 7664,
    "you\u2019ve</w>": 7665,
    "ys</w>": 7666,
    "ysi": 7667,
    "y\u2014": 7668,
    "y\u2019s</w>": 7669,
    "z": 7670,
    "z,</w>": 7671,
    "z</w>": 7672,
    "za": 7673,
    "zar": 7674,
    "zarath": 7675,
    "zarathustr": 7676,
    "zarathustra": 7677,
    "zarathustra</w>": 7678,
    "ze": 7679,
    "ze</w>": 7680,
    "zed</w>": 7681,
    "zeki": 7682,
    "zen</w>": 7683,
    "zer": 7684,
    "zi": 7685,
    "zing</w>": 7686,
    "zo": 7687,
    "zz": 7688,
    "{": 7689,
    "|": 7690,
    "}": 7691,
    "}</w>": 7692,
    "~": 7693,
    "\u0092": 7694,
    "\u00a1": 7695,
    "\u00a3": 7696,
    "\u00a7": 7697,
    "\u00ab": 7698,
    "\u00ae": 7699,
    "\u00b4": 7700,
    "\u00b7": 7701,
    "\u00ba": 7702,
    "\u00bb": 7703,
    "\u00bd": 7704,
    "\u00e0": 7705,
    "\u00e1": 7706,
    "\u00e2": 7707,
    "\u00e4": 7708,
    "\u00e6": 7709,
    "\u00e7": 7710,
    "\u00e8": 7711,
    "\u00e9": 7712,
    "\u00ea": 7713,
    "\u00eb": 7714,
    "\u00ec": 7715,
    "\u00ed": 7716,
    "\u00ee": 7717,
    "\u00ef": 7718,
    "\u00f0": 7719,
    "\u00f1": 7720,
    "\u00f2": 7721,
    "\u00f3": 7722,
    "\u00f4": 7723,
    "\u00f6": 7724,
    "\u00f8": 7725,
    "\u00f9": 7726,
    "\u00fa": 7727,
    "\u00fb": 7728,
    "\u00fc": 7729,
    "\u00fd": 7730,
    "\u00fe": 7731,
    "\u011f": 7732,
    "\u0131": 7733,
    "\u0137": 7734,
    "\u013a": 7735,
    "\u014d": 7736,
    "\u0153": 7737,
    "\u03ac": 7738,
    "\u03ad": 7739,
    "\u03ae": 7740,
    "\u03af": 7741,
    "\u03b1": 7742,
    "\u03b2": 7743,
    "\u03b3": 7744,
    "\u03b4": 7745,
    "\u03b5": 7746,
    "\u03b6": 7747,
    "\u03b7": 7748,
    "\u03b8": 7749,
    "\u03b9": 7750,
    "\u03ba": 7751,
    "\u03bb": 7752,
    "\u03bc": 7753,
    "\u03bd": 7754,
    "\u03be": 7755,
    "\u03bf": 7756,
    "\u03c0": 7757,
    "\u03c1": 7758,
    "\u03c2": 7759,
    "\u03c3": 7760,
    "\u03c4": 7761,
    "\u03c5": 7762,
    "\u03c6": 7763,
    "\u03c7": 7764,
    "\u03c9": 7765,
    "\u03cc": 7766,
    "\u03cd": 7767,
    "\u03ce": 7768,
    "\u03f0": 7769,
    "\u05d0": 7770,
    "\u05d1": 7771,
    "\u05d2": 7772,
    "\u05d3": 7773,
    "\u05d4": 7774,
    "\u05d5": 7775,
    "\u05d6": 7776,
    "\u05d7": 7777,
    "\u05d8": 7778,
    "\u05d9": 7779,
    "\u05da": 7780,
    "\u05db": 7781,
    "\u05dc": 7782,
    "\u05dd": 7783,
    "\u05de": 7784,
    "\u05df": 7785,
    "\u05e0": 7786,
    "\u05e1": 7787,
    "\u05e2": 7788,
    "\u05e6": 7789,
    "\u05e7": 7790,
    "\u05e8": 7791,
    "\u05e9": 7792,
    "\u05ea": 7793,
    "\u060c": 7794,
    "\u0621": 7795,
    "\u0622": 7796,
    "\u0623": 7797,
    "\u0624": 7798,
    "\u0627": 7799,
    "\u0628": 7800,
    "\u0629": 7801,
    "\u062a": 7802,
    "\u062c": 7803,
    "\u062d": 7804,
    "\u062e": 7805,
    "\u062f": 7806,
    "\u0630": 7807,
    "\u0631": 7808,
    "\u0632": 7809,
    "\u0633": 7810,
    "\u0634": 7811,
    "\u0635": 7812,
    "\u0636": 7813,
    "\u0637": 7814,
    "\u0638": 7815,
    "\u0639": 7816,
    "\u0641": 7817,
    "\u0642": 7818,
    "\u0643": 7819,
    "\u0644": 7820,
    "\u0645": 7821,
    "\u0646": 7822,
    "\u0647": 7823,
    "\u0648": 7824,
    "\u064a": 7825,
    "\u064b": 7826,
    "\u067e": 7827,
    "\u0686": 7828,
    "\u0698": 7829,
    "\u06a9": 7830,
    "\u06af": 7831,
    "\u06cc": 7832,
    "\u06f0": 7833,
    "\u06f4": 7834,
    "\u0901": 7835,
    "\u0902": 7836,
    "\u0905": 7837,
    "\u0906": 7838,
    "\u0907": 7839,
    "\u0909": 7840,
    "\u090f": 7841,
    "\u0914": 7842,
    "\u0915": 7843,
    "\u0916": 7844,
    "\u0917": 7845,
    "\u0918": 7846,
    "\u091a": 7847,
    "\u091b": 7848,
    "\u091c": 7849,
    "\u091d": 7850,
    "\u091f": 7851,
    "\u0920": 7852,
    "\u0921": 7853,
    "\u0924": 7854,
    "\u0925": 7855,
    "\u0926": 7856,
    "\u0927": 7857,
    "\u0928": 7858,
    "\u092a": 7859,
    "\u092c": 7860,
    "\u092d": 7861,
    "\u092e": 7862,
    "\u092f": 7863,
    "\u0930": 7864,
    "\u0932": 7865,
    "\u0935": 7866,
    "\u0936": 7867,
    "\u0937": 7868,
    "\u0938": 7869,
    "\u0939": 7870,
    "\u093c": 7871,
    "\u093e": 7872,
    "\u093f": 7873,
    "\u0940": 7874,
    "\u0941": 7875,
    "\u0942": 7876,
    "\u0947": 7877,
    "\u0948": 7878,
    "\u094b": 7879,
    "\u094d": 7880,
    "\u0964": 7881,
    "\u1ec5": 7882,
    "\u1f00": 7883,
    "\u1f02": 7884,
    "\u1f04": 7885,
    "\u1f06": 7886,
    "\u1f10": 7887,
    "\u1f11": 7888,
    "\u1f15": 7889,
    "\u1f21": 7890,
    "\u1f24": 7891,
    "\u1f26": 7892,
    "\u1f30": 7893,
    "\u1f31": 7894,
    "\u1f34": 7895,
    "\u1f35": 7896,
    "\u1f37": 7897,
    "\u1f40": 7898,
    "\u1f41": 7899,
    "\u1f44": 7900,
    "\u1f45": 7901,
    "\u1f50": 7902,
    "\u1f54": 7903,
    "\u1f61": 7904,
    "\u1f70": 7905,
    "\u1f72": 7906,
    "\u1f74": 7907,
    "\u1f76": 7908,
    "\u1f78": 7909,
    "\u1f7a": 7910,
    "\u1f7c": 7911,
    "\u1fb3": 7912,
    "\u1fc6": 7913,
    "\u1fc7": 7914,
    "\u1fd6": 7915,
    "\u1fe4": 7916,
    "\u1fe6": 7917,
    "\u1ff3": 7918,
    "\u1ff6": 7919,
    "\u1ff7": 7920,
    "\u200b": 7921,
    "\u200c": 7922,
    "\u200e": 7923,
    "\u200f": 7924,
    "\u2010": 7925,
    "\u2013": 7926,
    "\u2013</w>": 7927,
    "\u2014": 7928,
    "\u2014</w>": 7929,
    "\u2014a</w>": 7930,
    "\u2014and</w>": 7931,
    "\u2014but</w>": 7932,
    "\u2014he</w>": 7933,
    "\u2014i</w>": 7934,
    "\u2014it</w>": 7935,
    "\u2014that</w>": 7936,
    "\u2014the</w>": 7937,
    "\u2014\u2014\u201d</w>": 7938,
    "\u2014\u201d</w>": 7939,
    "\u2015": 7940,
    "\u2018": 7941,
    "\u2018i</w>": 7942,
    "\u2019": 7943,
    "\u2019</w>": 7944,
    "\u2019d,</w>": 7945,
    "\u2019d.</w>": 7946,
    "\u2019d;</w>": 7947,
    "\u2019d</w>": 7948,
    "\u2019em</w>": 7949,
    "\u2019en</w>": 7950,
    "\u2019er</w>": 7951,
    "\u2019ll</w>": 7952,
    "\u2019re</w>": 7953,
    "\u2019s,</w>": 7954,
    "\u2019s.</w>": 7955,
    "\u2019s</w>": 7956,
    "\u2019st</w>": 7957,
    "\u2019t": 7958,
    "\u2019t,</w>": 7959,
    "\u2019t.</w>": 7960,
    "\u2019t</w>": 7961,
    "\u2019tis</w>": 7962,
    "\u2019twas</w>": 7963,
    "\u2019ve</w>": 7964,
    "\u2019\u201d</w>": 7965,
    "\u201c": 7966,
    "\u201c_": 7967,
    "\u201ca</w>": 7968,
    "\u201cah,</w>": 7969,
    "\u201call</w>": 7970,
    "\u201cand</w>": 7971,
    "\u201care</w>": 7972,
    "\u201cas</w>": 7973,
    "\u201cat</w>": 7974,
    "\u201cbut</w>": 7975,
    "\u201cdid</w>": 7976,
    "\u201cdo</w>": 7977,
    "\u201cdon\u2019t</w>": 7978,
    "\u201cfor</w>": 7979,
    "\u201chave</w>": 7980,
    "\u201che</w>": 7981,
    "\u201chow</w>": 7982,
    "\u201ci</w>": 7983,
    "\u201cif</w>": 7984,
    "\u201cin</w>": 7985,
    "\u201cis</w>": 7986,
    "\u201cit</w>": 7987,
    "\u201cit\u2019s</w>": 7988,
    "\u201ci\u2019m</w>": 7989,
    "\u201clet</w>": 7990,
    "\u201cmy</w>": 7991,
    "\u201cno": 7992,
    "\u201cno,</w>": 7993,
    "\u201cno</w>": 7994,
    "\u201cnot</w>": 7995,
    "\u201co</w>": 7996,
    "\u201cof</w>": 7997,
    "\u201coh,</w>": 7998,
    "\u201cshe</w>": 7999,
    "\u201cso</w>": 8000,
    "\u201cthat</w>": 8001,
    "\u201cthat\u2019s</w>": 8002,
    "\u201cthe</w>": 8003,
    "\u201cthen</w>": 8004,
    "\u201cthere</w>": 8005,
    "\u201cthey</w>": 8006,
    "\u201cthis</w>": 8007,
    "\u201cto</w>": 8008,
    "\u201cvery</w>": 8009,
    "\u201cwe</w>": 8010,
    "\u201cwell": 8011,
    "\u201cwell,</w>": 8012,
    "\u201cwhat</w>": 8013,
    "\u201cwhen</w>": 8014,
    "\u201cwhere</w>": 8015,
    "\u201cwho</w>": 8016,
    "\u201cwhy,</w>": 8017,
    "\u201cwhy</w>": 8018,
    "\u201cyes": 8019,
    "\u201cyes,</w>": 8020,
    "\u201cyes,\u201d</w>": 8021,
    "\u201cyes.\u201d</w>": 8022,
    "\u201cyou</w>": 8023,
    "\u201cyour</w>": 8024,
    "\u201c\u2018": 8025,
    "\u201d": 8026,
    "\u201d,</w>": 8027,
    "\u201d</w>": 8028,
    "\u201d\u2014": 8029,
    "\u2020": 8030,
    "\u2022": 8031,
    "\u2026": 8032,
    "\u2032": 8033,
    "\u203c": 8034,
    "\u2060": 8035,
    "\u20ac": 8036,
    "\u2122": 8037,
    "\u25cf": 8038,
    "\u2600": 8039,
    "\u2601": 8040,
    "\u2605": 8041,
    "\u2606": 8042,
    "\u2609": 8043,
    "\u2611": 8044,
    "\u2618": 8045,
    "\u261d": 8046,
    "\u261e": 8047,
    "\u2639": 8048,
    "\u263a": 8049,
    "\u2661": 8050,
    "\u2665": 8051,
    "\u26be": 8052,
    "\u26f3": 8053,
    "\u2705": 8054,
    "\u2708": 8055,
    "\u270a": 8056,
    "\u270c": 8057,
    "\u2714": 8058,
    "\u2728": 8059,
    "\u274c": 8060,
    "\u2764": 8061,
    "\u279c": 8062,
    "\u27a1": 8063,
    "\u2b05": 8064,
    "\u2b07": 8065,
    "\u300a": 8066,
    "\u30fc": 8067,
    "\ufe0f": 8068,
    "\ufeff": 8069,
    "\uff52": 8070,
    "\uff54": 8071,
    "\ud83c\udde6": 8072,
    "\ud83c\udde7": 8073,
    "\ud83c\udde8": 8074,
    "\ud83c\uddea": 8075,
    "\ud83c\uddeb": 8076,
    "\ud83c\uddec": 8077,
    "\ud83c\uddee": 8078,
    "\ud83c\uddef": 8079,
    "\ud83c\uddf0": 8080,
    "\ud83c\uddf1": 8081,
    "\ud83c\uddf2": 8082,
    "\ud83c\uddf3": 8083,
    "\ud83c\uddf4": 8084,
    "\ud83c\uddf5": 8085,
    "\ud83c\uddf7": 8086,
    "\ud83c\uddf8": 8087,
    "\ud83c\uddf9": 8088,
    "\ud83c\uddfa": 8089,
    "\ud83c\uddfd": 8090,
    "\ud83c\udf0d": 8091,
    "\ud83c\udf0f": 8092,
    "\ud83c\udf10": 8093,
    "\ud83c\udf1a": 8094,
    "\ud83c\udf39": 8095,
    "\ud83c\udf51": 8096,
    "\ud83c\udf77": 8097,
    "\ud83c\udf7b": 8098,
    "\ud83c\udf7e": 8099,
    "\ud83c\udf84": 8100,
    "\ud83c\udf88": 8101,
    "\ud83c\udf89": 8102,
    "\ud83c\udfa5": 8103,
    "\ud83c\udfa7": 8104,
    "\ud83c\udfac": 8105,
    "\ud83c\udfbe": 8106,
    "\ud83c\udfc1": 8107,
    "\ud83c\udfc6": 8108,
    "\ud83c\udfc8": 8109,
    "\ud83c\udfe2": 8110,
    "\ud83c\udfeb": 8111,
    "\ud83c\udffb": 8112,
    "\ud83c\udffc": 8113,
    "\ud83c\udffd": 8114,
    "\ud83d\udc18": 8115,
    "\ud83d\udc40": 8116,
    "\ud83d\udc46": 8117,
    "\ud83d\udc48": 8118,
    "\ud83d\udc49": 8119,
    "\ud83d\udc4a": 8120,
    "\ud83d\udc4b": 8121,
    "\ud83d\udc4c": 8122,
    "\ud83d\udc4d": 8123,
    "\ud83d\udc4f": 8124,
    "\ud83d\udc51": 8125,
    "\ud83d\udc54": 8126,
    "\ud83d\udc57": 8127,
    "\ud83d\udc5a": 8128,
    "\ud83d\udc62": 8129,
    "\ud83d\udc7f": 8130,
    "\ud83d\udc81": 8131,
    "\ud83d\udc83": 8132,
    "\ud83d\udc8b": 8133,
    "\ud83d\udc94": 8134,
    "\ud83d\udc95": 8135,
    "\ud83d\udc97": 8136,
    "\ud83d\udc98": 8137,
    "\ud83d\udc99": 8138,
    "\ud83d\udc9a": 8139,
    "\ud83d\udc9c": 8140,
    "\ud83d\udc9e": 8141,
    "\ud83d\udca4": 8142,
    "\ud83d\udca5": 8143,
    "\ud83d\udca6": 8144,
    "\ud83d\udcaa": 8145,
    "\ud83d\udcaf": 8146,
    "\ud83d\udcb0": 8147,
    "\ud83d\udcc8": 8148,
    "\ud83d\udcc9": 8149,
    "\ud83d\udcd6": 8150,
    "\ud83d\udcf7": 8151,
    "\ud83d\udcf8": 8152,
    "\ud83d\udcfa": 8153,
    "\ud83d\udd05": 8154,
    "\ud83d\udd25": 8155,
    "\ud83d\uddfd": 8156,
    "\ud83d\ude01": 8157,
    "\ud83d\ude02": 8158,
    "\ud83d\ude03": 8159,
    "\ud83d\ude04": 8160,
    "\ud83d\ude05": 8161,
    "\ud83d\ude06": 8162,
    "\ud83d\ude07": 8163,
    "\ud83d\ude09": 8164,
    "\ud83d\ude0a": 8165,
    "\ud83d\ude0d": 8166,
    "\ud83d\ude0e": 8167,
    "\ud83d\ude11": 8168,
    "\ud83d\ude12": 8169,
    "\ud83d\ude13": 8170,
    "\ud83d\ude14": 8171,
    "\ud83d\ude18": 8172,
    "\ud83d\ude1c": 8173,
    "\ud83d\ude1d": 8174,
    "\ud83d\ude21": 8175,
    "\ud83d\ude22": 8176,
    "\ud83d\ude23": 8177,
    "\ud83d\ude27": 8178,
    "\ud83d\ude29": 8179,
    "\ud83d\ude2c": 8180,
    "\ud83d\ude30": 8181,
    "\ud83d\ude31": 8182,
    "\ud83d\ude33": 8183,
    "\ud83d\ude34": 8184,
    "\ud83d\ude45": 8185,
    "\ud83d\ude4c": 8186,
    "\ud83d\ude4f": 8187,
    "\ud83d\ude80": 8188,
    "\ud83d\ude82": 8189,
    "\ud83d\udea8": 8190,
    "\udbff\udc00": 8191
  },
  "end-of-word-mark": "</w>",
  "merges": [
    [
      "e",
      "</w>",
      1729148
    ],
    [
      "t",
      "h",
      1399212
    ],
    [
      "h",
      "e",
      1235903
    ],
    [
      "d",
      "</w>",
      1024247
    ],
    [
      "t",
      "</w>",
      936893
    ],
    [
      "s",
      "</w>",
      903495
    ],
    [
      ",",
      "</w>",
      862460
    ],
    [
      "i",
      "n",
      791457
    ],
    [
      "a",
      "n",
      774284
    ],
    [
      "e",
      "r",
      645781
    ],
    [
      "th",
      "e</w>",
      543549
    ],
    [
      "r",
      "</w>",
      535228
    ],
    [
      "o",
      "u",
      533237
    ],
    [
      "y",
      "</w>",
      529743
    ],
    [
      ".",
      "</w>",
      509741
    ],
    [
      "o",
      "n",
      500522
    ],
    [
      "o",
      "</w>",
      464841
    ],
    [
      "e",
      "n",
      443209
    ],
    [
      "r",
      "e",
      393840
    ],
    [
      "t",
      "o",
      392575
    ],
    [
      "an",
      "d</w>",
      366673
    ],
    [
      "f",
      "</w>",
      352237
    ],
    [
      "o",
      "f",
      319102
    ],
    [
      "h",
      "a",
      315373
    ],
    [
      "t",
      "o</w>",
      301362
    ],
    [
      "l",
      "l",
      300159
    ],
    [
      "in",
      "g",
      295259
    ],
    [
      "o",
      "f</w>",
      288850
    ],
    [
      "a",
      "r",
      287934
    ],
    [
      "h",
      "i",
      278617
    ],
    [
      "e",
      "d</w>",
      272574
    ],
    [
      "o",
      "r",
      250665
    ],
    [
      "a",
      "</w>",
      234138
    ],
    [
      "s",
      "t",
      221868
    ],
    [
      "e",
      "s",
      214226
    ],
    [
      "ing",
      "</w>",
      213707
    ],
    [
      "a",
      "t</w>",
      211582
    ],
    [
      "in",
      "</w>",
      197657
    ],
    [
      "i",
      "</w>",
      191086
    ],
    [
      "er",
      "</w>",
      188025
    ],
    [
      "o",
      "m",
      187025
    ],
    [
      "a",
      "t",
      186656
    ],
    [
      "w",
      "i",
      181712
    ],
    [
      "t",
      "i",
      178896
    ],
    [
      "n",
      "o",
      173967
    ],
    [
      "ll",
      "</w>",
      170290
    ],
    [
      "a",
      "l",
      169933
    ],
    [
      "y",
      "ou",
      166913
    ],
    [
      "a",
      "s</w>",
      166321
    ],
    [
      "h",
      "e</w>",
      160976
    ],
    [
      "s",
      "e",
      159268
    ],
    [
      "on",
      "</w>",
      149010
    ],
    [
      "l",
      "i",
      145870
    ],
    [
      "l",
      "e",
      143510
    ],
    [
      "th",
      "</w>",
      142482
    ],
    [
      "i",
      "t",
      141417
    ],
    [
      "i",
      "s</w>",
      139894
    ],
    [
      "o",
      "r</w>",
      137609
    ],
    [
      "c",
      "h",
      137308
    ],
    [
      "h",
      "</w>",
      135470
    ],
    [
      "b",
      "e",
      132419
    ],
    [
      "th",
      "at</w>",
      126987
    ],
    [
      "r",
      "i",
      125965
    ],
    [
      "th",
      "e",
      120920
    ],
    [
      "v",
      "e</w>",
      117270
    ],
    [
      ";",
      "</w>",
      115281
    ],
    [
      "r",
      "o",
      114753
    ],
    [
      "o",
      "w",
      113478
    ],
    [
      "a",
      "m",
      113461
    ],
    [
      "a",
      "s",
      109149
    ],
    [
      "en",
      "</w>",
      106260
    ],
    [
      "s",
      "i",
      105865
    ],
    [
      "a",
      "c",
      104918
    ],
    [
      "d",
      "e",
      102397
    ],
    [
      "e",
      ",</w>",
      101389
    ],
    [
      "an",
      "</w>",
      100743
    ],
    [
      "hi",
      "s</w>",
      100393
    ],
    [
      "d",
      "i",
      99430
    ],
    [
      "\u201d",
      "</w>",
      98086
    ],
    [
      "u",
      "n",
      97187
    ],
    [
      "b",
      "u",
      95503
    ],
    [
      "d",
      ",</w>",
      94176
    ],
    [
      "i",
      "t</w>",
      92851
    ],
    [
      "you",
      "</w>",
      91679
    ],
    [
      "wi",
      "th</w>",
      91478
    ],
    [
      "f",
      "or</w>",
      90706
    ],
    [
      "g",
      "h",
      90612
    ],
    [
      "w",
      "as</w>",
      90193
    ],
    [
      "l",
      "d</w>",
      89136
    ],
    [
      "s",
      ",</w>",
      88934
    ],
    [
      "ch",
      "</w>",
      88749
    ],
    [
      "l",
      "y</w>",
      86780
    ],
    [
      "m",
      "y</w>",
      84376
    ],
    [
      "s",
      "a",
      84254
    ],
    [
      "a",
      "i",
      83767
    ],
    [
      "k",
      "</w>",
      82477
    ],
    [
      "s",
      "t</w>",
      81180
    ],
    [
      "m",
      "a",
      78347
    ],
    [
      "no",
      "t</w>",
      77796
    ],
    [
      "u",
      "s",
      77557
    ],
    [
      "l",
      "o",
      77330
    ],
    [
      "u",
      "r",
      76814
    ],
    [
      "n",
      "</w>",
      76080
    ],
    [
      "m",
      "</w>",
      75910
    ],
    [
      "l",
      "e</w>",
      75720
    ],
    [
      "e",
      "s</w>",
      73146
    ],
    [
      "v",
      "er",
      70933
    ],
    [
      "en",
      "t",
      69138
    ],
    [
      "b",
      "e</w>",
      68329
    ],
    [
      "n",
      "e",
      67887
    ],
    [
      "th",
      "er",
      67532
    ],
    [
      "bu",
      "t</w>",
      65214
    ],
    [
      "y",
      ",</w>",
      64909
    ],
    [
      "p",
      "e",
      64391
    ],
    [
      "w",
      "</w>",
      64351
    ],
    [
      "a",
      "g",
      63697
    ],
    [
      "t",
      "r",
      62547
    ],
    [
      "i",
      "s",
      60809
    ],
    [
      "c",
      "on",
      60565
    ],
    [
      "!",
      "</w>",
      60246
    ],
    [
      "f",
      "or",
      60240
    ],
    [
      "g",
      "o",
      59869
    ],
    [
      "s",
      "u",
      59746
    ],
    [
      "w",
      "hi",
      59743
    ],
    [
      "c",
      "om",
      59477
    ],
    [
      "i",
      "c",
      58937
    ],
    [
      "ha",
      "d</w>",
      58668
    ],
    [
      "ou",
      "ld</w>",
      58308
    ],
    [
      "m",
      "e",
      58190
    ],
    [
      "a",
      "b",
      57952
    ],
    [
      "ha",
      "ve</w>",
      57378
    ],
    [
      "l",
      "a",
      56149
    ],
    [
      "p",
      "</w>",
      55939
    ],
    [
      "p",
      "o",
      55041
    ],
    [
      "f",
      "r",
      54204
    ],
    [
      "\u2019",
      "s</w>",
      54141
    ],
    [
      "t",
      "t",
      54029
    ],
    [
      "om",
      "</w>",
      53494
    ],
    [
      "a",
      "ll</w>",
      53436
    ],
    [
      "he",
      "r</w>",
      53254
    ],
    [
      "k",
      "e</w>",
      53107
    ],
    [
      "th",
      "ou",
      53002
    ],
    [
      "th",
      "is</w>",
      52638
    ],
    [
      "w",
      "h",
      52619
    ],
    [
      ":",
      "</w>",
      52551
    ],
    [
      "w",
      "e",
      51713
    ],
    [
      "m",
      "e</w>",
      51454
    ],
    [
      "w",
      "he",
      51011
    ],
    [
      "b",
      "y</w>",
      50421
    ],
    [
      "i",
      "r",
      49428
    ],
    [
      "f",
      "e",
      49334
    ],
    [
      "m",
      "o",
      48006
    ],
    [
      "ou",
      "n",
      47979
    ],
    [
      "s",
      "e</w>",
      47759
    ],
    [
      "en",
      "t</w>",
      47254
    ],
    [
      "t",
      "e",
      47020
    ],
    [
      "at",
      "i",
      46712
    ],
    [
      "l",
      "</w>",
      46284
    ],
    [
      "a",
      "d",
      45901
    ],
    [
      "s",
      ".</w>",
      45554
    ],
    [
      "c",
      "e</w>",
      45433
    ],
    [
      "c",
      "e",
      45317
    ],
    [
      "s",
      "h",
      45111
    ],
    [
      "q",
      "u",
      44905
    ],
    [
      "s",
      "he</w>",
      44790
    ],
    [
      "?",
      "</w>",
      44570
    ],
    [
      "c",
      "o",
      44322
    ],
    [
      "w",
      "ha",
      44114
    ],
    [
      "gh",
      "t</w>",
      43995
    ],
    [
      "s",
      "o</w>",
      43252
    ],
    [
      "ar",
      "e</w>",
      42951
    ],
    [
      "t",
      ",</w>",
      42892
    ],
    [
      "d",
      ".</w>",
      42781
    ],
    [
      "\"",
      "\"",
      42542
    ],
    [
      "a",
      "ll",
      42246
    ],
    [
      "u",
      "m",
      42102
    ],
    [
      "e",
      "x",
      42040
    ],
    [
      "w",
      "or",
      41627
    ],
    [
      "whi",
      "ch</w>",
      41532
    ],
    [
      "th",
      "er</w>",
      41383
    ],
    [
      "fr",
      "om</w>",
      41021
    ],
    [
      "on",
      "e</w>",
      41004
    ],
    [
      "s",
      "ha",
      40905
    ],
    [
      "the",
      "y</w>",
      40719
    ],
    [
      "al",
      "</w>",
      40422
    ],
    [
      "r",
      "a",
      39614
    ],
    [
      "t",
      "a",
      39548
    ],
    [
      "t",
      "er",
      38811
    ],
    [
      "p",
      "er",
      38509
    ],
    [
      "v",
      "i",
      37945
    ],
    [
      "wi",
      "ll</w>",
      37725
    ],
    [
      "p",
      "re",
      37576
    ],
    [
      "p",
      "ro",
      37539
    ],
    [
      ".",
      "\u201d</w>",
      37293
    ],
    [
      "w",
      "a",
      37219
    ],
    [
      "sa",
      "i",
      37011
    ],
    [
      "you",
      "r</w>",
      36144
    ],
    [
      "v",
      "er</w>",
      36112
    ],
    [
      "m",
      "i",
      36004
    ],
    [
      "g",
      "</w>",
      35861
    ],
    [
      "e",
      ".</w>",
      35611
    ],
    [
      "m",
      "an",
      35416
    ],
    [
      "w",
      "er",
      35305
    ],
    [
      "s",
      "o",
      35039
    ],
    [
      "m",
      "u",
      34749
    ],
    [
      "c",
      "a",
      34581
    ],
    [
      "se",
      "l",
      34388
    ],
    [
      "b",
      "o",
      34233
    ],
    [
      "hi",
      "m",
      34147
    ],
    [
      "d",
      "a",
      33795
    ],
    [
      "y",
      ".</w>",
      33662
    ],
    [
      "hi",
      "m</w>",
      33416
    ],
    [
      "w",
      "e</w>",
      33410
    ],
    [
      "ou",
      "t</w>",
      33273
    ],
    [
      "wha",
      "t</w>",
      32890
    ],
    [
      "ou",
      "r</w>",
      32848
    ],
    [
      "d",
      "o",
      32772
    ],
    [
      "m",
      "or",
      32505
    ],
    [
      "i",
      "f</w>",
      32460
    ],
    [
      "g",
      "re",
      32048
    ],
    [
      "]",
      "</w>",
      30685
    ],
    [
      "o",
      "p",
      30670
    ],
    [
      "a",
      "r</w>",
      30218
    ],
    [
      "u",
      "p",
      30130
    ],
    [
      "es",
      ",</w>",
      30100
    ],
    [
      "s",
      "om",
      29258
    ],
    [
      "n",
      "o</w>",
      29179
    ],
    [
      "p",
      "ar",
      29073
    ],
    [
      "d",
      "er",
      29011
    ],
    [
      "no",
      "w</w>",
      28977
    ],
    [
      "ow",
      "</w>",
      28662
    ],
    [
      "f",
      "u",
      28627
    ],
    [
      "whe",
      "n</w>",
      28570
    ],
    [
      "he",
      "r",
      28570
    ],
    [
      "d",
      "e</w>",
      28117
    ],
    [
      "i",
      "r</w>",
      28005
    ],
    [
      "g",
      "e",
      27876
    ],
    [
      "c",
      "i",
      27872
    ],
    [
      "ver",
      "y</w>",
      27505
    ],
    [
      "ou",
      "r",
      27425
    ],
    [
      "f",
      "i",
      27401
    ],
    [
      "f",
      "o",
      27250
    ],
    [
      "an",
      "d",
      26924
    ],
    [
      "w",
      "ould</w>",
      26921
    ],
    [
      "wer",
      "e</w>",
      26918
    ],
    [
      "t",
      "ed</w>",
      26722
    ],
    [
      "k",
      "e",
      25971
    ],
    [
      "es",
      "s</w>",
      25954
    ],
    [
      "the",
      "ir</w>",
      25803
    ],
    [
      ",",
      "\u201d</w>",
      25474
    ],
    [
      "y",
      "e",
      25411
    ],
    [
      "sha",
      "ll</w>",
      25389
    ],
    [
      "v",
      "e",
      25096
    ],
    [
      "a",
      "in",
      25035
    ],
    [
      "s",
      "p",
      24849
    ],
    [
      "d",
      "o</w>",
      24738
    ],
    [
      "d",
      "on",
      24684
    ],
    [
      "t",
      "er</w>",
      24586
    ],
    [
      "h",
      "o",
      24260
    ],
    [
      "k",
      "ing</w>",
      24258
    ],
    [
      "lo",
      "o",
      24238
    ],
    [
      "sai",
      "d</w>",
      24149
    ],
    [
      "l",
      "or",
      24043
    ],
    [
      "wh",
      "o</w>",
      23892
    ],
    [
      "c",
      "ha",
      23793
    ],
    [
      "t",
      ".</w>",
      23771
    ],
    [
      "g",
      "i",
      23629
    ],
    [
      "g",
      "h</w>",
      23574
    ],
    [
      "on",
      ",</w>",
      23336
    ],
    [
      "am",
      "e</w>",
      22947
    ],
    [
      "a",
      "f",
      22915
    ],
    [
      "e",
      "m",
      22884
    ],
    [
      "ther",
      "e</w>",
      22610
    ],
    [
      "st",
      "r",
      22560
    ],
    [
      "d",
      "s</w>",
      22467
    ],
    [
      "p",
      "p",
      22232
    ],
    [
      "u",
      "s</w>",
      22053
    ],
    [
      "t",
      "en",
      21949
    ],
    [
      "g",
      "u",
      21915
    ],
    [
      "m",
      "ar",
      21501
    ],
    [
      "j",
      "o",
      21399
    ],
    [
      "o",
      "d</w>",
      21292
    ],
    [
      "re",
      "d</w>",
      21285
    ],
    [
      "s",
      "c",
      21269
    ],
    [
      "w",
      "ar",
      21266
    ],
    [
      "t",
      "s</w>",
      21157
    ],
    [
      "no",
      "w",
      20876
    ],
    [
      "ing",
      ",</w>",
      20867
    ],
    [
      "j",
      "u",
      20751
    ],
    [
      "b",
      "er",
      20628
    ],
    [
      "p",
      "l",
      20581
    ],
    [
      "p",
      "r",
      20528
    ],
    [
      "es",
      "t</w>",
      20510
    ],
    [
      "f",
      "a",
      20493
    ],
    [
      "m",
      "in",
      20487
    ],
    [
      "ou",
      "s</w>",
      20174
    ],
    [
      "be",
      "en</w>",
      20023
    ],
    [
      "e",
      "l",
      19958
    ],
    [
      "thou",
      "</w>",
      19822
    ],
    [
      "th",
      "ing</w>",
      19719
    ],
    [
      "e",
      "v",
      19214
    ],
    [
      "mor",
      "e</w>",
      19116
    ],
    [
      "ow",
      "n</w>",
      19087
    ],
    [
      "l",
      "u",
      19052
    ],
    [
      "t",
      "ur",
      18972
    ],
    [
      "n",
      "i",
      18948
    ],
    [
      "he",
      "ar",
      18876
    ],
    [
      "g",
      "r",
      18865
    ],
    [
      "d",
      "u",
      18834
    ],
    [
      "p",
      "u",
      18755
    ],
    [
      "th",
      "y</w>",
      18684
    ],
    [
      "k",
      "ed</w>",
      18528
    ],
    [
      "i",
      "m",
      18527
    ],
    [
      "am",
      "</w>",
      18489
    ],
    [
      "li",
      "ke</w>",
      18309
    ],
    [
      "m",
      "on",
      18243
    ],
    [
      "tr",
      "um",
      18220
    ],
    [
      "th",
      "en</w>",
      18208
    ],
    [
      "\"",
      "</w>",
      18175
    ],
    [
      "?",
      "\u201d</w>",
      17967
    ],
    [
      "th",
      "an</w>",
      17955
    ],
    [
      "s",
      "pe",
      17905
    ],
    [
      "at",
      "e</w>",
      17804
    ],
    [
      "r",
      "e</w>",
      17706
    ],
    [
      "a",
      "d</w>",
      17680
    ],
    [
      "e",
      "c",
      17603
    ],
    [
      "a",
      "p",
      17554
    ],
    [
      "u",
      "p</w>",
      17540
    ],
    [
      "som",
      "e</w>",
      17469
    ],
    [
      "ati",
      "on</w>",
      17415
    ],
    [
      "l",
      "d",
      17415
    ],
    [
      "in",
      "to</w>",
      17374
    ],
    [
      "st",
      "i",
      17262
    ],
    [
      "b",
      "r",
      17249
    ],
    [
      "m",
      "an</w>",
      17231
    ],
    [
      "s",
      "to",
      17055
    ],
    [
      "s",
      "er",
      16955
    ],
    [
      "an",
      "y</w>",
      16935
    ],
    [
      "up",
      "on</w>",
      16833
    ],
    [
      "for",
      "e</w>",
      16719
    ],
    [
      "o",
      "ther</w>",
      16675
    ],
    [
      "on",
      "g</w>",
      16563
    ],
    [
      "ti",
      "on</w>",
      16538
    ],
    [
      "ati",
      "on",
      16480
    ],
    [
      "the",
      "m</w>",
      16442
    ],
    [
      "gre",
      "at</w>",
      16391
    ],
    [
      "\u2019",
      "t</w>",
      16386
    ],
    [
      "b",
      "l",
      16298
    ],
    [
      "an",
      "t</w>",
      16267
    ],
    [
      "\u2019",
      "</w>",
      16132
    ],
    [
      ".",
      ".",
      16089
    ],
    [
      "c",
      "he",
      16073
    ],
    [
      "f",
      "ir",
      16018
    ],
    [
      "s",
      "ed</w>",
      15988
    ],
    [
      "e",
      "d",
      15932
    ],
    [
      "c",
      "k",
      15914
    ],
    [
      "c",
      "oun",
      15834
    ],
    [
      "sel",
      "f</w>",
      15816
    ],
    [
      "re",
      ",</w>",
      15767
    ],
    [
      "g",
      "e</w>",
      15759
    ],
    [
      "di",
      "d</w>",
      15724
    ],
    [
      "th",
      "in",
      15711
    ],
    [
      "c",
      "ould</w>",
      15689
    ],
    [
      "sh",
      "ould</w>",
      15632
    ],
    [
      "as",
      "t</w>",
      15582
    ],
    [
      "h",
      "ow</w>",
      15536
    ],
    [
      "v",
      "o",
      15312
    ],
    [
      "m",
      "r",
      15042
    ],
    [
      "m",
      "e,</w>",
      14970
    ],
    [
      "com",
      "e</w>",
      14851
    ],
    [
      "mo",
      "st</w>",
      14837
    ],
    [
      "d",
      "er</w>",
      14834
    ],
    [
      "t",
      ".",
      14833
    ],
    [
      "su",
      "ch</w>",
      14783
    ],
    [
      "en",
      ",</w>",
      14764
    ],
    [
      "go",
      "od</w>",
      14745
    ],
    [
      "ab",
      "le</w>",
      14738
    ],
    [
      "pre",
      "s",
      14727
    ],
    [
      "t",
      "y</w>",
      14688
    ],
    [
      "ti",
      "on",
      14654
    ],
    [
      "es",
      ".</w>",
      14652
    ],
    [
      "the",
      "m",
      14571
    ],
    [
      "c",
      "u",
      14498
    ],
    [
      "oun",
      "d</w>",
      14448
    ],
    [
      "ag",
      "ain",
      14386
    ],
    [
      "o",
      "se</w>",
      14318
    ],
    [
      "st",
      "er",
      14302
    ],
    [
      "a",
      "u",
      14267
    ],
    [
      "c",
      "hi",
      14257
    ],
    [
      "v",
      "ed</w>",
      14207
    ],
    [
      "d",
      "es",
      14012
    ],
    [
      "-",
      "-",
      13939
    ],
    [
      "p",
      "ri",
      13787
    ],
    [
      "mu",
      "st</w>",
      13760
    ],
    [
      "e",
      "d,</w>",
      13597
    ],
    [
      "th",
      "es",
      13566
    ],
    [
      "ha",
      "s</w>",
      13514
    ],
    [
      "us",
      "e</w>",
      13504
    ],
    [
      "an",
      "c",
      13459
    ],
    [
      "a",
      "v",
      13405
    ],
    [
      "b",
      "i",
      13390
    ],
    [
      "c",
      "an</w>",
      13350
    ],
    [
      "o",
      "b",
      13301
    ],
    [
      "c",
      "l",
      13277
    ],
    [
      "t",
      "w",
      13276
    ],
    [
      "t",
      "e</w>",
      13253
    ],
    [
      "p",
      "le",
      13252
    ],
    [
      "ma",
      "y</w>",
      13081
    ],
    [
      "ab",
      "out</w>",
      13070
    ],
    [
      "d",
      "ed</w>",
      13044
    ],
    [
      "f",
      "ri",
      13019
    ],
    [
      "ur",
      "e</w>",
      12968
    ],
    [
      "c",
      "an",
      12949
    ],
    [
      "ac",
      "e</w>",
      12874
    ],
    [
      "f",
      "in",
      12861
    ],
    [
      "on",
      "ly</w>",
      12828
    ],
    [
      "tt",
      "p",
      12794
    ],
    [
      ":",
      "/",
      12785
    ],
    [
      "/",
      "/",
      12783
    ],
    [
      "h",
      "tt",
      12772
    ],
    [
      ":/",
      "/",
      12782
    ],
    [
      "h",
      "ttp",
      12769
    ],
    [
      "se",
      ",</w>",
      12620
    ],
    [
      "ne",
      "ver</w>",
      12579
    ],
    [
      "t",
      "u",
      12546
    ],
    [
      "://",
      "t.",
      12545
    ],
    [
      "t.",
      "co",
      12543
    ],
    [
      "co",
      "/",
      12541
    ],
    [
      "://t.",
      "co/",
      12541
    ],
    [
      "all",
      "y</w>",
      12518
    ],
    [
      "y",
      "s</w>",
      12517
    ],
    [
      "e",
      "y",
      12499
    ],
    [
      "s",
      "in",
      12475
    ],
    [
      "m",
      "is",
      12408
    ],
    [
      "se",
      "e</w>",
      12330
    ],
    [
      "le",
      "t</w>",
      12322
    ],
    [
      "trum",
      "p</w>",
      12213
    ],
    [
      "ma",
      "ke</w>",
      12206
    ],
    [
      "en",
      "ce</w>",
      12201
    ],
    [
      "ro",
      "w",
      12199
    ],
    [
      "k",
      "now</w>",
      12193
    ],
    [
      "tr",
      "u",
      12167
    ],
    [
      "li",
      "tt",
      12144
    ],
    [
      "an",
      "d,</w>",
      12109
    ],
    [
      "thes",
      "e</w>",
      12072
    ],
    [
      "c",
      "or",
      12058
    ],
    [
      "be",
      "fore</w>",
      12050
    ],
    [
      "fu",
      "l</w>",
      12016
    ],
    [
      "ther",
      "e",
      12006
    ],
    [
      "it",
      "y</w>",
      11996
    ],
    [
      "c",
      "re",
      11971
    ],
    [
      "wa",
      "y</w>",
      11907
    ],
    [
      "p",
      "i",
      11881
    ],
    [
      "es",
      "s",
      11810
    ],
    [
      "\u2019",
      "d</w>",
      11745
    ],
    [
      "th",
      "at",
      11743
    ],
    [
      "f",
      "f",
      11720
    ],
    [
      "ing",
      "s</w>",
      11694
    ],
    [
      "f",
      "er",
      11686
    ],
    [
      "th",
      ",</w>",
      11666
    ],
    [
      "an",
      "ce</w>",
      11658
    ],
    [
      "b",
      "le</w>",
      11657
    ],
    [
      "di",
      "s",
      11624
    ],
    [
      "whe",
      "re</w>",
      11619
    ],
    [
      "c",
      "ri",
      11565
    ],
    [
      "\"\"",
      "\"",
      11553
    ],
    [
      "k",
      ",</w>",
      11501
    ],
    [
      "!",
      "\u201d</w>",
      11440
    ],
    [
      "k",
      "now",
      11437
    ],
    [
      "an",
      "t",
      11408
    ],
    [
      ":",
      "1",
      11383
    ],
    [
      "sel",
      "f",
      11381
    ],
    [
      "ma",
      "de</w>",
      11347
    ],
    [
      "h",
      "ou",
      11341
    ],
    [
      "mu",
      "ch</w>",
      11323
    ],
    [
      "gh",
      "t",
      11323
    ],
    [
      "g",
      "o</w>",
      11307
    ],
    [
      "j",
      "ec",
      11288
    ],
    [
      "ti",
      "me</w>",
      11263
    ],
    [
      "o",
      "l",
      11262
    ],
    [
      "k",
      "s</w>",
      11252
    ],
    [
      "le",
      ",</w>",
      11232
    ],
    [
      "we",
      "ll",
      11224
    ],
    [
      "re",
      "s",
      11184
    ],
    [
      "en",
      "d",
      11167
    ],
    [
      "\u201c",
      "i</w>",
      11153
    ],
    [
      "er",
      ",</w>",
      11148
    ],
    [
      "r",
      "y</w>",
      11090
    ],
    [
      "ing",
      ".</w>",
      11070
    ],
    [
      "b",
      "re",
      11014
    ],
    [
      "an",
      "g",
      10935
    ],
    [
      "v",
      "ing</w>",
      10924
    ],
    [
      "p",
      "as",
      10922
    ],
    [
      "f",
      "l",
      10921
    ],
    [
      "af",
      "ter</w>",
      10913
    ],
    [
      "f",
      "ai",
      10873
    ],
    [
      "st",
      ",</w>",
      10805
    ],
    [
      "don",
      "al",
      10799
    ],
    [
      "\"\"\"",
      "@",
      10781
    ],
    [
      "e",
      "p",
      10774
    ],
    [
      "l",
      "t</w>",
      10764
    ],
    [
      "litt",
      "le</w>",
      10763
    ],
    [
      "m",
      "ent",
      10732
    ],
    [
      "on",
      "g",
      10723
    ],
    [
      "qu",
      "e",
      10613
    ],
    [
      "p",
      "a",
      10594
    ],
    [
      "en",
      "d</w>",
      10589
    ],
    [
      "it",
      ",</w>",
      10581
    ],
    [
      "un",
      "to</w>",
      10532
    ],
    [
      "s",
      "he",
      10496
    ],
    [
      "p",
      "or",
      10401
    ],
    [
      "b",
      "ro",
      10391
    ],
    [
      "g",
      "a",
      10373
    ],
    [
      "it",
      "s</w>",
      10364
    ],
    [
      "en",
      "g",
      10359
    ],
    [
      "c",
      "ame</w>",
      10269
    ],
    [
      "ha",
      "r",
      10249
    ],
    [
      "re",
      "al",
      10231
    ],
    [
      "pe",
      "op",
      10226
    ],
    [
      "him",
      ",</w>",
      10201
    ],
    [
      "e",
      "ver",
      10147
    ],
    [
      "to",
      "o",
      10111
    ],
    [
      "n",
      "ed</w>",
      10023
    ],
    [
      "s",
      ";</w>",
      10017
    ],
    [
      "ou",
      "gh</w>",
      9980
    ],
    [
      "d",
      "y</w>",
      9936
    ],
    [
      "cha",
      "r",
      9927
    ],
    [
      "som",
      "e",
      9914
    ],
    [
      "fir",
      "st</w>",
      9892
    ],
    [
      "to",
      "r",
      9885
    ],
    [
      "s",
      "hi",
      9866
    ],
    [
      "w",
      "in",
      9833
    ],
    [
      "c",
      "er",
      9822
    ],
    [
      "t",
      "ing</w>",
      9801
    ],
    [
      "th",
      "r",
      9771
    ],
    [
      "c",
      "ar",
      9760
    ],
    [
      "o",
      "ver</w>",
      9726
    ],
    [
      "tw",
      "o</w>",
      9699
    ],
    [
      "er",
      "s</w>",
      9697
    ],
    [
      "at",
      "ed</w>",
      9675
    ],
    [
      "ta",
      "ke</w>",
      9669
    ],
    [
      "us",
      ".</w>",
      9668
    ],
    [
      "n",
      "ing</w>",
      9616
    ],
    [
      "c",
      "k</w>",
      9546
    ],
    [
      "ne",
      "w</w>",
      9541
    ],
    [
      "mr",
[...]
