{
  "vocab_size": 10000,
  "vocab": {
    "!": 0,
    "!!": 1,
    "!!!\"\"\"</w>": 2,
    "!!!</w>": 3,
    "!!\"\"\"</w>": 4,
    "!!\"\"</w>": 5,
    "!!</w>": 6,
    "!\"\"\"</w>": 7,
    "!\"\"</w>": 8,
    "!\"</w>": 9,
    "!).</w>": 10,
    "!)</w>": 11,
    "!</w>": 12,
    "!\u2014": 13,
    "!\u2019</w>": 14,
    "!\u201d</w>": 15,
    "\"": 16,
    "\"\"": 17,
    "\"\"\"": 18,
    "\"\"\"</w>": 19,
    "\"\"\"@": 20,
    "\"\"\"@_": 21,
    "\"\"\"@b": 22,
    "\"\"\"@c": 23,
    "\"\"\"@d": 24,
    "\"\"\"@i": 25,
    "\"\"\"@j": 26,
    "\"\"\"@jo": 27,
    "\"\"\"@k": 28,
    "\"\"\"@m": 29,
    "\"\"\"@n": 30,
    "\"\"\"@p": 31,
    "\"\"\"@r": 32,
    "\"\"\"@t": 33,
    "\"\"\"@the": 34,
    "\"\"</w>": 35,
    "\"\"donald</w>": 36,
    "\"\"the</w>": 37,
    "\"</w>": 38,
    "\"rt</w>": 39,
    "\"via</w>": 40,
    "#": 41,
    "#1</w>": 42,
    "#americ": 43,
    "#americaf": 44,
    "#americafir": 45,
    "#celebapprentice</w>": 46,
    "#celebrity": 47,
    "#celebrityapprentice</w>": 48,
    "#drain": 49,
    "#drainthes": 50,
    "#drainthesw": 51,
    "#k": 52,
    "#ma": 53,
    "#maga": 54,
    "#maga</w>": 55,
    "#make": 56,
    "#makeameric": 57,
    "#makeamericagreat": 58,
    "#makeamericagreatagain": 59,
    "#makeamericagreatagain</w>": 60,
    "#timetogett": 61,
    "#trump": 62,
    "#trump2016": 63,
    "#trump2016\"\"\"</w>": 64,
    "#trump2016</w>": 65,
    "#trump</w>": 66,
    "#trumpfor": 67,
    "#trumpv": 68,
    "#vote": 69,
    "$": 70,
    "$5": 71,
    "%": 72,
    "%,</w>": 73,
    "%.</w>": 74,
    "%</w>": 75,
    "&": 76,
    "&amp": 77,
    "&amp,</w>": 78,
    "&amp;</w>": 79,
    "'": 80,
    "'</w>": 81,
    "'re</w>": 82,
    "'s</w>": 83,
    "'t</w>": 84,
    "(": 85,
    "(@": 86,
    "(_": 87,
    "(and</w>": 88,
    "(cont": 89,
    "(cont)</w>": 90,
    "(for</w>": 91,
    "(or</w>": 92,
    "(the</w>": 93,
    "(which</w>": 94,
    ")": 95,
    ")!</w>": 96,
    "),</w>": 97,
    ").</w>": 98,
    ")</w>": 99,
    "*": 100,
    "*</w>": 101,
    "+": 102,
    ",": 103,
    ",)</w>": 104,
    ",--</w>": 105,
    ",00": 106,
    ",000": 107,
    ",000</w>": 108,
    ",</w>": 109,
    ",\u2014": 110,
    ",\u2014</w>": 111,
    ",\u2019</w>": 112,
    ",\u201d</w>": 113,
    "-": 114,
    "--": 115,
    "---": 116,
    "----": 117,
    "---</w>": 118,
    "--</w>": 119,
    "--and</w>": 120,
    "-</w>": 121,
    "-ho": 122,
    "-in-": 123,
    "-like</w>": 124,
    ".": 125,
    ".\"\"\"</w>": 126,
    ".\"\"</w>": 127,
    ".\"</w>": 128,
    ".)</w>": 129,
    ".,</w>": 130,
    "..": 131,
    "...": 132,
    "...\"</w>": 133,
    "....": 134,
    ".....": 135,
    "......</w>": 136,
    ".....</w>": 137,
    "....</w>": 138,
    "...</w>": 139,
    "...and</w>": 140,
    "..</w>": 141,
    ".</w>": 142,
    ".@": 143,
    ".@realdonaldtrump</w>": 144,
    ".]</w>": 145,
    "._</w>": 146,
    "._]</w>": 147,
    ".com": 148,
    ".com/": 149,
    ".ly": 150,
    ".ly/": 151,
    ".m.</w>": 152,
    ".org": 153,
    ".\u2014": 154,
    ".\u2014</w>": 155,
    ".\u2019</w>": 156,
    ".\u201d</w>": 157,
    "/": 158,
    "/t.": 159,
    "0": 160,
    "00": 161,
    "00:": 162,
    "00:0": 163,
    "00</w>": 164,
    "0</w>": 165,
    "1": 166,
    "1.": 167,
    "1.</w>": 168,
    "1.e.": 169,
    "1.f": 170,
    "1.f.": 171,
    "10": 172,
    "100": 173,
    "100%</w>": 174,
    "10:": 175,
    "10:1": 176,
    "10</w>": 177,
    "11": 178,
    "119:1": 179,
    "11:": 180,
    "11:1": 181,
    "11:</w>": 182,
    "11</w>": 183,
    "12": 184,
    "12:": 185,
    "12:1": 186,
    "12</w>": 187,
    "13": 188,
    "13:": 189,
    "13:1": 190,
    "13</w>": 191,
    "14": 192,
    "14:": 193,
    "14:1": 194,
    "14</w>": 195,
    "15": 196,
    "15:": 197,
    "15:1": 198,
    "15</w>": 199,
    "16": 200,
    "16:": 201,
    "16:1": 202,
    "16</w>": 203,
    "17": 204,
    "17:": 205,
    "17:1": 206,
    "18": 207,
    "18:": 208,
    "18:1": 209,
    "18</w>": 210,
    "19": 211,
    "19:": 212,
    "19:1": 213,
    "1:": 214,
    "1:1": 215,
    "1:10</w>": 216,
    "1:11</w>": 217,
    "1:1</w>": 218,
    "1:2</w>": 219,
    "1:3</w>": 220,
    "1:4</w>": 221,
    "1:5</w>": 222,
    "1:6</w>": 223,
    "1:7</w>": 224,
    "1:8</w>": 225,
    "1:</w>": 226,
    "1</w>": 227,
    "2": 228,
    "2.</w>": 229,
    "20": 230,
    "200": 231,
    "201": 232,
    "2016": 233,
    "2016\"\"\"</w>": 234,
    "2016</w>": 235,
    "2020": 236,
    "2020</w>": 237,
    "20:": 238,
    "20:1": 239,
    "20</w>": 240,
    "21": 241,
    "21:": 242,
    "21:1": 243,
    "22": 244,
    "22:": 245,
    "22:1": 246,
    "23": 247,
    "23:": 248,
    "23:1": 249,
    "24": 250,
    "24:": 251,
    "24:1": 252,
    "25": 253,
    "25:": 254,
    "25:1": 255,
    "25</w>": 256,
    "26": 257,
    "26:": 258,
    "26:1": 259,
    "27": 260,
    "27:": 261,
    "27:1": 262,
    "28": 263,
    "28:": 264,
    "28:1": 265,
    "29": 266,
    "29:": 267,
    "29:1": 268,
    "2:": 269,
    "2:1": 270,
    "2:5</w>": 271,
    "2:</w>": 272,
    "2</w>": 273,
    "2n": 274,
    "2nd</w>": 275,
    "3": 276,
    "3.</w>": 277,
    "30": 278,
    "30:": 279,
    "30:1": 280,
    "30</w>": 281,
    "31": 282,
    "31:": 283,
    "31:1": 284,
    "32": 285,
    "32:": 286,
    "32:1": 287,
    "33": 288,
    "33:": 289,
    "33:1": 290,
    "34": 291,
    "34:1": 292,
    "35": 293,
    "35:1": 294,
    "36": 295,
    "36:1": 296,
    "37": 297,
    "38": 298,
    "39": 299,
    "3:": 300,
    "3:1": 301,
    "3:</w>": 302,
    "3</w>": 303,
    "3r": 304,
    "4": 305,
    "4.</w>": 306,
    "40": 307,
    "40</w>": 308,
    "41": 309,
    "41</w>": 310,
    "42</w>": 311,
    "43</w>": 312,
    "44": 313,
    "44</w>": 314,
    "45": 315,
    "45</w>": 316,
    "46": 317,
    "46</w>": 318,
    "47</w>": 319,
    "48": 320,
    "48</w>": 321,
    "49": 322,
    "49</w>": 323,
    "4:": 324,
    "4:1": 325,
    "4:</w>": 326,
    "4</w>": 327,
    "5": 328,
    "5.</w>": 329,
    "50": 330,
    "50</w>": 331,
    "51</w>": 332,
    "52</w>": 333,
    "5:": 334,
    "5:1": 335,
    "5:</w>": 336,
    "5</w>": 337,
    "6": 338,
    "60": 339,
    "6:": 340,
    "6:1": 341,
    "6:</w>": 342,
    "6</w>": 343,
    "7": 344,
    "70": 345,
    "75": 346,
    "77": 347,
    "7:": 348,
    "7:1": 349,
    "7:</w>": 350,
    "7</w>": 351,
    "8": 352,
    "8.</w>": 353,
    "80": 354,
    "8:": 355,
    "8:1": 356,
    "8:</w>": 357,
    "8</w>": 358,
    "9": 359,
    "9.</w>": 360,
    "90": 361,
    "95": 362,
    "9:": 363,
    "9:1": 364,
    "9:</w>": 365,
    "9</w>": 366,
    ":": 367,
    ":/": 368,
    "://": 369,
    "://t.co": 370,
    "://t.co/": 371,
    ":1": 372,
    ":2": 373,
    ":20</w>": 374,
    ":21</w>": 375,
    ":22</w>": 376,
    ":23</w>": 377,
    ":24</w>": 378,
    ":25</w>": 379,
    ":26</w>": 380,
    ":27</w>": 381,
    ":28</w>": 382,
    ":29</w>": 383,
    ":3": 384,
    ":30</w>": 385,
    ":31</w>": 386,
    ":32</w>": 387,
    ":33</w>": 388,
    ":34</w>": 389,
    ":35</w>": 390,
    ":36</w>": 391,
    ":37</w>": 392,
    ":38</w>": 393,
    ":39</w>": 394,
    ":</w>": 395,
    ";": 396,
    ";</w>": 397,
    ";\u2014": 398,
    "<": 399,
    "</w>": 400,
    "=": 401,
    ">": 402,
    "?": 403,
    "?\"\"\"</w>": 404,
    "?\"\"</w>": 405,
    "?\"</w>": 406,
    "?</w>": 407,
    "??": 408,
    "?\u2014": 409,
    "?\u2019</w>": 410,
    "?\u201d</w>": 411,
    "@": 412,
    "@ab": 413,
    "@apprenticen": 414,
    "@apprenticenbc</w>": 415,
    "@barack": 416,
    "@barackobama's</w>": 417,
    "@barackobama</w>": 418,
    "@bill": 419,
    "@bre": 420,
    "@breitbart": 421,
    "@breitbartnews</w>": 422,
    "@c": 423,
    "@celebapprentice</w>": 424,
    "@cn": 425,
    "@cnn</w>": 426,
    "@d": 427,
    "@donaldjtrump": 428,
    "@eric": 429,
    "@fox": 430,
    "@foxand": 431,
    "@foxandfriends</w>": 432,
    "@foxnews.</w>": 433,
    "@foxnews</w>": 434,
    "@gre": 435,
    "@gretawi": 436,
    "@i": 437,
    "@ivankatr": 438,
    "@ivankatrump</w>": 439,
    "@j": 440,
    "@jim": 441,
    "@jo": 442,
    "@john": 443,
    "@k": 444,
    "@lou": 445,
    "@m": 446,
    "@mac": 447,
    "@macys</w>": 448,
    "@mar": 449,
    "@mari": 450,
    "@mark": 451,
    "@megyn": 452,
    "@megynkelly</w>": 453,
    "@mike": 454,
    "@mis": 455,
    "@mittrom": 456,
    "@mittromney</w>": 457,
    "@n": 458,
    "@nbc": 459,
    "@nbc</w>": 460,
    "@ny": 461,
    "@nytimes</w>": 462,
    "@o": 463,
    "@oann</w>": 464,
    "@oreillyfac": 465,
    "@oreillyfactor</w>": 466,
    "@r": 467,
    "@re": 468,
    "@real": 469,
    "@reald": 470,
    "@realdonald": 471,
    "@realdonaldtrump": 472,
    "@realdonaldtrump\"\"\"</w>": 473,
    "@realdonaldtrump\"\"</w>": 474,
    "@realdonaldtrump.</w>": 475,
    "@realdonaldtrump:</w>": 476,
    "@realdonaldtrump</w>": 477,
    "@rep": 478,
    "@ro": 479,
    "@se": 480,
    "@sean": 481,
    "@seanhannity</w>": 482,
    "@sen": 483,
    "@senat": 484,
    "@steve": 485,
    "@t": 486,
    "@the": 487,
    "@trump": 488,
    "@trumpdoral</w>": 489,
    "@us": 490,
    "@w": 491,
    "@white": 492,
    "[": 493,
    "[_": 494,
    "[_a": 495,
    "[_aside": 496,
    "[_aside._]</w>": 497,
    "[_aside</w>": 498,
    "[_aside_.]</w>": 499,
    "[_ex": 500,
    "[_exeun": 501,
    "[_exeunt._]</w>": 502,
    "[_exeunt</w>": 503,
    "[_exit": 504,
    "[_exit._]</w>": 505,
    "[_exit</w>": 506,
    "[_he</w>": 507,
    "[_they</w>": 508,
    "[_to</w>": 509,
    "[am": 510,
    "[am]</w>": 511,
    "[and</w>": 512,
    "[and]</w>": 513,
    "[any]</w>": 514,
    "[are]</w>": 515,
    "[art]</w>": 516,
    "[as</w>": 517,
    "[as]</w>": 518,
    "[be": 519,
    "[be]</w>": 520,
    "[but]</w>": 521,
    "[day": 522,
    "[day]</w>": 523,
    "[even]</w>": 524,
    "[for]</w>": 525,
    "[he</w>": 526,
    "[him": 527,
    "[him]</w>": 528,
    "[his]</w>": 529,
    "[illustration": 530,
    "[illustration:</w>": 531,
    "[illustration]</w>": 532,
    "[in]</w>": 533,
    "[is</w>": 534,
    "[is]</w>": 535,
    "[it": 536,
    "[it</w>": 537,
    "[it],</w>": 538,
    "[it].</w>": 539,
    "[it]</w>": 540,
    "[man": 541,
    "[man]</w>": 542,
    "[men": 543,
    "[men]</w>": 544,
    "[of</w>": 545,
    "[of]</w>": 546,
    "[one]</w>": 547,
    "[shall</w>": 548,
    "[so]</w>": 549,
    "[that</w>": 550,
    "[that]</w>": 551,
    "[the</w>": 552,
    "[their]</w>": 553,
    "[them": 554,
    "[them]</w>": 555,
    "[there</w>": 556,
    "[they</w>": 557,
    "[thing": 558,
    "[to</w>": 559,
    "[was]</w>": 560,
    "[were]</w>": 561,
    "[which</w>": 562,
    "[which]</w>": 563,
    "[with]</w>": 564,
    "\\": 565,
    "]": 566,
    "],</w>": 567,
    "].</w>": 568,
    "]:</w>": 569,
    "];</w>": 570,
    "]</w>": 571,
    "^": 572,
    "_": 573,
    "_,</w>": 574,
    "_.</w>": 575,
    "_.]</w>": 576,
    "_:</w>": 577,
    "_</w>": 578,
    "_]</w>": 579,
    "_that": 580,
    "`": 581,
    "a": 582,
    "a!</w>": 583,
    "a,</w>": 584,
    "a-": 585,
    "a.": 586,
    "a.</w>": 587,
    "a.m.</w>": 588,
    "a:</w>": 589,
    "a;</w>": 590,
    "a</w>": 591,
    "a?</w>": 592,
    "a_": 593,
    "aar": 594,
    "aaron,</w>": 595,
    "aaron</w>": 596,
    "ab": 597,
    "ab,</w>": 598,
    "ab</w>": 599,
    "aband": 600,
    "abe": 601,
    "abhor": 602,
    "abi": 603,
    "abide</w>": 604,
    "abil": 605,
    "ability</w>": 606,
    "able": 607,
    "able,</w>": 608,
    "able.</w>": 609,
    "able</w>": 610,
    "ably</w>": 611,
    "abo": 612,
    "abomin": 613,
    "about": 614,
    "about,</w>": 615,
    "about.</w>": 616,
    "about</w>": 617,
    "above</w>": 618,
    "abra": 619,
    "abraham,</w>": 620,
    "abraham</w>": 621,
    "abro": 622,
    "abroad</w>": 623,
    "abs": 624,
    "absal": 625,
    "absolu": 626,
    "absolute</w>": 627,
    "absolutely</w>": 628,
    "abu": 629,
    "abund": 630,
    "ac": 631,
    "ac</w>": 632,
    "acc": 633,
    "acce": 634,
    "accep": 635,
    "accept</w>": 636,
    "access</w>": 637,
    "accid": 638,
    "accompli": 639,
    "accor": 640,
    "according</w>": 641,
    "accoun": 642,
    "account</w>": 643,
    "accu": 644,
    "accur": 645,
    "accus": 646,
    "accustom": 647,
    "ace</w>": 648,
    "ach": 649,
    "ach,</w>": 650,
    "ach</w>": 651,
    "ache": 652,
    "ached</w>": 653,
    "acher": 654,
    "aches</w>": 655,
    "achi": 656,
    "achill": 657,
    "achilles.</w>": 658,
    "achimo": 659,
    "aching</w>": 660,
    "aci": 661,
    "ack": 662,
    "ack,</w>": 663,
    "ack</w>": 664,
    "acknowled": 665,
    "acqu": 666,
    "acquain": 667,
    "acquaint": 668,
    "acquainted</w>": 669,
    "across</w>": 670,
    "act": 671,
    "act,</w>": 672,
    "act.</w>": 673,
    "act</w>": 674,
    "acted</w>": 675,
    "acti": 676,
    "acting</w>": 677,
    "action": 678,
    "action</w>": 679,
    "actions</w>": 680,
    "acts</w>": 681,
    "actu": 682,
    "actually</w>": 683,
    "acy</w>": 684,
    "ad": 685,
    "ad,</w>": 686,
    "ad.</w>": 687,
    "ad</w>": 688,
    "ada</w>": 689,
    "adam</w>": 690,
    "add": 691,
    "add</w>": 692,
    "added</w>": 693,
    "addition": 694,
    "addition</w>": 695,
    "additional</w>": 696,
    "addre": 697,
    "address</w>": 698,
    "ade": 699,
    "ade</w>": 700,
    "aded</w>": 701,
    "adi": 702,
    "adieu": 703,
    "adily</w>": 704,
    "ading</w>": 705,
    "adm": 706,
    "admi": 707,
    "administr": 708,
    "administration</w>": 709,
    "admir": 710,
    "admit</w>": 711,
    "ado": 712,
    "ador": 713,
    "adri": 714,
    "ads</w>": 715,
    "adul": 716,
    "adulter": 717,
    "adv": 718,
    "advance</w>": 719,
    "advant": 720,
    "advantage</w>": 721,
    "advent": 722,
    "adventure</w>": 723,
    "advers": 724,
    "advice</w>": 725,
    "advis": 726,
    "af": 727,
    "aff": 728,
    "affair": 729,
    "affe": 730,
    "affected</w>": 731,
    "affection": 732,
    "affection</w>": 733,
    "affli": 734,
    "afford</w>": 735,
    "afir": 736,
    "afr": 737,
    "afra": 738,
    "afraid</w>": 739,
    "afric": 740,
    "after": 741,
    "after,</w>": 742,
    "after</w>": 743,
    "afterno": 744,
    "afterwards</w>": 745,
    "ag": 746,
    "ag</w>": 747,
    "again": 748,
    "again!</w>": 749,
    "again,</w>": 750,
    "again.</w>": 751,
    "again;</w>": 752,
    "again</w>": 753,
    "against</w>": 754,
    "agam": 755,
    "agamem": 756,
    "age": 757,
    "age,</w>": 758,
    "age.</w>": 759,
    "age;</w>": 760,
    "age</w>": 761,
    "aged</w>": 762,
    "agen": 763,
    "ages,</w>": 764,
    "ages</w>": 765,
    "agit": 766,
    "ago": 767,
    "ago,</w>": 768,
    "ago.</w>": 769,
    "ago</w>": 770,
    "agre": 771,
    "agreat": 772,
    "agree": 773,
    "agree</w>": 774,
    "agreed</w>": 775,
    "agreem": 776,
    "agreement</w>": 777,
    "agripp": 778,
    "agu": 779,
    "ague</w>": 780,
    "ah": 781,
    "ah!</w>": 782,
    "ah,</w>": 783,
    "ah.</w>": 784,
    "ah:</w>": 785,
    "ah;</w>": 786,
    "ah</w>": 787,
    "aha": 788,
    "ahab": 789,
    "ahab,</w>": 790,
    "ahab</w>": 791,
    "ahab\u2019s</w>": 792,
    "ahead</w>": 793,
    "ahi": 794,
    "ai": 795,
    "ai,</w>": 796,
    "aiah</w>": 797,
    "aid</w>": 798,
    "ail</w>": 799,
    "ain": 800,
    "ain</w>": 801,
    "air": 802,
    "air,</w>": 803,
    "air.</w>": 804,
    "air</w>": 805,
    "aj": 806,
    "aja": 807,
    "ak": 808,
    "ak</w>": 809,
    "al": 810,
    "al!</w>": 811,
    "al,</w>": 812,
    "al-": 813,
    "al.</w>": 814,
    "al:</w>": 815,
    "al;</w>": 816,
    "al</w>": 817,
    "alab": 818,
    "alabam": 819,
    "alar": 820,
    "alas!</w>": 821,
    "alas,</w>": 822,
    "ald": 823,
    "ald,</w>": 824,
    "ald</w>": 825,
    "aldonald": 826,
    "ale": 827,
    "ale</w>": 828,
    "aled</w>": 829,
    "alex": 830,
    "alexand": 831,
    "alexsal": 832,
    "ali": 833,
    "alice</w>": 834,
    "aling</w>": 835,
    "ality</w>": 836,
    "alive</w>": 837,
    "all": 838,
    "all!</w>": 839,
    "all,</w>": 840,
    "all-": 841,
    "all.</w>": 842,
    "all;</w>": 843,
    "all</w>": 844,
    "alle": 845,
    "alli": 846,
    "allow": 847,
    "allow</w>": 848,
    "allowed</w>": 849,
    "allowing</w>": 850,
    "allu": 851,
    "ally": 852,
    "ally,</w>": 853,
    "ally.</w>": 854,
    "ally</w>": 855,
    "almost</w>": 856,
    "alo": 857,
    "aloft</w>": 858,
    "alon": 859,
    "alone,</w>": 860,
    "alone.</w>": 861,
    "alone</w>": 862,
    "along": 863,
    "along</w>": 864,
    "alread": 865,
    "already</w>": 866,
    "als,</w>": 867,
    "als.</w>": 868,
    "als</w>": 869,
    "also,</w>": 870,
    "also.</w>": 871,
    "also</w>": 872,
    "alt": 873,
    "alt</w>": 874,
    "altar,</w>": 875,
    "altar</w>": 876,
    "alter": 877,
    "although</w>": 878,
    "altogether</w>": 879,
    "alty</w>": 880,
    "always</w>": 881,
    "am": 882,
    "am,</w>": 883,
    "am.</w>": 884,
    "am</w>": 885,
    "amaz": 886,
    "amazing</w>": 887,
    "amb": 888,
    "ambas": 889,
    "ambassad": 890,
    "ame</w>": 891,
    "amem": 892,
    "amen.</w>": 893,
    "amend": 894,
    "amendment.</w>": 895,
    "americ": 896,
    "america": 897,
    "america!</w>": 898,
    "america.</w>": 899,
    "america</w>": 900,
    "american": 901,
    "american</w>": 902,
    "americans</w>": 903,
    "ami": 904,
    "aming</w>": 905,
    "amo": 906,
    "amon": 907,
    "among": 908,
    "among</w>": 909,
    "amor": 910,
    "amos</w>": 911,
    "amoun": 912,
    "amp": 913,
    "amp</w>": 914,
    "ams</w>": 915,
    "an": 916,
    "an!</w>": 917,
    "an,</w>": 918,
    "an.</w>": 919,
    "an:</w>": 920,
    "an;</w>": 921,
    "an</w>": 922,
    "an_": 923,
    "ana.</w>": 924,
    "ana</w>": 925,
    "anc": 926,
    "ance": 927,
    "ance,</w>": 928,
    "ance.</w>": 929,
    "ance;</w>": 930,
    "ance</w>": 931,
    "anced</w>": 932,
    "ances,</w>": 933,
    "ances</w>": 934,
    "anch": 935,
    "anci": 936,
    "ancient</w>": 937,
    "ancing</w>": 938,
    "ancy</w>": 939,
    "and": 940,
    "and,</w>": 941,
    "and-": 942,
    "and.</w>": 943,
    "and</w>": 944,
    "and]</w>": 945,
    "andre": 946,
    "andrew.</w>": 947,
    "andrew</w>": 948,
    "ands</w>": 949,
    "ane": 950,
    "ane</w>": 951,
    "ang": 952,
    "ang</w>": 953,
    "ange": 954,
    "ange</w>": 955,
    "angel": 956,
    "angel</w>": 957,
    "angelo.</w>": 958,
    "angels</w>": 959,
    "anger,</w>": 960,
    "anger</w>": 961,
    "angr": 962,
    "angry</w>": 963,
    "angui": 964,
    "ani": 965,
    "aniah</w>": 966,
    "anim": 967,
    "anio.</w>": 968,
    "ank": 969,
    "ank</w>": 970,
    "anke": 971,
    "ann": 972,
    "ann</w>": 973,
    "anne": 974,
    "anne.</w>": 975,
    "anne</w>": 976,
    "anni": 977,
    "announ": 978,
    "announce": 979,
    "announce</w>": 980,
    "announced</w>": 981,
    "ano": 982,
    "ano.</w>": 983,
    "anoin": 984,
    "anointed</w>": 985,
    "another": 986,
    "another,</w>": 987,
    "another.</w>": 988,
    "another</w>": 989,
    "ans": 990,
    "ans,</w>": 991,
    "ans.</w>": 992,
    "ans</w>": 993,
    "answer": 994,
    "answer,</w>": 995,
    "answer.</w>": 996,
    "answer</w>": 997,
    "answered,</w>": 998,
    "answered</w>": 999,
    "ant": 1000,
    "ant,</w>": 1001,
    "ant.</w>": 1002,
    "ant</w>": 1003,
    "anted</w>": 1004,
    "anth": 1005,
    "anti": 1006,
    "anti-": 1007,
    "antic</w>": 1008,
    "antipho": 1009,
    "antipholus</w>": 1010,
    "antly,</w>": 1011,
    "antly</w>": 1012,
    "anton": 1013,
    "antoni": 1014,
    "antonio.</w>": 1015,
    "antony.</w>": 1016,
    "antony</w>": 1017,
    "ants,</w>": 1018,
    "ants.</w>": 1019,
    "ants</w>": 1020,
    "anxi": 1021,
    "any": 1022,
    "any</w>": 1023,
    "any]</w>": 1024,
    "anybody</w>": 1025,
    "anyone</w>": 1026,
    "anything</w>": 1027,
    "anywhere</w>": 1028,
    "an\u2019s</w>": 1029,
    "ap": 1030,
    "ap</w>": 1031,
    "apart": 1032,
    "ape": 1033,
    "apemant": 1034,
    "apemantus.</w>": 1035,
    "apo": 1036,
    "apologi": 1037,
    "apost": 1038,
    "app": 1039,
    "appar": 1040,
    "appare": 1041,
    "appe": 1042,
    "appear": 1043,
    "appear</w>": 1044,
    "appearance</w>": 1045,
    "appeare": 1046,
    "appeared</w>": 1047,
    "appears</w>": 1048,
    "applic": 1049,
    "appoint": 1050,
    "appointed</w>": 1051,
    "appr": 1052,
    "appreci": 1053,
    "appreciate</w>": 1054,
    "apprehen": 1055,
    "apprent": 1056,
    "apprentic": 1057,
    "apprentice": 1058,
    "apprentice\"\"\"</w>": 1059,
    "apprentice</w>": 1060,
    "apprenticen": 1061,
    "appro": 1062,
    "approach</w>": 1063,
    "approval</w>": 1064,
    "approve</w>": 1065,
    "apri": 1066,
    "ar": 1067,
    "ar,</w>": 1068,
    "ar.</w>": 1069,
    "ar</w>": 1070,
    "arabi": 1071,
    "arbu": 1072,
    "arch": 1073,
    "archi": 1074,
    "archive</w>": 1075,
    "arcit": 1076,
    "arcite.</w>": 1077,
    "ard": 1078,
    "ard,</w>": 1079,
    "ard.</w>": 1080,
    "ard</w>": 1081,
    "ards</w>": 1082,
    "are": 1083,
    "are,</w>": 1084,
    "are.</w>": 1085,
    "are</w>": 1086,
    "are]</w>": 1087,
    "ared</w>": 1088,
    "aren": 1089,
    "areth</w>": 1090,
    "argum": 1091,
    "ari": 1092,
    "aries</w>": 1093,
    "arily</w>": 1094,
    "aring</w>": 1095,
    "arise,</w>": 1096,
    "arizon": 1097,
    "ark</w>": 1098,
    "arly</w>": 1099,
    "arm": 1100,
    "arm,</w>": 1101,
    "arm</w>": 1102,
    "arma": 1103,
    "armado.</w>": 1104,
    "armed</w>": 1105,
    "arms,</w>": 1106,
    "arms.</w>": 1107,
    "arms</w>": 1108,
    "army</w>": 1109,
    "aro": 1110,
    "arose,</w>": 1111,
    "arose</w>": 1112,
    "aroun": 1113,
    "around</w>": 1114,
    "arr": 1115,
    "arre": 1116,
    "arri": 1117,
    "arrived</w>": 1118,
    "ars,</w>": 1119,
    "ars</w>": 1120,
    "art": 1121,
    "art,</w>": 1122,
    "art</w>": 1123,
    "art]</w>": 1124,
    "arti": 1125,
    "artic": 1126,
    "article</w>": 1127,
    "ary": 1128,
    "ary,</w>": 1129,
    "ary.</w>": 1130,
    "ary</w>": 1131,
    "as": 1132,
    "as!</w>": 1133,
    "as,</w>": 1134,
    "as.</w>": 1135,
    "as</w>": 1136,
    "as]</w>": 1137,
    "asa": 1138,
    "asc": 1139,
    "ase</w>": 1140,
    "ased</w>": 1141,
    "ash": 1142,
    "asha": 1143,
    "asham": 1144,
    "ashamed</w>": 1145,
    "ashed</w>": 1146,
    "asi": 1147,
    "aside</w>": 1148,
    "asing</w>": 1149,
    "ask": 1150,
    "ask</w>": 1151,
    "asked</w>": 1152,
    "asking</w>": 1153,
    "asle": 1154,
    "asleep": 1155,
    "aspe": 1156,
    "aspect</w>": 1157,
    "ass": 1158,
    "ass,</w>": 1159,
    "ass</w>": 1160,
    "assaul": 1161,
    "asse": 1162,
    "assem": 1163,
    "assi": 1164,
    "assist": 1165,
    "associ": 1166,
    "associated</w>": 1167,
    "assu": 1168,
    "assum": 1169,
    "assure</w>": 1170,
    "assured</w>": 1171,
    "assyri": 1172,
    "ast": 1173,
    "ast</w>": 1174,
    "aston": 1175,
    "astoni": 1176,
    "at": 1177,
    "at,</w>": 1178,
    "at.</w>": 1179,
    "at</w>": 1180,
    "ate": 1181,
    "ate,</w>": 1182,
    "ate.</w>": 1183,
    "ate</w>": 1184,
    "ated,</w>": 1185,
    "ated.</w>": 1186,
    "ated</w>": 1187,
    "atel": 1188,
    "ately</w>": 1189,
    "ates</w>": 1190,
    "ath": 1191,
    "ath</w>": 1192,
    "ati": 1193,
    "atic</w>": 1194,
    "ating</w>": 1195,
    "ation": 1196,
    "ation!</w>": 1197,
    "ation,</w>": 1198,
    "ation.</w>": 1199,
    "ation:</w>": 1200,
    "ation;</w>": 1201,
    "ation</w>": 1202,
    "ation?</w>": 1203,
    "ations,</w>": 1204,
    "ations.</w>": 1205,
    "ations</w>": 1206,
    "ative</w>": 1207,
    "atives</w>": 1208,
    "atl": 1209,
    "aton": 1210,
    "ator": 1211,
    "ator</w>": 1212,
    "atr": 1213,
    "atra": 1214,
    "ats,</w>": 1215,
    "ats</w>": 1216,
    "att": 1217,
    "attac": 1218,
    "attached</w>": 1219,
    "attack</w>": 1220,
    "attemp": 1221,
    "attempt</w>": 1222,
    "atten": 1223,
    "attend": 1224,
    "attend</w>": 1225,
    "attendants.</w>": 1226,
    "attended</w>": 1227,
    "attending</w>": 1228,
    "attention</w>": 1229,
    "atter": 1230,
    "atter</w>": 1231,
    "attered</w>": 1232,
    "attor": 1233,
    "attorney</w>": 1234,
    "au": 1235,
    "au</w>": 1236,
    "audi": 1237,
    "aufidi": 1238,
    "aught</w>": 1239,
    "augu": 1240,
    "aun": 1241,
    "auth": 1242,
    "author": 1243,
    "authority</w>": 1244,
    "auto": 1245,
    "av": 1246,
    "avai": 1247,
    "available</w>": 1248,
    "aven": 1249,
    "aver": 1250,
    "aves</w>": 1251,
    "avir": 1252,
    "avo": 1253,
    "avoid</w>": 1254,
    "aw": 1255,
    "awa": 1256,
    "away!</w>": 1257,
    "away,</w>": 1258,
    "away.</w>": 1259,
    "away;</w>": 1260,
    "away</w>": 1261,
    "awesom": 1262,
    "awesome</w>": 1263,
    "awful</w>": 1264,
    "ax": 1265,
    "ay": 1266,
    "ay,</w>": 1267,
    "aye,</w>": 1268,
    "az": 1269,
    "a\u2019s</w>": 1270,
    "b": 1271,
    "b,</w>": 1272,
    "b.</w>": 1273,
    "b:</w>": 1274,
    "b</w>": 1275,
    "ba": 1276,
    "ba</w>": 1277,
    "bab": 1278,
    "babyl": 1279,
    "babylon,</w>": 1280,
    "babylon</w>": 1281,
    "bac": 1282,
    "back": 1283,
    "back!</w>": 1284,
    "back,</w>": 1285,
    "back.</w>": 1286,
    "back</w>": 1287,
    "bad": 1288,
    "bad!</w>": 1289,
    "bad</w>": 1290,
    "bade</w>": 1291,
    "badly</w>": 1292,
    "bag": 1293,
    "bal": 1294,
    "bal</w>": 1295,
    "bala": 1296,
    "ball": 1297,
    "ball</w>": 1298,
    "ballot</w>": 1299,
    "ballots</w>": 1300,
    "ban": 1301,
    "ban</w>": 1302,
    "band": 1303,
    "band.</w>": 1304,
    "bani": 1305,
    "bank": 1306,
    "bankrup": 1307,
    "bap": 1308,
    "bapti": 1309,
    "baptist": 1310,
    "bar": 1311,
    "barack": 1312,
    "barbar": 1313,
    "bardol": 1314,
    "bardolph.</w>": 1315,
    "bare</w>": 1316,
    "barr": 1317,
    "bas": 1318,
    "base</w>": 1319,
    "based</w>": 1320,
    "bash": 1321,
    "basi": 1322,
    "baske": 1323,
    "bass": 1324,
    "bastar": 1325,
    "bastard.</w>": 1326,
    "basti": 1327,
    "bat": 1328,
    "batt": 1329,
    "battle</w>": 1330,
    "baw": 1331,
    "bb": 1332,
    "bba": 1333,
    "bbed</w>": 1334,
    "bc": 1335,
    "bc</w>": 1336,
    "be": 1337,
    "be,</w>": 1338,
    "be.</w>": 1339,
    "be;</w>": 1340,
    "be</w>": 1341,
    "be]</w>": 1342,
    "bea": 1343,
    "bear": 1344,
    "bear</w>": 1345,
    "bearing</w>": 1346,
    "bears</w>": 1347,
    "beast": 1348,
    "beast</w>": 1349,
    "beasts</w>": 1350,
    "beat": 1351,
    "beat</w>": 1352,
    "beaten</w>": 1353,
    "beating</w>": 1354,
    "beatr": 1355,
    "beatrice.</w>": 1356,
    "beau": 1357,
    "beauti": 1358,
    "beautiful</w>": 1359,
    "beauty,</w>": 1360,
    "beauty</w>": 1361,
    "became</w>": 1362,
    "because</w>": 1363,
    "become</w>": 1364,
    "becomes</w>": 1365,
    "becoming</w>": 1366,
    "bed": 1367,
    "bed,</w>": 1368,
    "bed.</w>": 1369,
    "bed</w>": 1370,
    "been,</w>": 1371,
    "been</w>": 1372,
    "befor": 1373,
    "before": 1374,
    "before,</w>": 1375,
    "before.</w>": 1376,
    "before</w>": 1377,
    "beg": 1378,
    "beg</w>": 1379,
    "began</w>": 1380,
    "begat</w>": 1381,
    "beggar": 1382,
    "begin": 1383,
    "begin</w>": 1384,
    "beginning</w>": 1385,
    "begins</w>": 1386,
    "beha": 1387,
    "behalf</w>": 1388,
    "behavi": 1389,
    "beheld</w>": 1390,
    "behin": 1391,
    "behind</w>": 1392,
    "beho": 1393,
    "behold,</w>": 1394,
    "behold</w>": 1395,
    "being</w>": 1396,
    "beit</w>": 1397,
    "bel": 1398,
    "bel</w>": 1399,
    "belari": 1400,
    "beli": 1401,
    "belie": 1402,
    "believ": 1403,
    "believe,</w>": 1404,
    "believe</w>": 1405,
    "believed</w>": 1406,
    "bell": 1407,
    "belong": 1408,
    "beloved</w>": 1409,
    "below</w>": 1410,
    "ben": 1411,
    "ben</w>": 1412,
    "benea": 1413,
    "beneath</w>": 1414,
    "bened": 1415,
    "benedick.</w>": 1416,
    "benef": 1417,
    "benefit</w>": 1418,
    "beng": 1419,
    "benjam": 1420,
    "benjamin</w>": 1421,
    "benne": 1422,
    "bennet,</w>": 1423,
    "bennet</w>": 1424,
    "bent</w>": 1425,
    "benvolio.</w>": 1426,
    "ber": 1427,
    "ber,</w>": 1428,
    "ber</w>": 1429,
    "berni": 1430,
    "bernie</w>": 1431,
    "berow": 1432,
    "berowne.</w>": 1433,
    "bertr": 1434,
    "bertram.</w>": 1435,
    "bes": 1436,
    "bes</w>": 1437,
    "besee": 1438,
    "beseech</w>": 1439,
    "besi": 1440,
    "beside</w>": 1441,
    "besides,</w>": 1442,
    "besides</w>": 1443,
    "best": 1444,
    "best.</w>": 1445,
    "best</w>": 1446,
    "bestow</w>": 1447,
    "beth": 1448,
    "betra": 1449,
    "bett": 1450,
    "better": 1451,
    "better,</w>": 1452,
    "better.</w>": 1453,
    "better</w>": 1454,
    "betwe": 1455,
    "between</w>": 1456,
    "betwi": 1457,
    "betwixt</w>": 1458,
    "beyond</w>": 1459,
    "bi": 1460,
    "bian": 1461,
    "bid</w>": 1462,
    "biden": 1463,
    "biden</w>": 1464,
    "big": 1465,
    "big</w>": 1466,
    "bigg": 1467,
    "bigger</w>": 1468,
    "biggest</w>": 1469,
    "bil": 1470,
    "bilda": 1471,
    "bilit": 1472,
    "bility</w>": 1473,
    "bill": 1474,
    "bill</w>": 1475,
    "billi": 1476,
    "billion": 1477,
    "billion</w>": 1478,
    "billions</w>": 1479,
    "bin": 1480,
    "bind</w>": 1481,
    "bing": 1482,
    "bingley</w>": 1483,
    "bir": 1484,
    "bird</w>": 1485,
    "birds</w>": 1486,
    "birth": 1487,
    "birth</w>": 1488,
    "birthday</w>": 1489,
    "bishop": 1490,
    "bishop</w>": 1491,
    "bit": 1492,
    "bit.ly/": 1493,
    "bit</w>": 1494,
    "bitter": 1495,
    "bitter</w>": 1496,
    "bl": 1497,
    "bla": 1498,
    "black": 1499,
    "black</w>": 1500,
    "blam": 1501,
    "blame</w>": 1502,
    "blas": 1503,
    "blasphe": 1504,
    "ble": 1505,
    "ble,</w>": 1506,
    "ble.</w>": 1507,
    "ble</w>": 1508,
    "bled</w>": 1509,
    "bles</w>": 1510,
    "bless": 1511,
    "bless</w>": 1512,
    "blessed</w>": 1513,
    "blessing</w>": 1514,
    "blew</w>": 1515,
    "bli": 1516,
    "blin": 1517,
    "blind</w>": 1518,
    "bling</w>": 1519,
    "blo": 1520,
    "bloo": 1521,
    "blood,</w>": 1522,
    "blood.</w>": 1523,
    "blood</w>": 1524,
    "bloody</w>": 1525,
    "bloom": 1526,
    "blow": 1527,
    "blow</w>": 1528,
    "blows</w>": 1529,
    "blu": 1530,
    "blue</w>": 1531,
    "bly</w>": 1532,
    "bn": 1533,
    "bo": 1534,
    "boam</w>": 1535,
    "boar": 1536,
    "board</w>": 1537,
    "boat": 1538,
    "boat,</w>": 1539,
    "boat</w>": 1540,
    "boats</w>": 1541,
    "boat\u2019s</w>": 1542,
    "bob</w>": 1543,
    "bod": 1544,
    "body,</w>": 1545,
    "body.</w>": 1546,
    "body</w>": 1547,
    "bol": 1548,
    "bold": 1549,
    "bold</w>": 1550,
    "boling": 1551,
    "bolingbro": 1552,
    "bolingbroke.</w>": 1553,
    "bom": 1554,
    "bon": 1555,
    "bond": 1556,
    "bone</w>": 1557,
    "bones</w>": 1558,
    "boo": 1559,
    "book": 1560,
    "book,</w>": 1561,
    "book.</w>": 1562,
    "book</w>": 1563,
    "books</w>": 1564,
    "bor": 1565,
    "border": 1566,
    "border,</w>": 1567,
    "border.</w>": 1568,
    "border</w>": 1569,
    "borders,</w>": 1570,
    "borders</w>": 1571,
    "bore</w>": 1572,
    "boring</w>": 1573,
    "born,</w>": 1574,
    "born</w>": 1575,
    "borne</w>": 1576,
    "bos": 1577,
    "bosom": 1578,
    "bosom</w>": 1579,
    "both,</w>": 1580,
    "both.</w>": 1581,
    "both</w>": 1582,
    "bott": 1583,
    "bottom</w>": 1584,
    "bou": 1585,
    "bought</w>": 1586,
    "boun": 1587,
    "bound</w>": 1588,
    "bour": 1589,
    "bour</w>": 1590,
    "bow": 1591,
    "bow,</w>": 1592,
    "bow</w>": 1593,
    "bowed</w>": 1594,
    "box": 1595,
    "box</w>": 1596,
    "boy": 1597,
    "boy,</w>": 1598,
    "boy.</w>": 1599,
    "boy</w>": 1600,
    "boyet.</w>": 1601,
    "boys</w>": 1602,
    "bq": 1603,
    "br": 1604,
    "bra": 1605,
    "brain</w>": 1606,
    "bran": 1607,
    "branches</w>": 1608,
    "brand": 1609,
    "brand</w>": 1610,
    "bras": 1611,
    "brave</w>": 1612,
    "bre": 1613,
    "brea": 1614,
    "bread": 1615,
    "bread,</w>": 1616,
    "bread</w>": 1617,
    "breadth</w>": 1618,
    "break": 1619,
    "break</w>": 1620,
    "breaking</w>": 1621,
    "breast</w>": 1622,
    "breath,</w>": 1623,
    "breath</w>": 1624,
    "breez": 1625,
    "brethr": 1626,
    "brethren,</w>": 1627,
    "brethren</w>": 1628,
    "bri": 1629,
    "brid": 1630,
    "brief": 1631,
    "bright": 1632,
    "bright</w>": 1633,
    "brilli": 1634,
    "brilliant</w>": 1635,
    "bring": 1636,
    "bring</w>": 1637,
    "bringing</w>": 1638,
    "brings</w>": 1639,
    "brit": 1640,
    "bro": 1641,
    "broad": 1642,
    "broad</w>": 1643,
    "broke</w>": 1644,
    "broken</w>": 1645,
    "broo": 1646,
    "brook</w>": 1647,
    "brother": 1648,
    "brother,</w>": 1649,
    "brother.</w>": 1650,
    "brother</w>": 1651,
    "brother\u2019s</w>": 1652,
    "brought</w>": 1653,
    "brow</w>": 1654,
    "brown</w>": 1655,
    "bru": 1656,
    "brut": 1657,
    "brutus.</w>": 1658,
    "brutus</w>": 1659,
    "bs": 1660,
    "bs,</w>": 1661,
    "bs</w>": 1662,
    "bu": 1663,
    "buck": 1664,
    "bucke": 1665,
    "bucking": 1666,
    "buckingham.</w>": 1667,
    "bud": 1668,
    "budget</w>": 1669,
    "buff": 1670,
    "bui": 1671,
    "buil": 1672,
    "build": 1673,
    "build</w>": 1674,
    "building</w>": 1675,
    "built</w>": 1676,
    "bul": 1677,
    "bull": 1678,
    "bullo": 1679,
    "bulwar": 1680,
    "bun": 1681,
    "bur": 1682,
    "burden</w>": 1683,
    "burgun": 1684,
    "buri": 1685,
    "buried</w>": 1686,
    "burn": 1687,
    "burn</w>": 1688,
    "burned</w>": 1689,
    "burning</w>": 1690,
    "burnt</w>": 1691,
    "burst</w>": 1692,
    "bury.</w>": 1693,
    "bury</w>": 1694,
    "bush": 1695,
    "bush</w>": 1696,
    "busin": 1697,
    "business": 1698,
    "business,</w>": 1699,
    "business.</w>": 1700,
    "business</w>": 1701,
    "busy</w>": 1702,
    "but": 1703,
    "but,</w>": 1704,
    "but</w>": 1705,
    "but]</w>": 1706,
    "butt": 1707,
    "buy</w>": 1708,
    "bv": 1709,
    "by": 1710,
    "by,</w>": 1711,
    "by.</w>": 1712,
    "by</w>": 1713,
    "c": 1714,
    "c,</w>": 1715,
    "c.</w>": 1716,
    "c</w>": 1717,
    "ca": 1718,
    "ca.</w>": 1719,
    "cab": 1720,
    "caes": 1721,
    "caesar": 1722,
    "caesar,</w>": 1723,
    "caesar.</w>": 1724,
    "caesar</w>": 1725,
    "caesar\u2019s</w>": 1726,
    "cai": 1727,
    "cal": 1728,
    "cali": 1729,
    "califor": 1730,
    "californi": 1731,
    "california</w>": 1732,
    "call": 1733,
    "call</w>": 1734,
    "called</w>": 1735,
    "calling</w>": 1736,
    "calls</w>": 1737,
    "call\u2019d</w>": 1738,
    "calm": 1739,
    "calm</w>": 1740,
    "cam": 1741,
    "came,</w>": 1742,
    "came</w>": 1743,
    "camill": 1744,
    "camp": 1745,
    "camp</w>": 1746,
    "campai": 1747,
    "campaign": 1748,
    "campaign</w>": 1749,
    "can": 1750,
    "can't</w>": 1751,
    "can,</w>": 1752,
    "can.</w>": 1753,
    "can</w>": 1754,
    "cana": 1755,
    "cance": 1756,
    "cand": 1757,
    "candid": 1758,
    "candidate</w>": 1759,
    "cannot</w>": 1760,
    "canst</w>": 1761,
    "can\u2019t</w>": 1762,
    "cap": 1763,
    "capable</w>": 1764,
    "cape</w>": 1765,
    "capit": 1766,
    "captain": 1767,
    "captain,</w>": 1768,
    "captain</w>": 1769,
    "captains</w>": 1770,
    "capti": 1771,
    "capu": 1772,
    "capulet.</w>": 1773,
    "car": 1774,
    "cardin": 1775,
    "care": 1776,
    "care,</w>": 1777,
    "care.</w>": 1778,
    "care</w>": 1779,
    "careful</w>": 1780,
    "cares</w>": 1781,
    "carol": 1782,
    "carolin": 1783,
    "carolina</w>": 1784,
    "carp": 1785,
    "carri": 1786,
    "carried</w>": 1787,
    "carry</w>": 1788,
    "carrying</w>": 1789,
    "carson</w>": 1790,
    "cas": 1791,
    "case,</w>": 1792,
    "case</w>": 1793,
    "cases</w>": 1794,
    "cassi": 1795,
    "cassio.</w>": 1796,
    "cassius.</w>": 1797,
    "cast": 1798,
    "cast</w>": 1799,
    "castle.</w>": 1800,
    "castle</w>": 1801,
    "cat": 1802,
    "catch</w>": 1803,
    "cather": 1804,
    "catherine</w>": 1805,
    "catt": 1806,
    "cattle</w>": 1807,
    "cau": 1808,
    "caught</w>": 1809,
    "cause,</w>": 1810,
    "cause.</w>": 1811,
    "cause</w>": 1812,
    "caused</w>": 1813,
    "cc": 1814,
    "ce": 1815,
    "ce,</w>": 1816,
    "ce.</w>": 1817,
    "ce;</w>": 1818,
    "ce</w>": 1819,
    "cea": 1820,
    "cease</w>": 1821,
    "ced": 1822,
    "ced</w>": 1823,
    "cei": 1824,
    "cele": 1825,
    "celeb": 1826,
    "celebapprentice</w>": 1827,
    "celebr": 1828,
    "celebrate</w>": 1829,
    "celebrity": 1830,
    "celebrity</w>": 1831,
    "celia.</w>": 1832,
    "cell": 1833,
    "cely</w>": 1834,
    "cen": 1835,
    "cent": 1836,
    "centr": 1837,
    "cep": 1838,
    "cer": 1839,
    "cerem": 1840,
    "certain": 1841,
    "certain</w>": 1842,
    "certainly</w>": 1843,
    "ces</w>": 1844,
    "cess": 1845,
    "ch": 1846,
    "ch,</w>": 1847,
    "ch.</w>": 1848,
    "ch;</w>": 1849,
    "ch</w>": 1850,
    "ch]</w>": 1851,
    "cha": 1852,
    "chain</w>": 1853,
    "chair": 1854,
    "chair</w>": 1855,
    "chal": 1856,
    "chalde": 1857,
    "chall": 1858,
    "challen": 1859,
    "challeng": 1860,
    "cham": 1861,
    "chamber": 1862,
    "chamber.</w>": 1863,
    "chamber</w>": 1864,
    "chamberla": 1865,
    "champi": 1866,
    "champion": 1867,
    "champion</w>": 1868,
    "chan": 1869,
    "chance": 1870,
    "chance</w>": 1871,
    "chang": 1872,
    "change": 1873,
    "change.</w>": 1874,
    "change</w>": 1875,
    "changed</w>": 1876,
    "changing</w>": 1877,
    "chap": 1878,
    "chapter</w>": 1879,
    "char": 1880,
    "charac": 1881,
    "character": 1882,
    "character</w>": 1883,
    "charge</w>": 1884,
    "charged</w>": 1885,
    "chari": 1886,
    "chario": 1887,
    "charity</w>": 1888,
    "charlott": 1889,
    "charlotte</w>": 1890,
    "charm</w>": 1891,
    "charmi": 1892,
    "chase</w>": 1893,
    "chast": 1894,
    "che": 1895,
    "check</w>": 1896,
    "ched</w>": 1897,
    "chee": 1898,
    "cheek</w>": 1899,
    "cheeks</w>": 1900,
    "cheer": 1901,
    "cher": 1902,
    "cheri": 1903,
    "cheru": 1904,
    "ches,</w>": 1905,
    "ches.</w>": 1906,
    "ches</w>": 1907,
    "chi": 1908,
    "chic": 1909,
    "chicago</w>": 1910,
    "chief": 1911,
    "chief</w>": 1912,
    "child": 1913,
    "child,</w>": 1914,
    "child.</w>": 1915,
    "child</w>": 1916,
    "childr": 1917,
    "children": 1918,
    "children,</w>": 1919,
    "children</w>": 1920,
    "chill": 1921,
    "chin": 1922,
    "china,</w>": 1923,
    "china.</w>": 1924,
    "china</w>": 1925,
    "chinese</w>": 1926,
    "ching</w>": 1927,
    "cho": 1928,
    "choice</w>": 1929,
    "chol": 1930,
    "choly</w>": 1931,
    "choo": 1932,
    "choose</w>": 1933,
    "chor": 1934,
    "chosen</w>": 1935,
    "chr": 1936,
    "chri": 1937,
    "chris": 1938,
    "chris</w>": 1939,
    "christ": 1940,
    "christ,</w>": 1941,
    "christ.</w>": 1942,
    "christ</w>": 1943,
    "christi": 1944,
    "christian</w>": 1945,
    "chronic": 1946,
    "chronicles</w>": 1947,
    "chu": 1948,
    "chuck": 1949,
    "chuck</w>": 1950,
    "chur": 1951,
    "church": 1952,
    "church</w>": 1953,
    "ci": 1954,
    "cial</w>": 1955,
    "cially</w>": 1956,
    "cid": 1957,
    "cies</w>": 1958,
    "cil</w>": 1959,
    "cin": 1960,
    "cing</w>": 1961,
    "cir": 1962,
    "circ": 1963,
    "circum": 1964,
    "circumc": 1965,
    "circumst": 1966,
    "circumstance</w>": 1967,
    "circumstances</w>": 1968,
    "cise</w>": 1969,
    "cit": 1970,
    "citi": 1971,
    "cities,</w>": 1972,
    "cities</w>": 1973,
    "citiz": 1974,
    "citizen": 1975,
    "citizen.</w>": 1976,
    "citizens</w>": 1977,
    "city,</w>": 1978,
    "city.</w>": 1979,
    "city</w>": 1980,
    "civi": 1981,
    "civil</w>": 1982,
    "civili": 1983,
    "ck": 1984,
    "ck,</w>": 1985,
    "ck.</w>": 1986,
    "ck</w>": 1987,
    "cke": 1988,
    "cked</w>": 1989,
    "cker": 1990,
    "cking</w>": 1991,
    "cks,</w>": 1992,
    "cks</w>": 1993,
    "cl": 1994,
    "cla": 1995,
    "claim": 1996,
    "claim</w>": 1997,
    "claimed</w>": 1998,
    "claims</w>": 1999,
    "clam": 2000,
    "clar": 2001,
    "clas": 2002,
    "class</w>": 2003,
    "clau": 2004,
    "claudi": 2005,
    "claudio.</w>": 2006,
    "cle": 2007,
    "clean": 2008,
    "clean</w>": 2009,
    "clear</w>": 2010,
    "cleop": 2011,
    "cleopatra": 2012,
    "cleopatra.</w>": 2013,
    "cler": 2014,
    "clerg": 2015,
    "clesi": 2016,
    "cli": 2017,
    "clif": 2018,
    "cliff": 2019,
    "clifford,</w>": 2020,
    "clifford.</w>": 2021,
    "clifford</w>": 2022,
    "clim": 2023,
    "clin": 2024,
    "clint": 2025,
    "clinton": 2026,
    "clinton</w>": 2027,
    "clo": 2028,
    "close</w>": 2029,
    "closed</w>": 2030,
    "closely</w>": 2031,
    "cloten.</w>": 2032,
    "cloth": 2033,
    "clothed</w>": 2034,
    "clothes,</w>": 2035,
    "clothes</w>": 2036,
    "clou": 2037,
    "cloud</w>": 2038,
    "clouds</w>": 2039,
    "clown.</w>": 2040,
    "clu": 2041,
    "club</w>": 2042,
    "cn": 2043,
    "cnn</w>": 2044,
    "co": 2045,
    "co</w>": 2046,
    "coa": 2047,
    "coast": 2048,
    "coast</w>": 2049,
    "coff": 2050,
    "col": 2051,
    "cold": 2052,
    "cold,</w>": 2053,
    "cold</w>": 2054,
    "coll": 2055,
    "colle": 2056,
    "collection</w>": 2057,
    "college</w>": 2058,
    "collins</w>": 2059,
    "collu": 2060,
    "collusion</w>": 2061,
    "colo": 2062,
    "colon": 2063,
    "color": 2064,
    "colossi": 2065,
    "colossians</w>": 2066,
    "colour</w>": 2067,
    "coloured</w>": 2068,
    "colum": 2069,
    "com": 2070,
    "comb": 2071,
    "come": 2072,
    "come!</w>": 2073,
    "come,</w>": 2074,
    "come.</w>": 2075,
    "come;</w>": 2076,
    "come</w>": 2077,
    "comes</w>": 2078,
    "cometh</w>": 2079,
    "comey</w>": 2080,
    "comfor": 2081,
    "comfort</w>": 2082,
    "coming</w>": 2083,
    "comm": 2084,
    "comman": 2085,
    "command": 2086,
    "command</w>": 2087,
    "commanded</w>": 2088,
    "commandment</w>": 2089,
    "commandments</w>": 2090,
    "commend</w>": 2091,
    "commer": 2092,
    "commit": 2093,
    "commit</w>": 2094,
    "committe": 2095,
    "committed</w>": 2096,
    "common": 2097,
    "common</w>": 2098,
    "commun": 2099,
    "communic": 2100,
    "comp": 2101,
    "compa": 2102,
    "compan": 2103,
    "compani": 2104,
    "companies</w>": 2105,
    "companion</w>": 2106,
    "company,</w>": 2107,
    "company.</w>": 2108,
    "company</w>": 2109,
    "compar": 2110,
    "compe": 2111,
    "compet": 2112,
    "complain": 2113,
    "comple": 2114,
    "complete</w>": 2115,
    "completely</w>": 2116,
    "complexi": 2117,
    "compli": 2118,
    "comply</w>": 2119,
    "comprehen": 2120,
    "con": 2121,
    "conce": 2122,
    "concei": 2123,
    "concer": 2124,
    "concerning</w>": 2125,
    "conclu": 2126,
    "cond": 2127,
    "condem": 2128,
    "condition": 2129,
    "condu": 2130,
    "conduct</w>": 2131,
    "conf": 2132,
    "conference</w>": 2133,
    "confess</w>": 2134,
    "confi": 2135,
    "confid": 2136,
    "confidence</w>": 2137,
    "confin": 2138,
    "confir": 2139,
    "confoun": 2140,
    "confu": 2141,
    "congr": 2142,
    "congrat": 2143,
    "congrats</w>": 2144,
    "congratul": 2145,
    "congratulations</w>": 2146,
    "congre": 2147,
    "congreg": 2148,
    "congregation,</w>": 2149,
    "congregation</w>": 2150,
    "congress": 2151,
    "congress</w>": 2152,
    "congressman</w>": 2153,
    "conne": 2154,
    "conqu": 2155,
    "consci": 2156,
    "conscience</w>": 2157,
    "conscious</w>": 2158,
    "consent</w>": 2159,
    "consequ": 2160,
    "conserv": 2161,
    "consi": 2162,
    "consider": 2163,
    "consider</w>": 2164,
    "considerable</w>": 2165,
    "considered</w>": 2166,
    "considering</w>": 2167,
    "consol": 2168,
    "conspir": 2169,
    "const": 2170,
    "constant</w>": 2171,
    "constitu": 2172,
    "constitution": 2173,
    "constru": 2174,
    "consum": 2175,
    "consumed</w>": 2176,
    "cont": 2177,
    "cont)</w>": 2178,
    "contem": 2179,
    "contempl": 2180,
    "content</w>": 2181,
    "contents</w>": 2182,
    "contin": 2183,
    "continu": 2184,
    "continual</w>": 2185,
    "continually</w>": 2186,
    "continue</w>": 2187,
    "continued</w>": 2188,
    "continues</w>": 2189,
    "contr": 2190,
    "contri": 2191,
    "contribu": 2192,
    "contro": 2193,
    "control": 2194,
    "control</w>": 2195,
    "conve": 2196,
    "conven": 2197,
    "conveni": 2198,
    "convention</w>": 2199,
    "conver": 2200,
    "convers": 2201,
    "conversation</w>": 2202,
    "convinc": 2203,
    "convinced</w>": 2204,
    "coo": 2205,
    "cool</w>": 2206,
    "cop": 2207,
    "copi": 2208,
    "copies</w>": 2209,
    "copy": 2210,
    "copy</w>": 2211,
    "copyright</w>": 2212,
    "cor": 2213,
    "core</w>": 2214,
    "cori": 2215,
    "corin": 2216,
    "corinthi": 2217,
    "corinthians</w>": 2218,
    "coriol": 2219,
    "coriolan": 2220,
    "coriolanus.</w>": 2221,
    "corn": 2222,
    "corne": 2223,
    "corner</w>": 2224,
    "coron": 2225,
    "coronavir": 2226,
    "corp": 2227,
    "corpor": 2228,
    "corre": 2229,
    "correct</w>": 2230,
    "corrup": 2231,
    "corrupt</w>": 2232,
    "corruption</w>": 2233,
    "cost</w>": 2234,
    "costar": 2235,
    "costard.</w>": 2236,
    "cott": 2237,
    "cou": 2238,
    "could": 2239,
    "could</w>": 2240,
    "couldn\u2019t</w>": 2241,
    "coun": 2242,
    "counsel": 2243,
    "counsel</w>": 2244,
    "count": 2245,
    "count</w>": 2246,
    "counted</w>": 2247,
    "counten": 2248,
    "countenance</w>": 2249,
    "counter": 2250,
    "countess.</w>": 2251,
    "countr": 2252,
    "countries</w>": 2253,
    "country": 2254,
    "country!</w>": 2255,
    "country,</w>": 2256,
    "country.</w>": 2257,
    "country</w>": 2258,
    "country\u2019s</w>": 2259,
    "county</w>": 2260,
    "cour": 2261,
    "courage</w>": 2262,
    "course": 2263,
    "course,</w>": 2264,
    "course.</w>": 2265,
    "course</w>": 2266,
    "courses</w>": 2267,
    "court,</w>": 2268,
    "court.</w>": 2269,
    "court</w>": 2270,
    "courtes": 2271,
    "cous": 2272,
    "cousin": 2273,
    "cousin,</w>": 2274,
    "cousin</w>": 2275,
    "coven": 2276,
    "covenant</w>": 2277,
    "cover": 2278,
    "cover</w>": 2279,
    "covered</w>": 2280,
    "covering</w>": 2281,
    "cow": 2282,
    "cr": 2283,
    "cra": 2284,
    "craf": 2285,
    "craft</w>": 2286,
    "craz": 2287,
    "crazy</w>": 2288,
    "cre": 2289,
    "creat": 2290,
    "create</w>": 2291,
    "created</w>": 2292,
    "creating</w>": 2293,
    "creature": 2294,
    "creature</w>": 2295,
    "creatures</w>": 2296,
    "cred": 2297,
    "credi": 2298,
    "credit</w>": 2299,
    "cressi": 2300,
    "cressida.</w>": 2301,
    "crew</w>": 2302,
    "cri": 2303,
    "cried,</w>": 2304,
    "cried</w>": 2305,
    "cries</w>": 2306,
    "crim": 2307,
    "crime,</w>": 2308,
    "crime</w>": 2309,
    "crimes</w>": 2310,
    "crimin": 2311,
    "criminal</w>": 2312,
    "cris": 2313,
    "crit": 2314,
    "critical</w>": 2315,
    "cro": 2316,
    "croo": 2317,
    "crooked</w>": 2318,
    "cross": 2319,
    "cross</w>": 2320,
    "crow": 2321,
    "crowd</w>": 2322,
    "crown": 2323,
    "crown</w>": 2324,
    "cru": 2325,
    "cruel</w>": 2326,
    "cruz</w>": 2327,
    "cry": 2328,
    "cry</w>": 2329,
    "crying</w>": 2330,
    "ct": 2331,
    "ct,</w>": 2332,
    "ct.</w>": 2333,
    "ct</w>": 2334,
    "cted,</w>": 2335,
    "cted.</w>": 2336,
    "cted</w>": 2337,
    "cti": 2338,
    "cting</w>": 2339,
    "ction": 2340,
    "ction,</w>": 2341,
    "ction.</w>": 2342,
    "ction</w>": 2343,
    "ctions</w>": 2344,
    "ctive</w>": 2345,
    "ctly</w>": 2346,
    "ctr": 2347,
    "cts</w>": 2348,
    "cu": 2349,
    "cub": 2350,
    "cubit": 2351,
    "cubits</w>": 2352,
    "cul": 2353,
    "cum": 2354,
    "cun": 2355,
    "cunning</w>": 2356,
    "cuom": 2357,
    "cup": 2358,
    "cup</w>": 2359,
    "cur": 2360,
    "cure</w>": 2361,
    "curi": 2362,
    "curio": 2363,
    "curious</w>": 2364,
    "curr": 2365,
    "current</w>": 2366,
    "curse</w>": 2367,
    "cursed</w>": 2368,
    "cus": 2369,
    "cus,</w>": 2370,
    "cus.</w>": 2371,
    "cus</w>": 2372,
    "custom": 2373,
    "cut</w>": 2374,
    "cuts</w>": 2375,
    "cutting</w>": 2376,
    "cy": 2377,
    "cy,</w>": 2378,
    "cy.</w>": 2379,
    "cy</w>": 2380,
    "cymbe": 2381,
    "cymbeline.</w>": 2382,
    "cz": 2383,
    "d": 2384,
    "d!</w>": 2385,
    "d,</w>": 2386,
    "d-": 2387,
    "d.": 2388,
    "d.</w>": 2389,
    "d._]</w>": 2390,
    "d.c.</w>": 2391,
    "d.\u201d</w>": 2392,
    "d:</w>": 2393,
    "d;</w>": 2394,
    "d</w>": 2395,
    "d?</w>": 2396,
    "d]</w>": 2397,
    "da": 2398,
    "da,</w>": 2399,
    "da.</w>": 2400,
    "dac": 2401,
    "dag": 2402,
    "dail": 2403,
    "daily</w>": 2404,
    "dal": 2405,
    "dam": 2406,
    "damned</w>": 2407,
    "dan": 2408,
    "dan</w>": 2409,
    "dance</w>": 2410,
    "dang": 2411,
    "danger": 2412,
    "danger</w>": 2413,
    "dangerous</w>": 2414,
    "dani": 2415,
    "daniel</w>": 2416,
    "dar": 2417,
    "darcy,</w>": 2418,
    "darcy</w>": 2419,
    "dare</w>": 2420,
    "dark": 2421,
    "dark</w>": 2422,
    "darkn": 2423,
    "darkness,</w>": 2424,
    "darkness</w>": 2425,
    "darted</w>": 2426,
    "dat": 2427,
    "date</w>": 2428,
    "daugh": 2429,
    "daughter": 2430,
    "daughter,</w>": 2431,
    "daughter.</w>": 2432,
    "daughter</w>": 2433,
    "daughters,</w>": 2434,
    "daughters</w>": 2435,
    "daup": 2436,
    "davi": 2437,
    "david": 2438,
    "david,</w>": 2439,
    "david.</w>": 2440,
    "david</w>": 2441,
    "day": 2442,
    "day!</w>": 2443,
    "day,</w>": 2444,
    "day.</w>": 2445,
    "day:</w>": 2446,
    "day;</w>": 2447,
    "day</w>": 2448,
    "days,</w>": 2449,
    "days.</w>": 2450,
    "days</w>": 2451,
    "day\u2019s</w>": 2452,
    "dc": 2453,
    "dc</w>": 2454,
    "dd": 2455,
    "dden</w>": 2456,
    "dding</w>": 2457,
    "de": 2458,
    "de,</w>": 2459,
    "de.</w>": 2460,
    "de</w>": 2461,
    "dea": 2462,
    "dead": 2463,
    "dead,</w>": 2464,
    "dead.</w>": 2465,
    "dead</w>": 2466,
    "deadly</w>": 2467,
    "deal": 2468,
    "deal,</w>": 2469,
    "deal.</w>": 2470,
    "deal</w>": 2471,
    "deals</w>": 2472,
    "dear": 2473,
    "dear,</w>": 2474,
    "dear</w>": 2475,
    "dearest</w>": 2476,
    "death": 2477,
    "death,</w>": 2478,
    "death.</w>": 2479,
    "death;</w>": 2480,
    "death</w>": 2481,
    "deb": 2482,
    "debat": 2483,
    "debate</w>": 2484,
    "debt</w>": 2485,
    "dec": 2486,
    "deca": 2487,
    "dece": 2488,
    "decei": 2489,
    "deci": 2490,
    "decided</w>": 2491,
    "decisi": 2492,
    "decision</w>": 2493,
    "deck": 2494,
    "deck,</w>": 2495,
    "deck</w>": 2496,
    "decl": 2497,
    "decla": 2498,
    "declare</w>": 2499,
    "declared</w>": 2500,
    "decre": 2501,
    "ded,</w>": 2502,
    "ded.</w>": 2503,
    "ded;</w>": 2504,
    "ded</w>": 2505,
    "dedic": 2506,
    "deed": 2507,
    "deed</w>": 2508,
    "deeds</w>": 2509,
    "deep": 2510,
    "deep</w>": 2511,
    "deeper</w>": 2512,
    "deeply</w>": 2513,
    "def": 2514,
    "defe": 2515,
    "defeat</w>": 2516,
    "defend</w>": 2517,
    "defense</w>": 2518,
    "defi": 2519,
    "defic": 2520,
    "defin": 2521,
    "degre": 2522,
    "degree</w>": 2523,
    "del": 2524,
    "dela": 2525,
    "deli": 2526,
    "delic": 2527,
    "delight": 2528,
    "delight</w>": 2529,
    "deliver": 2530,
    "deliver</w>": 2531,
    "delivered</w>": 2532,
    "dell": 2533,
    "dem": 2534,
    "deman": 2535,
    "demand</w>": 2536,
    "deme": 2537,
    "demetri": 2538,
    "demetrius.</w>": 2539,
    "demo": 2540,
    "democr": 2541,
    "democrat": 2542,
    "democrat</w>": 2543,
    "democrats,</w>": 2544,
    "democrats</w>": 2545,
    "demon": 2546,
    "dems</w>": 2547,
    "den": 2548,
    "den,</w>": 2549,
    "den.</w>": 2550,
    "den</w>": 2551,
    "dence</w>": 2552,
    "denied</w>": 2553,
    "deny</w>": 2554,
    "dep": 2555,
    "depar": 2556,
    "depart": 2557,
    "depart</w>": 2558,
    "departed</w>": 2559,
    "department</w>": 2560,
    "der": 2561,
    "der,</w>": 2562,
    "der</w>": 2563,
    "dered</w>": 2564,
    "deri": 2565,
    "ders</w>": 2566,
    "des": 2567,
    "des</w>": 2568,
    "desc": 2569,
    "descri": 2570,
    "desdemon": 2571,
    "desdemona.</w>": 2572,
    "deser": 2573,
    "desert</w>": 2574,
    "deserve</w>": 2575,
    "deserves</w>": 2576,
    "desi": 2577,
    "design": 2578,
    "desire</w>": 2579,
    "desired</w>": 2580,
    "desol": 2581,
    "desolate</w>": 2582,
    "desp": 2583,
    "despair": 2584,
    "despair</w>": 2585,
    "desper": 2586,
    "desperate</w>": 2587,
    "despite</w>": 2588,
    "dest": 2589,
    "destin": 2590,
    "destro": 2591,
    "destroy</w>": 2592,
    "destroyed</w>": 2593,
    "destroying</w>": 2594,
    "destru": 2595,
    "destruction</w>": 2596,
    "deta": 2597,
    "determin": 2598,
    "determined</w>": 2599,
    "deth</w>": 2600,
    "deu": 2601,
    "deuter": 2602,
    "deuteron": 2603,
    "deuteronomy</w>": 2604,
    "dev": 2605,
    "develo": 2606,
    "devi": 2607,
    "devil": 2608,
    "devil</w>": 2609,
    "dg": 2610,
    "dge": 2611,
    "dge</w>": 2612,
    "dh": 2613,
    "di": 2614,
    "diamon": 2615,
    "dic": 2616,
    "dical</w>": 2617,
    "dick": 2618,
    "did": 2619,
    "did,</w>": 2620,
    "did.</w>": 2621,
    "did</w>": 2622,
    "didn": 2623,
    "didn't</w>": 2624,
    "didn\u2019t</w>": 2625,
    "didst</w>": 2626,
    "die,</w>": 2627,
    "die.</w>": 2628,
    "die</w>": 2629,
    "died,</w>": 2630,
    "died.</w>": 2631,
    "died</w>": 2632,
    "dies</w>": 2633,
    "diff": 2634,
    "differ": 2635,
    "difference</w>": 2636,
    "different</w>": 2637,
    "difficul": 2638,
    "dig": 2639,
    "dign": 2640,
    "dili": 2641,
    "dily</w>": 2642,
    "dim": 2643,
    "dim</w>": 2644,
    "dimmes": 2645,
    "dimmesdal": 2646,
    "din": 2647,
    "ding</w>": 2648,
    "dinner</w>": 2649,
    "diom": 2650,
    "dious</w>": 2651,
    "dir": 2652,
    "dire": 2653,
    "direct": 2654,
    "direct</w>": 2655,
    "directly</w>": 2656,
    "dirty</w>": 2657,
    "dis": 2658,
    "disa": 2659,
    "disaster.</w>": 2660,
    "disaster</w>": 2661,
    "discer": 2662,
    "disci": 2663,
    "discipl": 2664,
    "disciples</w>": 2665,
    "discover": 2666,
    "discover</w>": 2667,
    "discovered</w>": 2668,
    "discre": 2669,
    "discus": 2670,
    "discussing</w>": 2671,
    "disda": 2672,
    "disgrac": 2673,
    "disgrace</w>": 2674,
    "disgu": 2675,
    "dish": 2676,
    "dish</w>": 2677,
    "dishon": 2678,
    "dishonest</w>": 2679,
    "dispat": 2680,
    "dist": 2681,
    "distance</w>": 2682,
    "distant</w>": 2683,
    "distin": 2684,
    "distingu": 2685,
    "distre": 2686,
    "distri": 2687,
    "distribu": 2688,
    "distributing</w>": 2689,
    "distur": 2690,
    "dit": 2691,
    "div": 2692,
    "divi": 2693,
    "divide</w>": 2694,
    "divided</w>": 2695,
    "divin": 2696,
    "divine</w>": 2697,
    "dj": 2698,
    "dly</w>": 2699,
    "dn": 2700,
    "dnc</w>": 2701,
    "dne": 2702,
    "dness": 2703,
    "dness,</w>": 2704,
    "dness.</w>": 2705,
    "dness</w>": 2706,
    "do": 2707,
    "do,</w>": 2708,
    "do.</w>": 2709,
    "do</w>": 2710,
    "do?</w>": 2711,
    "doct": 2712,
    "doctor</w>": 2713,
    "doctr": 2714,
    "docum": 2715,
    "does": 2716,
    "does</w>": 2717,
    "doesn't</w>": 2718,
    "doesn\u2019t</w>": 2719,
    "doeth</w>": 2720,
    "dog": 2721,
    "dog</w>": 2722,
    "doing.</w>": 2723,
    "doing</w>": 2724,
    "dol": 2725,
    "doll": 2726,
    "dollar</w>": 2727,
    "dollars</w>": 2728,
    "dom": 2729,
    "dom</w>": 2730,
    "domin": 2731,
    "domini": 2732,
    "don": 2733,
    "don't</w>": 2734,
    "don</w>": 2735,
    "donald": 2736,
    "donald</w>": 2737,
    "donaldj": 2738,
    "donaldjtrump": 2739,
    "donaldtrump</w>": 2740,
    "donations</w>": 2741,
    "done!</w>": 2742,
    "done,</w>": 2743,
    "done.</w>": 2744,
    "done</w>": 2745,
    "don\u2019t</w>": 2746,
    "door": 2747,
    "door,</w>": 2748,
    "door.</w>": 2749,
    "door</w>": 2750,
    "doors</w>": 2751,
    "dope": 2752,
    "dor": 2753,
    "doral</w>": 2754,
    "dori": 2755,
    "dorian</w>": 2756,
    "dossi": 2757,
    "dost</w>": 2758,
    "doth</w>": 2759,
    "dou": 2760,
    "doub": 2761,
    "double</w>": 2762,
    "doubt": 2763,
    "doubt,</w>": 2764,
    "doubt</w>": 2765,
    "dow": 2766,
    "down": 2767,
    "down!</w>": 2768,
    "down,</w>": 2769,
    "down.</w>": 2770,
    "down</w>": 2771,
    "dr": 2772,
    "dr.</w>": 2773,
    "dra": 2774,
    "drag": 2775,
    "drain": 2776,
    "drainthes": 2777,
    "dram": 2778,
    "draw": 2779,
    "draw</w>": 2780,
    "drawing</w>": 2781,
    "drawn</w>": 2782,
    "dre": 2783,
    "dread": 2784,
    "dread</w>": 2785,
    "dreadful</w>": 2786,
    "dream": 2787,
    "dream,</w>": 2788,
    "dream</w>": 2789,
    "dreams</w>": 2790,
    "dred</w>": 2791,
    "dress</w>": 2792,
    "drew</w>": 2793,
    "dri": 2794,
    "drin": 2795,
    "drink,</w>": 2796,
    "drink</w>": 2797,
    "drive</w>": 2798,
    "driven</w>": 2799,
    "driving</w>": 2800,
    "dro": 2801,
    "dromi": 2802,
    "dromio</w>": 2803,
    "drop</w>": 2804,
    "dropped</w>": 2805,
    "dropping</w>": 2806,
    "drops</w>": 2807,
    "drove</w>": 2808,
    "dru": 2809,
    "drug": 2810,
    "drug</w>": 2811,
    "drun": 2812,
    "dry</w>": 2813,
    "ds": 2814,
    "ds,</w>": 2815,
    "ds.</w>": 2816,
    "ds</w>": 2817,
    "dst</w>": 2818,
    "du": 2819,
    "duche": 2820,
    "duchess.</w>": 2821,
    "due</w>": 2822,
    "duke": 2823,
    "duke.</w>": 2824,
    "duke</w>": 2825,
    "dul": 2826,
    "dull</w>": 2827,
    "dum": 2828,
    "dumb</w>": 2829,
    "dun": 2830,
    "dur": 2831,
    "during</w>": 2832,
    "dust</w>": 2833,
    "duty</w>": 2834,
    "dwe": 2835,
    "dwell": 2836,
    "dwell</w>": 2837,
    "dwelling</w>": 2838,
    "dwelt</w>": 2839,
    "dy": 2840,
    "dy,</w>": 2841,
    "dy.</w>": 2842,
    "dy</w>": 2843,
    "dying</w>": 2844,
    "d\u2014": 2845,
    "d\u2019": 2846,
    "d\u2019s</w>": 2847,
    "e": 2848,
    "e!\"</w>": 2849,
    "e!</w>": 2850,
    "e!\u201d</w>": 2851,
    "e,</w>": 2852,
    "e,\u201d</w>": 2853,
    "e-": 2854,
    "e.": 2855,
    "e.</w>": 2856,
    "e.\u201d</w>": 2857,
    "e:</w>": 2858,
    "e;</w>": 2859,
    "e</w>": 2860,
    "e?</w>": 2861,
    "e]</w>": 2862,
    "e_": 2863,
    "ea": 2864,
    "each</w>": 2865,
    "eag": 2866,
    "ear": 2867,
    "ear,</w>": 2868,
    "ear</w>": 2869,
    "earl</w>": 2870,
    "early</w>": 2871,
    "earne": 2872,
    "ears,</w>": 2873,
    "ears</w>": 2874,
    "earth": 2875,
    "earth,</w>": 2876,
    "earth.</w>": 2877,
    "earth:</w>": 2878,
    "earth;</w>": 2879,
    "earth</w>": 2880,
    "earthly</w>": 2881,
    "eas": 2882,
    "ease</w>": 2883,
    "easi": 2884,
    "easily</w>": 2885,
    "east": 2886,
    "east</w>": 2887,
    "easy</w>": 2888,
    "eat": 2889,
    "eat,</w>": 2890,
    "eat</w>": 2891,
    "eaten</w>": 2892,
    "eb": 2893,
    "ebo": 2894,
    "ebook</w>": 2895,
    "ec": 2896,
    "eccl": 2897,
    "ecclesiast": 2898,
    "ecclesiastes</w>": 2899,
    "ece</w>": 2900,
    "econ": 2901,
    "econom": 2902,
    "economic</w>": 2903,
    "economy</w>": 2904,
    "ed": 2905,
    "ed!</w>": 2906,
    "ed,</w>": 2907,
    "ed.</w>": 2908,
    "ed:</w>": 2909,
    "ed;</w>": 2910,
    "ed</w>": 2911,
    "ed?</w>": 2912,
    "eded</w>": 2913,
    "edgar.</w>": 2914,
    "edge</w>": 2915,
    "edi": 2916,
    "eding</w>": 2917,
    "edmun": 2918,
    "edmund.</w>": 2919,
    "eds</w>": 2920,
    "educ": 2921,
    "edward.</w>": 2922,
    "edward</w>": 2923,
    "edy</w>": 2924,
    "ee": 2925,
    "ef": 2926,
    "ef</w>": 2927,
    "eff": 2928,
    "effe": 2929,
    "effect</w>": 2930,
    "effor": 2931,
    "effort</w>": 2932,
    "eful</w>": 2933,
    "eg": 2934,
    "egy": 2935,
    "egyp": 2936,
    "egypt,</w>": 2937,
    "egypt.</w>": 2938,
    "egypt</w>": 2939,
    "egypti": 2940,
    "eh": 2941,
    "ei": 2942,
    "eight</w>": 2943,
    "eign": 2944,
    "eign</w>": 2945,
    "either</w>": 2946,
    "ek": 2947,
    "el": 2948,
    "el,</w>": 2949,
    "el.</w>": 2950,
    "el</w>": 2951,
    "ela": 2952,
    "eld": 2953,
    "eld</w>": 2954,
    "elders</w>": 2955,
    "ele": 2956,
    "elected</w>": 2957,
    "election": 2958,
    "election!</w>": 2959,
    "election,</w>": 2960,
    "election.</w>": 2961,
    "election</w>": 2962,
    "electr": 2963,
    "electronic</w>": 2964,
    "eless</w>": 2965,
    "elev": 2966,
    "eli": 2967,
    "eliz": 2968,
    "elizabe": 2969,
    "elizabeth,</w>": 2970,
    "elizabeth.</w>": 2971,
    "elizabeth</w>": 2972,
    "ell": 2973,
    "elli": 2974,
    "elo": 2975,
    "els</w>": 2976,
    "else": 2977,
    "else,</w>": 2978,
    "else.</w>": 2979,
    "else</w>": 2980,
    "ely,</w>": 2981,
    "ely</w>": 2982,
    "em": 2983,
    "em,</w>": 2984,
    "em</w>": 2985,
    "ema": 2986,
    "embarr": 2987,
    "embr": 2988,
    "embrac": 2989,
    "embrace</w>": 2990,
    "emed</w>": 2991,
    "ement</w>": 2992,
    "emer": 2993,
    "emi": 2994,
    "emilia.</w>": 2995,
    "emp": 2996,
    "emper": 2997,
    "emplo": 2998,
    "employ": 2999,
    "employed</w>": 3000,
    "employment</w>": 3001,
    "empty</w>": 3002,
    "en": 3003,
    "en,</w>": 3004,
    "en.</w>": 3005,
    "en:</w>": 3006,
    "en;</w>": 3007,
    "en</w>": 3008,
    "enc": 3009,
    "ence": 3010,
    "ence!</w>": 3011,
    "ence,</w>": 3012,
    "ence.</w>": 3013,
    "ence;</w>": 3014,
    "ence</w>": 3015,
    "enced</w>": 3016,
    "ences</w>": 3017,
    "ench": 3018,
    "encoun": 3019,
    "encounter": 3020,
    "encounter</w>": 3021,
    "encour": 3022,
    "ency</w>": 3023,
    "end": 3024,
    "end,</w>": 3025,
    "end.</w>": 3026,
    "end</w>": 3027,
    "ende": 3028,
    "endeav": 3029,
    "ended</w>": 3030,
    "ending</w>": 3031,
    "endless</w>": 3032,
    "endor": 3033,
    "endorse": 3034,
    "endorsement!</w>": 3035,
    "endous</w>": 3036,
    "ends</w>": 3037,
    "endure": 3038,
    "endure</w>": 3039,
    "ene": 3040,
    "ened</w>": 3041,
    "enem": 3042,
    "enemi": 3043,
    "enemies,</w>": 3044,
    "enemies.</w>": 3045,
    "enemies</w>": 3046,
    "enemy,</w>": 3047,
    "enemy</w>": 3048,
    "energ": 3049,
    "energy</w>": 3050,
    "eness</w>": 3051,
    "enforce": 3052,
    "enforcement</w>": 3053,
    "eng": 3054,
    "engag": 3055,
    "engaged</w>": 3056,
    "england": 3057,
    "england,</w>": 3058,
    "england</w>": 3059,
    "english</w>": 3060,
    "eni": 3061,
    "ening</w>": 3062,
    "enjo": 3063,
    "enjoy!</w>": 3064,
    "enjoy</w>": 3065,
    "enjoyed</w>": 3066,
    "enly</w>": 3067,
    "enob": 3068,
    "enobarbu": 3069,
    "enobarbus.</w>": 3070,
    "enor": 3071,
    "enorm": 3072,
    "enough": 3073,
    "enough,</w>": 3074,
    "enough.</w>": 3075,
    "enough</w>": 3076,
    "ens</w>": 3077,
    "ense</w>": 3078,
    "ent": 3079,
    "ent!</w>": 3080,
    "ent,</w>": 3081,
    "ent.</w>": 3082,
    "ent;</w>": 3083,
    "ent</w>": 3084,
    "ental</w>": 3085,
    "ented</w>": 3086,
    "enter": 3087,
    "enter</w>": 3088,
    "entered</w>": 3089,
    "entering</w>": 3090,
    "entertain": 3091,
    "enthu": 3092,
    "enthusi": 3093,
    "enthusias": 3094,
    "enti": 3095,
    "ential</w>": 3096,
    "entire</w>": 3097,
    "entirely</w>": 3098,
    "ently</w>": 3099,
    "entr": 3100,
    "entre": 3101,
    "entreat</w>": 3102,
    "entreprene": 3103,
    "entrepreneur": 3104,
    "entrepreneurs:</w>": 3105,
    "ents,</w>": 3106,
    "ents.</w>": 3107,
    "ents</w>": 3108,
    "entu": 3109,
    "entuck": 3110,
    "enty</w>": 3111,
    "envir": 3112,
    "ep": 3113,
    "ep</w>": 3114,
    "eph": 3115,
    "ephe": 3116,
    "ephesians</w>": 3117,
    "ephesu": 3118,
    "ephesus.</w>": 3119,
    "ephra": 3120,
    "eping</w>": 3121,
    "epis": 3122,
    "episo": 3123,
    "equ": 3124,
    "equal</w>": 3125,
    "equi": 3126,
    "er": 3127,
    "er!</w>": 3128,
    "er,</w>": 3129,
    "er-": 3130,
    "er.</w>": 3131,
    "er:</w>": 3132,
    "er;</w>": 3133,
    "er</w>": 3134,
    "er?</w>": 3135,
    "erde": 3136,
    "ere": 3137,
    "ere</w>": 3138,
    "ered</w>": 3139,
    "erg": 3140,
    "eri": 3141,
    "eric": 3142,
    "eric</w>": 3143,
    "ering</w>": 3144,
    "erly</w>": 3145,
    "ern": 3146,
    "ernac": 3147,
    "erness</w>": 3148,
    "ero": 3149,
    "err": 3150,
    "ers": 3151,
    "ers,</w>": 3152,
    "ers.</w>": 3153,
    "ers;</w>": 3154,
    "ers</w>": 3155,
    "ery</w>": 3156,
    "er\u2019s</w>": 3157,
    "es": 3158,
    "es!</w>": 3159,
    "es,</w>": 3160,
    "es.</w>": 3161,
    "es._]</w>": 3162,
    "es.\u201d</w>": 3163,
    "es:</w>": 3164,
    "es;</w>": 3165,
    "es</w>": 3166,
    "es?</w>": 3167,
    "esau": 3168,
    "esca": 3169,
    "escal": 3170,
    "escalus.</w>": 3171,
    "escap": 3172,
    "escape</w>": 3173,
    "escaped</w>": 3174,
    "ese</w>": 3175,
    "esi": 3176,
    "esiast": 3177,
    "esom": 3178,
    "esp": 3179,
    "espe": 3180,
    "especially</w>": 3181,
    "ess": 3182,
    "ess,</w>": 3183,
    "ess.</w>": 3184,
    "ess;</w>": 3185,
    "ess</w>": 3186,
    "essed</w>": 3187,
    "esses</w>": 3188,
    "ession</w>": 3189,
    "est": 3190,
    "est,</w>": 3191,
    "est.</w>": 3192,
    "est</w>": 3193,
    "estab": 3194,
    "establi": 3195,
    "establish": 3196,
    "established</w>": 3197,
    "estate</w>": 3198,
    "este": 3199,
    "esther</w>": 3200,
    "estim": 3201,
    "estre": 3202,
    "es\u2014": 3203,
    "es\u2019</w>": 3204,
    "et": 3205,
    "et,</w>": 3206,
    "et.</w>": 3207,
    "et</w>": 3208,
    "etc.</w>": 3209,
    "etern": 3210,
    "eternal</w>": 3211,
    "eth</w>": 3212,
    "etr": 3213,
    "ets</w>": 3214,
    "ety</w>": 3215,
    "eu": 3216,
    "eun": 3217,
    "eur</w>": 3218,
    "euro": 3219,
    "europe": 3220,
    "ev": 3221,
    "evans.</w>": 3222,
    "eve": 3223,
    "eve</w>": 3224,
    "eved</w>": 3225,
    "even": 3226,
    "even</w>": 3227,
    "even]</w>": 3228,
    "evening</w>": 3229,
    "event</w>": 3230,
    "events</w>": 3231,
    "ever": 3232,
    "ever,</w>": 3233,
    "ever.</w>": 3234,
    "ever:</w>": 3235,
    "ever</w>": 3236,
    "everlasting</w>": 3237,
    "every": 3238,
    "every</w>": 3239,
    "everybody</w>": 3240,
    "everyone</w>": 3241,
    "everything</w>": 3242,
    "evi": 3243,
    "evid": 3244,
    "evidence</w>": 3245,
    "evil,</w>": 3246,
    "evil</w>": 3247,
    "evol": 3248,
    "ex": 3249,
    "exact": 3250,
    "exactly</w>": 3251,
    "exal": 3252,
    "exam": 3253,
    "examp": 3254,
    "exc": 3255,
    "exce": 3256,
    "exceed": 3257,
    "exceeding</w>": 3258,
    "exceedingly</w>": 3259,
    "excell": 3260,
    "excellent</w>": 3261,
    "excep": 3262,
    "except</w>": 3263,
    "excit": 3264,
    "excited</w>": 3265,
    "exclu": 3266,
    "excu": 3267,
    "excuse</w>": 3268,
    "exe": 3269,
    "execu": 3270,
    "exer": 3271,
    "exhau": 3272,
    "exhi": 3273,
    "exi": 3274,
    "exist": 3275,
    "exod": 3276,
    "exodus</w>": 3277,
    "exp": 3278,
    "expe": 3279,
    "expect": 3280,
    "expect</w>": 3281,
    "expected</w>": 3282,
    "expen": 3283,
    "exper": 3284,
    "experi": 3285,
    "experience</w>": 3286,
    "explain</w>": 3287,
    "explan": 3288,
    "expres": 3289,
    "express</w>": 3290,
    "expressed</w>": 3291,
    "expression</w>": 3292,
    "ext": 3293,
    "extr": 3294,
    "extra": 3295,
    "extraordinary</w>": 3296,
    "extre": 3297,
    "extrem": 3298,
    "extreme</w>": 3299,
    "extremely</w>": 3300,
    "ey": 3301,
    "ey</w>": 3302,
    "eye": 3303,
    "eye,</w>": 3304,
    "eye.</w>": 3305,
    "eye</w>": 3306,
    "eyes,</w>": 3307,
    "eyes.</w>": 3308,
    "eyes;</w>": 3309,
    "eyes</w>": 3310,
    "ez": 3311,
    "ezeki": 3312,
    "ezekiel</w>": 3313,
    "ezra</w>": 3314,
    "e\u2014": 3315,
    "e\u2019er</w>": 3316,
    "e\u2019s</w>": 3317,
    "f": 3318,
    "f,</w>": 3319,
    "f.": 3320,
    "f.</w>": 3321,
    "f</w>": 3322,
    "fa": 3323,
    "fab": 3324,
    "fac": 3325,
    "face,</w>": 3326,
    "face.</w>": 3327,
    "face</w>": 3328,
    "faces</w>": 3329,
    "fact,</w>": 3330,
    "fact</w>": 3331,
    "factor</w>": 3332,
    "facts</w>": 3333,
    "fai": 3334,
    "fail": 3335,
    "fail</w>": 3336,
    "failed</w>": 3337,
    "failing</w>": 3338,
    "fain": 3339,
    "fain</w>": 3340,
    "faint</w>": 3341,
    "fair": 3342,
    "fair,</w>": 3343,
    "fair</w>": 3344,
    "fairly</w>": 3345,
    "faith": 3346,
    "faith,</w>": 3347,
    "faith.</w>": 3348,
    "faith</w>": 3349,
    "faithful</w>": 3350,
    "fake</w>": 3351,
    "fal": 3352,
    "fall": 3353,
    "fall,</w>": 3354,
    "fall</w>": 3355,
    "fallen</w>": 3356,
    "falling</w>": 3357,
    "falls</w>": 3358,
    "false": 3359,
    "false</w>": 3360,
    "falsta": 3361,
    "falstaff.</w>": 3362,
    "fam": 3363,
    "fame</w>": 3364,
    "fami": 3365,
    "famil": 3366,
    "famili": 3367,
    "familiar</w>": 3368,
    "families</w>": 3369,
    "family,</w>": 3370,
    "family.</w>": 3371,
    "family</w>": 3372,
    "famous</w>": 3373,
    "fan": 3374,
    "fan</w>": 3375,
    "fanc": 3376,
    "fancy</w>": 3377,
    "fantast": 3378,
    "fantastic</w>": 3379,
    "far": 3380,
    "far,</w>": 3381,
    "far</w>": 3382,
    "fare": 3383,
    "fare</w>": 3384,
    "farewell,</w>": 3385,
    "farewell.</w>": 3386,
    "farm": 3387,
    "farmer": 3388,
    "farmers</w>": 3389,
    "fas": 3390,
    "fashi": 3391,
    "fashion</w>": 3392,
    "fast": 3393,
    "fast!</w>": 3394,
    "fast,</w>": 3395,
    "fast.</w>": 3396,
    "fast</w>": 3397,
    "fat": 3398,
    "fat</w>": 3399,
    "fatal</w>": 3400,
    "father": 3401,
    "father,</w>": 3402,
    "father.</w>": 3403,
    "father</w>": 3404,
    "fathers,</w>": 3405,
    "fathers</w>": 3406,
    "father\u2019s</w>": 3407,
    "faul": 3408,
    "fault</w>": 3409,
    "fav": 3410,
    "favor": 3411,
    "favorite</w>": 3412,
    "favour": 3413,
    "favour</w>": 3414,
    "fb": 3415,
    "fbi": 3416,
    "fbi</w>": 3417,
    "fd": 3418,
    "fe": 3419,
    "fea": 3420,
    "fear": 3421,
    "fear,</w>": 3422,
    "fear.</w>": 3423,
    "fear</w>": 3424,
    "feared</w>": 3425,
    "fearful</w>": 3426,
    "fears</w>": 3427,
    "feast": 3428,
    "feast</w>": 3429,
    "feat": 3430,
    "fed</w>": 3431,
    "feder": 3432,
    "federal</w>": 3433,
    "fee": 3434,
    "fee</w>": 3435,
    "feed</w>": 3436,
    "feel": 3437,
    "feel</w>": 3438,
    "feeling</w>": 3439,
    "feelings</w>": 3440,
    "feet,</w>": 3441,
    "feet.</w>": 3442,
    "feet</w>": 3443,
    "feli": 3444,
    "felix</w>": 3445,
    "fell</w>": 3446,
    "fellow": 3447,
    "fellow,</w>": 3448,
    "fellow</w>": 3449,
    "fellows</w>": 3450,
    "felt</w>": 3451,
    "fer": 3452,
    "fer</w>": 3453,
    "ference</w>": 3454,
    "fetch</w>": 3455,
    "few.</w>": 3456,
    "few</w>": 3457,
    "ff": 3458,
    "ff,</w>": 3459,
    "ff.</w>": 3460,
    "ff</w>": 3461,
    "ffe": 3462,
    "ffer": 3463,
    "fi": 3464,
    "fic": 3465,
    "fic</w>": 3466,
    "fidi": 3467,
    "fie,</w>": 3468,
    "fied</w>": 3469,
    "fiel": 3470,
    "field": 3471,
    "field,</w>": 3472,
    "field.</w>": 3473,
    "field</w>": 3474,
    "fields</w>": 3475,
    "fiend</w>": 3476,
    "fier": 3477,
    "fierce</w>": 3478,
    "fiery</w>": 3479,
    "fif": 3480,
    "fifth</w>": 3481,
    "fifty</w>": 3482,
    "fig": 3483,
    "figh": 3484,
    "fight": 3485,
    "fight,</w>": 3486,
    "fight</w>": 3487,
    "fighting</w>": 3488,
    "figu": 3489,
    "figure</w>": 3490,
    "fil": 3491,
    "fill": 3492,
    "fill</w>": 3493,
    "filled</w>": 3494,
    "fin": 3495,
    "final</w>": 3496,
    "finally</w>": 3497,
    "finan": 3498,
    "financial</w>": 3499,
    "find</w>": 3500,
    "finding</w>": 3501,
    "finds</w>": 3502,
    "fine</w>": 3503,
    "fing": 3504,
    "finger</w>": 3505,
    "fingers</w>": 3506,
    "finished</w>": 3507,
    "fir": 3508,
    "fire": 3509,
    "fire,</w>": 3510,
    "fire.</w>": 3511,
    "fire</w>": 3512,
    "fired</w>": 3513,
    "firm": 3514,
    "firm</w>": 3515,
    "first": 3516,
    "first,</w>": 3517,
    "first.</w>": 3518,
    "first</w>": 3519,
    "firstborn</w>": 3520,
    "fis": 3521,
    "fish": 3522,
    "fish,</w>": 3523,
    "fish</w>": 3524,
    "fisher": 3525,
    "fit": 3526,
    "fit</w>": 3527,
    "five</w>": 3528,
    "fix": 3529,
    "fix</w>": 3530,
    "fixed</w>": 3531,
    "fl": 3532,
    "fl</w>": 3533,
    "fla": 3534,
    "flag": 3535,
    "flam": 3536,
    "flame</w>": 3537,
    "flas": 3538,
    "flatter": 3539,
    "fle": 3540,
    "fled</w>": 3541,
    "flee</w>": 3542,
    "fles": 3543,
    "flesh,</w>": 3544,
    "flesh</w>": 3545,
    "fli": 3546,
    "flight</w>": 3547,
    "flo": 3548,
    "floo": 3549,
    "flor": 3550,
    "flori": 3551,
    "florida": 3552,
    "florida</w>": 3553,
    "flouri": 3554,
    "flourish.</w>": 3555,
    "flow": 3556,
    "flow</w>": 3557,
    "flowers</w>": 3558,
    "flu": 3559,
    "fluell": 3560,
    "fly,</w>": 3561,
    "fly</w>": 3562,
    "flying</w>": 3563,
    "fo": 3564,
    "focus</w>": 3565,
    "fol": 3566,
    "fold": 3567,
    "fold</w>": 3568,
    "foll": 3569,
    "follow": 3570,
    "follow</w>": 3571,
    "followed</w>": 3572,
    "following</w>": 3573,
    "fon": 3574,
    "fond</w>": 3575,
    "foo": 3576,
    "food</w>": 3577,
    "fool": 3578,
    "fool,</w>": 3579,
    "fool.</w>": 3580,
    "fool</w>": 3581,
    "foolish": 3582,
    "foolish</w>": 3583,
    "fools</w>": 3584,
    "foot": 3585,
    "foot,</w>": 3586,
    "foot</w>": 3587,
    "for": 3588,
    "for,</w>": 3589,
    "for.</w>": 3590,
    "for</w>": 3591,
    "for]</w>": 3592,
    "forbi": 3593,
    "force": 3594,
    "force</w>": 3595,
    "forced</w>": 3596,
    "forces</w>": 3597,
    "ford": 3598,
    "ford,</w>": 3599,
    "ford.</w>": 3600,
    "ford</w>": 3601,
    "fore": 3602,
    "fore,</w>": 3603,
    "fore</w>": 3604,
    "foreign</w>": 3605,
    "forest</w>": 3606,
    "forge": 3607,
    "forget</w>": 3608,
    "forgive</w>": 3609,
    "forgot</w>": 3610,
    "forgotten</w>": 3611,
    "form": 3612,
    "form,</w>": 3613,
    "form.</w>": 3614,
    "form</w>": 3615,
    "formed</w>": 3616,
    "former</w>": 3617,
    "forsa": 3618,
    "forsake</w>": 3619,
    "forsoo": 3620,
    "fort": 3621,
    "forth,</w>": 3622,
    "forth.</w>": 3623,
    "forth</w>": 3624,
    "fortun": 3625,
    "fortune,</w>": 3626,
    "fortune</w>": 3627,
    "fortunes</w>": 3628,
    "forty</w>": 3629,
    "forward,</w>": 3630,
    "forward</w>": 3631,
    "fou": 3632,
    "fought</w>": 3633,
    "foul</w>": 3634,
    "foun": 3635,
    "found": 3636,
    "found</w>": 3637,
    "foundation</w>": 3638,
    "four": 3639,
    "four</w>": 3640,
    "fourth</w>": 3641,
    "fow": 3642,
    "fox": 3643,
    "fox</w>": 3644,
    "fr": 3645,
    "fra": 3646,
    "frag": 3647,
    "fram": 3648,
    "frame</w>": 3649,
    "fran": 3650,
    "franc": 3651,
    "france,</w>": 3652,
    "france.</w>": 3653,
    "france</w>": 3654,
    "frank": 3655,
    "frastruc": 3656,
    "frau": 3657,
    "fraud</w>": 3658,
    "fraudul": 3659,
    "fre": 3660,
    "free</w>": 3661,
    "freed": 3662,
    "freedom</w>": 3663,
    "freely</w>": 3664,
    "fren": 3665,
    "french</w>": 3666,
    "frequ": 3667,
    "fresh</w>": 3668,
    "fri": 3669,
    "friar</w>": 3670,
    "frien": 3671,
    "friend": 3672,
    "friend,</w>": 3673,
    "friend.</w>": 3674,
    "friend</w>": 3675,
    "friends,</w>": 3676,
    "friends.</w>": 3677,
    "friends</w>": 3678,
    "fright": 3679,
    "fro": 3680,
    "from": 3681,
    "from</w>": 3682,
    "fron": 3683,
    "front</w>": 3684,
    "fru": 3685,
    "fruit": 3686,
    "fruit</w>": 3687,
    "ft</w>": 3688,
    "fty</w>": 3689,
    "fu": 3690,
    "ful": 3691,
    "ful!</w>": 3692,
    "ful,</w>": 3693,
    "ful.</w>": 3694,
    "ful</w>": 3695,
    "full": 3696,
    "full</w>": 3697,
    "fully,</w>": 3698,
    "fully</w>": 3699,
    "fulness</w>": 3700,
    "fum": 3701,
    "fun": 3702,
    "fund": 3703,
    "fund</w>": 3704,
    "funding</w>": 3705,
    "fur": 3706,
    "furn": 3707,
    "further</w>": 3708,
    "fury</w>": 3709,
    "future</w>": 3710,
    "fv": 3711,
    "fy": 3712,
    "fy</w>": 3713,
    "fying</w>": 3714,
    "g": 3715,
    "g,</w>": 3716,
    "g.</w>": 3717,
    "g:</w>": 3718,
    "g</w>": 3719,
    "ga": 3720,
    "gab": 3721,
    "gain": 3722,
    "gain</w>": 3723,
    "gained</w>": 3724,
    "gal": 3725,
    "galati": 3726,
    "galatians</w>": 3727,
    "gall": 3728,
    "gallant</w>": 3729,
    "gam": 3730,
    "game</w>": 3731,
    "gar": 3732,
    "gar.</w>": 3733,
    "gar</w>": 3734,
    "garden": 3735,
    "garden</w>": 3736,
    "gardin": 3737,
    "gare": 3738,
    "garments</w>": 3739,
    "gas": 3740,
    "gas</w>": 3741,
    "gat": 3742,
    "gate,</w>": 3743,
    "gate</w>": 3744,
    "gates</w>": 3745,
    "gather</w>": 3746,
    "gathered</w>": 3747,
    "gav": 3748,
    "gave</w>": 3749,
    "gaz": 3750,
    "gazing</w>": 3751,
    "gb": 3752,
    "gd": 3753,
    "ge": 3754,
    "ge,</w>": 3755,
    "ge.</w>": 3756,
    "ge</w>": 3757,
    "ged,</w>": 3758,
    "ged</w>": 3759,
    "gen": 3760,
    "gener": 3761,
    "general</w>": 3762,
    "generally</w>": 3763,
    "generation</w>": 3764,
    "genes": 3765,
    "genesis</w>": 3766,
    "genev": 3767,
    "geni": 3768,
    "gent": 3769,
    "gent</w>": 3770,
    "genti": 3771,
    "gentle": 3772,
    "gentle</w>": 3773,
    "gentleman,</w>": 3774,
    "gentleman.</w>": 3775,
    "gentleman</w>": 3776,
    "gentlemen,</w>": 3777,
    "gentlemen</w>": 3778,
    "gently</w>": 3779,
    "geor": 3780,
    "george</w>": 3781,
    "georgi": 3782,
    "georgia</w>": 3783,
    "ger": 3784,
    "ger,</w>": 3785,
    "ger</w>": 3786,
    "gerald": 3787,
    "ges</w>": 3788,
    "gest</w>": 3789,
    "get</w>": 3790,
    "gets</w>": 3791,
    "getting</w>": 3792,
    "gg": 3793,
    "gge": 3794,
    "gged</w>": 3795,
    "ggl": 3796,
    "gh": 3797,
    "gh,</w>": 3798,
    "gh</w>": 3799,
    "gho": 3800,
    "ghost</w>": 3801,
    "ght": 3802,
    "ght,</w>": 3803,
    "ght.</w>": 3804,
    "ght</w>": 3805,
    "ghte": 3806,
    "ghted</w>": 3807,
    "ghti": 3808,
    "ghts</w>": 3809,
    "ghty</w>": 3810,
    "gi": 3811,
    "gibe": 3812,
    "gif": 3813,
    "gift</w>": 3814,
    "gil": 3815,
    "gin": 3816,
    "ging</w>": 3817,
    "gir": 3818,
    "gird": 3819,
    "girl": 3820,
    "girl</w>": 3821,
    "giv": 3822,
    "give</w>": 3823,
    "given</w>": 3824,
    "gives</w>": 3825,
    "giveth</w>": 3826,
    "giving</w>": 3827,
    "gl": 3828,
    "gla": 3829,
    "glad</w>": 3830,
    "glance</w>": 3831,
    "glas": 3832,
    "glass</w>": 3833,
    "gle": 3834,
    "gle</w>": 3835,
    "gli": 3836,
    "glo": 3837,
    "global</w>": 3838,
    "glor": 3839,
    "glori": 3840,
    "glorious</w>": 3841,
    "glory</w>": 3842,
    "glou": 3843,
    "glouce": 3844,
    "gloucester.</w>": 3845,
    "gn": 3846,
    "gn</w>": 3847,
    "gni": 3848,
    "go": 3849,
    "go,</w>": 3850,
    "go.</w>": 3851,
    "go</w>": 3852,
    "god": 3853,
    "god!</w>": 3854,
    "god,</w>": 3855,
    "god.</w>": 3856,
    "god:</w>": 3857,
    "god;</w>": 3858,
    "god</w>": 3859,
    "gods,</w>": 3860,
    "gods</w>": 3861,
    "god\u2019s</w>": 3862,
    "goes</w>": 3863,
    "goeth</w>": 3864,
    "going</w>": 3865,
    "gol": 3866,
    "gold": 3867,
    "gold,</w>": 3868,
    "gold.</w>": 3869,
    "gold</w>": 3870,
    "golden</w>": 3871,
    "golf": 3872,
    "golf</w>": 3873,
    "gon": 3874,
    "gone,</w>": 3875,
    "gone.</w>": 3876,
    "gone</w>": 3877,
    "goner": 3878,
    "goo": 3879,
    "good": 3880,
    "good!</w>": 3881,
    "good,</w>": 3882,
    "good-": 3883,
    "good.</w>": 3884,
    "good</w>": 3885,
    "goodly</w>": 3886,
    "goodness</w>": 3887,
    "gop": 3888,
    "gop</w>": 3889,
    "gor": 3890,
    "gospe": 3891,
    "got</w>": 3892,
    "goti": 3893,
    "gott": 3894,
    "gotten</w>": 3895,
    "gov": 3896,
    "gover": 3897,
    "govern": 3898,
    "government</w>": 3899,
    "governor": 3900,
    "governor</w>": 3901,
    "gow": 3902,
    "gr": 3903,
    "gra": 3904,
    "grac": 3905,
    "grace,</w>": 3906,
    "grace.</w>": 3907,
    "grace</w>": 3908,
    "gracious</w>": 3909,
    "gradu": 3910,
    "gran": 3911,
    "grand": 3912,
    "grand</w>": 3913,
    "grant</w>": 3914,
    "gras": 3915,
    "grass</w>": 3916,
    "grat": 3917,
    "grati": 3918,
    "grave,</w>": 3919,
    "grave</w>": 3920,
    "gray</w>": 3921,
    "gre": 3922,
    "great": 3923,
    "great!\"</w>": 3924,
    "great!</w>": 3925,
    "great,</w>": 3926,
    "great.</w>": 3927,
    "great</w>": 3928,
    "greater</w>": 3929,
    "greatest</w>": 3930,
    "greatly</w>": 3931,
    "greatness</w>": 3932,
    "gree": 3933,
    "green": 3934,
    "green</w>": 3935,
    "gremi": 3936,
    "grew</w>": 3937,
    "grey</w>": 3938,
    "gri": 3939,
    "grief": 3940,
    "grief,</w>": 3941,
    "grief</w>": 3942,
    "griev": 3943,
    "grin": 3944,
    "gro": 3945,
    "gross</w>": 3946,
    "grou": 3947,
    "groun": 3948,
    "ground,</w>": 3949,
    "ground.</w>": 3950,
    "ground</w>": 3951,
    "group</w>": 3952,
    "grow": 3953,
    "grow</w>": 3954,
    "growing</w>": 3955,
    "grown</w>": 3956,
    "grows</w>": 3957,
    "growth</w>": 3958,
    "grum": 3959,
    "grumi": 3960,
    "gs</w>": 3961,
    "gu": 3962,
    "guar": 3963,
    "guard</w>": 3964,
    "gue</w>": 3965,
    "guess</w>": 3966,
    "guest": 3967,
    "guest</w>": 3968,
    "gui": 3969,
    "guil": 3970,
    "guilty</w>": 3971,
    "gul": 3972,
    "gum": 3973,
    "gun": 3974,
    "gun</w>": 3975,
    "gur": 3976,
    "gutenber": 3977,
    "gutenberg": 3978,
    "gutenberg</w>": 3979,
    "gutenberg\u2122": 3980,
    "gutenberg\u2122</w>": 3981,
    "guy": 3982,
    "guy</w>": 3983,
    "h": 3984,
    "h,</w>": 3985,
    "h.</w>": 3986,
    "h:</w>": 3987,
    "h;</w>": 3988,
    "h</w>": 3989,
    "ha": 3990,
    "ha!</w>": 3991,
    "ha,</w>": 3992,
    "hab": 3993,
    "habit": 3994,
    "habit</w>": 3995,
    "had,</w>": 3996,
    "had</w>": 3997,
    "hadst</w>": 3998,
    "hag": 3999,
    "hair": 4000,
    "hair</w>": 4001,
    "hal": 4002,
    "half": 4003,
    "half-": 4004,
    "half</w>": 4005,
    "hall": 4006,
    "hall</w>": 4007,
    "ham": 4008,
    "ham,</w>": 4009,
    "ham.</w>": 4010,
    "ham</w>": 4011,
    "hamlet.</w>": 4012,
    "hamp": 4013,
    "hampshi": 4014,
    "hampshire</w>": 4015,
    "han": 4016,
    "hand": 4017,
    "hand,</w>": 4018,
    "hand.</w>": 4019,
    "hand:</w>": 4020,
    "hand;</w>": 4021,
    "hand</w>": 4022,
    "handle</w>": 4023,
    "hands,</w>": 4024,
    "hands.</w>": 4025,
    "hands</w>": 4026,
    "hang": 4027,
    "hang</w>": 4028,
    "hanging</w>": 4029,
    "hann": 4030,
    "hannity</w>": 4031,
    "happ": 4032,
    "happen": 4033,
    "happen</w>": 4034,
    "happened</w>": 4035,
    "happening</w>": 4036,
    "happin": 4037,
    "happiness</w>": 4038,
    "happy,</w>": 4039,
    "happy</w>": 4040,
    "har": 4041,
    "hard": 4042,
    "hard</w>": 4043,
    "hardly</w>": 4044,
    "harm": 4045,
    "harm</w>": 4046,
    "harpo": 4047,
    "harpoone": 4048,
    "harpooneer</w>": 4049,
    "harry,</w>": 4050,
    "harry</w>": 4051,
    "harve": 4052,
    "has": 4053,
    "has</w>": 4054,
    "hast": 4055,
    "hast</w>": 4056,
    "haste</w>": 4057,
    "hastings.</w>": 4058,
    "hat": 4059,
    "hat</w>": 4060,
    "hate</w>": 4061,
    "hated</w>": 4062,
    "haters</w>": 4063,
    "hath</w>": 4064,
    "hatred</w>": 4065,
    "hau": 4066,
    "have": 4067,
    "have,</w>": 4068,
    "have.</w>": 4069,
    "have</w>": 4070,
    "haven": 4071,
    "having</w>": 4072,
    "haw": 4073,
    "haz": 4074,
    "he": 4075,
    "he's</w>": 4076,
    "he,</w>": 4077,
    "he.</w>": 4078,
    "he</w>": 4079,
    "he?</w>": 4080,
    "hea": 4081,
    "head": 4082,
    "head,</w>": 4083,
    "head.</w>": 4084,
    "head;</w>": 4085,
    "head</w>": 4086,
    "headed</w>": 4087,
    "heading</w>": 4088,
    "heads,</w>": 4089,
    "heads</w>": 4090,
    "heal": 4091,
    "health": 4092,
    "health</w>": 4093,
    "healthcare</w>": 4094,
    "hear": 4095,
    "hear,</w>": 4096,
    "hear</w>": 4097,
    "heard,</w>": 4098,
    "heard</w>": 4099,
    "hearing</w>": 4100,
    "hearken</w>": 4101,
    "heart": 4102,
    "heart,</w>": 4103,
    "heart.</w>": 4104,
    "heart;</w>": 4105,
    "heart</w>": 4106,
    "hearts</w>": 4107,
    "heat</w>": 4108,
    "heav": 4109,
    "heaven": 4110,
    "heaven,</w>": 4111,
    "heaven.</w>": 4112,
    "heaven</w>": 4113,
    "heavenly</w>": 4114,
    "heavens,</w>": 4115,
    "heavens</w>": 4116,
    "heavi": 4117,
    "heavy</w>": 4118,
    "hebre": 4119,
    "hebrews</w>": 4120,
    "hect": 4121,
    "hector.</w>": 4122,
    "hed</w>": 4123,
    "heed</w>": 4124,
    "heel": 4125,
    "hei": 4126,
    "height</w>": 4127,
    "heir": 4128,
    "heir</w>": 4129,
    "hel": 4130,
    "held</w>": 4131,
    "helen": 4132,
    "helena.</w>": 4133,
    "heli": 4134,
    "hell": 4135,
    "hell</w>": 4136,
    "help": 4137,
    "help,</w>": 4138,
    "help</w>": 4139,
    "helped</w>": 4140,
    "helping</w>": 4141,
    "hemi": 4142,
    "hen": 4143,
    "hence": 4144,
    "hence,</w>": 4145,
    "hence</w>": 4146,
    "henceforth</w>": 4147,
    "henry,</w>": 4148,
    "henry.</w>": 4149,
    "henry</w>": 4150,
    "her": 4151,
    "her!</w>": 4152,
    "her,</w>": 4153,
    "her.</w>": 4154,
    "her:</w>": 4155,
    "her;</w>": 4156,
    "her</w>": 4157,
    "her?</w>": 4158,
    "herald": 4159,
    "here": 4160,
    "here,</w>": 4161,
    "here.</w>": 4162,
    "here</w>": 4163,
    "here?</w>": 4164,
    "here\u2019s</w>": 4165,
    "herit": 4166,
    "hermi": 4167,
    "hero": 4168,
    "herself,</w>": 4169,
    "herself.</w>": 4170,
    "herself</w>": 4171,
    "hes</w>": 4172,
    "hest</w>": 4173,
    "hester</w>": 4174,
    "hezeki": 4175,
    "hezekiah</w>": 4176,
    "he\u2019ll</w>": 4177,
    "he\u2019s</w>": 4178,
    "hi": 4179,
    "hid</w>": 4180,
    "hidden</w>": 4181,
    "hide": 4182,
    "hide</w>": 4183,
    "hideous</w>": 4184,
    "hig": 4185,
    "high": 4186,
    "high,</w>": 4187,
    "high</w>": 4188,
    "higher</w>": 4189,
    "highest</w>": 4190,
    "highly</w>": 4191,
    "highness</w>": 4192,
    "hil": 4193,
    "hill": 4194,
    "hill</w>": 4195,
    "hillary": 4196,
    "hillary</w>": 4197,
    "him": 4198,
    "him!</w>": 4199,
    "him,</w>": 4200,
    "him.</w>": 4201,
    "him:</w>": 4202,
    "him;</w>": 4203,
    "him</w>": 4204,
    "him?</w>": 4205,
    "himself": 4206,
    "himself,</w>": 4207,
    "himself.</w>": 4208,
    "himself</w>": 4209,
    "hin": 4210,
    "hip": 4211,
    "his,</w>": 4212,
    "his.</w>": 4213,
    "his</w>": 4214,
    "his]</w>": 4215,
    "hispan": 4216,
    "histor": 4217,
    "historic</w>": 4218,
    "history,</w>": 4219,
    "history.</w>": 4220,
    "history</w>": 4221,
    "hit</w>": 4222,
    "hither": 4223,
    "hither,</w>": 4224,
    "hither.</w>": 4225,
    "hither</w>": 4226,
    "hitherto</w>": 4227,
    "hits</w>": 4228,
    "hl": 4229,
    "ho": 4230,
    "ho!</w>": 4231,
    "ho,</w>": 4232,
    "ho</w>": 4233,
    "hoa": 4234,
    "hoax</w>": 4235,
    "hoi": 4236,
    "hold": 4237,
    "hold,</w>": 4238,
    "hold</w>": 4239,
    "holding</w>": 4240,
    "holds</w>": 4241,
    "hole</w>": 4242,
    "holi": 4243,
    "hollow</w>": 4244,
    "holy</w>": 4245,
    "hom": 4246,
    "home,</w>": 4247,
    "home.</w>": 4248,
    "home</w>": 4249,
    "hon": 4250,
    "honest": 4251,
    "honest</w>": 4252,
    "honor": 4253,
    "honor</w>": 4254,
    "honored</w>": 4255,
    "honou": 4256,
    "honour": 4257,
    "honour,</w>": 4258,
    "honour</w>": 4259,
    "honourable</w>": 4260,
    "hoo": 4261,
    "hood,</w>": 4262,
    "hood</w>": 4263,
    "hop": 4264,
    "hope": 4265,
    "hope,</w>": 4266,
    "hope.</w>": 4267,
    "hope</w>": 4268,
    "hopefully</w>": 4269,
    "hopes</w>": 4270,
    "hor": 4271,
    "horati": 4272,
    "horatio.</w>": 4273,
    "horiz": 4274,
    "horn</w>": 4275,
    "horns</w>": 4276,
    "horr": 4277,
    "horri": 4278,
    "horrible</w>": 4279,
    "horror</w>": 4280,
    "horse": 4281,
    "horse,</w>": 4282,
    "horse</w>": 4283,
    "horses</w>": 4284,
    "horten": 4285,
    "hortensi": 4286,
    "hortensio.</w>": 4287,
    "hosea</w>": 4288,
    "hospit": 4289,
    "host": 4290,
    "host.</w>": 4291,
    "host</w>": 4292,
    "hostess.</w>": 4293,
    "hosts,</w>": 4294,
    "hosts</w>": 4295,
    "hot": 4296,
    "hot</w>": 4297,
    "hote": 4298,
    "hotel</w>": 4299,
    "hotspur": 4300,
    "hotspur.</w>": 4301,
    "hou": 4302,
    "hour": 4303,
    "hour,</w>": 4304,
    "hour</w>": 4305,
    "hours</w>": 4306,
    "house": 4307,
    "house,</w>": 4308,
    "house.</w>": 4309,
    "house:</w>": 4310,
    "house;</w>": 4311,
    "house</w>": 4312,
    "houses</w>": 4313,
    "how": 4314,
    "how,</w>": 4315,
    "how</w>": 4316,
    "however,</w>": 4317,
    "however</w>": 4318,
    "hr": 4319,
    "http": 4320,
    "http://": 4321,
    "http://bit.ly/": 4322,
    "http://t.co/": 4323,
    "http://t.co/f": 4324,
    "http://t.co/g": 4325,
    "http://t.co/h": 4326,
    "http://t.co/i": 4327,
    "http://t.co/j": 4328,
    "http://t.co/k": 4329,
    "http://t.co/l": 4330,
    "http://t.co/n": 4331,
    "http://t.co/p": 4332,
    "http://t.co/q": 4333,
    "http://t.co/r": 4334,
    "http://t.co/u": 4335,
    "http://t.co/v": 4336,
    "http://t.co/w": 4337,
    "http://t.co/x": 4338,
    "http://t.co/y": 4339,
    "http://t.co/z": 4340,
    "https": 4341,
    "https://t.co/": 4342,
    "https://t.co/0": 4343,
    "https://t.co/1": 4344,
    "https://t.co/2": 4345,
    "https://t.co/3": 4346,
    "https://t.co/4": 4347,
    "https://t.co/5": 4348,
    "https://t.co/6": 4349,
    "https://t.co/7": 4350,
    "https://t.co/8": 4351,
    "https://t.co/9": 4352,
    "https://t.co/a": 4353,
    "https://t.co/b": 4354,
    "https://t.co/c": 4355,
    "https://t.co/d": 4356,
    "https://t.co/e": 4357,
    "https://t.co/f": 4358,
    "https://t.co/g": 4359,
    "https://t.co/h": 4360,
    "https://t.co/i": 4361,
    "https://t.co/j": 4362,
    "https://t.co/k": 4363,
    "https://t.co/l": 4364,
    "https://t.co/m": 4365,
    "https://t.co/n": 4366,
    "https://t.co/o": 4367,
    "https://t.co/p": 4368,
    "https://t.co/q": 4369,
    "https://t.co/r": 4370,
    "https://t.co/s": 4371,
    "https://t.co/t": 4372,
    "https://t.co/u": 4373,
    "https://t.co/v": 4374,
    "https://t.co/w": 4375,
    "https://t.co/x": 4376,
    "https://t.co/y": 4377,
    "https://t.co/z": 4378,
    "hu": 4379,
    "huber": 4380,
    "huge</w>": 4381,
    "hum": 4382,
    "human": 4383,
    "human</w>": 4384,
    "humble</w>": 4385,
    "humour</w>": 4386,
    "hun": 4387,
    "hundre": 4388,
    "hundred</w>": 4389,
    "hundreds</w>": 4390,
    "hung</w>": 4391,
    "hungr": 4392,
    "hunt</w>": 4393,
    "hur": 4394,
    "hurric": 4395,
    "hurried</w>": 4396,
    "hurt</w>": 4397,
    "hus": 4398,
    "husb": 4399,
    "husband": 4400,
    "husband,</w>": 4401,
    "husband</w>": 4402,
    "hy": 4403,
    "hyde</w>": 4404,
    "hypo": 4405,
    "i": 4406,
    "i'": 4407,
    "i'd</w>": 4408,
    "i'll</w>": 4409,
    "i'm</w>": 4410,
    "i've</w>": 4411,
    "i,</w>": 4412,
    "i.</w>": 4413,
    "i</w>": 4414,
    "iachi": 4415,
    "iachimo": 4416,
    "iago.</w>": 4417,
    "iah,</w>": 4418,
    "iah</w>": 4419,
    "ial</w>": 4420,
    "ians</w>": 4421,
    "ic": 4422,
    "ic,</w>": 4423,
    "ic.</w>": 4424,
    "ic</w>": 4425,
    "ical</w>": 4426,
    "ically</w>": 4427,
    "ice": 4428,
    "ice,</w>": 4429,
    "ice.</w>": 4430,
    "ice</w>": 4431,
    "iced</w>": 4432,
    "ices</w>": 4433,
    "ici": 4434,
    "icious</w>": 4435,
    "icip": 4436,
    "ick": 4437,
    "ick,</w>": 4438,
    "ick.</w>": 4439,
    "ick</w>": 4440,
    "icles</w>": 4441,
    "ics</w>": 4442,
    "icul": 4443,
    "icus</w>": 4444,
    "id": 4445,
    "id,</w>": 4446,
    "id.</w>": 4447,
    "id</w>": 4448,
    "ida</w>": 4449,
    "ide": 4450,
    "idea</w>": 4451,
    "ideas</w>": 4452,
    "ides,</w>": 4453,
    "ides</w>": 4454,
    "idi": 4455,
    "idle</w>": 4456,
    "ido": 4457,
    "idol": 4458,
    "ied</w>": 4459,
    "ies,</w>": 4460,
    "ies.</w>": 4461,
    "ies</w>": 4462,
    "if": 4463,
    "if,</w>": 4464,
    "if</w>": 4465,
    "if]</w>": 4466,
    "ig": 4467,
    "ight</w>": 4468,
    "ign": 4469,
    "ignor": 4470,
    "ignorant</w>": 4471,
    "ii.</w>": 4472,
    "ii</w>": 4473,
    "iii.</w>": 4474,
    "iii</w>": 4475,
    "il": 4476,
    "il,</w>": 4477,
    "il.</w>": 4478,
    "il;</w>": 4479,
    "il</w>": 4480,
    "iled</w>": 4481,
    "iling</w>": 4482,
    "ill": 4483,
    "ill-": 4484,
    "ill</w>": 4485,
    "illeg": 4486,
    "illegal</w>": 4487,
    "illegally</w>": 4488,
    "illu": 4489,
    "illustr": 4490,
    "illustration": 4491,
    "illy": 4492,
    "illyfac": 4493,
    "ils,</w>": 4494,
    "ils</w>": 4495,
    "ilu": 4496,
    "ily,</w>": 4497,
    "ily</w>": 4498,
    "im": 4499,
    "im,</w>": 4500,
    "im</w>": 4501,
    "ima": 4502,
    "imag": 4503,
    "image</w>": 4504,
    "imagin": 4505,
    "imagination</w>": 4506,
    "imagine</w>": 4507,
    "immedi": 4508,
    "immediate</w>": 4509,
    "immediatel": 4510,
    "immediately</w>": 4511,
    "immigr": 4512,
    "immigration</w>": 4513,
    "imo": 4514,
    "imogen": 4515,
    "imogen.</w>": 4516,
    "imp": 4517,
    "impe": 4518,
    "impeach": 4519,
    "impeachment</w>": 4520,
    "imper": 4521,
    "import": 4522,
    "important</w>": 4523,
    "impossible</w>": 4524,
    "impres": 4525,
    "impro": 4526,
    "in": 4527,
    "in!</w>": 4528,
    "in,</w>": 4529,
    "in-": 4530,
    "in.</w>": 4531,
    "in:</w>": 4532,
    "in;</w>": 4533,
    "in</w>": 4534,
    "in]</w>": 4535,
    "ina.</w>": 4536,
    "ina</w>": 4537,
    "inc": 4538,
    "incen": 4539,
    "incense</w>": 4540,
    "incid": 4541,
    "incl": 4542,
    "inclu": 4543,
    "including</w>": 4544,
    "incompe": 4545,
    "incompetent</w>": 4546,
    "incre": 4547,
    "increa": 4548,
    "increase</w>": 4549,
    "increased</w>": 4550,
    "incredi": 4551,
    "incredible</w>": 4552,
    "inde": 4553,
    "indeed,</w>": 4554,
    "indeed.</w>": 4555,
    "indeed</w>": 4556,
    "independ": 4557,
    "indi": 4558,
    "indian</w>": 4559,
    "indic": 4560,
    "indiffer": 4561,
    "indign": 4562,
    "indivi": 4563,
    "individu": 4564,
    "individual</w>": 4565,
    "indu": 4566,
    "industr": 4567,
    "ine": 4568,
    "ine,</w>": 4569,
    "ine.</w>": 4570,
    "ine</w>": 4571,
    "ined</w>": 4572,
    "iner</w>": 4573,
    "ines</w>": 4574,
    "iness</w>": 4575,
    "inf": 4576,
    "infe": 4577,
    "infer": 4578,
    "infin": 4579,
    "influ": 4580,
    "influence</w>": 4581,
    "inform": 4582,
    "information</w>": 4583,
    "informed</w>": 4584,
    "infra": 4585,
    "infrastruc": 4586,
    "ing": 4587,
    "ing!</w>": 4588,
    "ing,</w>": 4589,
    "ing-": 4590,
    "ing.</w>": 4591,
    "ing:</w>": 4592,
    "ing;</w>": 4593,
    "ing</w>": 4594,
    "ing?</w>": 4595,
    "ing]</w>": 4596,
    "inged</w>": 4597,
    "inging</w>": 4598,
    "ingly</w>": 4599,
    "ings,</w>": 4600,
    "ings.</w>": 4601,
    "ings;</w>": 4602,
    "ings</w>": 4603,
    "ingu": 4604,
    "inhabit": 4605,
    "inhabitants</w>": 4606,
    "inherit": 4607,
    "inheritance</w>": 4608,
    "ini": 4609,
    "ining</w>": 4610,
    "iniqu": 4611,
    "iniquity</w>": 4612,
    "inius.</w>": 4613,
    "inju": 4614,
    "ink": 4615,
    "innoc": 4616,
    "innocent</w>": 4617,
    "ino": 4618,
    "inqu": 4619,
    "inqui": 4620,
    "inquire</w>": 4621,
    "ins,</w>": 4622,
    "ins</w>": 4623,
    "insi": 4624,
    "inside</w>": 4625,
    "inspir": 4626,
    "inst": 4627,
    "instant</w>": 4628,
    "instantly</w>": 4629,
    "inste": 4630,
    "instead</w>": 4631,
    "instin": 4632,
    "instru": 4633,
    "instrum": 4634,
    "instruments</w>": 4635,
    "int": 4636,
    "int</w>": 4637,
    "inte": 4638,
    "integr": 4639,
    "intell": 4640,
    "intellec": 4641,
    "intelli": 4642,
    "intelligen": 4643,
    "intelligence</w>": 4644,
    "inten": 4645,
    "intended</w>": 4646,
    "inter": 4647,
    "interest": 4648,
    "interest</w>": 4649,
    "interesting</w>": 4650,
    "international</w>": 4651,
    "interpre": 4652,
    "interrup": 4653,
    "interval": 4654,
    "intervie": 4655,
    "interview</w>": 4656,
    "interviewed</w>": 4657,
    "into</w>": 4658,
    "intro": 4659,
    "introdu": 4660,
    "inv": 4661,
    "inve": 4662,
    "invest": 4663,
    "investi": 4664,
    "investig": 4665,
    "investigation</w>": 4666,
    "invit": 4667,
    "invol": 4668,
    "involved</w>": 4669,
    "in\u2019</w>": 4670,
    "ior</w>": 4671,
    "ious</w>": 4672,
    "iow": 4673,
    "iowa</w>": 4674,
    "ir": 4675,
    "ir</w>": 4676,
    "ira": 4677,
    "iran</w>": 4678,
    "iraq</w>": 4679,
    "ire": 4680,
    "ire</w>": 4681,
    "iron,</w>": 4682,
    "iron</w>": 4683,
    "is": 4684,
    "is!</w>": 4685,
    "is,</w>": 4686,
    "is.</w>": 4687,
    "is;</w>": 4688,
    "is</w>": 4689,
    "is]</w>": 4690,
    "isa": 4691,
    "isabe": 4692,
    "isabell": 4693,
    "isabella.</w>": 4694,
    "isaiah</w>": 4695,
    "ise": 4696,
    "ise</w>": 4697,
    "ised</w>": 4698,
    "ish": 4699,
    "ish</w>": 4700,
    "ishe": 4701,
    "ished,</w>": 4702,
    "ished.</w>": 4703,
    "ished</w>": 4704,
    "ishma": 4705,
    "isi": 4706,
    "ising</w>": 4707,
    "isis</w>": 4708,
    "island</w>": 4709,
    "ism</w>": 4710,
    "isn't</w>": 4711,
    "isn\u2019t</w>": 4712,
    "iso": 4713,
    "isra": 4714,
    "israel": 4715,
    "israel,</w>": 4716,
    "israel.</w>": 4717,
    "israel:</w>": 4718,
    "israel;</w>": 4719,
    "israel</w>": 4720,
    "issa": 4721,
    "issu": 4722,
    "issue</w>": 4723,
    "ist</w>": 4724,
    "is\u2019t</w>": 4725,
    "it": 4726,
    "it!</w>": 4727,
    "it's</w>": 4728,
    "it,</w>": 4729,
    "it.</w>": 4730,
    "it.\u201d</w>": 4731,
    "it:</w>": 4732,
    "it;</w>": 4733,
    "it</w>": 4734,
    "it?</w>": 4735,
    "it?\u201d</w>": 4736,
    "it]</w>": 4737,
    "itable</w>": 4738,
    "ital": 4739,
    "itbar": 4740,
    "itbart": 4741,
    "ite,</w>": 4742,
    "ite</w>": 4743,
    "ited</w>": 4744,
    "itely</w>": 4745,
    "ites,</w>": 4746,
    "ites</w>": 4747,
    "iti": 4748,
    "ities,</w>": 4749,
    "ities.</w>": 4750,
    "ities</w>": 4751,
    "iting</w>": 4752,
    "ition": 4753,
    "ition,</w>": 4754,
    "ition.</w>": 4755,
    "ition</w>": 4756,
    "itions</w>": 4757,
    "itive</w>": 4758,
    "its</w>": 4759,
    "itself,</w>": 4760,
    "itself.</w>": 4761,
    "itself</w>": 4762,
    "itu": 4763,
    "itude</w>": 4764,
    "ity": 4765,
    "ity!</w>": 4766,
    "ity,</w>": 4767,
    "ity.</w>": 4768,
    "ity;</w>": 4769,
    "ity</w>": 4770,
    "it\u2019s</w>": 4771,
    "iv": 4772,
    "iv.</w>": 4773,
    "iv</w>": 4774,
    "ivank": 4775,
    "ivankatr": 4776,
    "ivory</w>": 4777,
    "iz": 4778,
    "i\u2019": 4779,
    "i\u2019</w>": 4780,
    "i\u2019d</w>": 4781,
    "i\u2019ll</w>": 4782,
    "i\u2019m</w>": 4783,
    "i\u2019ve</w>": 4784,
    "j": 4785,
    "j.</w>": 4786,
    "j</w>": 4787,
    "ja": 4788,
    "jac": 4789,
    "jack": 4790,
    "jack</w>": 4791,
    "jacob": 4792,
    "jacob,</w>": 4793,
    "jacob</w>": 4794,
    "jah</w>": 4795,
    "jail": 4796,
    "jam": 4797,
    "james": 4798,
    "james</w>": 4799,
    "jan": 4800,
    "jane</w>": 4801,
    "janu": 4802,
    "jap": 4803,
    "jaqu": 4804,
    "je": 4805,
    "jeal": 4806,
    "jealous": 4807,
    "jealous</w>": 4808,
    "jeb": 4809,
    "jeb</w>": 4810,
    "jec": 4811,
    "ject": 4812,
    "ject</w>": 4813,
    "jected</w>": 4814,
    "jeff": 4815,
    "jeff</w>": 4816,
    "jeho": 4817,
    "jehoi": 4818,
    "jehoshaph": 4819,
    "jeky": 4820,
    "jer": 4821,
    "jeremi": 4822,
    "jeremiah</w>": 4823,
    "jero": 4824,
    "jeroboam</w>": 4825,
    "jerus": 4826,
    "jerusal": 4827,
    "jerusalem": 4828,
    "jerusalem,</w>": 4829,
    "jerusalem.</w>": 4830,
    "jerusalem</w>": 4831,
    "jes": 4832,
    "jest": 4833,
    "jesus,</w>": 4834,
    "jesus</w>": 4835,
    "jew": 4836,
    "jewe": 4837,
    "jews</w>": 4838,
    "ji": 4839,
    "jim": 4840,
    "jim</w>": 4841,
    "jo": 4842,
    "joab</w>": 4843,
    "job": 4844,
    "job!</w>": 4845,
    "job,</w>": 4846,
    "job.</w>": 4847,
    "job</w>": 4848,
    "jobs!</w>": 4849,
    "jobs,</w>": 4850,
    "jobs</w>": 4851,
    "joe</w>": 4852,
    "joel</w>": 4853,
    "joh": 4854,
    "john": 4855,
    "john,</w>": 4856,
    "john.</w>": 4857,
    "john</w>": 4858,
    "join": 4859,
    "join</w>": 4860,
    "joined</w>": 4861,
    "jon": 4862,
    "jona": 4863,
    "jonah</w>": 4864,
    "jonathan</w>": 4865,
    "jor": 4866,
    "jord": 4867,
    "jordan</w>": 4868,
    "jose": 4869,
    "joseph</w>": 4870,
    "joshu": 4871,
    "joshua</w>": 4872,
    "jour": 4873,
    "journ": 4874,
    "journe": 4875,
    "journey</w>": 4876,
    "joy": 4877,
    "joy,</w>": 4878,
    "joy.</w>": 4879,
    "joy</w>": 4880,
    "jp": 4881,
    "jq": 4882,
    "jr": 4883,
    "jr</w>": 4884,
    "ju": 4885,
    "jud": 4886,
    "juda": 4887,
    "judah,</w>": 4888,
    "judah</w>": 4889,
    "judg": 4890,
    "judge": 4891,
    "judge</w>": 4892,
    "judged</w>": 4893,
    "judges</w>": 4894,
    "judgment</w>": 4895,
    "juli": 4896,
    "julia.</w>": 4897,
    "julie": 4898,
    "juliet.</w>": 4899,
    "jum": 4900,
    "jun": 4901,
    "jur": 4902,
    "just": 4903,
    "just</w>": 4904,
    "justi": 4905,
    "justic": 4906,
    "justice,</w>": 4907,
    "justice.</w>": 4908,
    "justice</w>": 4909,
    "k": 4910,
    "k!</w>": 4911,
    "k,</w>": 4912,
    "k.</w>": 4913,
    "k:</w>": 4914,
    "k;</w>": 4915,
    "k</w>": 4916,
    "ka": 4917,
    "kar": 4918,
    "kath": 4919,
    "kathar": 4920,
    "kather": 4921,
    "katherina.</w>": 4922,
    "ke": 4923,
    "ke!</w>": 4924,
    "ke,</w>": 4925,
    "ke.</w>": 4926,
    "ke;</w>": 4927,
    "ke</w>": 4928,
    "ked": 4929,
    "ked,</w>": 4930,
    "ked.</w>": 4931,
    "ked</w>": 4932,
    "kee": 4933,
    "keep": 4934,
    "keep</w>": 4935,
    "keeping</w>": 4936,
    "keeps</w>": 4937,
    "kelly</w>": 4938,
    "ken": 4939,
    "ken,</w>": 4940,
    "ken.</w>": 4941,
    "ken</w>": 4942,
    "kened</w>": 4943,
    "kent.</w>": 4944,
    "kentuck": 4945,
    "kept</w>": 4946,
    "ker": 4947,
    "ker</w>": 4948,
    "kes,</w>": 4949,
    "kes</w>": 4950,
    "ket</w>": 4951,
    "keth</w>": 4952,
    "kev": 4953,
    "key": 4954,
    "key</w>": 4955,
    "kh": 4956,
    "ki": 4957,
    "kil": 4958,
    "kill": 4959,
    "kill</w>": 4960,
    "killed</w>": 4961,
    "killing</w>": 4962,
    "kim</w>": 4963,
    "kin": 4964,
    "kin</w>": 4965,
    "kind": 4966,
    "kind,</w>": 4967,
    "kind.</w>": 4968,
    "kind</w>": 4969,
    "kindled</w>": 4970,
    "kindness</w>": 4971,
    "king": 4972,
    "king,</w>": 4973,
    "king.</w>": 4974,
    "king;</w>": 4975,
    "king</w>": 4976,
    "king?</w>": 4977,
    "kingdom": 4978,
    "kingdom</w>": 4979,
    "kings</w>": 4980,
    "king\u2019s</w>": 4981,
    "kins": 4982,
    "kir": 4983,
    "kis": 4984,
    "kiss</w>": 4985,
    "kissed</w>": 4986,
    "kit": 4987,
    "kn": 4988,
    "kna": 4989,
    "knav": 4990,
    "kne": 4991,
    "kneel": 4992,
    "knew</w>": 4993,
    "kni": 4994,
    "knif": 4995,
    "knife</w>": 4996,
    "knight": 4997,
    "kno": 4998,
    "knock": 4999,
    "knock</w>": 5000,
    "know": 5001,
    "know,</w>": 5002,
    "know.</w>": 5003,
    "know</w>": 5004,
    "knowest</w>": 5005,
    "knoweth</w>": 5006,
    "knowing</w>": 5007,
    "knowled": 5008,
    "knowledge</w>": 5009,
    "known,</w>": 5010,
    "known</w>": 5011,
    "knows</w>": 5012,
    "ko": 5013,
    "kor": 5014,
    "kore": 5015,
    "korea</w>": 5016,
    "kr": 5017,
    "ks,</w>": 5018,
    "ks.</w>": 5019,
    "ks</w>": 5020,
    "ku": 5021,
    "ky": 5022,
    "ky</w>": 5023,
    "kz": 5024,
    "k\u2019d</w>": 5025,
    "l": 5026,
    "l,</w>": 5027,
    "l.</w>": 5028,
    "l:</w>": 5029,
    "l</w>": 5030,
    "la": 5031,
    "la,</w>": 5032,
    "la.</w>": 5033,
    "la</w>": 5034,
    "lab": 5035,
    "lable</w>": 5036,
    "labor": 5037,
    "labour": 5038,
    "labour</w>": 5039,
    "lac": 5040,
    "lack</w>": 5041,
    "lad": 5042,
    "ladi": 5043,
    "ladies</w>": 5044,
    "lady": 5045,
    "lady,</w>": 5046,
    "lady.</w>": 5047,
    "lady</w>": 5048,
    "laer": 5049,
    "lafew.</w>": 5050,
    "laid</w>": 5051,
    "lake</w>": 5052,
    "lam": 5053,
    "lamb</w>": 5054,
    "lament": 5055,
    "lamentations</w>": 5056,
    "lamestre": 5057,
    "lamestream</w>": 5058,
    "lamp": 5059,
    "lan": 5060,
    "lanca": 5061,
    "lance</w>": 5062,
    "land": 5063,
    "land,</w>": 5064,
    "land.</w>": 5065,
    "land:</w>": 5066,
    "land;</w>": 5067,
    "land</w>": 5068,
    "landed</w>": 5069,
    "lands</w>": 5070,
    "langu": 5071,
    "lar": 5072,
    "large": 5073,
    "large</w>": 5074,
    "largest</w>": 5075,
    "las": 5076,
    "las</w>": 5077,
    "last,</w>": 5078,
    "last</w>": 5079,
    "lasting</w>": 5080,
    "lat": 5081,
    "late,</w>": 5082,
    "late</w>": 5083,
    "later</w>": 5084,
    "lation</w>": 5085,
    "latter</w>": 5086,
    "lau": 5087,
    "laug": 5088,
    "laugh": 5089,
    "laugh</w>": 5090,
    "laughed</w>": 5091,
    "laughing</w>": 5092,
    "laun": 5093,
    "lav": 5094,
    "law": 5095,
    "law,</w>": 5096,
    "law.</w>": 5097,
    "law</w>": 5098,
    "lawful</w>": 5099,
    "lawr": 5100,
    "lawrence.</w>": 5101,
    "laws</w>": 5102,
    "lawy": 5103,
    "lawyer</w>": 5104,
    "lay": 5105,
    "lay</w>": 5106,
    "ld": 5107,
    "ld,</w>": 5108,
    "ld.</w>": 5109,
    "ld</w>": 5110,
    "lding</w>": 5111,
    "le": 5112,
    "le!</w>": 5113,
    "le,</w>": 5114,
    "le-": 5115,
    "le.</w>": 5116,
    "le:</w>": 5117,
    "le;</w>": 5118,
    "le</w>": 5119,
    "le?</w>": 5120,
    "lea": 5121,
    "lead": 5122,
    "lead</w>": 5123,
    "leader": 5124,
    "leader</w>": 5125,
    "leaders</w>": 5126,
    "leadership</w>": 5127,
    "leading</w>": 5128,
    "leads</w>": 5129,
    "leagu": 5130,
    "lean": 5131,
    "lean</w>": 5132,
    "leaning</w>": 5133,
    "leap": 5134,
    "lear": 5135,
    "lear.</w>": 5136,
    "learn</w>": 5137,
    "learned</w>": 5138,
    "least,</w>": 5139,
    "least</w>": 5140,
    "leav": 5141,
    "leave,</w>": 5142,
    "leave</w>": 5143,
    "leaves</w>": 5144,
    "leaving</w>": 5145,
    "leaz": 5146,
    "leban": 5147,
    "led": 5148,
    "led,</w>": 5149,
    "led.</w>": 5150,
    "led</w>": 5151,
    "lee": 5152,
    "lef": 5153,
    "left,</w>": 5154,
    "left.</w>": 5155,
    "left</w>": 5156,
    "leg": 5157,
    "leg,</w>": 5158,
    "leg</w>": 5159,
    "legal</w>": 5160,
    "legis": 5161,
    "legs</w>": 5162,
    "leis": 5163,
    "lem": 5164,
    "len": 5165,
    "lend</w>": 5166,
    "leness</w>": 5167,
    "leng": 5168,
    "length</w>": 5169,
    "leon": 5170,
    "leonat": 5171,
    "leonato.</w>": 5172,
    "leontes.</w>": 5173,
    "ler": 5174,
    "ler</w>": 5175,
    "les": 5176,
    "les,</w>": 5177,
    "les.</w>": 5178,
    "les</w>": 5179,
    "less": 5180,
    "less,</w>": 5181,
    "less.</w>": 5182,
    "less</w>": 5183,
    "lessly</w>": 5184,
    "lest</w>": 5185,
    "let": 5186,
    "let's</w>": 5187,
    "let,</w>": 5188,
    "let.</w>": 5189,
    "let</w>": 5190,
    "leth</w>": 5191,
    "lets</w>": 5192,
    "lett": 5193,
    "letter": 5194,
    "letter,</w>": 5195,
    "letter.</w>": 5196,
    "letter</w>": 5197,
    "letters</w>": 5198,
    "let\u2019s</w>": 5199,
    "lev": 5200,
    "leve": 5201,
    "level</w>": 5202,
    "levi": 5203,
    "levia": 5204,
    "leviathan": 5205,
    "leviathan</w>": 5206,
    "levit": 5207,
    "levites,</w>": 5208,
    "levites</w>": 5209,
    "leviticus</w>": 5210,
    "ley": 5211,
    "ley,</w>": 5212,
    "ley.</w>": 5213,
    "ley</w>": 5214,
    "li": 5215,
    "lia.</w>": 5216,
    "liber": 5217,
    "liberal</w>": 5218,
    "liberty</w>": 5219,
    "lic": 5220,
    "licen": 5221,
    "license</w>": 5222,
    "lie": 5223,
    "lie,</w>": 5224,
    "lie</w>": 5225,
    "lied,</w>": 5226,
    "lied</w>": 5227,
    "liege,</w>": 5228,
    "lier</w>": 5229,
    "lies,</w>": 5230,
    "lies</w>": 5231,
    "liest</w>": 5232,
    "lieuten": 5233,
    "lif": 5234,
    "life": 5235,
    "life,</w>": 5236,
    "life.</w>": 5237,
    "life;</w>": 5238,
    "life</w>": 5239,
    "lift</w>": 5240,
    "lifted</w>": 5241,
    "light": 5242,
    "light,</w>": 5243,
    "light.</w>": 5244,
    "light</w>": 5245,
    "lighted</w>": 5246,
    "lightweight</w>": 5247,
    "like": 5248,
    "like,</w>": 5249,
    "like</w>": 5250,
    "liked</w>": 5251,
    "likely</w>": 5252,
    "liken": 5253,
    "likes</w>": 5254,
    "likewise</w>": 5255,
    "lim": 5256,
    "limb": 5257,
    "limited</w>": 5258,
    "lin": 5259,
    "lind": 5260,
    "line": 5261,
    "line,</w>": 5262,
    "line.</w>": 5263,
    "line</w>": 5264,
    "lines</w>": 5265,
    "liness</w>": 5266,
    "ling": 5267,
    "ling</w>": 5268,
    "links</w>": 5269,
    "lion</w>": 5270,
    "lip": 5271,
    "lips,</w>": 5272,
    "lips.</w>": 5273,
    "lips</w>": 5274,
    "lish": 5275,
    "lish</w>": 5276,
    "list": 5277,
    "list</w>": 5278,
    "listen</w>": 5279,
    "listened</w>": 5280,
    "listening</w>": 5281,
    "lit": 5282,
    "lit</w>": 5283,
    "liter": 5284,
    "literary</w>": 5285,
    "litt": 5286,
    "little,</w>": 5287,
    "little</w>": 5288,
    "liv": 5289,
    "live": 5290,
    "live,</w>": 5291,
    "live.</w>": 5292,
    "live</w>": 5293,
    "lived</w>": 5294,
    "lives</w>": 5295,
    "living</w>": 5296,
    "lizz": 5297,
    "ll": 5298,
    "ll,</w>": 5299,
    "ll.</w>": 5300,
    "ll</w>": 5301,
    "lled</w>": 5302,
    "lli": 5303,
    "lling</w>": 5304,
    "llion</w>": 5305,
    "llions</w>": 5306,
    "llow": 5307,
    "llow</w>": 5308,
    "lls</w>": 5309,
    "lly": 5310,
    "lly</w>": 5311,
    "lo": 5312,
    "lo,</w>": 5313,
    "lo.</w>": 5314,
    "loath": 5315,
    "loc": 5316,
    "local</w>": 5317,
    "located</w>": 5318,
    "lock": 5319,
    "lock</w>": 5320,
    "locked</w>": 5321,
    "lod": 5322,
    "log": 5323,
    "log</w>": 5324,
    "logi": 5325,
    "logy</w>": 5326,
    "lon": 5327,
    "london": 5328,
    "london.</w>": 5329,
    "london</w>": 5330,
    "long": 5331,
    "long,</w>": 5332,
    "long-": 5333,
    "long.</w>": 5334,
    "long</w>": 5335,
    "longbour": 5336,
    "longed</w>": 5337,
    "longer</w>": 5338,
    "loo": 5339,
    "look": 5340,
    "look,</w>": 5341,
    "look</w>": 5342,
    "looked</w>": 5343,
    "looking</w>": 5344,
    "looks</w>": 5345,
    "loose</w>": 5346,
    "lor": 5347,
    "lord": 5348,
    "lord!</w>": 5349,
    "lord,</w>": 5350,
    "lord.</w>": 5351,
    "lord:</w>": 5352,
    "lord;</w>": 5353,
    "lord</w>": 5354,
    "lord?</w>": 5355,
    "lords,</w>": 5356,
    "lords</w>": 5357,
    "lord\u2019s</w>": 5358,
    "loren": 5359,
    "lorenz": 5360,
    "los": 5361,
    "lose</w>": 5362,
    "loser": 5363,
    "losers</w>": 5364,
    "losi</w>": 5365,
    "losing</w>": 5366,
    "loss</w>": 5367,
    "lost.</w>": 5368,
    "lost</w>": 5369,
    "lot</w>": 5370,
    "lots</w>": 5371,
    "lott": 5372,
    "lou": 5373,
    "loud</w>": 5374,
    "louisi": 5375,
    "lov": 5376,
    "love": 5377,
    "love,</w>": 5378,
    "love.</w>": 5379,
    "love;</w>": 5380,
    "love</w>": 5381,
    "loved</w>": 5382,
    "lovely</w>": 5383,
    "lover": 5384,
    "lovers</w>": 5385,
    "loves</w>": 5386,
    "love\u2019s</w>": 5387,
    "loving</w>": 5388,
    "low": 5389,
    "low.</w>": 5390,
    "low</w>": 5391,
    "lower</w>": 5392,
    "lowest</w>": 5393,
    "loy": 5394,
    "loyal</w>": 5395,
    "ls,</w>": 5396,
    "ls</w>": 5397,
    "lson</w>": 5398,
    "lt": 5399,
    "lt</w>": 5400,
    "lu": 5401,
    "luc": 5402,
    "lucenti": 5403,
    "luci": 5404,
    "lucio.</w>": 5405,
    "lucius.</w>": 5406,
    "luck": 5407,
    "luck</w>": 5408,
    "lucky</w>": 5409,
    "luke</w>": 5410,
    "lun": 5411,
    "lur": 5412,
    "lus</w>": 5413,
    "lux": 5414,
    "lv": 5415,
    "lvani": 5416,
    "ly": 5417,
    "ly!</w>": 5418,
    "ly,</w>": 5419,
    "ly.</w>": 5420,
    "ly/": 5421,
    "ly:</w>": 5422,
    "ly;</w>": 5423,
    "ly</w>": 5424,
    "lydi": 5425,
    "lydia</w>": 5426,
    "lying</w>": 5427,
    "lysand": 5428,
    "m": 5429,
    "m!</w>": 5430,
    "m,</w>": 5431,
    "m.</w>": 5432,
    "m</w>": 5433,
    "ma": 5434,
    "ma</w>": 5435,
    "mac": 5436,
    "macbe": 5437,
    "macbeth.</w>": 5438,
    "macdu": 5439,
    "macduff.</w>": 5440,
    "mach": 5441,
    "macy": 5442,
    "mad": 5443,
    "mad,</w>": 5444,
    "mad</w>": 5445,
    "madam": 5446,
    "madam,</w>": 5447,
    "madam.</w>": 5448,
    "made": 5449,
    "made,</w>": 5450,
    "made.</w>": 5451,
    "made</w>": 5452,
    "mag": 5453,
    "maga</w>": 5454,
    "magaz": 5455,
    "magazine</w>": 5456,
    "magi": 5457,
    "magn": 5458,
    "magni": 5459,
    "magnific": 5460,
    "maher</w>": 5461,
    "mai": 5462,
    "maid": 5463,
    "maid,</w>": 5464,
    "maid</w>": 5465,
    "mail": 5466,
    "main": 5467,
    "main</w>": 5468,
    "maj": 5469,
    "majest": 5470,
    "majesty</w>": 5471,
    "major</w>": 5472,
    "majority</w>": 5473,
    "mak": 5474,
    "make": 5475,
    "make</w>": 5476,
    "makes</w>": 5477,
    "maketh</w>": 5478,
    "making</w>": 5479,
    "mal": 5480,
    "mal</w>": 5481,
    "male</w>": 5482,
    "malice</w>": 5483,
    "malvolio.</w>": 5484,
    "man": 5485,
    "man!</w>": 5486,
    "man,</w>": 5487,
    "man.</w>": 5488,
    "man:</w>": 5489,
    "man;</w>": 5490,
    "man</w>": 5491,
    "man?</w>": 5492,
    "manag": 5493,
    "manasse": 5494,
    "mani": 5495,
    "mann": 5496,
    "manner": 5497,
    "manner</w>": 5498,
    "manners</w>": 5499,
    "mant": 5500,
    "manu": 5501,
    "manufac": 5502,
    "manufactur": 5503,
    "many,</w>": 5504,
    "many</w>": 5505,
    "man\u2019s</w>": 5506,
    "mar": 5507,
    "marble</w>": 5508,
    "march</w>": 5509,
    "marco</w>": 5510,
    "margare": 5511,
    "margaret.</w>": 5512,
    "mari": 5513,
    "maria.</w>": 5514,
    "marin": 5515,
    "mark": 5516,
    "mark,</w>": 5517,
    "mark.</w>": 5518,
    "mark</w>": 5519,
    "marke": 5520,
    "marked</w>": 5521,
    "market</w>": 5522,
    "marks</w>": 5523,
    "marri": 5524,
    "marriage</w>": 5525,
    "married</w>": 5526,
    "marry,</w>": 5527,
    "marry</w>": 5528,
    "marti": 5529,
    "marve": 5530,
    "marvell": 5531,
    "marvellous</w>": 5532,
    "mary</w>": 5533,
    "mas": 5534,
    "mas</w>": 5535,
    "mass</w>": 5536,
    "massi": 5537,
    "massive</w>": 5538,
    "mast-": 5539,
    "master": 5540,
    "master,</w>": 5541,
    "master.</w>": 5542,
    "master</w>": 5543,
    "master\u2019s</w>": 5544,
    "mat": 5545,
    "match</w>": 5546,
    "mate,</w>": 5547,
    "mate</w>": 5548,
    "materi": 5549,
    "matt": 5550,
    "matter": 5551,
    "matter,</w>": 5552,
    "matter.</w>": 5553,
    "matter</w>": 5554,
    "matter?</w>": 5555,
    "matters</w>": 5556,
    "matthe": 5557,
    "matthew</w>": 5558,
    "max": 5559,
    "may": 5560,
    "may,</w>": 5561,
    "may</w>": 5562,
    "maybe</w>": 5563,
    "mayest</w>": 5564,
    "mayor</w>": 5565,
    "mb": 5566,
    "mbe": 5567,
    "mber": 5568,
    "mber</w>": 5569,
    "mbers</w>": 5570,
    "mbr": 5571,
    "mc": 5572,
    "mcca": 5573,
    "md": 5574,
    "me": 5575,
    "me!</w>": 5576,
    "me,</w>": 5577,
    "me.</w>": 5578,
    "me.\u201d</w>": 5579,
    "me:</w>": 5580,
    "me;</w>": 5581,
    "me</w>": 5582,
    "me?</w>": 5583,
    "mean": 5584,
    "mean</w>": 5585,
    "meaning</w>": 5586,
    "means</w>": 5587,
    "meant</w>": 5588,
    "meantime,</w>": 5589,
    "meas": 5590,
    "measure</w>": 5591,
    "measured</w>": 5592,
    "meat</w>": 5593,
    "med": 5594,
    "med,</w>": 5595,
    "med.</w>": 5596,
    "med</w>": 5597,
    "medi": 5598,
    "media,</w>": 5599,
    "media</w>": 5600,
    "medic": 5601,
    "medit": 5602,
    "mee": 5603,
    "meet": 5604,
    "meet</w>": 5605,
    "meeting</w>": 5606,
    "meetings</w>": 5607,
    "meg": 5608,
    "megyn": 5609,
    "mel": 5610,
    "melan": 5611,
    "melancho": 5612,
    "melancholy</w>": 5613,
    "melani": 5614,
    "melania</w>": 5615,
    "mele": 5616,
    "mely</w>": 5617,
    "member</w>": 5618,
    "members</w>": 5619,
    "memor": 5620,
    "memorial</w>": 5621,
    "memory</w>": 5622,
    "men": 5623,
    "men,</w>": 5624,
    "men.</w>": 5625,
    "men;</w>": 5626,
    "men</w>": 5627,
    "meneni": 5628,
    "menenius.</w>": 5629,
    "ment": 5630,
    "ment!</w>": 5631,
    "ment,</w>": 5632,
    "ment.</w>": 5633,
    "ment;</w>": 5634,
    "ment</w>": 5635,
    "menti": 5636,
    "mention</w>": 5637,
    "mentioned</w>": 5638,
    "ments,</w>": 5639,
    "ments.</w>": 5640,
    "ments</w>": 5641,
    "men\u2019s</w>": 5642,
    "mer": 5643,
    "mer</w>": 5644,
    "merch": 5645,
    "merci": 5646,
    "mercu": 5647,
    "mercuti": 5648,
    "mercutio.</w>": 5649,
    "mercy,</w>": 5650,
    "mercy</w>": 5651,
    "mere</w>": 5652,
    "merely</w>": 5653,
    "merry</w>": 5654,
    "mes": 5655,
    "mesdal": 5656,
    "mess": 5657,
    "mess</w>": 5658,
    "message</w>": 5659,
    "messeng": 5660,
    "messenger.</w>": 5661,
    "messenger</w>": 5662,
    "messengers</w>": 5663,
    "met</w>": 5664,
    "methinks</w>": 5665,
    "mexic": 5666,
    "mexico</w>": 5667,
    "mi": 5668,
    "miam": 5669,
    "mic": 5670,
    "micah</w>": 5671,
    "micha": 5672,
    "michael": 5673,
    "michael</w>": 5674,
    "michig": 5675,
    "michigan</w>": 5676,
    "mid": 5677,
    "midd": 5678,
    "middle</w>": 5679,
    "midst</w>": 5680,
    "might": 5681,
    "might</w>": 5682,
    "mighti": 5683,
    "mighty</w>": 5684,
    "migr": 5685,
    "mike": 5686,
    "mike</w>": 5687,
    "mil": 5688,
    "mild": 5689,
    "mild</w>": 5690,
    "miles</w>": 5691,
    "milit": 5692,
    "military,</w>": 5693,
    "military</w>": 5694,
    "mill": 5695,
    "million</w>": 5696,
    "millions</w>": 5697,
    "min": 5698,
    "mind,</w>": 5699,
    "mind.</w>": 5700,
    "mind</w>": 5701,
    "minded</w>": 5702,
    "minds</w>": 5703,
    "mine,</w>": 5704,
    "mine.</w>": 5705,
    "mine;</w>": 5706,
    "mine</w>": 5707,
    "ming": 5708,
    "ming</w>": 5709,
    "mingled</w>": 5710,
    "mini": 5711,
    "minister": 5712,
    "minister</w>": 5713,
    "ministr": 5714,
    "minnes": 5715,
    "minneso": 5716,
    "minut": 5717,
    "minute</w>": 5718,
    "minutes</w>": 5719,
    "mir": 5720,
    "mirac": 5721,
    "mirr": 5722,
    "mis": 5723,
    "miser": 5724,
    "miserable</w>": 5725,
    "misery</w>": 5726,
    "mish": 5727,
    "miss": 5728,
    "miss</w>": 5729,
    "missed</w>": 5730,
    "missing</w>": 5731,
    "mission</w>": 5732,
    "mista": 5733,
    "mistake</w>": 5734,
    "mistre": 5735,
    "mistress,</w>": 5736,
    "mistress</w>": 5737,
    "mit": 5738,
    "mit</w>": 5739,
    "mitt</w>": 5740,
    "mitted</w>": 5741,
    "mittrom": 5742,
    "mm": 5743,
    "mn": 5744,
    "mo": 5745,
    "moby</w>": 5746,
    "mock</w>": 5747,
    "mod": 5748,
    "mode": 5749,
    "moder": 5750,
    "modern</w>": 5751,
    "mom": 5752,
    "moment": 5753,
    "moment,</w>": 5754,
    "moment</w>": 5755,
    "moments</w>": 5756,
    "mon": 5757,
    "mon</w>": 5758,
    "mond</w>": 5759,
    "monday</w>": 5760,
    "mone": 5761,
    "money": 5762,
    "money,</w>": 5763,
    "money.</w>": 5764,
    "money</w>": 5765,
    "monsi": 5766,
    "monsieur</w>": 5767,
    "monster</w>": 5768,
    "monstr": 5769,
    "monstrous</w>": 5770,
    "mont": 5771,
    "montagu": 5772,
    "month": 5773,
    "month,</w>": 5774,
    "month</w>": 5775,
    "months</w>": 5776,
    "monum": 5777,
    "moo": 5778,
    "moon": 5779,
    "moon,</w>": 5780,
    "moon</w>": 5781,
    "moor": 5782,
    "mor": 5783,
    "moral</w>": 5784,
    "more": 5785,
    "more!</w>": 5786,
    "more,</w>": 5787,
    "more.</w>": 5788,
    "more</w>": 5789,
    "moreover,</w>": 5790,
    "moreover</w>": 5791,
    "morg": 5792,
    "morgan</w>": 5793,
    "morn": 5794,
    "morning": 5795,
    "morning,</w>": 5796,
    "morning.</w>": 5797,
    "morning</w>": 5798,
    "morrow,</w>": 5799,
    "morrow</w>": 5800,
    "mortal": 5801,
    "mortal</w>": 5802,
    "mortim": 5803,
    "moses,</w>": 5804,
    "moses</w>": 5805,
    "most</w>": 5806,
    "moth.</w>": 5807,
    "mother": 5808,
    "mother,</w>": 5809,
    "mother.</w>": 5810,
    "mother</w>": 5811,
    "mother\u2019s</w>": 5812,
    "motion": 5813,
    "motion</w>": 5814,
    "mou": 5815,
    "moun": 5816,
    "mount</w>": 5817,
    "mountain": 5818,
    "mountain</w>": 5819,
    "mountains,</w>": 5820,
    "mountains</w>": 5821,
    "mour": 5822,
    "mouth,</w>": 5823,
    "mouth.</w>": 5824,
    "mouth</w>": 5825,
    "move": 5826,
    "move</w>": 5827,
    "moved</w>": 5828,
    "moving</w>": 5829,
    "mow": 5830,
    "mp": 5831,
    "mr": 5832,
    "mr.</w>": 5833,
    "mr</w>": 5834,
    "mrs.</w>": 5835,
    "ms": 5836,
    "ms,</w>": 5837,
    "ms.</w>": 5838,
    "ms</w>": 5839,
    "mu": 5840,
    "much": 5841,
    "much,</w>": 5842,
    "much.</w>": 5843,
    "much</w>": 5844,
    "muell": 5845,
    "mueller</w>": 5846,
    "mul": 5847,
    "mult": 5848,
    "multi": 5849,
    "multitu": 5850,
    "multitude</w>": 5851,
    "mun": 5852,
    "mur": 5853,
    "murder": 5854,
    "murder</w>": 5855,
    "murderer.</w>": 5856,
    "murmu": 5857,
    "murmured</w>": 5858,
    "mus": 5859,
    "music": 5860,
    "music</w>": 5861,
    "musici": 5862,
    "must</w>": 5863,
    "mutter": 5864,
    "my": 5865,
    "my</w>": 5866,
    "myself": 5867,
    "myself,</w>": 5868,
    "myself.</w>": 5869,
    "myself</w>": 5870,
    "myster": 5871,
    "n": 5872,
    "n't</w>": 5873,
    "n,</w>": 5874,
    "n.</w>": 5875,
    "n:</w>": 5876,
    "n;</w>": 5877,
    "n</w>": 5878,
    "na": 5879,
    "na</w>": 5880,
    "nah": 5881,
    "naked</w>": 5882,
    "nal</w>": 5883,
    "nam": 5884,
    "name,</w>": 5885,
    "name.</w>": 5886,
    "name</w>": 5887,
    "named</w>": 5888,
    "names</w>": 5889,
    "nancy</w>": 5890,
    "nant": 5891,
    "nantu": 5892,
    "nantucke": 5893,
    "nantucket</w>": 5894,
    "nap": 5895,
    "nar": 5896,
    "narr": 5897,
    "nat": 5898,
    "nation": 5899,
    "nation,</w>": 5900,
    "nation</w>": 5901,
    "national</w>": 5902,
    "nations,</w>": 5903,
    "nations</w>": 5904,
    "native</w>": 5905,
    "natur": 5906,
    "natural</w>": 5907,
    "nature": 5908,
    "nature,</w>": 5909,
    "nature</w>": 5910,
    "nau": 5911,
    "nav": 5912,
    "navy</w>": 5913,
    "nay,</w>": 5914,
    "nb": 5915,
    "nbc</w>": 5916,
    "nc": 5917,
    "ne": 5918,
    "ne,</w>": 5919,
    "ne.</w>": 5920,
    "ne</w>": 5921,
    "near": 5922,
    "near</w>": 5923,
    "nearer</w>": 5924,
    "nearly</w>": 5925,
    "nebu": 5926,
    "nebucha": 5927,
    "necess": 5928,
    "necessary</w>": 5929,
    "neck</w>": 5930,
    "ned,</w>": 5931,
    "ned.</w>": 5932,
    "ned</w>": 5933,
    "need": 5934,
    "need</w>": 5935,
    "needed</w>": 5936,
    "needs</w>": 5937,
    "neg": 5938,
    "negative</w>": 5939,
    "negle": 5940,
    "negoti": 5941,
    "nehemi": 5942,
    "nehemiah</w>": 5943,
    "nei": 5944,
    "neigh": 5945,
    "neighbour": 5946,
    "neither</w>": 5947,
    "nephe": 5948,
    "ner": 5949,
    "ner,</w>": 5950,
    "ner.</w>": 5951,
    "ner</w>": 5952,
    "ners</w>": 5953,
    "nerv": 5954,
    "nervous</w>": 5955,
    "nes": 5956,
    "neso": 5957,
    "ness": 5958,
    "ness,</w>": 5959,
    "ness.</w>": 5960,
    "ness</w>": 5961,
    "nest</w>": 5962,
    "net": 5963,
    "net</w>": 5964,
    "neth</w>": 5965,
    "nether": 5966,
    "never": 5967,
    "never</w>": 5968,
    "neverthe": 5969,
    "nevertheless,</w>": 5970,
    "nevertheless</w>": 5971,
    "new": 5972,
    "new-": 5973,
    "new</w>": 5974,
    "news": 5975,
    "news!</w>": 5976,
    "news,</w>": 5977,
    "news.</w>": 5978,
    "news:</w>": 5979,
    "news</w>": 5980,
    "newsmax": 5981,
    "nex": 5982,
    "next</w>": 5983,
    "ney": 5984,
    "ney</w>": 5985,
    "ne\u2019er</w>": 5986,
    "nf": 5987,
    "ni": 5988,
    "nic": 5989,
    "nice</w>": 5990,
    "nigh</w>": 5991,
    "night": 5992,
    "night,</w>": 5993,
    "night.</w>": 5994,
    "night;</w>": 5995,
    "night</w>": 5996,
    "nights</w>": 5997,
    "nin": 5998,
    "nine": 5999,
    "nine</w>": 6000,
    "ning": 6001,
    "ning,</w>": 6002,
    "ning.</w>": 6003,
    "ning</w>": 6004,
    "no": 6005,
    "no,</w>": 6006,
    "no.</w>": 6007,
    "no;</w>": 6008,
    "no</w>": 6009,
    "nobl": 6010,
    "noble</w>": 6011,
    "nobody</w>": 6012,
    "noc": 6013,
    "noise</w>": 6014,
    "nomin": 6015,
    "non": 6016,
    "non-": 6017,
    "non.</w>": 6018,
    "non</w>": 6019,
    "none.</w>": 6020,
    "none</w>": 6021,
    "nor": 6022,
    "nor</w>": 6023,
    "norfol": 6024,
    "north": 6025,
    "north</w>": 6026,
    "northum": 6027,
    "northumber": 6028,
    "northumberland.</w>": 6029,
    "nose</w>": 6030,
    "not": 6031,
    "not,</w>": 6032,
    "not.</w>": 6033,
    "not:</w>": 6034,
    "not;</w>": 6035,
    "not</w>": 6036,
    "not?</w>": 6037,
    "note</w>": 6038,
    "nothing": 6039,
    "nothing,</w>": 6040,
    "nothing.</w>": 6041,
    "nothing</w>": 6042,
    "notice</w>": 6043,
    "notwith": 6044,
    "nove": 6045,
    "november</w>": 6046,
    "now": 6047,
    "now!</w>": 6048,
    "now,</w>": 6049,
    "now.</w>": 6050,
    "now;</w>": 6051,
    "now</w>": 6052,
    "now?</w>": 6053,
    "ns</w>": 6054,
    "nu": 6055,
    "nuclear</w>": 6056,
    "num": 6057,
    "numb": 6058,
    "number": 6059,
    "number</w>": 6060,
    "numbered</w>": 6061,
    "numbers</w>": 6062,
    "numer": 6063,
    "numerous</w>": 6064,
    "nur": 6065,
    "nurse.</w>": 6066,
    "ny": 6067,
    "ny</w>": 6068,
    "nyc</w>": 6069,
    "n\u2019d</w>": 6070,
    "n\u2019t</w>": 6071,
    "o": 6072,
    "o!</w>": 6073,
    "o,</w>": 6074,
    "o.</w>": 6075,
    "o:</w>": 6076,
    "o</w>": 6077,
    "o?</w>": 6078,
    "oa": 6079,
    "oar": 6080,
    "oath": 6081,
    "oath</w>": 6082,
    "ob": 6083,
    "obam": 6084,
    "obama": 6085,
    "obama's</w>": 6086,
    "obama,</w>": 6087,
    "obama.</w>": 6088,
    "obama</w>": 6089,
    "obamac": 6090,
    "obamacare</w>": 6091,
    "obama\u2019s</w>": 6092,
    "obe": 6093,
    "obedi": 6094,
    "obey</w>": 6095,
    "objec": 6096,
    "object</w>": 6097,
    "obli": 6098,
    "obsc": 6099,
    "obser": 6100,
    "observ": 6101,
    "observe</w>": 6102,
    "observed</w>": 6103,
    "obstru": 6104,
    "oc": 6105,
    "occ": 6106,
    "occa": 6107,
    "occasion": 6108,
    "occasion</w>": 6109,
    "occup": 6110,
    "occupied</w>": 6111,
    "occur": 6112,
    "oce": 6113,
    "ocean</w>": 6114,
    "octa": 6115,
    "od": 6116,
    "odus</w>": 6117,
    "of": 6118,
    "of,</w>": 6119,
    "of.</w>": 6120,
    "of</w>": 6121,
    "of]</w>": 6122,
    "off": 6123,
    "off,</w>": 6124,
    "off.</w>": 6125,
    "off</w>": 6126,
    "offer": 6127,
    "offer</w>": 6128,
    "offered</w>": 6129,
    "offering,</w>": 6130,
    "offering</w>": 6131,
    "offerings,</w>": 6132,
    "offerings</w>": 6133,
    "offers</w>": 6134,
    "offic": 6135,
    "office,</w>": 6136,
    "office.</w>": 6137,
    "office</w>": 6138,
    "officer</w>": 6139,
    "officers,</w>": 6140,
    "officers</w>": 6141,
    "offici": 6142,
    "official</w>": 6143,
    "oft</w>": 6144,
    "often</w>": 6145,
    "oh": 6146,
    "oh!</w>": 6147,
    "oh,</w>": 6148,
    "oh</w>": 6149,
    "ohi": 6150,
    "ohio</w>": 6151,
    "oil,</w>": 6152,
    "oil</w>": 6153,
    "ok": 6154,
    "ol": 6155,
    "old": 6156,
    "old,</w>": 6157,
    "old.</w>": 6158,
    "old</w>": 6159,
    "oli": 6160,
    "olivia.</w>": 6161,
    "oll": 6162,
    "om": 6163,
    "om,</w>": 6164,
    "om.</w>": 6165,
    "om</w>": 6166,
    "omen": 6167,
    "omi": 6168,
    "omin": 6169,
    "omy</w>": 6170,
    "on": 6171,
    "on!</w>": 6172,
    "on,</w>": 6173,
    "on-": 6174,
    "on.</w>": 6175,
    "on:</w>": 6176,
    "on;</w>": 6177,
    "on</w>": 6178,
    "on?</w>": 6179,
    "onald": 6180,
    "once": 6181,
    "once,</w>": 6182,
    "once</w>": 6183,
    "one": 6184,
    "one!</w>": 6185,
    "one,</w>": 6186,
    "one.</w>": 6187,
    "one;</w>": 6188,
    "one</w>": 6189,
    "one]</w>": 6190,
    "oned</w>": 6191,
    "ones,</w>": 6192,
    "ones</w>": 6193,
    "one\u2019s</w>": 6194,
    "ong": 6195,
    "ong</w>": 6196,
    "oni": 6197,
    "onians</w>": 6198,
    "onic": 6199,
    "onic</w>": 6200,
    "oning</w>": 6201,
    "online</w>": 6202,
    "only,</w>": 6203,
    "only</w>": 6204,
    "ons,</w>": 6205,
    "ons.</w>": 6206,
    "ons</w>": 6207,
    "ony</w>": 6208,
    "on\u2019s</w>": 6209,
    "oo": 6210,
    "ood</w>": 6211,
    "op": 6212,
    "open": 6213,
    "open</w>": 6214,
    "opened</w>": 6215,
    "opening</w>": 6216,
    "oper": 6217,
    "opini": 6218,
    "opinion</w>": 6219,
    "oppon": 6220,
    "opportun": 6221,
    "opportunity</w>": 6222,
    "oppos": 6223,
    "opposite</w>": 6224,
    "oppres": 6225,
    "or": 6226,
    "or,</w>": 6227,
    "or.</w>": 6228,
    "or</w>": 6229,
    "order": 6230,
    "order</w>": 6231,
    "ordin": 6232,
    "ordinary</w>": 6233,
    "ore": 6234,
    "oreilly": 6235,
    "oreillyfac": 6236,
    "org": 6237,
    "organi": 6238,
    "organiz": 6239,
    "ori": 6240,
    "origin": 6241,
    "original</w>": 6242,
    "ority</w>": 6243,
    "orlan": 6244,
    "orlando.</w>": 6245,
    "orle": 6246,
    "orm": 6247,
    "ornam": 6248,
    "ors,</w>": 6249,
    "ors.</w>": 6250,
    "ors</w>": 6251,
    "ory</w>": 6252,
    "or\u2019s</w>": 6253,
    "os": 6254,
    "os</w>": 6255,
    "ose</w>": 6256,
    "othe": 6257,
    "othell": 6258,
    "othello.</w>": 6259,
    "other": 6260,
    "other,</w>": 6261,
    "other.</w>": 6262,
    "other</w>": 6263,
    "others,</w>": 6264,
    "others.</w>": 6265,
    "others</w>": 6266,
    "otherwise</w>": 6267,
    "ou": 6268,
    "ouce": 6269,
    "oud</w>": 6270,
    "ough": 6271,
    "ough</w>": 6272,
    "ought": 6273,
    "ought</w>": 6274,
    "ould": 6275,
    "ould</w>": 6276,
    "oun": 6277,
    "ound</w>": 6278,
    "our": 6279,
    "our,</w>": 6280,
    "our.</w>": 6281,
    "our</w>": 6282,
    "oured</w>": 6283,
    "ouri": 6284,
    "ouring</w>": 6285,
    "ours,</w>": 6286,
    "ours</w>": 6287,
    "oursel": 6288,
    "ourselves</w>": 6289,
    "ous": 6290,
    "ous,</w>": 6291,
    "ous.</w>": 6292,
    "ous;</w>": 6293,
    "ous</w>": 6294,
    "ously,</w>": 6295,
    "ously</w>": 6296,
    "ousness</w>": 6297,
    "out": 6298,
    "out!</w>": 6299,
    "out,</w>": 6300,
    "out.</w>": 6301,
    "out;</w>": 6302,
    "out</w>": 6303,
    "outr": 6304,
    "outside</w>": 6305,
    "outward</w>": 6306,
    "ov": 6307,
    "over": 6308,
    "over,</w>": 6309,
    "over.</w>": 6310,
    "over</w>": 6311,
    "ow": 6312,
    "ow,</w>": 6313,
    "ow.</w>": 6314,
    "ow</w>": 6315,
    "owe</w>": 6316,
    "owed</w>": 6317,
    "owing</w>": 6318,
    "own": 6319,
    "own,</w>": 6320,
    "own.</w>": 6321,
    "own</w>": 6322,
    "owned</w>": 6323,
    "owner</w>": 6324,
    "owns</w>": 6325,
    "ows,</w>": 6326,
    "ows</w>": 6327,
    "ox": 6328,
    "ox</w>": 6329,
    "oy": 6330,
    "o\u2019": 6331,
    "o\u2019</w>": 6332,
    "o\u2019clo": 6333,
    "o\u2019er": 6334,
    "o\u2019er</w>": 6335,
    "o\u2019s</w>": 6336,
    "p": 6337,
    "p,</w>": 6338,
    "p.</w>": 6339,
    "p.m.</w>": 6340,
    "p</w>": 6341,
    "pa": 6342,
    "pac": 6343,
    "pacif": 6344,
    "pad": 6345,
    "pag": 6346,
    "page": 6347,
    "page,</w>": 6348,
    "page.</w>": 6349,
    "page</w>": 6350,
    "pai": 6351,
    "paid</w>": 6352,
    "pain": 6353,
    "pain</w>": 6354,
    "pains</w>": 6355,
    "painted</w>": 6356,
    "pair": 6357,
    "pair</w>": 6358,
    "pal": 6359,
    "palac": 6360,
    "palace.</w>": 6361,
    "palace</w>": 6362,
    "palam": 6363,
    "palamon.</w>": 6364,
    "pale</w>": 6365,
    "palm</w>": 6366,
    "pan": 6367,
    "pand": 6368,
    "pandar": 6369,
    "pandarus.</w>": 6370,
    "pap": 6371,
    "paper": 6372,
    "paper</w>": 6373,
    "par": 6374,
    "parag": 6375,
    "paragra": 6376,
    "paragraph</w>": 6377,
    "pardon": 6378,
    "pardon</w>": 6379,
    "pare": 6380,
    "pare</w>": 6381,
    "paris.</w>": 6382,
    "paris</w>": 6383,
    "park</w>": 6384,
    "paroll": 6385,
    "parolles.</w>": 6386,
    "part": 6387,
    "part,</w>": 6388,
    "part.</w>": 6389,
    "part</w>": 6390,
    "parted</w>": 6391,
    "particul": 6392,
    "particular</w>": 6393,
    "particularly</w>": 6394,
    "partis": 6395,
    "partly</w>": 6396,
    "parts</w>": 6397,
    "party,</w>": 6398,
    "party.</w>": 6399,
    "party</w>": 6400,
    "pas": 6401,
    "pass": 6402,
    "pass,</w>": 6403,
    "pass</w>": 6404,
    "passa": 6405,
    "passage</w>": 6406,
    "passed</w>": 6407,
    "passing</w>": 6408,
    "passion": 6409,
    "passion</w>": 6410,
    "past": 6411,
    "past,</w>": 6412,
    "past</w>": 6413,
    "pat": 6414,
    "path</w>": 6415,
    "pathe": 6416,
    "pati": 6417,
    "patience,</w>": 6418,
    "patience</w>": 6419,
    "patient</w>": 6420,
    "patr": 6421,
    "patrio": 6422,
    "patro": 6423,
    "pau": 6424,
    "paul": 6425,
    "paul</w>": 6426,
    "pay": 6427,
    "pay</w>": 6428,
    "paying</w>": 6429,
    "pe": 6430,
    "pe,</w>": 6431,
    "pe.</w>": 6432,
    "pe</w>": 6433,
    "peac": 6434,
    "peace,</w>": 6435,
    "peace.</w>": 6436,
    "peace</w>": 6437,
    "pear": 6438,
    "pearl": 6439,
    "pearl</w>": 6440,
    "pecu": 6441,
    "peculi": 6442,
    "peculiar</w>": 6443,
    "ped": 6444,
    "ped,</w>": 6445,
    "ped.</w>": 6446,
    "ped</w>": 6447,
    "pedro": 6448,
    "pedro.</w>": 6449,
    "pelo": 6450,
    "pelos": 6451,
    "pelosi</w>": 6452,
    "pen": 6453,
    "pen</w>": 6454,
    "pence</w>": 6455,
    "pend": 6456,
    "penn": 6457,
    "pennsylvani": 6458,
    "pennsylvania</w>": 6459,
    "peop": 6460,
    "people": 6461,
    "people!</w>": 6462,
    "people,</w>": 6463,
    "people.</w>": 6464,
    "people:</w>": 6465,
    "people;</w>": 6466,
    "people</w>": 6467,
    "pequo": 6468,
    "pequod": 6469,
    "pequod</w>": 6470,
    "pequod\u2019s</w>": 6471,
    "per": 6472,
    "per,</w>": 6473,
    "per.</w>": 6474,
    "per</w>": 6475,
    "percei": 6476,
    "perceive</w>": 6477,
    "perceived</w>": 6478,
    "perfe": 6479,
    "perfect</w>": 6480,
    "perfectly</w>": 6481,
    "perfor": 6482,
    "perform": 6483,
    "perform</w>": 6484,
    "performan": 6485,
    "perha": 6486,
    "perhaps,</w>": 6487,
    "perhaps</w>": 6488,
    "peri": 6489,
    "peric": 6490,
    "pericles.</w>": 6491,
    "perio": 6492,
    "period</w>": 6493,
    "perish</w>": 6494,
    "permission</w>": 6495,
    "perpe": 6496,
    "pers</w>": 6497,
    "persecu": 6498,
    "persi": 6499,
    "person": 6500,
    "person,</w>": 6501,
    "person</w>": 6502,
    "personal</w>": 6503,
    "persu": 6504,
    "persua": 6505,
    "persuade</w>": 6506,
    "perver": 6507,
    "pes</w>": 6508,
    "pestil": 6509,
    "pet": 6510,
    "peter": 6511,
    "peter</w>": 6512,
    "peth</w>": 6513,
    "petru": 6514,
    "petruchi": 6515,
    "petruchio.</w>": 6516,
    "pg": 6517,
    "ph": 6518,
    "ph,</w>": 6519,
    "ph.</w>": 6520,
    "ph</w>": 6521,
    "pha": 6522,
    "phant": 6523,
    "phar": 6524,
    "phara": 6525,
    "pharaoh": 6526,
    "pharaoh</w>": 6527,
    "pharise": 6528,
    "phe": 6529,
    "pher": 6530,
    "phi": 6531,
    "phili": 6532,
    "philip": 6533,
    "philipp": 6534,
    "philippians</w>": 6535,
    "philist": 6536,
    "philistin": 6537,
    "philistines</w>": 6538,
    "philos": 6539,
    "philosop": 6540,
    "pho": 6541,
    "phon": 6542,
    "phone</w>": 6543,
    "phony</w>": 6544,
    "phr": 6545,
    "phrase</w>": 6546,
    "phys": 6547,
    "physici": 6548,
    "pi": 6549,
    "pic": 6550,
    "pick</w>": 6551,
    "picked</w>": 6552,
    "picture": 6553,
    "picture</w>": 6554,
    "piec": 6555,
    "piece</w>": 6556,
    "pieces</w>": 6557,
    "pier": 6558,
    "piers": 6559,
    "pil": 6560,
    "pill": 6561,
    "pin": 6562,
    "ping</w>": 6563,
    "pir": 6564,
    "pis": 6565,
    "pistol": 6566,
    "pistol.</w>": 6567,
    "pit": 6568,
    "pitched</w>": 6569,
    "piti": 6570,
    "pity</w>": 6571,
    "pj": 6572,
    "pl": 6573,
    "pla": 6574,
    "plac": 6575,
    "place": 6576,
    "place,</w>": 6577,
    "place.</w>": 6578,
    "place</w>": 6579,
    "placed</w>": 6580,
    "places</w>": 6581,
    "plagu": 6582,
    "plague</w>": 6583,
    "plain": 6584,
    "plain</w>": 6585,
    "plainly</w>": 6586,
    "plan": 6587,
    "plan</w>": 6588,
    "plans</w>": 6589,
    "plant": 6590,
    "plant</w>": 6591,
    "plat": 6592,
    "play": 6593,
    "play</w>": 6594,
    "played</w>": 6595,
    "players</w>": 6596,
    "playing</w>": 6597,
    "ple": 6598,
    "ple,</w>": 6599,
    "ple.</w>": 6600,
    "ple</w>": 6601,
    "plea": 6602,
    "plead</w>": 6603,
    "pleas": 6604,
    "pleasant</w>": 6605,
    "please</w>": 6606,
    "pleased</w>": 6607,
    "pleasure": 6608,
    "pleasure,</w>": 6609,
    "pleasure.</w>": 6610,
    "pleasure</w>": 6611,
    "pled</w>": 6612,
    "plenty</w>": 6613,
    "ples</w>": 6614,
    "plu": 6615,
    "pluck</w>": 6616,
    "plum": 6617,
    "plun": 6618,
    "plus</w>": 6619,
    "ply</w>": 6620,
    "pm": 6621,
    "pm</w>": 6622,
    "po": 6623,
    "pocke": 6624,
    "poin": 6625,
    "point": 6626,
    "point</w>": 6627,
    "pointed</w>": 6628,
    "pointing</w>": 6629,
    "points</w>": 6630,
    "pois": 6631,
    "poison</w>": 6632,
    "pol": 6633,
    "poli": 6634,
    "polic": 6635,
    "police</w>": 6636,
    "policy</w>": 6637,
    "polit": 6638,
    "politic": 6639,
    "political</w>": 6640,
    "politici": 6641,
    "politicians</w>": 6642,
    "politics</w>": 6643,
    "polixen": 6644,
    "poll": 6645,
    "poll</w>": 6646,
    "polls</w>": 6647,
    "poloni": 6648,
    "polonius.</w>": 6649,
    "poly": 6650,
    "pom": 6651,
    "pompe": 6652,
    "pompey.</w>": 6653,
    "pon": 6654,
    "poo": 6655,
    "poor": 6656,
    "poor,</w>": 6657,
    "poor</w>": 6658,
    "popul": 6659,
    "popular</w>": 6660,
    "por": 6661,
    "port": 6662,
    "port</w>": 6663,
    "porti": 6664,
    "portia.</w>": 6665,
    "portion</w>": 6666,
    "portra": 6667,
    "portun": 6668,
    "pos": 6669,
    "pose</w>": 6670,
    "posed</w>": 6671,
    "posing</w>": 6672,
    "positi": 6673,
    "position</w>": 6674,
    "positive</w>": 6675,
    "poss": 6676,
    "posses": 6677,
    "possess</w>": 6678,
    "possessed</w>": 6679,
    "possession</w>": 6680,
    "possi": 6681,
    "possible": 6682,
    "possible,</w>": 6683,
    "possible.</w>": 6684,
    "possible</w>": 6685,
    "possibly</w>": 6686,
    "post": 6687,
    "post</w>": 6688,
    "posthum": 6689,
    "posthumus.</w>": 6690,
    "pot": 6691,
    "poten": 6692,
    "potential</w>": 6693,
    "poun": 6694,
    "pour</w>": 6695,
    "poured</w>": 6696,
    "pover": 6697,
    "pow": 6698,
    "power": 6699,
    "power,</w>": 6700,
    "power.</w>": 6701,
    "power</w>": 6702,
    "powerful</w>": 6703,
    "powers</w>": 6704,
    "pp": 6705,
    "pped</w>": 6706,
    "pper</w>": 6707,
    "pping</w>": 6708,
    "pr": 6709,
    "pra": 6710,
    "pract": 6711,
    "prai": 6712,
    "praise</w>": 6713,
    "pray": 6714,
    "pray,</w>": 6715,
    "pray</w>": 6716,
    "prayer</w>": 6717,
    "prayers</w>": 6718,
    "pre": 6719,
    "preci": 6720,
    "precious</w>": 6721,
    "predic": 6722,
    "prehen": 6723,
    "premi": 6724,
    "prene": 6725,
    "prep": 6726,
    "prepa": 6727,
    "prepar": 6728,
    "prepare</w>": 6729,
    "prepared</w>": 6730,
    "pres": 6731,
    "presence</w>": 6732,
    "present": 6733,
    "present</w>": 6734,
    "presented</w>": 6735,
    "presently</w>": 6736,
    "preserve</w>": 6737,
    "presid": 6738,
    "president": 6739,
    "president!</w>": 6740,
    "president\"\"\"</w>": 6741,
    "president,</w>": 6742,
    "president.</w>": 6743,
    "president</w>": 6744,
    "presidential</w>": 6745,
    "press</w>": 6746,
    "pressed</w>": 6747,
    "pret": 6748,
    "pretty</w>": 6749,
    "prev": 6750,
    "preva": 6751,
    "prevent": 6752,
    "prevent</w>": 6753,
    "previous</w>": 6754,
    "pri": 6755,
    "pric": 6756,
    "price</w>": 6757,
    "prices</w>": 6758,
    "pride</w>": 6759,
    "priest": 6760,
    "priest,</w>": 6761,
    "priest</w>": 6762,
    "priests,</w>": 6763,
    "priests</w>": 6764,
    "primary</w>": 6765,
    "prime</w>": 6766,
    "prin": 6767,
    "princ": 6768,
    "prince": 6769,
    "prince,</w>": 6770,
    "prince.</w>": 6771,
    "prince</w>": 6772,
    "princely</w>": 6773,
    "princes,</w>": 6774,
    "princes</w>": 6775,
    "princess.</w>": 6776,
    "princi": 6777,
    "pris": 6778,
    "prison": 6779,
    "prison,</w>": 6780,
    "prison</w>": 6781,
    "prithee,</w>": 6782,
    "priv": 6783,
    "private</w>": 6784,
    "privi": 6785,
    "pro": 6786,
    "probab": 6787,
    "probably</w>": 6788,
    "proble": 6789,
    "problem</w>": 6790,
    "problems</w>": 6791,
    "proc": 6792,
    "proce": 6793,
    "proceed</w>": 6794,
    "process</w>": 6795,
    "produ": 6796,
    "produced</w>": 6797,
    "prof": 6798,
    "profan": 6799,
    "profes": 6800,
    "profess": 6801,
    "profession": 6802,
    "profit</w>": 6803,
    "progr": 6804,
    "progre": 6805,
    "progress</w>": 6806,
    "project</w>": 6807,
    "prom": 6808,
    "promi": 6809,
    "promise</w>": 6810,
    "promised</w>": 6811,
    "promo": 6812,
    "pron": 6813,
    "pronoun": 6814,
    "proof</w>": 6815,
    "proper": 6816,
    "proper</w>": 6817,
    "property</w>": 6818,
    "prophe": 6819,
    "prophesy</w>": 6820,
    "prophet</w>": 6821,
    "prophets,</w>": 6822,
    "prophets</w>": 6823,
    "propor": 6824,
    "prosecu": 6825,
    "prosper": 6826,
    "prospero.</w>": 6827,
    "prote": 6828,
    "protect": 6829,
    "protect</w>": 6830,
    "protected</w>": 6831,
    "proteus.</w>": 6832,
    "prou": 6833,
    "proud</w>": 6834,
    "prove</w>": 6835,
    "proved</w>": 6836,
    "proven</w>": 6837,
    "prover": 6838,
    "proverbs</w>": 6839,
    "provi": 6840,
    "provide</w>": 6841,
    "provided</w>": 6842,
    "provo": 6843,
    "prud": 6844,
    "pryn": 6845,
    "ps,</w>": 6846,
    "ps</w>": 6847,
    "psal": 6848,
    "psalm</w>": 6849,
    "pt</w>": 6850,
    "pu": 6851,
    "publi": 6852,
    "public</w>": 6853,
    "pul": 6854,
    "pull</w>": 6855,
    "pun": 6856,
    "puni": 6857,
    "pup": 6858,
    "puppe": 6859,
    "pur": 6860,
    "purcha": 6861,
    "pure</w>": 6862,
    "purpo": 6863,
    "purpose,</w>": 6864,
    "purpose</w>": 6865,
    "pursu": 6866,
    "pursue</w>": 6867,
    "pursued</w>": 6868,
    "push</w>": 6869,
    "pushing</w>": 6870,
    "put": 6871,
    "put</w>": 6872,
    "puts</w>": 6873,
    "putting</w>": 6874,
    "py": 6875,
    "pyram": 6876,
    "q": 6877,
    "q</w>": 6878,
    "qu": 6879,
    "qua": 6880,
    "qual": 6881,
    "quali": 6882,
    "quality</w>": 6883,
    "quant": 6884,
    "quar": 6885,
    "quarre": 6886,
    "quarrel</w>": 6887,
    "quarter": 6888,
    "quarter</w>": 6889,
    "que": 6890,
    "que</w>": 6891,
    "quee": 6892,
    "queen": 6893,
    "queen,</w>": 6894,
    "queen.</w>": 6895,
    "queen</w>": 6896,
    "queeque": 6897,
    "queequeg": 6898,
    "queequeg,</w>": 6899,
    "queequeg</w>": 6900,
    "quen": 6901,
    "questi": 6902,
    "question": 6903,
    "question,</w>": 6904,
    "question</w>": 6905,
    "questions</w>": 6906,
    "qui": 6907,
    "quick": 6908,
    "quick</w>": 6909,
    "quickly.</w>": 6910,
    "quickly</w>": 6911,
    "quiet": 6912,
    "quiet</w>": 6913,
    "quis": 6914,
    "quit": 6915,
    "quit</w>": 6916,
    "quite</w>": 6917,
    "quo": 6918,
    "quod": 6919,
    "quoth</w>": 6920,
    "qv": 6921,
    "qx": 6922,
    "r": 6923,
    "r</w>": 6924,
    "ra": 6925,
    "ra</w>": 6926,
    "rable</w>": 6927,
    "rac": 6928,
    "race</w>": 6929,
    "radi": 6930,
    "radical</w>": 6931,
    "rag": 6932,
    "rage</w>": 6933,
    "rai": 6934,
    "rain</w>": 6935,
    "raise</w>": 6936,
    "raised</w>": 6937,
    "rally</w>": 6938,
    "ram": 6939,
    "ram</w>": 6940,
    "ran": 6941,
    "ran</w>": 6942,
    "rank</w>": 6943,
    "rapi": 6944,
    "rapidly</w>": 6945,
    "rare</w>": 6946,
    "ras": 6947,
    "rat": 6948,
    "rate</w>": 6949,
    "rated</w>": 6950,
    "rather</w>": 6951,
    "rating</w>": 6952,
    "ratings</w>": 6953,
    "ray</w>": 6954,
    "re": 6955,
    "re!</w>": 6956,
    "re,</w>": 6957,
    "re-": 6958,
    "re-enter</w>": 6959,
    "re.</w>": 6960,
    "re:</w>": 6961,
    "re;</w>": 6962,
    "re</w>": 6963,
    "reach</w>": 6964,
    "reached</w>": 6965,
    "read": 6966,
    "read</w>": 6967,
    "reading</w>": 6968,
    "ready</w>": 6969,
    "reag": 6970,
    "real": 6971,
    "real</w>": 6972,
    "reali": 6973,
    "reality</w>": 6974,
    "realize</w>": 6975,
    "really</w>": 6976,
    "reas": 6977,
    "reason": 6978,
    "reason,</w>": 6979,
    "reason</w>": 6980,
    "reasonable</w>": 6981,
    "reasons</w>": 6982,
    "rebe": 6983,
    "rebu": 6984,
    "rec": 6985,
    "recei": 6986,
    "receive</w>": 6987,
    "received</w>": 6988,
    "receiving</w>": 6989,
    "recent</w>": 6990,
    "recently</w>": 6991,
    "reck": 6992,
    "reco": 6993,
    "recogni": 6994,
    "recolle": 6995,
    "recomp": 6996,
    "recor": 6997,
    "record</w>": 6998,
    "recover": 6999,
    "red": 7000,
    "red,</w>": 7001,
    "red.</w>": 7002,
    "red</w>": 7003,
    "rede": 7004,
    "redu": 7005,
    "refer": 7006,
    "refle": 7007,
    "refu": 7008,
    "refuse</w>": 7009,
    "refused</w>": 7010,
    "reg": 7011,
    "regar": 7012,
    "regard</w>": 7013,
    "regarded</w>": 7014,
    "regi": 7015,
    "regu": 7016,
    "regul": 7017,
    "regular": 7018,
    "regular</w>": 7019,
    "rei": 7020,
    "reign": 7021,
    "reign</w>": 7022,
    "reigned</w>": 7023,
    "rejo": 7024,
    "rejoic": 7025,
    "rejoice</w>": 7026,
    "rel": 7027,
    "relation": 7028,
    "relationship</w>": 7029,
    "rele": 7030,
    "release</w>": 7031,
    "released</w>": 7032,
    "reli": 7033,
    "relie": 7034,
    "relief</w>": 7035,
    "religi": 7036,
    "rely</w>": 7037,
    "rema": 7038,
    "remain": 7039,
    "remain</w>": 7040,
    "remained</w>": 7041,
    "remaining</w>": 7042,
    "remains</w>": 7043,
    "remark": 7044,
    "reme": 7045,
    "remember": 7046,
    "remember,</w>": 7047,
    "remember</w>": 7048,
    "remembered</w>": 7049,
    "remembr": 7050,
    "remembrance</w>": 7051,
    "remn": 7052,
    "remnant</w>": 7053,
    "remo": 7054,
    "remor": 7055,
    "remove</w>": 7056,
    "removed</w>": 7057,
    "ren": 7058,
    "rend": 7059,
    "render</w>": 7060,
    "rene": 7061,
    "rent</w>": 7062,
    "rep": 7063,
    "repe": 7064,
    "repeal</w>": 7065,
    "repeated</w>": 7066,
    "repent": 7067,
    "repl": 7068,
    "replac": 7069,
    "replied</w>": 7070,
    "repor": 7071,
    "report": 7072,
    "report</w>": 7073,
    "reported</w>": 7074,
    "reporting</w>": 7075,
    "reports</w>": 7076,
    "represent": 7077,
    "repro": 7078,
    "reproach</w>": 7079,
    "repu": 7080,
    "republi": 7081,
    "republican": 7082,
    "republican</w>": 7083,
    "republicans</w>": 7084,
    "reput": 7085,
    "requ": 7086,
    "reque": 7087,
    "request</w>": 7088,
    "requi": 7089,
    "require</w>": 7090,
    "res,</w>": 7091,
    "res</w>": 7092,
    "rescu": 7093,
    "resi": 7094,
    "resid": 7095,
    "resol": 7096,
    "resolu": 7097,
    "resolved</w>": 7098,
    "resp": 7099,
    "respe": 7100,
    "respect": 7101,
    "respect</w>": 7102,
    "respected</w>": 7103,
    "respon": 7104,
    "rest": 7105,
    "rest,</w>": 7106,
    "rest.</w>": 7107,
    "rest</w>": 7108,
    "restor": 7109,
    "restore</w>": 7110,
    "restra": 7111,
    "resu": 7112,
    "resul": 7113,
    "results</w>": 7114,
    "reti": 7115,
    "retur": 7116,
    "return": 7117,
    "return,</w>": 7118,
    "return</w>": 7119,
    "returned</w>": 7120,
    "returning</w>": 7121,
    "reu": 7122,
    "rev": 7123,
    "reve": 7124,
    "revealed</w>": 7125,
    "revelation</w>": 7126,
    "reven": 7127,
    "reveng": 7128,
    "revenge</w>": 7129,
    "rever": 7130,
    "reverend</w>": 7131,
    "revi": 7132,
    "revo": 7133,
    "revol": 7134,
    "reward</w>": 7135,
    "ri": 7136,
    "rible</w>": 7137,
    "ric": 7138,
    "rich": 7139,
    "rich</w>": 7140,
    "richar": 7141,
    "richard,</w>": 7142,
    "richard.</w>": 7143,
    "richard</w>": 7144,
    "rid</w>": 7145,
    "ride</w>": 7146,
    "ridic": 7147,
    "ridicul": 7148,
    "ridiculous</w>": 7149,
    "ried</w>": 7150,
    "ries</w>": 7151,
    "rif": 7152,
    "rigg": 7153,
    "rigged</w>": 7154,
    "right": 7155,
    "right,</w>": 7156,
    "right.</w>": 7157,
    "right</w>": 7158,
    "righte": 7159,
    "righteous": 7160,
    "righteous</w>": 7161,
    "righteousness,</w>": 7162,
    "righteousness</w>": 7163,
    "rights</w>": 7164,
    "rin": 7165,
    "ring,</w>": 7166,
    "ring</w>": 7167,
    "rings</w>": 7168,
    "rio": 7169,
    "rious</w>": 7170,
    "ripp": 7171,
    "ris": 7172,
    "rise</w>": 7173,
    "rising</w>": 7174,
    "rit</w>": 7175,
    "river": 7176,
    "river</w>": 7177,
    "rivers</w>": 7178,
    "ro": 7179,
    "rob": 7180,
    "rober": 7181,
    "robert</w>": 7182,
    "rock": 7183,
    "rock</w>": 7184,
    "rod</w>": 7185,
    "roderi": 7186,
    "roger</w>": 7187,
    "rogu": 7188,
    "roll": 7189,
    "roll</w>": 7190,
    "rolled</w>": 7191,
    "rolling</w>": 7192,
    "rom": 7193,
    "roman</w>": 7194,
    "romans</w>": 7195,
    "rome": 7196,
    "rome,</w>": 7197,
    "rome.</w>": 7198,
    "rome</w>": 7199,
    "romeo,</w>": 7200,
    "romeo.</w>": 7201,
    "romeo</w>": 7202,
    "romney</w>": 7203,
    "ron": 7204,
    "ron</w>": 7205,
    "roo": 7206,
    "room": 7207,
    "room,</w>": 7208,
    "room.</w>": 7209,
    "room</w>": 7210,
    "root</w>": 7211,
    "rosal": 7212,
    "rosalin": 7213,
    "rosalind.</w>": 7214,
    "rose</w>": 7215,
    "rosen": 7216,
    "ross</w>": 7217,
    "rou": 7218,
    "rough</w>": 7219,
    "roun": 7220,
    "round</w>": 7221,
    "rove</w>": 7222,
    "row": 7223,
    "row,</w>": 7224,
    "row.</w>": 7225,
    "row</w>": 7226,
    "rows</w>": 7227,
    "roy": 7228,
    "royal</w>": 7229,
    "rr": 7230,
    "rt</w>": 7231,
    "ru": 7232,
    "rubi": 7233,
    "rubio</w>": 7234,
    "rude</w>": 7235,
    "rue</w>": 7236,
    "rul": 7237,
    "rule</w>": 7238,
    "rum": 7239,
    "run": 7240,
    "run,</w>": 7241,
    "run</w>": 7242,
    "running</w>": 7243,
    "runs</w>": 7244,
    "rup": 7245,
    "rus": 7246,
    "rush</w>": 7247,
    "russi": 7248,
    "russia,</w>": 7249,
    "russia</w>": 7250,
    "russian</w>": 7251,
    "ruth</w>": 7252,
    "ry": 7253,
    "ry,</w>": 7254,
    "ry.</w>": 7255,
    "ry</w>": 7256,
    "rying</w>": 7257,
    "ry\u2019s</w>": 7258,
    "s": 7259,
    "s!\"</w>": 7260,
    "s!</w>": 7261,
    "s\"\"\"</w>": 7262,
    "s\"\"</w>": 7263,
    "s\"</w>": 7264,
    "s)</w>": 7265,
    "s,</w>": 7266,
    "s,\u201d</w>": 7267,
    "s-": 7268,
    "s.": 7269,
    "s.\"\"</w>": 7270,
    "s.</w>": 7271,
    "s._]</w>": 7272,
    "s.\u201d</w>": 7273,
    "s://t.co/": 7274,
    "s:</w>": 7275,
    "s;</w>": 7276,
    "s</w>": 7277,
    "s?</w>": 7278,
    "s],</w>": 7279,
    "s]</w>": 7280,
    "sa": 7281,
    "sa</w>": 7282,
    "sabba": 7283,
    "sabbath</w>": 7284,
    "sac": 7285,
    "sacred</w>": 7286,
    "sacrif": 7287,
    "sacrifice</w>": 7288,
    "sad": 7289,
    "sad!</w>": 7290,
    "sad</w>": 7291,
    "sadd": 7292,
    "saf": 7293,
    "safe": 7294,
    "safe</w>": 7295,
    "safety</w>": 7296,
    "sage</w>": 7297,
    "sai": 7298,
    "said": 7299,
    "said,</w>": 7300,
    "said.</w>": 7301,
    "said</w>": 7302,
    "sail": 7303,
    "sail</w>": 7304,
    "sailed</w>": 7305,
    "sailing</w>": 7306,
    "sailor": 7307,
    "sailor.</w>": 7308,
    "sailors</w>": 7309,
    "sain": 7310,
    "saint": 7311,
    "saint</w>": 7312,
    "saith,</w>": 7313,
    "saith</w>": 7314,
    "sake,</w>": 7315,
    "sake</w>": 7316,
    "sal": 7317,
    "salis": 7318,
    "salt</w>": 7319,
    "salute</w>": 7320,
    "salv": 7321,
    "salvation</w>": 7322,
    "sam": 7323,
    "samari": 7324,
    "same.</w>": 7325,
    "same</w>": 7326,
    "samuel</w>": 7327,
    "san": 7328,
    "san</w>": 7329,
    "sanc": 7330,
    "sancti": 7331,
    "sanctu": 7332,
    "sanctuary</w>": 7333,
    "sand": 7334,
    "sar": 7335,
    "sat": 7336,
    "sat</w>": 7337,
    "satis": 7338,
    "satisfac": 7339,
    "satisfi": 7340,
    "satisfied</w>": 7341,
    "satur": 7342,
    "saturday</w>": 7343,
    "sau": 7344,
    "saul": 7345,
    "saul,</w>": 7346,
    "saul</w>": 7347,
    "sav": 7348,
    "savage</w>": 7349,
    "save</w>": 7350,
    "saved</w>": 7351,
    "saw</w>": 7352,
    "say": 7353,
    "say,</w>": 7354,
    "say.</w>": 7355,
    "say</w>": 7356,
    "saying": 7357,
    "saying,</w>": 7358,
    "saying</w>": 7359,
    "says</w>": 7360,
    "sc": 7361,
    "sc</w>": 7362,
    "sca": 7363,
    "scal": 7364,
    "scand": 7365,
    "scandal</w>": 7366,
    "scar": 7367,
    "scarce</w>": 7368,
    "scarcely</w>": 7369,
    "scarlet</w>": 7370,
    "scattered</w>": 7371,
    "scen": 7372,
    "scene</w>": 7373,
    "sch": 7374,
    "sche": 7375,
    "schedu": 7376,
    "schi": 7377,
    "schiff</w>": 7378,
    "schnei": 7379,
    "schneider": 7380,
    "schoo": 7381,
    "school": 7382,
    "school</w>": 7383,
    "schum": 7384,
    "schumer</w>": 7385,
    "sci": 7386,
    "scienti": 7387,
    "scious</w>": 7388,
    "sco": 7389,
    "scor": 7390,
    "score</w>": 7391,
    "scorn</w>": 7392,
    "scot": 7393,
    "scotland</w>": 7394,
    "scott": 7395,
    "scott</w>": 7396,
    "scra": 7397,
    "scre": 7398,
    "scri": 7399,
    "scrip": 7400,
    "scu": 7401,
    "se": 7402,
    "se!</w>": 7403,
    "se,</w>": 7404,
    "se-": 7405,
    "se.</w>": 7406,
    "se:</w>": 7407,
    "se;</w>": 7408,
    "se</w>": 7409,
    "se?</w>": 7410,
    "sea": 7411,
    "sea,</w>": 7412,
    "sea-": 7413,
    "sea.</w>": 7414,
    "sea;</w>": 7415,
    "sea</w>": 7416,
    "seal</w>": 7417,
    "seam": 7418,
    "sear": 7419,
    "search</w>": 7420,
    "seas": 7421,
    "seas</w>": 7422,
    "season</w>": 7423,
    "seat</w>": 7424,
    "seated</w>": 7425,
    "sebasti": 7426,
    "sebastian.</w>": 7427,
    "secon": 7428,
    "second</w>": 7429,
    "secre": 7430,
    "secret</w>": 7431,
    "secretary</w>": 7432,
    "section</w>": 7433,
    "secu": 7434,
    "secur": 7435,
    "secure</w>": 7436,
    "security.</w>": 7437,
    "security</w>": 7438,
    "sed": 7439,
    "sed,</w>": 7440,
    "sed.</w>": 7441,
    "sed;</w>": 7442,
    "sed</w>": 7443,
    "see": 7444,
    "see,</w>": 7445,
    "see.</w>": 7446,
    "see</w>": 7447,
    "seed</w>": 7448,
    "seeing</w>": 7449,
    "seek</w>": 7450,
    "seeking</w>": 7451,
    "seem": 7452,
    "seem</w>": 7453,
    "seemed</w>": 7454,
    "seeming</w>": 7455,
    "seems</w>": 7456,
    "seen,</w>": 7457,
    "seen.</w>": 7458,
    "seen</w>": 7459,
    "sees</w>": 7460,
    "sei": 7461,
    "seiz": 7462,
    "seized</w>": 7463,
    "sel": 7464,
    "sel</w>": 7465,
    "sela": 7466,
    "seldom</w>": 7467,
    "sele": 7468,
    "seless</w>": 7469,
    "self": 7470,
    "self,</w>": 7471,
    "self-": 7472,
    "self.</w>": 7473,
    "self;</w>": 7474,
    "self</w>": 7475,
    "sell": 7476,
    "sell</w>": 7477,
    "selves</w>": 7478,
    "sely</w>": 7479,
    "sem": 7480,
    "sembl": 7481,
    "sen": 7482,
    "sen</w>": 7483,
    "senat": 7484,
    "senate</w>": 7485,
    "senator.</w>": 7486,
    "senator</w>": 7487,
    "senators</w>": 7488,
    "send</w>": 7489,
    "sending</w>": 7490,
    "seni": 7491,
    "sens": 7492,
    "sense</w>": 7493,
    "sensi": 7494,
    "sent": 7495,
    "sent</w>": 7496,
    "sentence</w>": 7497,
    "senti": 7498,
    "sep": 7499,
    "separ": 7500,
    "separate</w>": 7501,
    "sepul": 7502,
    "sepulch": 7503,
    "sequ": 7504,
    "ser": 7505,
    "ser</w>": 7506,
    "seri": 7507,
    "serious</w>": 7508,
    "seriously</w>": 7509,
    "serp": 7510,
    "serv": 7511,
    "servant": 7512,
    "servant,</w>": 7513,
    "servant.</w>": 7514,
    "servant</w>": 7515,
    "servants,</w>": 7516,
    "servants</w>": 7517,
    "serve</w>": 7518,
    "served</w>": 7519,
    "servic": 7520,
    "service,</w>": 7521,
    "service.</w>": 7522,
    "service</w>": 7523,
    "serving": 7524,
    "ses": 7525,
    "ses,</w>": 7526,
    "ses.</w>": 7527,
    "ses</w>": 7528,
    "set,</w>": 7529,
    "set.</w>": 7530,
    "set</w>": 7531,
    "seth</w>": 7532,
    "sett": 7533,
    "setting</w>": 7534,
    "settled</w>": 7535,
    "sev": 7536,
    "seven": 7537,
    "seven</w>": 7538,
    "seventh</w>": 7539,
    "sever": 7540,
    "several</w>": 7541,
    "sex": 7542,
    "sey": 7543,
    "sey.</w>": 7544,
    "sey</w>": 7545,
    "sf": 7546,
    "sg": 7547,
    "sh": 7548,
    "sh,</w>": 7549,
    "sh.</w>": 7550,
    "sh</w>": 7551,
    "sha": 7552,
    "shad": 7553,
    "shadow</w>": 7554,
    "shake</w>": 7555,
    "shall": 7556,
    "shall</w>": 7557,
    "shallow.</w>": 7558,
    "shalt</w>": 7559,
    "shame": 7560,
    "shame,</w>": 7561,
    "shame</w>": 7562,
    "shape</w>": 7563,
    "shaph": 7564,
    "shar": 7565,
    "share</w>": 7566,
    "sharp</w>": 7567,
    "she": 7568,
    "she,</w>": 7569,
    "she</w>": 7570,
    "shed</w>": 7571,
    "sheep": 7572,
    "sheep</w>": 7573,
    "sheke": 7574,
    "shel": 7575,
    "shepher": 7576,
    "shew</w>": 7577,
    "shewed</w>": 7578,
    "she\u2019s</w>": 7579,
    "shi": 7580,
    "shin": 7581,
    "shine</w>": 7582,
    "shing</w>": 7583,
    "ship": 7584,
    "ship,</w>": 7585,
    "ship.</w>": 7586,
    "ship</w>": 7587,
    "shipped</w>": 7588,
    "ships</w>": 7589,
    "ship\u2019s</w>": 7590,
    "shir": 7591,
    "shire</w>": 7592,
    "shment</w>": 7593,
    "sho": 7594,
    "shoo": 7595,
    "shook</w>": 7596,
    "shoot</w>": 7597,
    "shooting</w>": 7598,
    "shop": 7599,
    "shop</w>": 7600,
    "shor": 7601,
    "shore,</w>": 7602,
    "shore</w>": 7603,
    "short": 7604,
    "short,</w>": 7605,
    "short</w>": 7606,
    "shortly</w>": 7607,
    "shot</w>": 7608,
    "shou": 7609,
    "should": 7610,
    "should</w>": 7611,
    "shouldst</w>": 7612,
    "show": 7613,
    "show.</w>": 7614,
    "show</w>": 7615,
    "showed</w>": 7616,
    "showing</w>": 7617,
    "shown</w>": 7618,
    "shows</w>": 7619,
    "shre": 7620,
    "shri": 7621,
    "shu": 7622,
    "shud": 7623,
    "shut</w>": 7624,
    "shy": 7625,
    "shylo": 7626,
    "shylock.</w>": 7627,
    "sh\u2019d</w>": 7628,
    "si": 7629,
    "sians</w>": 7630,
    "sible</w>": 7631,
    "siby": 7632,
    "sic": 7633,
    "sicinius.</w>": 7634,
    "sick": 7635,
    "sick</w>": 7636,
    "sid": 7637,
    "side": 7638,
    "side,</w>": 7639,
    "side.</w>": 7640,
    "side;</w>": 7641,
    "side</w>": 7642,
    "sider</w>": 7643,
    "sides</w>": 7644,
    "sie</w>": 7645,
    "sig": 7646,
    "sigh": 7647,
    "sight": 7648,
    "sight,</w>": 7649,
    "sight.</w>": 7650,
    "sight</w>": 7651,
    "sign": 7652,
    "sign</w>": 7653,
    "signat": 7654,
    "signature</w>": 7655,
    "signed</w>": 7656,
    "signi": 7657,
    "signific": 7658,
    "signior</w>": 7659,
    "signs</w>": 7660,
    "sil": 7661,
    "silence</w>": 7662,
    "silent</w>": 7663,
    "silver,</w>": 7664,
    "silver</w>": 7665,
    "sim": 7666,
    "simil": 7667,
    "simon": 7668,
    "simp": 7669,
    "simple</w>": 7670,
    "simply</w>": 7671,
    "sin": 7672,
    "sin,</w>": 7673,
    "sin.</w>": 7674,
    "sin</w>": 7675,
    "since</w>": 7676,
    "sincer": 7677,
    "sing": 7678,
    "sing,</w>": 7679,
    "sing</w>": 7680,
    "single</w>": 7681,
    "sink</w>": 7682,
    "sins</w>": 7683,
    "sion": 7684,
    "sion,</w>": 7685,
    "sion.</w>": 7686,
    "sion</w>": 7687,
    "sions</w>": 7688,
    "sir": 7689,
    "sir,</w>": 7690,
    "sir,\u201d</w>": 7691,
    "sir.</w>": 7692,
    "sir;</w>": 7693,
    "sir</w>": 7694,
    "sir?</w>": 7695,
    "sirra": 7696,
    "sirrah,</w>": 7697,
    "sister": 7698,
    "sister,</w>": 7699,
    "sister</w>": 7700,
    "sit": 7701,
    "sit</w>": 7702,
    "sitting</w>": 7703,
    "situ": 7704,
    "situation</w>": 7705,
    "sity</w>": 7706,
    "sive</w>": 7707,
    "six": 7708,
    "six</w>": 7709,
    "sk": 7710,
    "ske": 7711,
    "ski": 7712,
    "skin": 7713,
    "skin</w>": 7714,
    "skir": 7715,
    "sku": 7716,
    "sky": 7717,
    "sky</w>": 7718,
    "sl": 7719,
    "sla": 7720,
    "slain</w>": 7721,
    "sland": 7722,
    "slaugh": 7723,
    "slay</w>": 7724,
    "sle": 7725,
    "sleep": 7726,
    "sleep,</w>": 7727,
    "sleep.</w>": 7728,
    "sleep</w>": 7729,
    "sleeping</w>": 7730,
    "sleepy</w>": 7731,
    "slend": 7732,
    "slept</w>": 7733,
    "slew</w>": 7734,
    "sli": 7735,
    "slight": 7736,
    "slight</w>": 7737,
    "slo": 7738,
    "slow": 7739,
    "slow</w>": 7740,
    "slowly</w>": 7741,
    "slum": 7742,
    "sm": 7743,
    "small": 7744,
    "small</w>": 7745,
    "smar": 7746,
    "smart</w>": 7747,
    "sme": 7748,
    "smell</w>": 7749,
    "smi": 7750,
    "smile</w>": 7751,
    "smit": 7752,
    "smite</w>": 7753,
    "smo": 7754,
    "smoke</w>": 7755,
    "smoo": 7756,
    "smote</w>": 7757,
    "sn": 7758,
    "sna": 7759,
    "snat": 7760,
    "sne": 7761,
    "snow": 7762,
    "snow</w>": 7763,
    "so": 7764,
    "so!</w>": 7765,
    "so,</w>": 7766,
    "so-": 7767,
    "so-called</w>": 7768,
    "so.</w>": 7769,
    "so;</w>": 7770,
    "so</w>": 7771,
    "so?</w>": 7772,
    "so]</w>": 7773,
    "soci": 7774,
    "social</w>": 7775,
    "societ": 7776,
    "society</w>": 7777,
    "soever</w>": 7778,
    "sof": 7779,
    "soft</w>": 7780,
    "sol": 7781,
    "sold</w>": 7782,
    "soldi": 7783,
    "soldier.</w>": 7784,
    "soldier</w>": 7785,
    "soldiers,</w>": 7786,
    "soldiers</w>": 7787,
    "sole</w>": 7788,
    "solem": 7789,
    "solemn": 7790,
    "solemn</w>": 7791,
    "soli": 7792,
    "solic": 7793,
    "solit": 7794,
    "solom": 7795,
    "solomon</w>": 7796,
    "solu": 7797,
    "som": 7798,
    "some": 7799,
    "some</w>": 7800,
    "somebody</w>": 7801,
    "someone</w>": 7802,
    "somer": 7803,
    "something</w>": 7804,
    "sometime</w>": 7805,
    "sometimes</w>": 7806,
    "somewhat</w>": 7807,
    "son": 7808,
    "son,</w>": 7809,
    "son.</w>": 7810,
    "son:</w>": 7811,
    "son</w>": 7812,
    "son]</w>": 7813,
    "song": 7814,
    "song</w>": 7815,
    "sons,</w>": 7816,
    "sons</w>": 7817,
    "soo": 7818,
    "soon": 7819,
    "soon!</w>": 7820,
    "soon.</w>": 7821,
    "soon</w>": 7822,
    "sooner</w>": 7823,
    "sor": 7824,
    "sore</w>": 7825,
    "sorrow": 7826,
    "sorrow</w>": 7827,
    "sorry</w>": 7828,
    "sort</w>": 7829,
    "sou": 7830,
    "sought</w>": 7831,
    "soul": 7832,
    "soul,</w>": 7833,
    "soul.</w>": 7834,
    "soul</w>": 7835,
    "souls</w>": 7836,
    "soun": 7837,
    "sound</w>": 7838,
    "sounds</w>": 7839,
    "sour": 7840,
    "sources</w>": 7841,
    "south": 7842,
    "south</w>": 7843,
    "southern</w>": 7844,
    "sover": 7845,
    "sovereign": 7846,
    "sovereign</w>": 7847,
    "sp": 7848,
    "spa": 7849,
    "spac": 7850,
    "space</w>": 7851,
    "spake</w>": 7852,
    "span": 7853,
    "spar": 7854,
    "spare</w>": 7855,
    "spe": 7856,
    "spea": 7857,
    "speak": 7858,
    "speak,</w>": 7859,
    "speak.</w>": 7860,
    "speak</w>": 7861,
    "speaking</w>": 7862,
    "speaks</w>": 7863,
    "speci": 7864,
    "special</w>": 7865,
    "spect": 7866,
    "spect</w>": 7867,
    "spectac": 7868,
    "spee": 7869,
    "speech": 7870,
    "speech</w>": 7871,
    "speed.</w>": 7872,
    "speed</w>": 7873,
    "spend</w>": 7874,
    "spending</w>": 7875,
    "spent</w>": 7876,
    "sper": 7877,
    "sper</w>": 7878,
    "sperm</w>": 7879,
    "spi": 7880,
    "spir": 7881,
    "spirit": 7882,
    "spirit,</w>": 7883,
    "spirit.</w>": 7884,
    "spirit</w>": 7885,
    "spirits</w>": 7886,
    "spiritu": 7887,
    "spit": 7888,
    "spite</w>": 7889,
    "spo": 7890,
    "spoil</w>": 7891,
    "spoke</w>": 7892,
    "spoken</w>": 7893,
    "spor": 7894,
    "sport</w>": 7895,
    "spot</w>": 7896,
    "spou": 7897,
    "spr": 7898,
    "spre": 7899,
    "spread</w>": 7900,
    "sprin": 7901,
    "spring</w>": 7902,
    "sprink": 7903,
    "spur": 7904,
    "spy</w>": 7905,
    "squ": 7906,
    "square</w>": 7907,
    "sr": 7908,
    "ss": 7909,
    "ss,</w>": 7910,
    "ss.</w>": 7911,
    "ss</w>": 7912,
    "ssed</w>": 7913,
    "sses.</w>": 7914,
    "ssi": 7915,
    "ssing</w>": 7916,
    "st": 7917,
    "st!</w>": 7918,
    "st,</w>": 7919,
    "st-": 7920,
    "st.</w>": 7921,
    "st:</w>": 7922,
    "st;</w>": 7923,
    "st</w>": 7924,
    "st?</w>": 7925,
    "sta": 7926,
    "stab": 7927,
    "staf": 7928,
    "staff</w>": 7929,
    "stag": 7930,
    "stain": 7931,
    "stain</w>": 7932,
    "stained</w>": 7933,
    "stair": 7934,
    "stamp": 7935,
    "stan": 7936,
    "stand": 7937,
    "stand,</w>": 7938,
    "stand.</w>": 7939,
    "stand</w>": 7940,
    "standing</w>": 7941,
    "stands</w>": 7942,
    "star": 7943,
    "star</w>": 7944,
    "starbu": 7945,
    "starbuck": 7946,
    "starbuck,</w>": 7947,
    "starbuck</w>": 7948,
    "stars</w>": 7949,
    "start": 7950,
    "start</w>": 7951,
    "started</w>": 7952,
    "starting</w>": 7953,
    "starts</w>": 7954,
    "stat": 7955,
    "state,</w>": 7956,
    "state.</w>": 7957,
    "state</w>": 7958,
    "stated</w>": 7959,
    "statem": 7960,
    "statement</w>": 7961,
    "states,</w>": 7962,
    "states.</w>": 7963,
    "states</w>": 7964,
    "statut": 7965,
    "stay,</w>": 7966,
    "stay</w>": 7967,
    "stayed</w>": 7968,
    "ste": 7969,
    "stead": 7970,
    "steal</w>": 7971,
    "sted,</w>": 7972,
    "sted</w>": 7973,
    "steel": 7974,
    "steel</w>": 7975,
    "stem": 7976,
    "stem</w>": 7977,
    "step": 7978,
    "step</w>": 7979,
    "stephan": 7980,
    "steps</w>": 7981,
    "ster": 7982,
    "ster!</w>": 7983,
    "ster,</w>": 7984,
    "ster.</w>": 7985,
    "ster</w>": 7986,
    "stern": 7987,
    "stern.</w>": 7988,
    "stern</w>": 7989,
    "sters</w>": 7990,
    "ster\u2019s</w>": 7991,
    "steve": 7992,
    "steve</w>": 7993,
    "sti": 7994,
    "stic": 7995,
    "stic</w>": 7996,
    "stick</w>": 7997,
    "stil": 7998,
    "still": 7999,
    "still,</w>": 8000,
    "still.</w>": 8001,
    "still</w>": 8002,
    "stin": 8003,
    "sting</w>": 8004,
    "stir": 8005,
    "stir</w>": 8006,
    "stly</w>": 8007,
    "sto": 8008,
    "stock": 8009,
    "stock</w>": 8010,
    "stol": 8011,
    "stole</w>": 8012,
    "stom": 8013,
    "ston": 8014,
    "ston</w>": 8015,
    "stone,</w>": 8016,
    "stone.</w>": 8017,
    "stone</w>": 8018,
    "stones,</w>": 8019,
    "stones</w>": 8020,
    "stoo": 8021,
    "stood</w>": 8022,
    "stop": 8023,
    "stop</w>": 8024,
    "stopped</w>": 8025,
    "stor": 8026,
    "store</w>": 8027,
    "stories</w>": 8028,
    "storm</w>": 8029,
    "story</w>": 8030,
    "str": 8031,
    "stra": 8032,
    "strai": 8033,
    "straight": 8034,
    "straight</w>": 8035,
    "strang": 8036,
    "strange": 8037,
    "strange,</w>": 8038,
    "strange</w>": 8039,
    "strangely</w>": 8040,
    "stranger,</w>": 8041,
    "stranger</w>": 8042,
    "strangers</w>": 8043,
    "strat": 8044,
    "stre": 8045,
    "stream</w>": 8046,
    "street": 8047,
    "street,</w>": 8048,
    "street.</w>": 8049,
    "street</w>": 8050,
    "streets</w>": 8051,
    "streng": 8052,
    "strength,</w>": 8053,
    "strength</w>": 8054,
    "stretched</w>": 8055,
    "stri": 8056,
    "stric": 8057,
    "strict</w>": 8058,
    "strike</w>": 8059,
    "stro": 8060,
    "strong": 8061,
    "strong,</w>": 8062,
    "strong</w>": 8063,
    "stronger</w>": 8064,
    "strongly</w>": 8065,
    "stru": 8066,
    "struc": 8067,
    "struck</w>": 8068,
    "strum": 8069,
    "sts,</w>": 8070,
    "sts.</w>": 8071,
    "sts</w>": 8072,
    "stu": 8073,
    "stub": 8074,
    "stubb": 8075,
    "stubb,</w>": 8076,
    "stubb</w>": 8077,
    "stud": 8078,
    "studi": 8079,
    "study</w>": 8080,
    "stuff": 8081,
    "stuff</w>": 8082,
    "stum": 8083,
    "stup": 8084,
    "stupid": 8085,
    "stupid</w>": 8086,
    "sty": 8087,
    "sty</w>": 8088,
    "su": 8089,
    "sub": 8090,
    "subjec": 8091,
    "subject": 8092,
    "subject</w>": 8093,
    "subst": 8094,
    "substance</w>": 8095,
    "substanti": 8096,
    "subur": 8097,
    "suc": 8098,
    "succ": 8099,
    "succe": 8100,
    "success": 8101,
    "success</w>": 8102,
    "successful</w>": 8103,
    "such</w>": 8104,
    "sudd": 8105,
    "sudden": 8106,
    "sudden</w>": 8107,
    "suddenly</w>": 8108,
    "sue</w>": 8109,
    "suff": 8110,
    "suffer": 8111,
    "suffer</w>": 8112,
    "suffered</w>": 8113,
    "suffici": 8114,
    "sufficient</w>": 8115,
    "suffol": 8116,
    "suffolk.</w>": 8117,
    "sugge": 8118,
    "suit": 8119,
    "suit</w>": 8120,
    "sul": 8121,
    "sum": 8122,
    "sum</w>": 8123,
    "summ": 8124,
    "summer</w>": 8125,
    "summit</w>": 8126,
    "sun": 8127,
    "sun,</w>": 8128,
    "sun</w>": 8129,
    "sunday</w>": 8130,
    "sup": 8131,
    "super": 8132,
    "super</w>": 8133,
    "superi": 8134,
    "supp": 8135,
    "suppo": 8136,
    "suppor": 8137,
    "support</w>": 8138,
    "supporters</w>": 8139,
    "supports</w>": 8140,
    "suppose</w>": 8141,
    "supposed</w>": 8142,
    "supre": 8143,
    "supreme</w>": 8144,
    "sur": 8145,
    "surance</w>": 8146,
    "sure": 8147,
    "sure,</w>": 8148,
    "sure</w>": 8149,
    "surely</w>": 8150,
    "surpr": 8151,
    "surpri": 8152,
    "surprise</w>": 8153,
    "surprised</w>": 8154,
    "surre": 8155,
    "surroun": 8156,
    "surve": 8157,
    "survi": 8158,
    "susp": 8159,
    "suspici": 8160,
    "sw": 8161,
    "swa": 8162,
    "swe": 8163,
    "swear</w>": 8164,
    "swee": 8165,
    "sweet": 8166,
    "sweet,</w>": 8167,
    "sweet</w>": 8168,
    "swell": 8169,
    "swi": 8170,
    "swif": 8171,
    "swift</w>": 8172,
    "swor": 8173,
    "sword,</w>": 8174,
    "sword.</w>": 8175,
    "sword</w>": 8176,
    "swore</w>": 8177,
    "sworn</w>": 8178,
    "sy": 8179,
    "sy</w>": 8180,
    "sylv": 8181,
    "sylvani": 8182,
    "sym": 8183,
    "sympa": 8184,
    "syn": 8185,
    "syrac": 8186,
    "syracuse.</w>": 8187,
    "syri": 8188,
    "syria</w>": 8189,
    "system": 8190,
    "system</w>": 8191,
    "s\u2014": 8192,
    "s\u2019</w>": 8193,
    "s\u2019d</w>": 8194,
    "s\u201d</w>": 8195,
    "t": 8196,
    "t!</w>": 8197,
    "t,</w>": 8198,
    "t-": 8199,
    "t.": 8200,
    "t.</w>": 8201,
    "t._]</w>": 8202,
    "t.co": 8203,
    "t.co/": 8204,
    "t.\u201d</w>": 8205,
    "t:</w>": 8206,
    "t;</w>": 8207,
    "t</w>": 8208,
    "t?</w>": 8209,
    "ta": 8210,
    "ta,</w>": 8211,
    "ta.</w>": 8212,
    "ta</w>": 8213,
    "tab": 8214,
    "tabern": 8215,
    "tabernac": 8216,
    "tabernacle</w>": 8217,
    "table,</w>": 8218,
    "table.</w>": 8219,
    "table</w>": 8220,
    "tack": 8221,
    "tail</w>": 8222,
    "tain": 8223,
    "tain</w>": 8224,
    "tained</w>": 8225,
    "taining</w>": 8226,
    "tains</w>": 8227,
    "take</w>": 8228,
    "taken</w>": 8229,
    "takes</w>": 8230,
    "taking</w>": 8231,
    "tal": 8232,
    "tal</w>": 8233,
    "talbo": 8234,
    "tale</w>": 8235,
    "talk</w>": 8236,
    "talked</w>": 8237,
    "talking</w>": 8238,
    "talks</w>": 8239,
    "tall</w>": 8240,
    "tam": 8241,
    "tamor": 8242,
    "tar": 8243,
    "tari": 8244,
    "tariff": 8245,
    "tariffs</w>": 8246,
    "tary</w>": 8247,
    "tash": 8248,
    "tashte": 8249,
    "task</w>": 8250,
    "tast": 8251,
    "taste</w>": 8252,
    "taught</w>": 8253,
    "tawi": 8254,
    "tax": 8255,
    "tax</w>": 8256,
    "taxes,</w>": 8257,
    "taxes</w>": 8258,
    "ta\u2019en</w>": 8259,
    "tb": 8260,
    "tch</w>": 8261,
    "tched</w>": 8262,
    "te": 8263,
    "te,</w>": 8264,
    "te.</w>": 8265,
    "te</w>": 8266,
    "tea</w>": 8267,
    "teach</w>": 8268,
    "team": 8269,
    "team</w>": 8270,
    "tear": 8271,
    "tear</w>": 8272,
    "tears,</w>": 8273,
    "tears</w>": 8274,
    "tech": 8275,
    "ted": 8276,
    "ted,</w>": 8277,
    "ted.</w>": 8278,
    "ted;</w>": 8279,
    "ted</w>": 8280,
    "tee": 8281,
    "teen": 8282,
    "teen</w>": 8283,
    "teenth</w>": 8284,
    "teeth</w>": 8285,
    "tele": 8286,
    "tell": 8287,
    "tell</w>": 8288,
    "telling</w>": 8289,
    "tells</w>": 8290,
    "tely</w>": 8291,
    "tem": 8292,
    "temp": 8293,
    "temper": 8294,
    "temple,</w>": 8295,
    "temple</w>": 8296,
    "tempor": 8297,
    "tempt</w>": 8298,
    "ten": 8299,
    "ten,</w>": 8300,
    "ten.</w>": 8301,
    "ten</w>": 8302,
    "tenber": 8303,
    "tend": 8304,
    "tender</w>": 8305,
    "tent</w>": 8306,
    "tenth</w>": 8307,
    "teous</w>": 8308,
    "ter": 8309,
    "ter,</w>": 8310,
    "ter.</w>": 8311,
    "ter</w>": 8312,
    "tering</w>": 8313,
    "term</w>": 8314,
    "termin": 8315,
    "terms</w>": 8316,
    "tern": 8317,
    "teron": 8318,
    "terr": 8319,
    "terri": 8320,
    "terrible</w>": 8321,
    "terrif": 8322,
    "terrific</w>": 8323,
    "terror": 8324,
    "terror</w>": 8325,
    "terrori": 8326,
    "ters,</w>": 8327,
    "ters.</w>": 8328,
    "ters</w>": 8329,
    "tes": 8330,
    "tes.</w>": 8331,
    "tes</w>": 8332,
    "test": 8333,
    "test</w>": 8334,
    "testi": 8335,
    "testim": 8336,
    "testimony</w>": 8337,
    "teth</w>": 8338,
    "tex": 8339,
    "texas</w>": 8340,
    "tg": 8341,
    "th": 8342,
    "th!</w>": 8343,
    "th,</w>": 8344,
    "th.</w>": 8345,
    "th:</w>": 8346,
    "th;</w>": 8347,
    "th</w>": 8348,
    "th?</w>": 8349,
    "th]</w>": 8350,
    "tha": 8351,
    "tham": 8352,
    "than": 8353,
    "than</w>": 8354,
    "thank": 8355,
    "thank</w>": 8356,
    "thanks": 8357,
    "thanks!\"</w>": 8358,
    "thanks!</w>": 8359,
    "thanks\"</w>": 8360,
    "thanks,</w>": 8361,
    "thanks.\"</w>": 8362,
    "thanks.</w>": 8363,
    "thanks</w>": 8364,
    "that": 8365,
    "that's</w>": 8366,
    "that,</w>": 8367,
    "that.</w>": 8368,
    "that</w>": 8369,
    "that?</w>": 8370,
    "that]</w>": 8371,
    "that\u2019s</w>": 8372,
    "the": 8373,
    "the</w>": 8374,
    "thed</w>": 8375,
    "thee!</w>": 8376,
    "thee,</w>": 8377,
    "thee.</w>": 8378,
    "thee:</w>": 8379,
    "thee;</w>": 8380,
    "thee</w>": 8381,
    "thee?</w>": 8382,
    "their": 8383,
    "their</w>": 8384,
    "their]</w>": 8385,
    "them": 8386,
    "them!</w>": 8387,
    "them,</w>": 8388,
    "them.</w>": 8389,
    "them:</w>": 8390,
    "them;</w>": 8391,
    "them</w>": 8392,
    "them?</w>": 8393,
    "themsel": 8394,
    "themselves,</w>": 8395,
    "themselves.</w>": 8396,
    "themselves</w>": 8397,
    "then": 8398,
    "then,</w>": 8399,
    "then.</w>": 8400,
    "then</w>": 8401,
    "then?</w>": 8402,
    "thence</w>": 8403,
    "ther": 8404,
    "ther,</w>": 8405,
    "ther.</w>": 8406,
    "ther</w>": 8407,
    "there": 8408,
    "there!</w>": 8409,
    "there,</w>": 8410,
    "there.</w>": 8411,
    "there;</w>": 8412,
    "there</w>": 8413,
    "there?</w>": 8414,
    "thereby</w>": 8415,
    "thered</w>": 8416,
    "therefore,</w>": 8417,
    "therefore</w>": 8418,
    "therein</w>": 8419,
    "thereof": 8420,
    "thereof,</w>": 8421,
    "thereof.</w>": 8422,
    "thereof</w>": 8423,
    "there\u2019s</w>": 8424,
    "thern</w>": 8425,
    "thersit": 8426,
    "thersites.</w>": 8427,
    "thes": 8428,
    "thes</w>": 8429,
    "these": 8430,
    "these,</w>": 8431,
    "these</w>": 8432,
    "theseus.</w>": 8433,
    "thessal": 8434,
    "thessalonians</w>": 8435,
    "thesw": 8436,
    "they": 8437,
    "they,</w>": 8438,
    "they</w>": 8439,
    "they\u2019re</w>": 8440,
    "thful</w>": 8441,
    "thi": 8442,
    "thick": 8443,
    "thick</w>": 8444,
    "thiev": 8445,
    "thin": 8446,
    "thin</w>": 8447,
    "thine,</w>": 8448,
    "thine</w>": 8449,
    "thing": 8450,
    "thing,</w>": 8451,
    "thing.</w>": 8452,
    "thing</w>": 8453,
    "things,</w>": 8454,
    "things.</w>": 8455,
    "things</w>": 8456,
    "think": 8457,
    "think,</w>": 8458,
    "think</w>": 8459,
    "thinking</w>": 8460,
    "thinks</w>": 8461,
    "thir": 8462,
    "third</w>": 8463,
    "thirty</w>": 8464,
    "this": 8465,
    "this!</w>": 8466,
    "this,</w>": 8467,
    "this.</w>": 8468,
    "this:</w>": 8469,
    "this;</w>": 8470,
    "this</w>": 8471,
    "this?</w>": 8472,
    "thither</w>": 8473,
    "tho": 8474,
    "thom": 8475,
    "thomas</w>": 8476,
    "thor": 8477,
    "those</w>": 8478,
    "thou": 8479,
    "thou,</w>": 8480,
    "thou</w>": 8481,
    "thou?</w>": 8482,
    "though,</w>": 8483,
    "though</w>": 8484,
    "thought": 8485,
    "thought,</w>": 8486,
    "thought</w>": 8487,
    "thoughts,</w>": 8488,
    "thoughts</w>": 8489,
    "thous": 8490,
    "thousand": 8491,
    "thousand</w>": 8492,
    "thousands</w>": 8493,
    "thr": 8494,
    "thre": 8495,
    "threat": 8496,
    "three</w>": 8497,
    "threes": 8498,
    "threescore</w>": 8499,
    "threw</w>": 8500,
    "thri": 8501,
    "thrice</w>": 8502,
    "thro": 8503,
    "throne</w>": 8504,
    "through": 8505,
    "through</w>": 8506,
    "throughout</w>": 8507,
    "throw</w>": 8508,
    "thrown</w>": 8509,
    "thru": 8510,
    "thrust</w>": 8511,
    "ths,</w>": 8512,
    "ths</w>": 8513,
    "thu": 8514,
    "thum": 8515,
    "thunder": 8516,
    "thunder</w>": 8517,
    "thur": 8518,
    "thurs": 8519,
    "thus,</w>": 8520,
    "thus</w>": 8521,
    "thy": 8522,
    "thy</w>": 8523,
    "thyself,</w>": 8524,
    "thyself</w>": 8525,
    "th\u2019": 8526,
    "th\u2019</w>": 8527,
    "th\u2019s</w>": 8528,
    "ti": 8529,
    "tial</w>": 8530,
    "tic": 8531,
    "tic</w>": 8532,
    "ticke": 8533,
    "tid": 8534,
    "tied</w>": 8535,
    "ties,</w>": 8536,
    "ties</w>": 8537,
    "till</w>": 8538,
    "tim": 8539,
    "tim</w>": 8540,
    "time": 8541,
    "time!</w>": 8542,
    "time,</w>": 8543,
    "time.</w>": 8544,
    "time</w>": 8545,
    "times,</w>": 8546,
    "times.</w>": 8547,
    "times</w>": 8548,
    "timetogett": 8549,
    "timo": 8550,
    "timon": 8551,
    "timon.</w>": 8552,
    "timothy</w>": 8553,
    "tin": 8554,
    "ting</w>": 8555,
    "tion": 8556,
    "tion,</w>": 8557,
    "tion.</w>": 8558,
    "tion</w>": 8559,
    "tions</w>": 8560,
    "tired</w>": 8561,
    "tis": 8562,
    "tit": 8563,
    "title</w>": 8564,
    "titus.</w>": 8565,
    "titus</w>": 8566,
    "tiv": 8567,
    "tive</w>": 8568,
    "tivity</w>": 8569,
    "tle</w>": 8570,
    "tless</w>": 8571,
    "tly</w>": 8572,
    "tn": 8573,
    "to": 8574,
    "to,</w>": 8575,
    "to-": 8576,
    "to.</w>": 8577,
    "to</w>": 8578,
    "to]</w>": 8579,
    "toby.</w>": 8580,
    "today": 8581,
    "today!</w>": 8582,
    "today's</w>": 8583,
    "today,</w>": 8584,
    "today.</w>": 8585,
    "today</w>": 8586,
    "toge": 8587,
    "together": 8588,
    "together,</w>": 8589,
    "together.</w>": 8590,
    "together</w>": 8591,
    "togett": 8592,
    "told</w>": 8593,
    "toler": 8594,
    "tom": 8595,
    "tom</w>": 8596,
    "tomor": 8597,
    "tomorrow": 8598,
    "tomorrow,</w>": 8599,
    "tomorrow.</w>": 8600,
    "tomorrow</w>": 8601,
    "ton": 8602,
    "ton,</w>": 8603,
    "ton.</w>": 8604,
    "ton</w>": 8605,
    "tongu": 8606,
    "tongue,</w>": 8607,
    "tongue</w>": 8608,
    "toni": 8609,
    "tonight": 8610,
    "tonight.</w>": 8611,
    "tonight</w>": 8612,
    "too": 8613,
    "too,</w>": 8614,
    "too.</w>": 8615,
    "too</w>": 8616,
    "took</w>": 8617,
    "top": 8618,
    "top</w>": 8619,
    "tor": 8620,
    "tor</w>": 8621,
    "torment": 8622,
    "torn</w>": 8623,
    "tors</w>": 8624,
    "tossed</w>": 8625,
    "tot": 8626,
    "total</w>": 8627,
    "totally</w>": 8628,
    "tou": 8629,
    "touch": 8630,
    "touch</w>": 8631,
    "touched</w>": 8632,
    "touching</w>": 8633,
    "tough": 8634,
    "tough</w>": 8635,
    "tow": 8636,
    "toward</w>": 8637,
    "towards</w>": 8638,
    "tower</w>": 8639,
    "town": 8640,
    "town,</w>": 8641,
    "town</w>": 8642,
    "tr": 8643,
    "tra": 8644,
    "trac": 8645,
    "trad": 8646,
    "trade": 8647,
    "trade</w>": 8648,
    "traff": 8649,
    "trag": 8650,
    "train": 8651,
    "train</w>": 8652,
    "trait": 8653,
    "tran": 8654,
    "tranio.</w>": 8655,
    "tranqu": 8656,
    "trans": 8657,
    "transcrip": 8658,
    "transgre": 8659,
    "transpar": 8660,
    "trave": 8661,
    "travel</w>": 8662,
    "travell": 8663,
    "tre": 8664,
    "treacher": 8665,
    "tread</w>": 8666,
    "treas": 8667,
    "treasure</w>": 8668,
    "treat": 8669,
    "treat</w>": 8670,
    "treated</w>": 8671,
    "tree,</w>": 8672,
    "tree</w>": 8673,
    "trees,</w>": 8674,
    "trees</w>": 8675,
    "trem": 8676,
    "tremb": 8677,
    "trembling</w>": 8678,
    "tremendous</w>": 8679,
    "tresp": 8680,
    "trespass</w>": 8681,
    "tri": 8682,
    "trial</w>": 8683,
    "tribe</w>": 8684,
    "tribes</w>": 8685,
    "tribu": 8686,
    "tribun": 8687,
    "tried</w>": 8688,
    "trillion</w>": 8689,
    "trium": 8690,
    "triumph": 8691,
    "tro": 8692,
    "troilu": 8693,
    "troilus.</w>": 8694,
    "trom": 8695,
    "troo": 8696,
    "troops</w>": 8697,
    "troth,</w>": 8698,
    "trou": 8699,
    "trouble": 8700,
    "trouble</w>": 8701,
    "troubled</w>": 8702,
    "tru": 8703,
    "truchi": 8704,
    "true": 8705,
    "true!\"</w>": 8706,
    "true!</w>": 8707,
    "true,</w>": 8708,
    "true.</w>": 8709,
    "true</w>": 8710,
    "truly,</w>": 8711,
    "truly</w>": 8712,
    "trum": 8713,
    "trump": 8714,
    "trump!</w>": 8715,
    "trump\"\"\"</w>": 8716,
    "trump\"\"</w>": 8717,
    "trump's</w>": 8718,
    "trump,</w>": 8719,
    "trump.</w>": 8720,
    "trump:</w>": 8721,
    "trump</w>": 8722,
    "trumpe": 8723,
    "trumpet</w>": 8724,
    "trun": 8725,
    "trust</w>": 8726,
    "truth": 8727,
    "truth,</w>": 8728,
    "truth.</w>": 8729,
    "truth</w>": 8730,
    "try</w>": 8731,
    "trying</w>": 8732,
    "ts": 8733,
    "ts!</w>": 8734,
    "ts,</w>": 8735,
    "ts.</w>": 8736,
    "ts:</w>": 8737,
    "ts</w>": 8738,
    "tt": 8739,
    "tt</w>": 8740,
    "tte</w>": 8741,
    "tted</w>": 8742,
    "tter": 8743,
    "tter</w>": 8744,
    "tting</w>": 8745,
    "ttp": 8746,
    "tty</w>": 8747,
    "tu": 8748,
    "tual</w>": 8749,
    "tues": 8750,
    "tuesday</w>": 8751,
    "tum": 8752,
    "tumul": 8753,
    "tun": 8754,
    "tune</w>": 8755,
    "tur": 8756,
    "turbin": 8757,
    "ture": 8758,
    "ture,</w>": 8759,
    "ture.</w>": 8760,
    "ture</w>": 8761,
    "tured</w>": 8762,
    "tures</w>": 8763,
    "turn": 8764,
    "turn</w>": 8765,
    "turnber": 8766,
    "turnberry</w>": 8767,
    "turned</w>": 8768,
    "turning</w>": 8769,
    "turns</w>": 8770,
    "tus,</w>": 8771,
    "tus</w>": 8772,
    "tv": 8773,
    "tv</w>": 8774,
    "tw": 8775,
    "twa": 8776,
    "twe": 8777,
    "twee": 8778,
    "tweet</w>": 8779,
    "tweets</w>": 8780,
    "twel": 8781,
    "twelve</w>": 8782,
    "twent": 8783,
    "twenty</w>": 8784,
    "twi": 8785,
    "twice</w>": 8786,
    "twitter</w>": 8787,
    "two": 8788,
    "two,</w>": 8789,
    "two</w>": 8790,
    "tx": 8791,
    "ty": 8792,
    "ty,</w>": 8793,
    "ty.</w>": 8794,
    "ty</w>": 8795,
    "tybal": 8796,
    "tyr": 8797,
    "tz": 8798,
    "t\u2019s</w>": 8799,
    "u": 8800,
    "u.": 8801,
    "u.s.": 8802,
    "u.s.</w>": 8803,
    "u</w>": 8804,
    "ual</w>": 8805,
    "uc": 8806,
    "ud": 8807,
    "ue</w>": 8808,
    "uel</w>": 8809,
    "ug": 8810,
    "ugh": 8811,
    "ught</w>": 8812,
    "ugly</w>": 8813,
    "uk": 8814,
    "ukra": 8815,
    "ul": 8816,
    "ul</w>": 8817,
    "ular</w>": 8818,
    "uly": 8819,
    "ulysses.</w>": 8820,
    "um": 8821,
    "um,</w>": 8822,
    "um.</w>": 8823,
    "um</w>": 8824,
    "umer": 8825,
    "ump": 8826,
    "ump</w>": 8827,
    "ums</w>": 8828,
    "un": 8829,
    "un,</w>": 8830,
    "un</w>": 8831,
    "unable</w>": 8832,
    "unc": 8833,
    "uncle": 8834,
    "uncle,</w>": 8835,
    "uncle</w>": 8836,
    "unclean</w>": 8837,
    "und": 8838,
    "under": 8839,
    "under</w>": 8840,
    "understand": 8841,
    "understand</w>": 8842,
    "understanding</w>": 8843,
    "understood</w>": 8844,
    "unemployment</w>": 8845,
    "unfair</w>": 8846,
    "unfortun": 8847,
    "ung</w>": 8848,
    "unhappy</w>": 8849,
    "uni": 8850,
    "union</w>": 8851,
    "united</w>": 8852,
    "univers": 8853,
    "universe</w>": 8854,
    "unknown</w>": 8855,
    "unless</w>": 8856,
    "unlike</w>": 8857,
    "unt</w>": 8858,
    "unti": 8859,
    "until</w>": 8860,
    "unto</w>": 8861,
    "up": 8862,
    "up!</w>": 8863,
    "up,</w>": 8864,
    "up.</w>": 8865,
    "up;</w>": 8866,
    "up</w>": 8867,
    "upon</w>": 8868,
    "upper</w>": 8869,
    "upright</w>": 8870,
    "ur": 8871,
    "ur,</w>": 8872,
    "ur</w>": 8873,
    "ure": 8874,
    "ure,</w>": 8875,
    "ure.</w>": 8876,
    "ure</w>": 8877,
    "ured</w>": 8878,
    "ures</w>": 8879,
    "uri": 8880,
    "ury</w>": 8881,
    "us": 8882,
    "us!</w>": 8883,
    "us,</w>": 8884,
    "us.</w>": 8885,
    "us._]</w>": 8886,
    "us:</w>": 8887,
    "us;</w>": 8888,
    "us</w>": 8889,
    "us?</w>": 8890,
    "usa": 8891,
    "usa!</w>": 8892,
    "usa</w>": 8893,
    "usal": 8894,
    "use": 8895,
    "use.</w>": 8896,
    "use</w>": 8897,
    "used</w>": 8898,
    "using</w>": 8899,
    "usu": 8900,
    "usual</w>": 8901,
    "usur": 8902,
    "us\u2019</w>": 8903,
    "ut": 8904,
    "ute</w>": 8905,
    "uten": 8906,
    "utmost</w>": 8907,
    "utter": 8908,
    "utter</w>": 8909,
    "utterly</w>": 8910,
    "utterson</w>": 8911,
    "v": 8912,
    "v.</w>": 8913,
    "v</w>": 8914,
    "va": 8915,
    "vac": 8916,
    "vacc": 8917,
    "vain": 8918,
    "vain</w>": 8919,
    "val": 8920,
    "val</w>": 8921,
    "valent": 8922,
    "valentine.</w>": 8923,
    "vali": 8924,
    "valiant</w>": 8925,
    "valley</w>": 8926,
    "valu": 8927,
    "value</w>": 8928,
    "van": 8929,
    "vap": 8930,
    "var": 8931,
    "vari": 8932,
    "various</w>": 8933,
    "vast</w>": 8934,
    "ve": 8935,
    "ve!</w>": 8936,
    "ve,</w>": 8937,
    "ve-": 8938,
    "ve.</w>": 8939,
    "ve:</w>": 8940,
    "ve;</w>": 8941,
    "ve</w>": 8942,
    "ve?</w>": 8943,
    "ved,</w>": 8944,
    "ved.</w>": 8945,
    "ved</w>": 8946,
    "vegas</w>": 8947,
    "vel": 8948,
    "vel</w>": 8949,
    "velo": 8950,
    "vely</w>": 8951,
    "ven": 8952,
    "ven</w>": 8953,
    "venge": 8954,
    "vengeance</w>": 8955,
    "vent": 8956,
    "ver": 8957,
    "ver,</w>": 8958,
    "ver.</w>": 8959,
    "ver</w>": 8960,
    "verily</w>": 8961,
    "vers": 8962,
    "vers</w>": 8963,
    "verse</w>": 8964,
    "very</w>": 8965,
    "ves": 8966,
    "ves,</w>": 8967,
    "ves.</w>": 8968,
    "ves;</w>": 8969,
    "ves</w>": 8970,
    "vessel": 8971,
    "vessel</w>": 8972,
    "vessels</w>": 8973,
    "vest</w>": 8974,
    "veter": 8975,
    "veterans</w>": 8976,
    "veth</w>": 8977,
    "vets,</w>": 8978,
    "vets</w>": 8979,
    "vex": 8980,
    "vi": 8981,
    "vi.</w>": 8982,
    "via.</w>": 8983,
    "via</w>": 8984,
    "vic": 8985,
    "vice</w>": 8986,
    "victim": 8987,
    "victor": 8988,
    "victory</w>": 8989,
    "vide": 8990,
    "video</w>": 8991,
    "vie": 8992,
    "view": 8993,
    "view</w>": 8994,
    "views</w>": 8995,
    "vile</w>": 8996,
    "vill": 8997,
    "villain": 8998,
    "villain,</w>": 8999,
    "villain</w>": 9000,
    "ville</w>": 9001,
    "vin": 9002,
    "vinc": 9003,
    "vince</w>": 9004,
    "viney": 9005,
    "ving</w>": 9006,
    "vio": 9007,
    "viol": 9008,
    "viola.</w>": 9009,
    "violence</w>": 9010,
    "violent</w>": 9011,
    "vious</w>": 9012,
    "viously</w>": 9013,
    "vir": 9014,
    "virg": 9015,
    "virgini": 9016,
    "virginia</w>": 9017,
    "virtu": 9018,
    "virtue</w>": 9019,
    "virtuous</w>": 9020,
    "vis": 9021,
    "visi": 9022,
    "visible</w>": 9023,
    "vision</w>": 9024,
    "visit": 9025,
    "visit</w>": 9026,
    "visited</w>": 9027,
    "vit": 9028,
    "vius.</w>": 9029,
    "vo": 9030,
    "voc": 9031,
    "voic": 9032,
    "voice,</w>": 9033,
    "voice.</w>": 9034,
    "voice</w>": 9035,
    "vol": 9036,
    "voli": 9037,
    "volio.</w>": 9038,
    "volum": 9039,
    "volumni": 9040,
    "volun": 9041,
    "volunte": 9042,
    "vot": 9043,
    "vote": 9044,
    "vote!</w>": 9045,
    "vote</w>": 9046,
    "voted</w>": 9047,
    "voter</w>": 9048,
    "voters</w>": 9049,
    "votes</w>": 9050,
    "voting</w>": 9051,
    "vou": 9052,
    "vow</w>": 9053,
    "voy": 9054,
    "voyage,</w>": 9055,
    "voyage</w>": 9056,
    "vp": 9057,
    "vp</w>": 9058,
    "vu": 9059,
    "vul": 9060,
    "vy</w>": 9061,
    "v\u2019d</w>": 9062,
    "w": 9063,
    "w,</w>": 9064,
    "w.": 9065,
    "w.</w>": 9066,
    "w/": 9067,
    "w/</w>": 9068,
    "w;</w>": 9069,
    "w</w>": 9070,
    "wa": 9071,
    "wag": 9072,
    "wai": 9073,
    "wait": 9074,
    "wait</w>": 9075,
    "waited</w>": 9076,
    "waiting</w>": 9077,
    "wake</w>": 9078,
    "wal": 9079,
    "walk</w>": 9080,
    "walked</w>": 9081,
    "walking</w>": 9082,
    "wall": 9083,
    "wall,</w>": 9084,
    "wall.</w>": 9085,
    "wall</w>": 9086,
    "walls</w>": 9087,
    "wan": 9088,
    "wand": 9089,
    "want": 9090,
    "want</w>": 9091,
    "wanted</w>": 9092,
    "wanting</w>": 9093,
    "wants</w>": 9094,
    "war": 9095,
    "war,</w>": 9096,
    "war.</w>": 9097,
    "war</w>": 9098,
    "ward": 9099,
    "ward,</w>": 9100,
    "ward.</w>": 9101,
    "ward</w>": 9102,
    "wards,</w>": 9103,
    "wards</w>": 9104,
    "ware</w>": 9105,
    "warm": 9106,
    "warm</w>": 9107,
    "warming</w>": 9108,
    "warr": 9109,
    "warrant</w>": 9110,
    "warri": 9111,
    "wars</w>": 9112,
    "warwi": 9113,
    "warwick": 9114,
    "warwick,</w>": 9115,
    "warwick.</w>": 9116,
    "warwick</w>": 9117,
    "was": 9118,
    "was,</w>": 9119,
    "was.</w>": 9120,
    "was</w>": 9121,
    "was]</w>": 9122,
    "wash": 9123,
    "wash</w>": 9124,
    "washed</w>": 9125,
    "washing": 9126,
    "washington": 9127,
    "washington,</w>": 9128,
    "washington</w>": 9129,
    "wasn\u2019t</w>": 9130,
    "wast": 9131,
    "wast</w>": 9132,
    "waste</w>": 9133,
    "wat": 9134,
    "watch": 9135,
    "watch,</w>": 9136,
    "watch.</w>": 9137,
    "watch</w>": 9138,
    "watched</w>": 9139,
    "watching</w>": 9140,
    "water": 9141,
    "water,</w>": 9142,
    "water.</w>": 9143,
    "water</w>": 9144,
    "waters,</w>": 9145,
    "waters</w>": 9146,
    "waves</w>": 9147,
    "way": 9148,
    "way!</w>": 9149,
    "way,</w>": 9150,
    "way.</w>": 9151,
    "way;</w>": 9152,
    "way</w>": 9153,
    "ways,</w>": 9154,
    "ways</w>": 9155,
    "we": 9156,
    "we,</w>": 9157,
    "we</w>": 9158,
    "wea": 9159,
    "weak": 9160,
    "weak</w>": 9161,
    "weal": 9162,
    "wealth</w>": 9163,
    "weap": 9164,
    "weapons</w>": 9165,
    "wear": 9166,
    "wear</w>": 9167,
    "weary</w>": 9168,
    "weather</w>": 9169,
    "webs": 9170,
    "website</w>": 9171,
    "wed</w>": 9172,
    "wee": 9173,
    "week": 9174,
    "week</w>": 9175,
    "weeks</w>": 9176,
    "weep": 9177,
    "weep</w>": 9178,
    "weeping</w>": 9179,
    "wei": 9180,
    "weight</w>": 9181,
    "wel": 9182,
    "welcome,</w>": 9183,
    "welcome.</w>": 9184,
    "welcome</w>": 9185,
    "well": 9186,
    "well!</w>": 9187,
    "well,</w>": 9188,
    "well-": 9189,
    "well.</w>": 9190,
    "well;</w>": 9191,
    "well</w>": 9192,
    "wen": 9193,
    "went</w>": 9194,
    "wept</w>": 9195,
    "wer": 9196,
    "wer</w>": 9197,
    "were,</w>": 9198,
    "were</w>": 9199,
    "were]</w>": 9200,
    "wert</w>": 9201,
    "west": 9202,
    "west,</w>": 9203,
    "west</w>": 9204,
    "westmor": 9205,
    "westmorel": 9206,
    "we\u2019ll</w>": 9207,
    "wh": 9208,
    "whal": 9209,
    "whale": 9210,
    "whale,</w>": 9211,
    "whale-": 9212,
    "whale.</w>": 9213,
    "whale;</w>": 9214,
    "whale</w>": 9215,
    "whalem": 9216,
    "whalemen</w>": 9217,
    "whales,</w>": 9218,
    "whales</w>": 9219,
    "whale\u2019s</w>": 9220,
    "whaling</w>": 9221,
    "what": 9222,
    "what!</w>": 9223,
    "what's</w>": 9224,
    "what,</w>": 9225,
    "what</w>": 9226,
    "what?</w>": 9227,
    "whatever</w>": 9228,
    "whatsoever</w>": 9229,
    "what\u2019s</w>": 9230,
    "whe": 9231,
    "wheel": 9232,
    "whel": 9233,
    "when": 9234,
    "when,</w>": 9235,
    "when</w>": 9236,
    "whence</w>": 9237,
    "whenever</w>": 9238,
    "where": 9239,
    "where,</w>": 9240,
    "where</w>": 9241,
    "wherefore</w>": 9242,
    "wherein</w>": 9243,
    "whereof</w>": 9244,
    "wherewith</w>": 9245,
    "where\u2019s</w>": 9246,
    "whether</w>": 9247,
    "whi": 9248,
    "which,</w>": 9249,
    "which</w>": 9250,
    "which]</w>": 9251,
    "whil": 9252,
    "while,</w>": 9253,
    "while.</w>": 9254,
    "while</w>": 9255,
    "whiles</w>": 9256,
    "whilst</w>": 9257,
    "whir": 9258,
    "whisper": 9259,
    "whist": 9260,
    "whistle": 9261,
    "whistleblow": 9262,
    "white": 9263,
    "white</w>": 9264,
    "whither</w>": 9265,
    "who": 9266,
    "who,</w>": 9267,
    "who</w>": 9268,
    "whole</w>": 9269,
    "wholly</w>": 9270,
    "whom</w>": 9271,
    "whor": 9272,
    "whose</w>": 9273,
    "whosoever</w>": 9274,
    "who\u2019s</w>": 9275,
    "why,</w>": 9276,
    "why</w>": 9277,
    "wi": 9278,
    "wick": 9279,
    "wicke": 9280,
    "wicked</w>": 9281,
    "wickham</w>": 9282,
    "wid": 9283,
    "wide</w>": 9284,
    "widow</w>": 9285,
    "wif": 9286,
    "wife": 9287,
    "wife,</w>": 9288,
    "wife.</w>": 9289,
    "wife</w>": 9290,
    "wil": 9291,
    "wild": 9292,
    "wild</w>": 9293,
    "wildern": 9294,
    "wilderness,</w>": 9295,
    "wilderness</w>": 9296,
    "will": 9297,
    "will,</w>": 9298,
    "will.</w>": 9299,
    "will</w>": 9300,
    "willi": 9301,
    "william": 9302,
    "william</w>": 9303,
    "willing</w>": 9304,
    "wilt</w>": 9305,
    "win": 9306,
    "win!</w>": 9307,
    "win,</w>": 9308,
    "win.</w>": 9309,
    "win</w>": 9310,
    "wind": 9311,
    "wind,</w>": 9312,
    "wind</w>": 9313,
    "window</w>": 9314,
    "windows</w>": 9315,
    "winds</w>": 9316,
    "wine,</w>": 9317,
    "wine</w>": 9318,
    "wing</w>": 9319,
    "wings</w>": 9320,
    "winner": 9321,
    "winning</w>": 9322,
    "wins</w>": 9323,
    "winter</w>": 9324,
    "wis": 9325,
    "wiscon": 9326,
    "wisconsin</w>": 9327,
    "wisdom": 9328,
    "wisdom,</w>": 9329,
    "wisdom</w>": 9330,
    "wise,</w>": 9331,
    "wise</w>": 9332,
    "wish</w>": 9333,
    "wishe": 9334,
    "wished</w>": 9335,
    "wishes</w>": 9336,
    "wit": 9337,
    "wit</w>": 9338,
    "witch</w>": 9339,
    "with": 9340,
    "with,</w>": 9341,
    "with.</w>": 9342,
    "with</w>": 9343,
    "with]</w>": 9344,
    "within": 9345,
    "within._]</w>": 9346,
    "within</w>": 9347,
    "withou": 9348,
    "without</w>": 9349,
    "witness": 9350,
    "witness</w>": 9351,
    "wives</w>": 9352,
    "wixt</w>": 9353,
    "wn": 9354,
    "wn</w>": 9355,
    "wo": 9356,
    "woe</w>": 9357,
    "wol": 9358,
    "wom": 9359,
    "woman": 9360,
    "woman,</w>": 9361,
    "woman.</w>": 9362,
    "woman</w>": 9363,
    "woman\u2019s</w>": 9364,
    "women": 9365,
    "women,</w>": 9366,
    "women</w>": 9367,
    "won": 9368,
    "won't</w>": 9369,
    "won</w>": 9370,
    "wonder": 9371,
    "wonder</w>": 9372,
    "wonderful</w>": 9373,
    "wondr": 9374,
    "wondrous</w>": 9375,
    "wont</w>": 9376,
    "won\u2019t</w>": 9377,
    "woo": 9378,
    "wood": 9379,
    "wood,</w>": 9380,
    "wood</w>": 9381,
    "wooden</w>": 9382,
    "wor": 9383,
    "word": 9384,
    "word,</w>": 9385,
    "word.</w>": 9386,
    "word</w>": 9387,
    "words,</w>": 9388,
    "words.</w>": 9389,
    "words</w>": 9390,
    "wore</w>": 9391,
    "work": 9392,
    "work!</w>": 9393,
    "work,</w>": 9394,
    "work.</w>": 9395,
    "work</w>": 9396,
    "worked</w>": 9397,
    "workers</w>": 9398,
    "working</w>": 9399,
    "works,</w>": 9400,
    "works.</w>": 9401,
    "works</w>": 9402,
    "world": 9403,
    "world!</w>": 9404,
    "world,</w>": 9405,
    "world.</w>": 9406,
    "world</w>": 9407,
    "world\u2019s</w>": 9408,
    "worn</w>": 9409,
    "worse.</w>": 9410,
    "worse</w>": 9411,
    "worship</w>": 9412,
    "worst</w>": 9413,
    "worth": 9414,
    "worth</w>": 9415,
    "worthy</w>": 9416,
    "wou": 9417,
    "would": 9418,
    "would</w>": 9419,
    "wouldn\u2019t</w>": 9420,
    "wouldst</w>": 9421,
    "woun": 9422,
    "wound</w>": 9423,
    "wounded</w>": 9424,
    "wow": 9425,
    "wow!</w>": 9426,
    "wow,</w>": 9427,
    "wr": 9428,
    "wra": 9429,
    "wrath</w>": 9430,
    "wre": 9431,
    "wrest": 9432,
    "wret": 9433,
    "wretche": 9434,
    "wretched</w>": 9435,
    "wrink": 9436,
    "writ": 9437,
    "writ</w>": 9438,
    "write</w>": 9439,
    "writing</w>": 9440,
    "written,</w>": 9441,
    "written</w>": 9442,
    "wro": 9443,
[...]
