{
  "vocab_size": 2048,
  "vocab": {
    "!": 0,
    "!\"</w>": 1,
    "!</w>": 2,
    "!\u201d</w>": 3,
    "\"": 4,
    "\"\"": 5,
    "\"\"\"": 6,
    "\"\"\"</w>": 7,
    "\"\"\"@": 8,
    "\"\"</w>": 9,
    "\"</w>": 10,
    "#": 11,
    "$": 12,
    "%": 13,
    "&": 14,
    "&amp": 15,
    "&amp,</w>": 16,
    "'": 17,
    "'s</w>": 18,
    "'t</w>": 19,
    "(": 20,
    ")": 21,
    "),</w>": 22,
    ")</w>": 23,
    "*": 24,
    "+": 25,
    ",": 26,
    ",</w>": 27,
    ",\u2014": 28,
    ",\u201d</w>": 29,
    "-": 30,
    "--": 31,
    "-</w>": 32,
    ".": 33,
    ".\"</w>": 34,
    "..": 35,
    "...": 36,
    "...</w>": 37,
    ".</w>": 38,
    "._]</w>": 39,
    ".\u2019</w>": 40,
    ".\u201d</w>": 41,
    "/": 42,
    "0": 43,
    "00": 44,
    "0</w>": 45,
    "1": 46,
    "1.": 47,
    "10": 48,
    "11": 49,
    "1</w>": 50,
    "2": 51,
    "20": 52,
    "201": 53,
    "2</w>": 54,
    "3": 55,
    "3</w>": 56,
    "4": 57,
    "4</w>": 58,
    "5": 59,
    "5</w>": 60,
    "6": 61,
    "6</w>": 62,
    "7": 63,
    "7</w>": 64,
    "8": 65,
    "8</w>": 66,
    "9": 67,
    "9</w>": 68,
    ":": 69,
    ":/": 70,
    "://": 71,
    "://t.": 72,
    "://t.co": 73,
    "://t.co/": 74,
    ":1": 75,
    ":2": 76,
    ":3": 77,
    ":</w>": 78,
    ";": 79,
    ";</w>": 80,
    "<": 81,
    "</w>": 82,
    "=": 83,
    ">": 84,
    "?": 85,
    "?</w>": 86,
    "?\u201d</w>": 87,
    "@": 88,
    "@real": 89,
    "@realdonald": 90,
    "@realdonaldtrump</w>": 91,
    "[": 92,
    "[_": 93,
    "[_ex": 94,
    "[is]</w>": 95,
    "]": 96,
    "]</w>": 97,
    "_": 98,
    "_</w>": 99,
    "_]</w>": 100,
    "`": 101,
    "a": 102,
    "a,</w>": 103,
    "a.</w>": 104,
    "a</w>": 105,
    "ab": 106,
    "able</w>": 107,
    "abo": 108,
    "about</w>": 109,
    "ac": 110,
    "acc": 111,
    "accor": 112,
    "ace</w>": 113,
    "ach</w>": 114,
    "ack": 115,
    "ack</w>": 116,
    "acqu": 117,
    "act</w>": 118,
    "ad": 119,
    "ad</w>": 120,
    "adv": 121,
    "af": 122,
    "aff": 123,
    "affec": 124,
    "after": 125,
    "after</w>": 126,
    "ag": 127,
    "again": 128,
    "again,</w>": 129,
    "again.</w>": 130,
    "again</w>": 131,
    "against</w>": 132,
    "age,</w>": 133,
    "age</w>": 134,
    "agre": 135,
    "ah,</w>": 136,
    "ah</w>": 137,
    "ai": 138,
    "aid</w>": 139,
    "ain": 140,
    "ain</w>": 141,
    "air": 142,
    "air</w>": 143,
    "al": 144,
    "al,</w>": 145,
    "al.</w>": 146,
    "al</w>": 147,
    "ali": 148,
    "all": 149,
    "all,</w>": 150,
    "all</w>": 151,
    "ally</w>": 152,
    "almost</w>": 153,
    "already</w>": 154,
    "als</w>": 155,
    "also</w>": 156,
    "always</w>": 157,
    "am": 158,
    "am,</w>": 159,
    "am</w>": 160,
    "ame</w>": 161,
    "americ": 162,
    "among</w>": 163,
    "amp": 164,
    "an": 165,
    "an,</w>": 166,
    "an.</w>": 167,
    "an</w>": 168,
    "anc": 169,
    "ance,</w>": 170,
    "ance</w>": 171,
    "and": 172,
    "and,</w>": 173,
    "and</w>": 174,
    "ang": 175,
    "ange": 176,
    "ani": 177,
    "ann": 178,
    "another</w>": 179,
    "ans": 180,
    "ans</w>": 181,
    "answer": 182,
    "answered</w>": 183,
    "ant": 184,
    "ant</w>": 185,
    "anti": 186,
    "ants</w>": 187,
    "any": 188,
    "any</w>": 189,
    "anything</w>": 190,
    "ap": 191,
    "app": 192,
    "appe": 193,
    "appro": 194,
    "ar": 195,
    "ar,</w>": 196,
    "ar</w>": 197,
    "ard</w>": 198,
    "are": 199,
    "are</w>": 200,
    "ared</w>": 201,
    "ari": 202,
    "aring</w>": 203,
    "arm": 204,
    "arri": 205,
    "ars</w>": 206,
    "art": 207,
    "art</w>": 208,
    "ary</w>": 209,
    "as": 210,
    "as</w>": 211,
    "ask</w>": 212,
    "asked</w>": 213,
    "assi": 214,
    "ast": 215,
    "ast</w>": 216,
    "at": 217,
    "at,</w>": 218,
    "at</w>": 219,
    "ate,</w>": 220,
    "ate</w>": 221,
    "ated</w>": 222,
    "ately</w>": 223,
    "ath": 224,
    "ati": 225,
    "ating</w>": 226,
    "ation": 227,
    "ation,</w>": 228,
    "ation.</w>": 229,
    "ation</w>": 230,
    "ations</w>": 231,
    "ats</w>": 232,
    "att": 233,
    "atten": 234,
    "au": 235,
    "av": 236,
    "aw": 237,
    "awa": 238,
    "away</w>": 239,
    "az": 240,
    "b": 241,
    "b</w>": 242,
    "ba": 243,
    "bab": 244,
    "bac": 245,
    "back</w>": 246,
    "bad</w>": 247,
    "ban": 248,
    "bar": 249,
    "bas": 250,
    "be": 251,
    "be</w>": 252,
    "bear</w>": 253,
    "beau": 254,
    "because</w>": 255,
    "become</w>": 256,
    "bed</w>": 257,
    "been</w>": 258,
    "before</w>": 259,
    "beg": 260,
    "began</w>": 261,
    "behin": 262,
    "being</w>": 263,
    "beli": 264,
    "belie": 265,
    "believe</w>": 266,
    "ben": 267,
    "ber": 268,
    "ber</w>": 269,
    "bes": 270,
    "best</w>": 271,
    "better</w>": 272,
    "betwe": 273,
    "between</w>": 274,
    "bi": 275,
    "big</w>": 276,
    "bir": 277,
    "bit": 278,
    "bl": 279,
    "ble": 280,
    "ble</w>": 281,
    "bloo": 282,
    "bly</w>": 283,
    "bo": 284,
    "body</w>": 285,
    "bon": 286,
    "boo": 287,
    "book</w>": 288,
    "bor": 289,
    "both</w>": 290,
    "bow": 291,
    "br": 292,
    "bra": 293,
    "bre": 294,
    "brea": 295,
    "bri": 296,
    "bring</w>": 297,
    "bro": 298,
    "brought</w>": 299,
    "bs</w>": 300,
    "bu": 301,
    "bur": 302,
    "busin": 303,
    "but,</w>": 304,
    "but</w>": 305,
    "by</w>": 306,
    "c": 307,
    "c</w>": 308,
    "ca": 309,
    "cal": 310,
    "cal</w>": 311,
    "call": 312,
    "call</w>": 313,
    "called</w>": 314,
    "came</w>": 315,
    "can": 316,
    "can</w>": 317,
    "cannot</w>": 318,
    "cap": 319,
    "car": 320,
    "cas": 321,
    "cau": 322,
    "cause</w>": 323,
    "ce": 324,
    "ce,</w>": 325,
    "ce.</w>": 326,
    "ce</w>": 327,
    "cei": 328,
    "cep": 329,
    "cer": 330,
    "certain": 331,
    "certain</w>": 332,
    "cess": 333,
    "ch": 334,
    "ch,</w>": 335,
    "ch.</w>": 336,
    "ch</w>": 337,
    "cha": 338,
    "cham": 339,
    "chang": 340,
    "chap": 341,
    "chapter</w>": 342,
    "char": 343,
    "charac": 344,
    "che": 345,
    "ched</w>": 346,
    "chi": 347,
    "child": 348,
    "childr": 349,
    "children</w>": 350,
    "chin": 351,
    "ching</w>": 352,
    "cho": 353,
    "chri": 354,
    "chur": 355,
    "ci": 356,
    "cir": 357,
    "circ": 358,
    "ck": 359,
    "ck,</w>": 360,
    "ck.</w>": 361,
    "ck</w>": 362,
    "cke": 363,
    "cked</w>": 364,
    "cl": 365,
    "clai": 366,
    "cle": 367,
    "clo": 368,
    "clu": 369,
    "co": 370,
    "co/": 371,
    "coll": 372,
    "com": 373,
    "come,</w>": 374,
    "come</w>": 375,
    "comes</w>": 376,
    "comfor": 377,
    "coming</w>": 378,
    "comm": 379,
    "comman": 380,
    "comp": 381,
    "compani": 382,
    "comple": 383,
    "con": 384,
    "concer": 385,
    "conf": 386,
    "consci": 387,
    "consi": 388,
    "consider": 389,
    "const": 390,
    "cont": 391,
    "contin": 392,
    "continu": 393,
    "cop": 394,
    "cor": 395,
    "cou": 396,
    "could</w>": 397,
    "coun": 398,
    "count</w>": 399,
    "countr": 400,
    "country</w>": 401,
    "cour": 402,
    "course</w>": 403,
    "cover": 404,
    "covered</w>": 405,
    "cr": 406,
    "cre": 407,
    "cri": 408,
    "cried</w>": 409,
    "cro": 410,
    "crow": 411,
    "ct": 412,
    "ct</w>": 413,
    "cted</w>": 414,
    "cu": 415,
    "cur": 416,
    "cy</w>": 417,
    "d": 418,
    "d!</w>": 419,
    "d,</w>": 420,
    "d.</w>": 421,
    "d:</w>": 422,
    "d;</w>": 423,
    "d</w>": 424,
    "d?</w>": 425,
    "da": 426,
    "dam": 427,
    "dang": 428,
    "dar": 429,
    "daugh": 430,
    "day": 431,
    "day,</w>": 432,
    "day.</w>": 433,
    "day</w>": 434,
    "days</w>": 435,
    "dd": 436,
    "de": 437,
    "de</w>": 438,
    "dea": 439,
    "dear</w>": 440,
    "death</w>": 441,
    "ded,</w>": 442,
    "ded</w>": 443,
    "def": 444,
    "deli": 445,
    "demo": 446,
    "den": 447,
    "der": 448,
    "der</w>": 449,
    "dered</w>": 450,
    "des": 451,
    "des</w>": 452,
    "dg": 453,
    "dge</w>": 454,
    "di": 455,
    "did": 456,
    "did</w>": 457,
    "didn\u2019t</w>": 458,
    "diff": 459,
    "differ": 460,
    "din": 461,
    "ding</w>": 462,
    "dis": 463,
    "disa": 464,
    "disc": 465,
    "disp": 466,
    "dist": 467,
    "dly</w>": 468,
    "do": 469,
    "do</w>": 470,
    "doc": 471,
    "does</w>": 472,
    "doing</w>": 473,
    "dom": 474,
    "don": 475,
    "don</w>": 476,
    "donal": 477,
    "donald": 478,
    "done</w>": 479,
    "don\u2019t</w>": 480,
    "door</w>": 481,
    "dor": 482,
    "doth</w>": 483,
    "dou": 484,
    "doub": 485,
    "dow": 486,
    "down</w>": 487,
    "dr": 488,
    "dra": 489,
    "draw": 490,
    "dre": 491,
    "dred</w>": 492,
    "dres": 493,
    "dri": 494,
    "dro": 495,
    "ds,</w>": 496,
    "ds</w>": 497,
    "du": 498,
    "duc": 499,
    "dur": 500,
    "during</w>": 501,
    "dy</w>": 502,
    "d\u2019": 503,
    "e": 504,
    "e!</w>": 505,
    "e,</w>": 506,
    "e-": 507,
    "e.</w>": 508,
    "e:</w>": 509,
    "e;</w>": 510,
    "e</w>": 511,
    "e?</w>": 512,
    "each</w>": 513,
    "ear": 514,
    "eas": 515,
    "ec": 516,
    "ed": 517,
    "ed,</w>": 518,
    "ed.</w>": 519,
    "ed</w>": 520,
    "ef": 521,
    "ef</w>": 522,
    "eg": 523,
    "ei": 524,
    "either</w>": 525,
    "el": 526,
    "el</w>": 527,
    "ele": 528,
    "elec": 529,
    "eli": 530,
    "ely</w>": 531,
    "em": 532,
    "ement</w>": 533,
    "emi": 534,
    "emp": 535,
    "en": 536,
    "en,</w>": 537,
    "en.</w>": 538,
    "en</w>": 539,
    "enc": 540,
    "ence": 541,
    "ence,</w>": 542,
    "ence.</w>": 543,
    "ence</w>": 544,
    "end": 545,
    "end</w>": 546,
    "ened</w>": 547,
    "eng": 548,
    "enjo": 549,
    "enly</w>": 550,
    "enou": 551,
    "enough</w>": 552,
    "ent": 553,
    "ent,</w>": 554,
    "ent.</w>": 555,
    "ent</w>": 556,
    "enter</w>": 557,
    "enti": 558,
    "ently</w>": 559,
    "ents</w>": 560,
    "enty</w>": 561,
    "ep": 562,
    "ep</w>": 563,
    "er": 564,
    "er,</w>": 565,
    "er.</w>": 566,
    "er</w>": 567,
    "ered</w>": 568,
    "eric": 569,
    "ering</w>": 570,
    "ers,</w>": 571,
    "ers</w>": 572,
    "es": 573,
    "es,</w>": 574,
    "es.</w>": 575,
    "es;</w>": 576,
    "es</w>": 577,
    "ess": 578,
    "ess,</w>": 579,
    "ess.</w>": 580,
    "ess</w>": 581,
    "est": 582,
    "est</w>": 583,
    "et": 584,
    "et</w>": 585,
    "eth</w>": 586,
    "eu": 587,
    "ev": 588,
    "even": 589,
    "even</w>": 590,
    "ever": 591,
    "ever,</w>": 592,
    "ever</w>": 593,
    "every": 594,
    "every</w>": 595,
    "everything</w>": 596,
    "ex": 597,
    "exc": 598,
    "exce": 599,
    "expe": 600,
    "expres": 601,
    "ey": 602,
    "eyes</w>": 603,
    "f": 604,
    "f</w>": 605,
    "fa": 606,
    "fac": 607,
    "face</w>": 608,
    "fai": 609,
    "fair": 610,
    "fair</w>": 611,
    "fal": 612,
    "fall": 613,
    "fam": 614,
    "far</w>": 615,
    "father": 616,
    "father</w>": 617,
    "fav": 618,
    "fe": 619,
    "fear</w>": 620,
    "fec": 621,
    "fect</w>": 622,
    "feel": 623,
    "feel</w>": 624,
    "fell</w>": 625,
    "fellow": 626,
    "felt</w>": 627,
    "fer": 628,
    "few</w>": 629,
    "ff": 630,
    "fi": 631,
    "fic": 632,
    "fied</w>": 633,
    "fin": 634,
    "find</w>": 635,
    "fir": 636,
    "first</w>": 637,
    "five</w>": 638,
    "fl": 639,
    "fle": 640,
    "flu": 641,
    "fo": 642,
    "follow": 643,
    "foo": 644,
    "for": 645,
    "for</w>": 646,
    "fore": 647,
    "fore,</w>": 648,
    "fore</w>": 649,
    "form": 650,
    "form</w>": 651,
    "forth</w>": 652,
    "fortun": 653,
    "foun": 654,
    "found": 655,
    "found</w>": 656,
    "four</w>": 657,
    "fox": 658,
    "fr": 659,
    "fran": 660,
    "fre": 661,
    "fri": 662,
    "frien": 663,
    "friend": 664,
    "friend</w>": 665,
    "friends</w>": 666,
    "from</w>": 667,
    "ft</w>": 668,
    "fu": 669,
    "ful": 670,
    "ful</w>": 671,
    "full</w>": 672,
    "fully</w>": 673,
    "fur": 674,
    "g": 675,
    "g</w>": 676,
    "ga": 677,
    "gar": 678,
    "gave</w>": 679,
    "ge": 680,
    "ge</w>": 681,
    "ged</w>": 682,
    "gen": 683,
    "gener": 684,
    "gent": 685,
    "gentle": 686,
    "ger": 687,
    "get</w>": 688,
    "gg": 689,
    "gh": 690,
    "gh</w>": 691,
    "ght": 692,
    "ght,</w>": 693,
    "ght.</w>": 694,
    "ght</w>": 695,
    "ghts</w>": 696,
    "gi": 697,
    "gir": 698,
    "give</w>": 699,
    "given</w>": 700,
    "gl": 701,
    "gla": 702,
    "gn": 703,
    "go": 704,
    "go</w>": 705,
    "god,</w>": 706,
    "god</w>": 707,
    "going</w>": 708,
    "gone</w>": 709,
    "good": 710,
    "good</w>": 711,
    "got</w>": 712,
    "gover": 713,
    "gr": 714,
    "gra": 715,
    "grac": 716,
    "grat": 717,
    "gre": 718,
    "great": 719,
    "great</w>": 720,
    "gri": 721,
    "gu": 722,
    "guten": 723,
    "gutenber": 724,
    "gutenberg": 725,
    "gutenberg\u2122": 726,
    "gutenberg\u2122</w>": 727,
    "h": 728,
    "h,</w>": 729,
    "h</w>": 730,
    "ha": 731,
    "had</w>": 732,
    "hal": 733,
    "half</w>": 734,
    "ham": 735,
    "han": 736,
    "hand": 737,
    "hand,</w>": 738,
    "hand</w>": 739,
    "hands</w>": 740,
    "happ": 741,
    "happy</w>": 742,
    "har": 743,
    "hard</w>": 744,
    "has</w>": 745,
    "hast": 746,
    "hast</w>": 747,
    "hath</w>": 748,
    "have</w>": 749,
    "having</w>": 750,
    "he": 751,
    "he,</w>": 752,
    "he</w>": 753,
    "hea": 754,
    "head": 755,
    "head</w>": 756,
    "hear": 757,
    "hear</w>": 758,
    "heard</w>": 759,
    "heart</w>": 760,
    "heav": 761,
    "hed</w>": 762,
    "hel": 763,
    "held</w>": 764,
    "help</w>": 765,
    "hen": 766,
    "her": 767,
    "her,</w>": 768,
    "her.</w>": 769,
    "her</w>": 770,
    "here": 771,
    "here,</w>": 772,
    "here</w>": 773,
    "herself</w>": 774,
    "he\u2019s</w>": 775,
    "hi": 776,
    "high": 777,
    "high</w>": 778,
    "hill": 779,
    "him": 780,
    "him,</w>": 781,
    "him.</w>": 782,
    "him</w>": 783,
    "himself</w>": 784,
    "hin": 785,
    "his</w>": 786,
    "ho": 787,
    "hold</w>": 788,
    "hom": 789,
    "home</w>": 790,
    "hon": 791,
    "hop": 792,
    "hope</w>": 793,
    "hor": 794,
    "hou": 795,
    "hour": 796,
    "house,</w>": 797,
    "house</w>": 798,
    "how": 799,
    "how</w>": 800,
    "however,</w>": 801,
    "http": 802,
    "http://t.co/": 803,
    "https": 804,
    "https://t.co/": 805,
    "hu": 806,
    "hum": 807,
    "hun": 808,
    "hundred</w>": 809,
    "hur": 810,
    "hus": 811,
    "husb": 812,
    "i": 813,
    "i'": 814,
    "i,</w>": 815,
    "i.</w>": 816,
    "i</w>": 817,
    "ic": 818,
    "ic</w>": 819,
    "ice,</w>": 820,
    "ice</w>": 821,
    "ici": 822,
    "ick": 823,
    "id": 824,
    "ide": 825,
    "ide</w>": 826,
    "if</w>": 827,
    "ig": 828,
    "ign": 829,
    "ii.</w>": 830,
    "il": 831,
    "il</w>": 832,
    "ili": 833,
    "ill": 834,
    "ily</w>": 835,
    "im": 836,
    "imag": 837,
    "immedi": 838,
    "in": 839,
    "in,</w>": 840,
    "in.</w>": 841,
    "in</w>": 842,
    "inc": 843,
    "inde": 844,
    "indeed,</w>": 845,
    "indeed</w>": 846,
    "indi": 847,
    "ine</w>": 848,
    "ined</w>": 849,
    "ing": 850,
    "ing,</w>": 851,
    "ing-": 852,
    "ing.</w>": 853,
    "ing</w>": 854,
    "ings</w>": 855,
    "ini": 856,
    "ins</w>": 857,
    "inst": 858,
    "inten": 859,
    "inter": 860,
    "into</w>": 861,
    "ious</w>": 862,
    "ir": 863,
    "ir</w>": 864,
    "ire</w>": 865,
    "is": 866,
    "is,</w>": 867,
    "is</w>": 868,
    "is]</w>": 869,
    "ise</w>": 870,
    "ised</w>": 871,
    "ish": 872,
    "ish</w>": 873,
    "ished</w>": 874,
    "isra": 875,
    "it": 876,
    "it,</w>": 877,
    "it.</w>": 878,
    "it;</w>": 879,
    "it</w>": 880,
    "ite</w>": 881,
    "ited</w>": 882,
    "its</w>": 883,
    "itu": 884,
    "ity,</w>": 885,
    "ity.</w>": 886,
    "ity</w>": 887,
    "it\u2019s</w>": 888,
    "iv": 889,
    "i\u2019": 890,
    "i\u2019ll</w>": 891,
    "j": 892,
    "je": 893,
    "jec": 894,
    "ject</w>": 895,
    "jer": 896,
    "jo": 897,
    "job</w>": 898,
    "joh": 899,
    "john</w>": 900,
    "jon": 901,
    "ju": 902,
    "judg": 903,
    "just": 904,
    "just</w>": 905,
    "k": 906,
    "k,</w>": 907,
    "k.</w>": 908,
    "k</w>": 909,
    "ke": 910,
    "ke,</w>": 911,
    "ke.</w>": 912,
    "ke</w>": 913,
    "ked</w>": 914,
    "keep</w>": 915,
    "ken</w>": 916,
    "kes</w>": 917,
    "ki": 918,
    "kin": 919,
    "kind</w>": 920,
    "king": 921,
    "king,</w>": 922,
    "king.</w>": 923,
    "king</w>": 924,
    "kings</w>": 925,
    "knew</w>": 926,
    "know": 927,
    "know</w>": 928,
    "known</w>": 929,
    "ks,</w>": 930,
    "ks</w>": 931,
    "l": 932,
    "l,</w>": 933,
    "l.</w>": 934,
    "l</w>": 935,
    "la": 936,
    "lad": 937,
    "lady</w>": 938,
    "lan": 939,
    "land": 940,
    "land</w>": 941,
    "lar": 942,
    "lar</w>": 943,
    "last</w>": 944,
    "lat": 945,
    "lau": 946,
    "laugh": 947,
    "law": 948,
    "law</w>": 949,
    "lay</w>": 950,
    "ld": 951,
    "ld,</w>": 952,
    "ld.</w>": 953,
    "ld</w>": 954,
    "le": 955,
    "le,</w>": 956,
    "le.</w>": 957,
    "le</w>": 958,
    "lea": 959,
    "lead": 960,
    "lear": 961,
    "least</w>": 962,
    "leav": 963,
    "leave</w>": 964,
    "lec": 965,
    "led</w>": 966,
    "left</w>": 967,
    "leg": 968,
    "les</w>": 969,
    "less</w>": 970,
    "let</w>": 971,
    "lett": 972,
    "li": 973,
    "lic": 974,
    "lie": 975,
    "lied</w>": 976,
    "lif": 977,
    "life": 978,
    "life</w>": 979,
    "light": 980,
    "light</w>": 981,
    "like": 982,
    "like</w>": 983,
    "lim": 984,
    "lin": 985,
    "ling</w>": 986,
    "lish</w>": 987,
    "list": 988,
    "litt": 989,
    "little</w>": 990,
    "live</w>": 991,
    "ll": 992,
    "ll,</w>": 993,
    "ll</w>": 994,
    "lled</w>": 995,
    "lli": 996,
    "lling</w>": 997,
    "llow": 998,
    "llow</w>": 999,
    "lly</w>": 1000,
    "lo": 1001,
    "lon": 1002,
    "long": 1003,
    "long</w>": 1004,
    "loo": 1005,
    "look</w>": 1006,
    "looked</w>": 1007,
    "looking</w>": 1008,
    "lor": 1009,
    "lord,</w>": 1010,
    "lord.</w>": 1011,
    "lord</w>": 1012,
    "lost</w>": 1013,
    "lou": 1014,
    "love": 1015,
    "love</w>": 1016,
    "low": 1017,
    "low</w>": 1018,
    "ls</w>": 1019,
    "lt</w>": 1020,
    "lu": 1021,
    "ly": 1022,
    "ly,</w>": 1023,
    "ly.</w>": 1024,
    "ly</w>": 1025,
    "m": 1026,
    "m,</w>": 1027,
    "m.</w>": 1028,
    "m</w>": 1029,
    "ma": 1030,
    "mac": 1031,
    "mad": 1032,
    "made</w>": 1033,
    "mag": 1034,
    "make</w>": 1035,
    "making</w>": 1036,
    "man": 1037,
    "man,</w>": 1038,
    "man.</w>": 1039,
    "man</w>": 1040,
    "many</w>": 1041,
    "mar": 1042,
    "mark</w>": 1043,
    "master</w>": 1044,
    "mat": 1045,
    "may</w>": 1046,
    "me": 1047,
    "me,</w>": 1048,
    "me.</w>": 1049,
    "me;</w>": 1050,
    "me</w>": 1051,
    "mean": 1052,
    "means</w>": 1053,
    "med</w>": 1054,
    "medi": 1055,
    "meet</w>": 1056,
    "mem": 1057,
    "men": 1058,
    "men,</w>": 1059,
    "men</w>": 1060,
    "ment": 1061,
    "ment,</w>": 1062,
    "ment</w>": 1063,
    "ments</w>": 1064,
    "mer": 1065,
    "mes": 1066,
    "mi": 1067,
    "mid": 1068,
    "might</w>": 1069,
    "min": 1070,
    "mind</w>": 1071,
    "mine</w>": 1072,
    "mini": 1073,
    "mir": 1074,
    "mis": 1075,
    "miss</w>": 1076,
    "mistre": 1077,
    "mit": 1078,
    "mo": 1079,
    "mom": 1080,
    "moment</w>": 1081,
    "mon": 1082,
    "mone": 1083,
    "money</w>": 1084,
    "mor": 1085,
    "more</w>": 1086,
    "morn": 1087,
    "most</w>": 1088,
    "mother": 1089,
    "mother</w>": 1090,
    "mou": 1091,
    "moun": 1092,
    "mp": 1093,
    "mr": 1094,
    "mr.</w>": 1095,
    "mr</w>": 1096,
    "mrs.</w>": 1097,
    "ms</w>": 1098,
    "mu": 1099,
    "much</w>": 1100,
    "mur": 1101,
    "must</w>": 1102,
    "my": 1103,
    "my</w>": 1104,
    "myself</w>": 1105,
    "n": 1106,
    "n,</w>": 1107,
    "n.</w>": 1108,
    "n</w>": 1109,
    "na": 1110,
    "nam": 1111,
    "name</w>": 1112,
    "nat": 1113,
    "natur": 1114,
    "ne": 1115,
    "ned</w>": 1116,
    "need</w>": 1117,
    "nei": 1118,
    "neither</w>": 1119,
    "ner": 1120,
    "ner</w>": 1121,
    "ness,</w>": 1122,
    "ness</w>": 1123,
    "never</w>": 1124,
    "new": 1125,
    "new</w>": 1126,
    "news</w>": 1127,
    "next</w>": 1128,
    "ni": 1129,
    "night": 1130,
    "night,</w>": 1131,
    "night</w>": 1132,
    "ning</w>": 1133,
    "no": 1134,
    "no,</w>": 1135,
    "no</w>": 1136,
    "nor": 1137,
    "nor</w>": 1138,
    "not": 1139,
    "not,</w>": 1140,
    "not</w>": 1141,
    "nothing</w>": 1142,
    "now": 1143,
    "now,</w>": 1144,
    "now</w>": 1145,
    "ns</w>": 1146,
    "num": 1147,
    "number": 1148,
    "n\u2019t</w>": 1149,
    "o": 1150,
    "o,</w>": 1151,
    "o.</w>": 1152,
    "o</w>": 1153,
    "ob": 1154,
    "obam": 1155,
    "obser": 1156,
    "oc": 1157,
    "occas": 1158,
    "occasi": 1159,
    "od": 1160,
    "od,</w>": 1161,
    "od</w>": 1162,
    "of": 1163,
    "of</w>": 1164,
    "off": 1165,
    "off</w>": 1166,
    "offic": 1167,
    "often</w>": 1168,
    "oh,</w>": 1169,
    "ol": 1170,
    "old</w>": 1171,
    "om": 1172,
    "om</w>": 1173,
    "on": 1174,
    "on,</w>": 1175,
    "on.</w>": 1176,
    "on</w>": 1177,
    "once</w>": 1178,
    "ond</w>": 1179,
    "one": 1180,
    "one,</w>": 1181,
    "one.</w>": 1182,
    "one</w>": 1183,
    "ong": 1184,
    "ong</w>": 1185,
    "only</w>": 1186,
    "ons</w>": 1187,
    "op": 1188,
    "open</w>": 1189,
    "or": 1190,
    "or,</w>": 1191,
    "or</w>": 1192,
    "order</w>": 1193,
    "ose</w>": 1194,
    "other": 1195,
    "other</w>": 1196,
    "ou": 1197,
    "ought</w>": 1198,
    "ould": 1199,
    "ould</w>": 1200,
    "oun": 1201,
    "ound</w>": 1202,
    "our": 1203,
    "our</w>": 1204,
    "ous": 1205,
    "ous</w>": 1206,
    "ously</w>": 1207,
    "out": 1208,
    "out,</w>": 1209,
    "out</w>": 1210,
    "ov": 1211,
    "over": 1212,
    "over</w>": 1213,
    "ow": 1214,
    "ow</w>": 1215,
    "owed</w>": 1216,
    "own</w>": 1217,
    "o\u2019": 1218,
    "p": 1219,
    "p</w>": 1220,
    "pa": 1221,
    "pain": 1222,
    "pal": 1223,
    "par": 1224,
    "part</w>": 1225,
    "parti": 1226,
    "particu": 1227,
    "pas": 1228,
    "passed</w>": 1229,
    "pat": 1230,
    "pati": 1231,
    "pe": 1232,
    "pe</w>": 1233,
    "pen": 1234,
    "peop": 1235,
    "people</w>": 1236,
    "per": 1237,
    "perha": 1238,
    "perhaps</w>": 1239,
    "peri": 1240,
    "person": 1241,
    "person</w>": 1242,
    "ph": 1243,
    "phi": 1244,
    "pi": 1245,
    "pic": 1246,
    "pl": 1247,
    "pla": 1248,
    "plac": 1249,
    "place</w>": 1250,
    "ple": 1251,
    "pleas": 1252,
    "please</w>": 1253,
    "po": 1254,
    "poin": 1255,
    "poli": 1256,
    "poor</w>": 1257,
    "por": 1258,
    "port": 1259,
    "pos": 1260,
    "pose</w>": 1261,
    "posed</w>": 1262,
    "posi": 1263,
    "possi": 1264,
    "pow": 1265,
    "power</w>": 1266,
    "pp": 1267,
    "pped</w>": 1268,
    "pr": 1269,
    "pra": 1270,
    "pray</w>": 1271,
    "pre": 1272,
    "pres": 1273,
    "present": 1274,
    "present</w>": 1275,
    "presid": 1276,
    "president</w>": 1277,
    "pri": 1278,
    "prin": 1279,
    "pro": 1280,
    "prof": 1281,
    "project</w>": 1282,
    "prom": 1283,
    "prop": 1284,
    "prote": 1285,
    "provi": 1286,
    "ps</w>": 1287,
    "psal": 1288,
    "psalm</w>": 1289,
    "pt</w>": 1290,
    "pu": 1291,
    "pub": 1292,
    "publi": 1293,
    "pur": 1294,
    "put</w>": 1295,
    "q": 1296,
    "qu": 1297,
    "que": 1298,
    "questi": 1299,
    "qui": 1300,
    "quite</w>": 1301,
    "r": 1302,
    "r</w>": 1303,
    "ra": 1304,
    "rai": 1305,
    "ran": 1306,
    "ras": 1307,
    "rather</w>": 1308,
    "re": 1309,
    "re,</w>": 1310,
    "re.</w>": 1311,
    "re</w>": 1312,
    "read": 1313,
    "read</w>": 1314,
    "ready</w>": 1315,
    "real": 1316,
    "really</w>": 1317,
    "reas": 1318,
    "reason</w>": 1319,
    "rec": 1320,
    "recei": 1321,
    "received</w>": 1322,
    "red</w>": 1323,
    "ref": 1324,
    "rel": 1325,
    "rely</w>": 1326,
    "rema": 1327,
    "remem": 1328,
    "remember</w>": 1329,
    "ren": 1330,
    "rep": 1331,
    "replied</w>": 1332,
    "res</w>": 1333,
    "respe": 1334,
    "rest</w>": 1335,
    "retur": 1336,
    "return</w>": 1337,
    "ri": 1338,
    "ried</w>": 1339,
    "right</w>": 1340,
    "ro": 1341,
    "rom": 1342,
    "ron": 1343,
    "room": 1344,
    "room</w>": 1345,
    "rou": 1346,
    "round</w>": 1347,
    "row": 1348,
    "row</w>": 1349,
    "rown</w>": 1350,
    "ru": 1351,
    "run": 1352,
    "run</w>": 1353,
    "rup": 1354,
    "rus": 1355,
    "ry</w>": 1356,
    "s": 1357,
    "s!</w>": 1358,
    "s,</w>": 1359,
    "s.</w>": 1360,
    "s.\u201d</w>": 1361,
    "s://t.co/": 1362,
    "s:</w>": 1363,
    "s;</w>": 1364,
    "s</w>": 1365,
    "s?</w>": 1366,
    "sa": 1367,
    "sac": 1368,
    "sai": 1369,
    "said,</w>": 1370,
    "said</w>": 1371,
    "sal": 1372,
    "sam": 1373,
    "same</w>": 1374,
    "sat": 1375,
    "sat</w>": 1376,
    "satis": 1377,
    "saw</w>": 1378,
    "say": 1379,
    "say,</w>": 1380,
    "say</w>": 1381,
    "sc": 1382,
    "scar": 1383,
    "scen": 1384,
    "scene</w>": 1385,
    "sci": 1386,
    "se": 1387,
    "se,</w>": 1388,
    "se.</w>": 1389,
    "se</w>": 1390,
    "secon": 1391,
    "second</w>": 1392,
    "secre": 1393,
    "sed,</w>": 1394,
    "sed</w>": 1395,
    "see": 1396,
    "see</w>": 1397,
    "seem": 1398,
    "seemed</w>": 1399,
    "seen</w>": 1400,
    "sel": 1401,
    "self": 1402,
    "self,</w>": 1403,
    "self.</w>": 1404,
    "self</w>": 1405,
    "sen": 1406,
    "sent</w>": 1407,
    "ser": 1408,
    "serv": 1409,
    "ses": 1410,
    "ses</w>": 1411,
    "set</w>": 1412,
    "sever": 1413,
    "sh": 1414,
    "sh</w>": 1415,
    "sha": 1416,
    "shall</w>": 1417,
    "shalt</w>": 1418,
    "she": 1419,
    "she</w>": 1420,
    "shed</w>": 1421,
    "shi": 1422,
    "ship": 1423,
    "ship</w>": 1424,
    "sho": 1425,
    "shor": 1426,
    "should</w>": 1427,
    "show</w>": 1428,
    "shu": 1429,
    "si": 1430,
    "sid": 1431,
    "side</w>": 1432,
    "sig": 1433,
    "sil": 1434,
    "sin": 1435,
    "since</w>": 1436,
    "sing": 1437,
    "sing</w>": 1438,
    "sion": 1439,
    "sion</w>": 1440,
    "sir": 1441,
    "sir,</w>": 1442,
    "sir</w>": 1443,
    "sit": 1444,
    "sk": 1445,
    "sle": 1446,
    "sleep": 1447,
    "sma": 1448,
    "small</w>": 1449,
    "smi": 1450,
    "so": 1451,
    "so,</w>": 1452,
    "so</w>": 1453,
    "soci": 1454,
    "sof": 1455,
    "sol": 1456,
    "solu": 1457,
    "som": 1458,
    "some": 1459,
    "some</w>": 1460,
    "something</w>": 1461,
    "son": 1462,
    "son,</w>": 1463,
    "son</w>": 1464,
    "soon</w>": 1465,
    "sor": 1466,
    "sou": 1467,
    "sp": 1468,
    "spe": 1469,
    "spea": 1470,
    "speak</w>": 1471,
    "sper": 1472,
    "spi": 1473,
    "spir": 1474,
    "spo": 1475,
    "ss": 1476,
    "ss</w>": 1477,
    "st": 1478,
    "st,</w>": 1479,
    "st.</w>": 1480,
    "st</w>": 1481,
    "sta": 1482,
    "stand": 1483,
    "stand</w>": 1484,
    "standing</w>": 1485,
    "star": 1486,
    "stat": 1487,
    "state</w>": 1488,
    "ste": 1489,
    "sted</w>": 1490,
    "ster": 1491,
    "ster,</w>": 1492,
    "ster</w>": 1493,
    "sti": 1494,
    "still</w>": 1495,
    "sting</w>": 1496,
    "sto": 1497,
    "stood</w>": 1498,
    "stor": 1499,
    "str": 1500,
    "stra": 1501,
    "strang": 1502,
    "strange</w>": 1503,
    "stre": 1504,
    "stri": 1505,
    "stro": 1506,
    "strong</w>": 1507,
    "stru": 1508,
    "sts</w>": 1509,
    "stu": 1510,
    "su": 1511,
    "sub": 1512,
    "suc": 1513,
    "such</w>": 1514,
    "sudd": 1515,
    "suff": 1516,
    "sum": 1517,
    "sun": 1518,
    "sup": 1519,
    "supp": 1520,
    "sur": 1521,
    "sure</w>": 1522,
    "sus": 1523,
    "swe": 1524,
    "sweet</w>": 1525,
    "swor": 1526,
    "sy": 1527,
    "s\u2014": 1528,
    "t": 1529,
    "t,</w>": 1530,
    "t.": 1531,
    "t.</w>": 1532,
    "t.co": 1533,
    "t;</w>": 1534,
    "t</w>": 1535,
    "ta": 1536,
    "tab": 1537,
    "tain": 1538,
    "tain</w>": 1539,
    "take</w>": 1540,
    "taken</w>": 1541,
    "tal": 1542,
    "te": 1543,
    "te</w>": 1544,
    "ted,</w>": 1545,
    "ted</w>": 1546,
    "tell</w>": 1547,
    "tem": 1548,
    "temp": 1549,
    "ten": 1550,
    "ten</w>": 1551,
    "tenber": 1552,
    "ter": 1553,
    "ter,</w>": 1554,
    "ter</w>": 1555,
    "terri": 1556,
    "ters</w>": 1557,
    "th": 1558,
    "th,</w>": 1559,
    "th.</w>": 1560,
    "th</w>": 1561,
    "than": 1562,
    "than</w>": 1563,
    "thank</w>": 1564,
    "that": 1565,
    "that,</w>": 1566,
    "that</w>": 1567,
    "that\u2019s</w>": 1568,
    "the": 1569,
    "the</w>": 1570,
    "thee,</w>": 1571,
    "thee</w>": 1572,
    "their</w>": 1573,
    "them": 1574,
    "them,</w>": 1575,
    "them.</w>": 1576,
    "them</w>": 1577,
    "themsel": 1578,
    "then": 1579,
    "then,</w>": 1580,
    "then</w>": 1581,
    "ther": 1582,
    "ther,</w>": 1583,
    "ther</w>": 1584,
    "there": 1585,
    "there,</w>": 1586,
    "there</w>": 1587,
    "therefore</w>": 1588,
    "there\u2019s</w>": 1589,
    "thes": 1590,
    "these</w>": 1591,
    "they</w>": 1592,
    "thi": 1593,
    "thin": 1594,
    "thing": 1595,
    "thing,</w>": 1596,
    "thing</w>": 1597,
    "things</w>": 1598,
    "think</w>": 1599,
    "thir": 1600,
    "this": 1601,
    "this,</w>": 1602,
    "this</w>": 1603,
    "thor": 1604,
    "those</w>": 1605,
    "thou": 1606,
    "thou</w>": 1607,
    "though</w>": 1608,
    "thought</w>": 1609,
    "thous": 1610,
    "thousand</w>": 1611,
    "thre": 1612,
    "three</w>": 1613,
    "throu": 1614,
    "through</w>": 1615,
    "thus</w>": 1616,
    "thy</w>": 1617,
    "th\u2019</w>": 1618,
    "ti": 1619,
    "tic": 1620,
    "ties</w>": 1621,
    "till</w>": 1622,
    "tim": 1623,
    "time,</w>": 1624,
    "time</w>": 1625,
    "times</w>": 1626,
    "ting</w>": 1627,
    "tion": 1628,
    "tion,</w>": 1629,
    "tion.</w>": 1630,
    "tion</w>": 1631,
    "tions</w>": 1632,
    "tis</w>": 1633,
    "tive</w>": 1634,
    "tly</w>": 1635,
    "to": 1636,
    "to</w>": 1637,
    "toge": 1638,
    "together</w>": 1639,
    "told</w>": 1640,
    "ton": 1641,
    "ton</w>": 1642,
    "tongu": 1643,
    "too": 1644,
    "too</w>": 1645,
    "took</w>": 1646,
    "tor": 1647,
    "tor</w>": 1648,
    "tou": 1649,
    "tow": 1650,
    "towards</w>": 1651,
    "tr": 1652,
    "tra": 1653,
    "tre": 1654,
    "tri": 1655,
    "tro": 1656,
    "trou": 1657,
    "tru": 1658,
    "true</w>": 1659,
    "trum": 1660,
    "trump": 1661,
    "trump</w>": 1662,
    "ts,</w>": 1663,
    "ts</w>": 1664,
    "tt": 1665,
    "tter": 1666,
    "tter</w>": 1667,
    "tting</w>": 1668,
    "ttp": 1669,
    "tu": 1670,
    "tun": 1671,
    "tur": 1672,
    "ture</w>": 1673,
    "turn</w>": 1674,
    "turned</w>": 1675,
    "tw": 1676,
    "twe": 1677,
    "two</w>": 1678,
    "ty": 1679,
    "ty,</w>": 1680,
    "ty</w>": 1681,
    "u": 1682,
    "ugh": 1683,
    "ul": 1684,
    "um": 1685,
    "un": 1686,
    "unc": 1687,
    "under": 1688,
    "under</w>": 1689,
    "united</w>": 1690,
    "unt</w>": 1691,
    "unti": 1692,
    "until</w>": 1693,
    "unto</w>": 1694,
    "up": 1695,
    "up,</w>": 1696,
    "up</w>": 1697,
    "upon</w>": 1698,
    "ur": 1699,
    "ure": 1700,
    "ure</w>": 1701,
    "us": 1702,
    "us,</w>": 1703,
    "us.</w>": 1704,
    "us</w>": 1705,
    "use</w>": 1706,
    "used</w>": 1707,
    "ut": 1708,
    "v": 1709,
    "val": 1710,
    "ve": 1711,
    "ve,</w>": 1712,
    "ve.</w>": 1713,
    "ve</w>": 1714,
    "ved</w>": 1715,
    "ven": 1716,
    "ven</w>": 1717,
    "ver": 1718,
    "ver</w>": 1719,
    "vers": 1720,
    "very</w>": 1721,
    "ves,</w>": 1722,
    "ves</w>": 1723,
    "vi": 1724,
    "vic": 1725,
    "vie": 1726,
    "vill": 1727,
    "ving</w>": 1728,
    "vir": 1729,
    "visi": 1730,
    "vo": 1731,
    "voice</w>": 1732,
    "vol": 1733,
    "w": 1734,
    "w</w>": 1735,
    "wa": 1736,
    "wal": 1737,
    "wall": 1738,
    "wan": 1739,
    "want</w>": 1740,
    "war": 1741,
    "ward</w>": 1742,
    "wards</w>": 1743,
    "was": 1744,
    "was</w>": 1745,
    "wat": 1746,
    "way</w>": 1747,
    "ways</w>": 1748,
    "we": 1749,
    "we</w>": 1750,
    "wea": 1751,
    "wee": 1752,
    "wel": 1753,
    "well": 1754,
    "well,</w>": 1755,
    "well</w>": 1756,
    "went</w>": 1757,
    "wer": 1758,
    "wer</w>": 1759,
    "were</w>": 1760,
    "wh": 1761,
    "wha": 1762,
    "what": 1763,
    "what</w>": 1764,
    "whe": 1765,
    "when</w>": 1766,
    "where": 1767,
    "where</w>": 1768,
    "whether</w>": 1769,
    "whi": 1770,
    "which</w>": 1771,
    "while</w>": 1772,
    "white</w>": 1773,
    "who": 1774,
    "who</w>": 1775,
    "whole</w>": 1776,
    "whom</w>": 1777,
    "whose</w>": 1778,
    "why,</w>": 1779,
    "why</w>": 1780,
    "wi": 1781,
    "wif": 1782,
    "wil": 1783,
    "will": 1784,
    "will</w>": 1785,
    "win": 1786,
    "wise</w>": 1787,
    "wish</w>": 1788,
    "wit": 1789,
    "with": 1790,
    "with</w>": 1791,
    "within</w>": 1792,
    "withou": 1793,
    "without</w>": 1794,
    "wo": 1795,
    "wom": 1796,
    "woman</w>": 1797,
    "won": 1798,
    "wonder": 1799,
    "wor": 1800,
    "word</w>": 1801,
    "words</w>": 1802,
    "work</w>": 1803,
    "works</w>": 1804,
    "world</w>": 1805,
    "would</w>": 1806,
    "wr": 1807,
    "wre": 1808,
    "writ": 1809,
    "x": 1810,
    "x</w>": 1811,
    "xi": 1812,
    "xt</w>": 1813,
    "y": 1814,
    "y!</w>": 1815,
    "y,</w>": 1816,
    "y-": 1817,
    "y.</w>": 1818,
    "y:</w>": 1819,
    "y;</w>": 1820,
    "y</w>": 1821,
    "y?</w>": 1822,
    "ye": 1823,
    "ye</w>": 1824,
    "year": 1825,
    "years</w>": 1826,
    "yed</w>": 1827,
    "yes,</w>": 1828,
    "yet</w>": 1829,
    "ying</w>": 1830,
    "yo": 1831,
    "yor": 1832,
    "you": 1833,
    "you,</w>": 1834,
    "you.</w>": 1835,
    "you</w>": 1836,
    "youn": 1837,
    "young</w>": 1838,
    "your": 1839,
    "your</w>": 1840,
    "ys</w>": 1841,
    "y\u2019s</w>": 1842,
    "z": 1843,
    "za": 1844,
    "ze": 1845,
    "ze</w>": 1846,
    "zed</w>": 1847,
    "{": 1848,
    "|": 1849,
    "}": 1850,
    "~": 1851,
    "\u00a3": 1852,
    "\u00a7": 1853,
    "\u00ae": 1854,
    "\u00e0": 1855,
    "\u00e1": 1856,
    "\u00e2": 1857,
    "\u00e4": 1858,
    "\u00e6": 1859,
    "\u00e7": 1860,
    "\u00e8": 1861,
    "\u00e9": 1862,
    "\u00ea": 1863,
    "\u00eb": 1864,
    "\u00ec": 1865,
    "\u00ed": 1866,
    "\u00ee": 1867,
    "\u00ef": 1868,
    "\u00f0": 1869,
    "\u00f2": 1870,
    "\u00f3": 1871,
    "\u00f4": 1872,
    "\u00f6": 1873,
    "\u00f9": 1874,
    "\u00fa": 1875,
    "\u00fb": 1876,
    "\u00fc": 1877,
    "\u00fd": 1878,
    "\u00fe": 1879,
    "\u0131": 1880,
    "\u0153": 1881,
    "\u03ad": 1882,
    "\u03ae": 1883,
    "\u03af": 1884,
    "\u03b1": 1885,
    "\u03b3": 1886,
    "\u03b4": 1887,
    "\u03b5": 1888,
    "\u03b6": 1889,
    "\u03b7": 1890,
    "\u03b8": 1891,
    "\u03b9": 1892,
    "\u03ba": 1893,
    "\u03bb": 1894,
    "\u03bc": 1895,
    "\u03bd": 1896,
    "\u03bf": 1897,
    "\u03c0": 1898,
    "\u03c1": 1899,
    "\u03c2": 1900,
    "\u03c3": 1901,
    "\u03c4": 1902,
    "\u03c5": 1903,
    "\u03c6": 1904,
    "\u03c9": 1905,
    "\u03cc": 1906,
    "\u0627": 1907,
    "\u0628": 1908,
    "\u062a": 1909,
    "\u062c": 1910,
    "\u062e": 1911,
    "\u062f": 1912,
    "\u0630": 1913,
    "\u0631": 1914,
    "\u0632": 1915,
    "\u0633": 1916,
    "\u0644": 1917,
    "\u0645": 1918,
    "\u0646": 1919,
    "\u0647": 1920,
    "\u0648": 1921,
    "\u06a9": 1922,
    "\u06af": 1923,
    "\u06cc": 1924,
    "\u0901": 1925,
    "\u0902": 1926,
    "\u0905": 1927,
    "\u0906": 1928,
    "\u0909": 1929,
    "\u090f": 1930,
    "\u0914": 1931,
    "\u0915": 1932,
    "\u0917": 1933,
    "\u091c": 1934,
    "\u0924": 1935,
    "\u0927": 1936,
    "\u0928": 1937,
    "\u092c": 1938,
    "\u092f": 1939,
    "\u0930": 1940,
    "\u0932": 1941,
    "\u0935": 1942,
    "\u0936": 1943,
    "\u0939": 1944,
    "\u093e": 1945,
    "\u093f": 1946,
    "\u0940": 1947,
    "\u0941": 1948,
    "\u0947": 1949,
    "\u0948": 1950,
    "\u094b": 1951,
    "\u094d": 1952,
    "\u0964": 1953,
    "\u1f04": 1954,
    "\u1f10": 1955,
    "\u1f11": 1956,
    "\u1f21": 1957,
    "\u1f30": 1958,
    "\u1f41": 1959,
    "\u1f44": 1960,
    "\u1f70": 1961,
    "\u1f72": 1962,
    "\u1f74": 1963,
    "\u1f76": 1964,
    "\u1f78": 1965,
    "\u1fb3": 1966,
    "\u1fd6": 1967,
    "\u1fe6": 1968,
    "\u200b": 1969,
    "\u2010": 1970,
    "\u2013": 1971,
    "\u2014": 1972,
    "\u2014</w>": 1973,
    "\u2015": 1974,
    "\u2018": 1975,
    "\u2019": 1976,
    "\u2019</w>": 1977,
    "\u2019d</w>": 1978,
    "\u2019ll</w>": 1979,
    "\u2019s</w>": 1980,
    "\u2019st</w>": 1981,
    "\u2019t</w>": 1982,
    "\u2019ti": 1983,
    "\u2019tis</w>": 1984,
    "\u201c": 1985,
    "\u201cand</w>": 1986,
    "\u201cbut</w>": 1987,
    "\u201ci</w>": 1988,
    "\u201cit</w>": 1989,
    "\u201cthe</w>": 1990,
    "\u201cwhat</w>": 1991,
    "\u201cyou</w>": 1992,
    "\u201d": 1993,
    "\u201d</w>": 1994,
    "\u2020": 1995,
    "\u2022": 1996,
    "\u2026": 1997,
    "\u2032": 1998,
    "\u203c": 1999,
    "\u2122": 2000,
    "\u263a": 2001,
    "\u2661": 2002,
    "\u270a": 2003,
    "\u2764": 2004,
    "\u27a1": 2005,
    "\ufe0f": 2006,
    "\ufeff": 2007,
    "\ud83c\udde6": 2008,
    "\ud83c\udde7": 2009,
    "\ud83c\udde8": 2010,
    "\ud83c\uddec": 2011,
    "\ud83c\uddf2": 2012,
    "\ud83c\uddf4": 2013,
    "\ud83c\uddf5": 2014,
    "\ud83c\uddf8": 2015,
    "\ud83c\uddfa": 2016,
    "\ud83c\uddfd": 2017,
    "\ud83c\udf10": 2018,
    "\ud83c\udfc6": 2019,
    "\ud83c\udffb": 2020,
    "\ud83d\udc18": 2021,
    "\ud83d\udc46": 2022,
    "\ud83d\udc48": 2023,
    "\ud83d\udc49": 2024,
    "\ud83d\udc4c": 2025,
    "\ud83d\udc4d": 2026,
    "\ud83d\udc51": 2027,
    "\ud83d\udc7f": 2028,
    "\ud83d\udc81": 2029,
    "\ud83d\udc83": 2030,
    "\ud83d\udc97": 2031,
    "\ud83d\udcaa": 2032,
    "\ud83d\udcaf": 2033,
    "\ud83d\udd25": 2034,
    "\ud83d\ude01": 2035,
    "\ud83d\ude04": 2036,
    "\ud83d\ude07": 2037,
    "\ud83d\ude0a": 2038,
    "\ud83d\ude0d": 2039,
    "\ud83d\ude0e": 2040,
    "\ud83d\ude18": 2041,
    "\ud83d\ude22": 2042,
    "\ud83d\ude29": 2043,
    "\ud83d\ude2c": 2044,
    "\ud83d\ude45": 2045,
    "\ud83d\ude4c": 2046,
    "\ud83d\ude4f": 2047
  },
  "end-of-word-mark": "</w>",
  "merges": [
    [
      "e",
      "</w>",
      173210
    ],
    [
      "t",
      "h",
      140065
    ],
    [
      "h",
      "e",
      123753
    ],
    [
      "d",
      "</w>",
      102431
    ],
    [
      "t",
      "</w>",
      93897
    ],
    [
      "s",
      "</w>",
      89948
    ],
    [
      ",",
      "</w>",
      85487
    ],
    [
      "i",
      "n",
      78666
    ],
    [
      "a",
      "n",
      77300
    ],
    [
      "e",
      "r",
      65046
    ],
    [
      "th",
      "e</w>",
      54451
    ],
    [
      "r",
      "</w>",
      54109
    ],
    [
      "o",
      "u",
      53580
    ],
    [
      "y",
      "</w>",
      53185
    ],
    [
      ".",
      "</w>",
      51058
    ],
    [
      "o",
      "n",
      50318
    ],
    [
      "o",
      "</w>",
      46451
    ],
    [
      "e",
      "n",
      44370
    ],
    [
      "t",
      "o",
      39374
    ],
    [
      "r",
      "e",
      39301
    ],
    [
      "an",
      "d</w>",
      36554
    ],
    [
      "f",
      "</w>",
      35110
    ],
    [
      "o",
      "f",
      31904
    ],
    [
      "h",
      "a",
      31340
    ],
    [
      "t",
      "o</w>",
      30122
    ],
    [
      "l",
      "l",
      30004
    ],
    [
      "in",
      "g",
      29132
    ],
    [
      "o",
      "f</w>",
      28758
    ],
    [
      "a",
      "r",
      28443
    ],
    [
      "h",
      "i",
      27733
    ],
    [
      "e",
      "d</w>",
      27395
    ],
    [
      "o",
      "r",
      25049
    ],
    [
      "a",
      "</w>",
      23277
    ],
    [
      "s",
      "t",
      21987
    ],
    [
      "e",
      "s",
      21327
    ],
    [
      "a",
      "t</w>",
      21159
    ],
    [
      "ing",
      "</w>",
      21006
    ],
    [
      "in",
      "</w>",
      19773
    ],
    [
      "i",
      "</w>",
      19247
    ],
    [
      "er",
      "</w>",
      19142
    ],
    [
      "o",
      "m",
      18682
    ],
    [
      "a",
      "t",
      18560
    ],
    [
      "w",
      "i",
      18267
    ],
    [
      "t",
      "i",
      17913
    ],
    [
      "n",
      "o",
      17448
    ],
    [
      "a",
      "l",
      17116
    ],
    [
      "ll",
      "</w>",
      17017
    ],
    [
      "y",
      "ou",
      16848
    ],
    [
      "a",
      "s</w>",
      16624
    ],
    [
      "h",
      "e</w>",
      16130
    ],
    [
      "s",
      "e",
      15716
    ],
    [
      "on",
      "</w>",
      14874
    ],
    [
      "l",
      "i",
      14660
    ],
    [
      "th",
      "</w>",
      14427
    ],
    [
      "l",
      "e",
      14214
    ],
    [
      "i",
      "t",
      14112
    ],
    [
      "c",
      "h",
      13833
    ],
    [
      "i",
      "s</w>",
      13797
    ],
    [
      "o",
      "r</w>",
      13757
    ],
    [
      "b",
      "e",
      13533
    ],
    [
      "th",
      "at</w>",
      12740
    ],
    [
      "r",
      "i",
      12521
    ],
    [
      "th",
      "e",
      12194
    ],
    [
      "v",
      "e</w>",
      11670
    ],
    [
      "r",
      "o",
      11473
    ],
    [
      ";",
      "</w>",
      11409
    ],
    [
      "g",
      "h",
      11342
    ],
    [
      "a",
      "m",
      11279
    ],
    [
      "a",
      "s",
      10852
    ],
    [
      "en",
      "</w>",
      10731
    ],
    [
      "s",
      "i",
      10724
    ],
    [
      "a",
      "c",
      10679
    ],
    [
      "e",
      ",</w>",
      10154
    ],
    [
      "d",
      "e",
      10106
    ],
    [
      "an",
      "</w>",
      10099
    ],
    [
      "d",
      "i",
      9934
    ],
    [
      "hi",
      "s</w>",
      9827
    ],
    [
      "\u201d",
      "</w>",
      9765
    ],
    [
      "u",
      "n",
      9694
    ],
    [
      "b",
      "u",
      9601
    ],
    [
      "o",
      "w",
      9559
    ],
    [
      "d",
      ",</w>",
      9328
    ],
    [
      "i",
      "t</w>",
      9309
    ],
    [
      "w",
      "</w>",
      9303
    ],
    [
      "you",
      "</w>",
      9211
    ],
    [
      "wi",
      "th</w>",
      9203
    ],
    [
      "f",
      "or</w>",
      9122
    ],
    [
      "ch",
      "</w>",
      8962
    ],
    [
      "w",
      "as</w>",
      8924
    ],
    [
      "l",
      "d</w>",
      8873
    ],
    [
      "s",
      ",</w>",
      8833
    ],
    [
      "l",
      "y</w>",
      8684
    ],
    [
      "m",
      "y</w>",
      8411
    ],
    [
      "s",
      "a",
      8363
    ],
    [
      "a",
      "i",
      8251
    ],
    [
      "k",
      "</w>",
      8173
    ],
    [
      "s",
      "t</w>",
      8065
    ],
    [
      "no",
      "t</w>",
      7819
    ],
    [
      "m",
      "a",
      7794
    ],
    [
      "u",
      "s",
      7700
    ],
    [
      "n",
      "</w>",
      7687
    ],
    [
      "m",
      "</w>",
      7664
    ],
    [
      "l",
      "o",
      7651
    ],
    [
      "u",
      "r",
      7644
    ],
    [
      "l",
      "e</w>",
      7630
    ],
    [
      "e",
      "s</w>",
      7316
    ],
    [
      "v",
      "er",
      7235
    ],
    [
      "e",
      "v",
      6923
    ],
    [
      "b",
      "e</w>",
      6858
    ],
    [
      "en",
      "t",
      6838
    ],
    [
      "th",
      "er",
      6667
    ],
    [
      "p",
      "e",
      6632
    ],
    [
      "bu",
      "t</w>",
      6553
    ],
    [
      "y",
      ",</w>",
      6453
    ],
    [
      "a",
      "g",
      6377
    ],
    [
      "t",
      "r",
      6252
    ],
    [
      "f",
      "or",
      6122
    ],
    [
      "i",
      "s",
      6070
    ],
    [
      "s",
      "h",
      6065
    ],
    [
      "c",
      "on",
      6037
    ],
    [
      "c",
      "om",
      6029
    ],
    [
      "g",
      "o",
      5995
    ],
    [
      "!",
      "</w>",
      5946
    ],
    [
      "m",
      "e",
      5943
    ],
    [
      "ha",
      "d</w>",
      5936
    ],
    [
      "w",
      "hi",
      5935
    ],
    [
      "s",
      "u",
      5921
    ],
    [
      "i",
      "c",
      5914
    ],
    [
      "a",
      "b",
      5779
    ],
    [
      "ou",
      "ld</w>",
      5764
    ],
    [
      "ha",
      "ve</w>",
      5657
    ],
    [
      "l",
      "a",
      5614
    ],
    [
      "p",
      "</w>",
      5576
    ],
    [
      "p",
      "o",
      5563
    ],
    [
      "\u2019",
      "s</w>",
      5438
    ],
    [
      "n",
      "e",
      5433
    ],
    [
      "t",
      "t",
      5407
    ],
    [
      "f",
      "r",
      5388
    ],
    [
      "w",
      "e",
      5382
    ],
    [
      "om",
      "</w>",
      5376
    ],
    [
      ":",
      "</w>",
      5353
    ],
    [
      "a",
      "ll</w>",
      5333
    ],
    [
      "w",
      "h",
      5269
    ],
    [
      "he",
      "r</w>",
      5269
    ],
    [
      "k",
      "e</w>",
      5260
    ],
    [
      "w",
      "he",
      5228
    ],
    [
      "m",
      "e</w>",
      5224
    ],
    [
      "th",
      "ou",
      5203
    ],
    [
      "th",
      "is</w>",
      5193
    ],
    [
      "b",
      "y</w>",
      5063
    ],
    [
      "f",
      "e",
      5009
    ],
    [
      "i",
      "r",
      4802
    ],
    [
      "ou",
      "n",
      4802
    ],
    [
      "m",
      "o",
      4738
    ],
    [
      "s",
      "e</w>",
      4736
    ],
    [
      "l",
      "</w>",
      4692
    ],
    [
      "at",
      "i",
      4680
    ],
    [
      "d",
      ".</w>",
      4671
    ],
    [
      "en",
      "t</w>",
      4665
    ],
    [
      "c",
      "e",
      4663
    ],
    [
      "s",
      ".</w>",
      4589
    ],
    [
      "t",
      "e",
      4582
    ],
    [
      "c",
      "e</w>",
      4484
    ],
    [
      "q",
      "u",
      4441
    ],
    [
      "?",
      "</w>",
      4435
    ],
    [
      "c",
      "o",
      4426
    ],
    [
      "w",
      "ha",
      4405
    ],
    [
      "s",
      "he</w>",
      4403
    ],
    [
      "gh",
      "t</w>",
      4402
    ],
    [
      "s",
      "o</w>",
      4387
    ],
    [
      "a",
      "d",
      4373
    ],
    [
      "\"",
      "\"",
      4299
    ],
    [
      "ar",
      "e</w>",
      4260
    ],
    [
      "th",
      "er</w>",
      4251
    ],
    [
      "a",
      "ll",
      4223
    ],
    [
      "t",
      ",</w>",
      4212
    ],
    [
      "e",
      "x",
      4196
    ],
    [
      "u",
      "m",
      4179
    ],
    [
      "the",
      "y</w>",
      4166
    ],
    [
      "w",
      "or",
      4151
    ],
    [
      "whi",
      "ch</w>",
      4145
    ],
    [
      "fr",
      "om</w>",
      4128
    ],
    [
      "s",
      "ha",
      4108
    ],
    [
      "al",
      "</w>",
      4074
    ],
    [
      "on",
      "e</w>",
      4059
    ],
    [
      "t",
      "a",
      3952
    ],
    [
      "r",
      "a",
      3916
    ],
    [
      "t",
      "er",
      3854
    ],
    [
      "p",
      "er",
      3847
    ],
    [
      "wi",
      "ll</w>",
      3836
    ],
    [
      "p",
      "ro",
      3794
    ],
    [
      "p",
      "re",
      3742
    ],
    [
      "you",
      "r</w>",
      3717
    ],
    [
      "w",
      "a",
      3696
    ],
    [
      "m",
      "i",
      3687
    ],
    [
      ".",
      "\u201d</w>",
      3682
    ],
    [
      "g",
      "</w>",
      3639
    ],
    [
      "e",
      ".</w>",
      3602
    ],
    [
      "sa",
      "i",
      3594
    ],
    [
      "m",
      "an",
      3593
    ],
    [
      "w",
      "er",
      3560
    ],
    [
      "hi",
      "m",
      3550
    ],
    [
      "m",
      "u",
      3536
    ],
    [
      "s",
      "o",
      3484
    ],
    [
      "se",
      "l",
      3453
    ],
    [
      "ou",
      "r</w>",
      3448
    ],
    [
      "v",
      "i",
      3444
    ],
    [
      "d",
      "a",
      3431
    ],
    [
      "c",
      "a",
      3420
    ],
    [
      "y",
      ".</w>",
      3406
    ],
    [
      "b",
      "o",
      3388
    ],
    [
      "hi",
      "m</w>",
      3378
    ],
    [
      "ou",
      "t</w>",
      3360
    ],
    [
      "w",
      "e</w>",
      3341
    ],
    [
      "m",
      "or",
      3330
    ],
    [
      "d",
      "o",
      3301
    ],
    [
      "i",
      "f</w>",
      3279
    ],
    [
      "wha",
      "t</w>",
      3276
    ],
    [
      "g",
      "re",
      3152
    ],
    [
      "o",
      "p",
      3062
    ],
    [
      "]",
      "</w>",
      3044
    ],
    [
      "a",
      "r</w>",
      3007
    ],
    [
      "u",
      "p",
      3000
    ],
    [
      "es",
      ",</w>",
      2985
    ],
    [
      "no",
      "w</w>",
      2916
    ],
    [
      "whe",
      "n</w>",
      2911
    ],
    [
      "s",
      "om",
      2886
    ],
    [
      "i",
      "r</w>",
      2874
    ],
    [
      "he",
      "r",
      2869
    ],
    [
      "n",
      "o</w>",
      2867
    ],
    [
      "an",
      "d",
      2863
    ],
    [
      "d",
      "er",
      2853
    ],
    [
      "e",
      "t</w>",
      2847
    ],
    [
      "ver",
      "y</w>",
      2833
    ],
    [
      "p",
      "ar",
      2831
    ],
    [
      "g",
      "e",
      2823
    ],
    [
      "ow",
      "</w>",
      2817
    ],
    [
      "c",
      "i",
      2814
    ],
    [
      "d",
      "e</w>",
      2813
    ],
    [
      "ou",
      "r",
      2781
    ],
    [
      "f",
      "u",
      2775
    ],
    [
      "f",
      "o",
      2745
    ],
    [
      "wer",
      "e</w>",
      2741
    ],
    [
      "f",
      "i",
      2701
    ],
    [
      "w",
      "ould</w>",
      2664
    ],
    [
      "the",
      "ir</w>",
      2654
    ],
    [
      "t",
      "ed</w>",
      2652
    ],
    [
      "d",
      "on",
      2566
    ],
    [
      "es",
      "s</w>",
      2559
    ],
    [
      "sha",
      "ll</w>",
      2537
    ],
    [
      "a",
      "in",
      2532
    ],
    [
      ",",
      "\u201d</w>",
      2512
    ],
    [
      "t",
      "er</w>",
      2503
    ],
    [
      "l",
      "or",
      2452
    ],
    [
      "k",
      "ing</w>",
      2447
    ],
    [
      "e",
      "m",
      2446
    ],
    [
      "d",
      "o</w>",
      2444
    ],
    [
      "g",
      "i",
      2426
    ],
    [
      "s",
      "p",
      2426
    ],
    [
      "k",
      "e",
      2423
    ],
    [
      "lo",
      "o",
      2411
    ],
    [
      "a",
      "f",
      2380
    ],
    [
      "wh",
      "o</w>",
      2378
    ],
    [
      "h",
      "o",
      2370
    ],
    [
      "t",
      ".</w>",
      2342
    ],
    [
      "sai",
      "d</w>",
      2338
    ],
    [
      "on",
      ",</w>",
      2336
    ],
    [
      "s",
      "c",
      2320
    ],
    [
      "gh",
      "</w>",
      2314
    ],
    [
      "am",
      "e</w>",
      2300
    ],
    [
      "v",
      "e",
      2283
    ],
    [
      "g",
      "u",
      2257
    ],
    [
      "st",
      "r",
      2256
    ],
    [
      "ther",
      "e</w>",
      2246
    ],
    [
      "p",
      "p",
      2246
    ],
    [
      "c",
      "ha",
      2236
    ],
    [
      "ev",
      "er</w>",
      2226
    ],
    [
      "d",
      "s</w>",
      2223
    ],
    [
      "l",
      "u",
      2200
    ],
    [
      "u",
      "s</w>",
      2199
    ],
    [
      "w",
      "ar",
      2196
    ],
    [
      "t",
      "en",
      2179
    ],
    [
      "re",
      "d</w>",
      2153
    ],
    [
      "j",
      "o",
      2134
    ],
    [
      "o",
      "d</w>",
      2122
    ],
    [
      "t",
      "s</w>",
      2106
    ],
    [
      "ing",
      ",</w>",
      2096
    ],
    [
      "no",
      "w",
      2094
    ],
    [
      "m",
      "ar",
      2087
    ],
    [
      "b",
      "er",
      2079
    ],
    [
      "m",
      "in",
      2061
    ],
    [
      "f",
      "a",
      2050
    ],
    [
      "be",
      "en</w>",
      2050
    ],
    [
      "p",
      "r",
      2030
    ],
    [
      "j",
      "u",
      2028
    ],
    [
      "es",
      "t</w>",
      2017
    ],
    [
      "p",
      "l",
      2000
    ],
    [
      "mor",
      "e</w>",
      1980
    ],
    [
      "ou",
      "s</w>",
      1974
    ],
    [
      "e",
      "l",
      1960
    ],
    [
      "t",
      "ur",
      1946
    ],
    [
      "th",
      "ing</w>",
      1940
    ],
    [
      "am",
      "</w>",
      1925
    ],
    [
      "c",
      "k",
      1916
    ],
    [
      "d",
      "u",
      1913
    ],
    [
      "ow",
      "n</w>",
      1906
    ],
    [
      "thou",
      "</w>",
      1905
    ],
    [
      "p",
      "u",
      1900
    ],
    [
      "i",
      "m",
      1894
    ],
    [
      "n",
      "i",
      1886
    ],
    [
      "tr",
      "um",
      1866
    ],
    [
      "li",
      "ke</w>",
      1863
    ],
    [
      "th",
      "y</w>",
      1846
    ],
    [
      "\"",
      "</w>",
      1838
    ],
    [
      "s",
      "pe",
      1825
    ],
    [
      "g",
      "r",
      1807
    ],
    [
      "r",
      "e</w>",
      1804
    ],
    [
      "th",
      "an</w>",
      1802
    ],
    [
      "th",
      "en</w>",
      1796
    ],
    [
      "a",
      "d</w>",
      1796
    ],
    [
      "j",
      "e",
      1795
    ],
    [
      "e",
      "c",
      1792
    ],
    [
      "?",
      "\u201d</w>",
      1779
    ],
    [
      "m",
      "on",
      1772
    ],
    [
      "in",
      "to</w>",
      1763
    ],
    [
      "som",
      "e</w>",
      1761
    ],
    [
      "at",
      "e</w>",
      1752
    ],
    [
      "he",
      "ar",
      1749
    ],
    [
      "a",
      "p",
      1738
    ],
    [
      "b",
      "r",
      1736
    ],
    [
      "ati",
      "on</w>",
      1733
    ],
    [
      "\u2019",
      "t</w>",
      1733
    ],
    [
      "s",
      "er",
      1730
    ],
    [
      "u",
      "p</w>",
      1727
    ],
    [
      "c",
      "t</w>",
      1719
    ],
    [
      "ati",
      "on",
      1714
    ],
    [
      "up",
      "on</w>",
      1713
    ],
    [
      "s",
      "to",
      1710
    ],
    [
      "st",
      "i",
      1701
    ],
    [
      "o",
      "ther</w>",
      1697
    ],
    [
      "ti",
      "on</w>",
      1696
    ],
    [
      "m",
      "an</w>",
      1695
    ],
    [
      "for",
      "e</w>",
      1686
    ],
    [
      "\u2019",
      "</w>",
      1684
    ],
    [
      "l",
      "d",
      1680
    ],
    [
      "on",
      "g</w>",
      1661
    ],
    [
      "l",
      "on",
      1649
    ],
    [
      "gre",
      "at</w>",
      1639
    ],
    [
      "c",
      "he",
      1635
    ],
    [
      "an",
      "t</w>",
      1635
    ],
    [
      "e",
      "d",
      1628
    ],
    [
      "an",
      "y</w>",
      1627
    ],
    [
      "k",
      "ed</w>",
      1614
    ],
    [
      "the",
      "m</w>",
      1607
    ],
    [
      "s",
      "ed</w>",
      1582
    ],
    [
      "sel",
      "f</w>",
      1564
    ],
    [
      "sh",
      "ould</w>",
      1560
    ],
    [
      "re",
      ",</w>",
      1555
    ],
    [
      "an",
      "g",
      1552
    ],
    [
      "c",
      "oun",
      1548
    ],
    [
      "di",
      "d</w>",
      1546
    ],
    [
      "d",
      "er</w>",
      1544
    ],
    [
      "y",
      "e",
      1537
    ],
    [
      "th",
      "in",
      1533
    ],
    [
      "c",
      "ould</w>",
      1533
    ],
    [
      "h",
      "ow</w>",
      1529
    ],
    [
      "es",
      ".</w>",
      1524
    ],
    [
      "f",
      "ir",
      1521
    ],
    [
      ".",
      ".",
      1517
    ],
    [
      "b",
      "l",
      1516
    ],
    [
      "as",
      "t</w>",
      1514
    ],
    [
      "pre",
      "s",
      1513
    ],
    [
      "v",
      "o",
      1506
    ],
    [
      "mo",
      "st</w>",
      1499
    ],
    [
      "c",
      "u",
      1496
    ],
    [
      "a",
      "v",
      1496
    ],
    [
      "ti",
      "on",
      1490
    ],
    [
      "oun",
      "d</w>",
      1488
    ],
    [
      "com",
      "e</w>",
      1485
    ],
    [
      "go",
      "od</w>",
      1481
    ],
    [
      "t",
      ".",
      1479
    ],
    [
      "m",
      "r",
      1478
    ],
    [
      "ag",
      "ain",
      1477
    ],
    [
      "su",
      "ch</w>",
      1464
    ],
    [
      "ab",
      "le</w>",
      1455
    ],
    [
      "en",
      ",</w>",
      1450
    ],
    [
      "v",
      "ed</w>",
      1436
    ],
    [
      "o",
      "se</w>",
      1436
    ],
    [
      "m",
      "e,</w>",
      1434
    ],
    [
      "er",
      ",</w>",
      1423
    ],
    [
      "v",
      "er</w>",
      1423
    ],
    [
      "h",
      "</w>",
      1420
    ],
    [
      "e",
      "d,</w>",
      1418
    ],
    [
      "a",
      "u",
      1411
    ],
    [
      "t",
      "y</w>",
      1409
    ],
    [
      "-",
      "-",
      1402
    ],
    [
      "ac",
      "e</w>",
      1399
    ],
    [
      "c",
      "hi",
      1386
    ],
    [
      "the",
      "m",
      1381
    ],
    [
      "d",
      "es",
      1378
    ],
    [
      "ab",
      "out</w>",
      1377
    ],
    [
      "o",
      "b",
      1370
    ],
    [
      "c",
      "an</w>",
      1363
    ],
    [
      "c",
      "l",
      1359
    ],
    [
      "mu",
      "st</w>",
      1357
    ],
    [
      "t",
      "e</w>",
      1354
    ],
    [
      "on",
      "ly</w>",
      1352
    ],
    [
      "an",
      "c",
      1351
    ],
    [
      "b",
      "i",
      1351
    ],
    [
      "p",
      "le",
      1350
    ],
    [
      "f",
      "ri",
      1350
    ],
    [
      "t",
      "w",
      1344
    ],
    [
      "ma",
      "y</w>",
      1332
    ],
    [
      "th",
      "es",
      1331
    ],
    [
      "e",
      "y",
      1319
    ],
    [
      "us",
      "e</w>",
      1318
    ],
    [
      "f",
      "in",
      1313
    ],
    [
      "en",
      "d",
      1311
    ],
    [
      "ha",
      "s</w>",
      1306
    ],
    [
      "p",
      "ri",
      1304
    ],
    [
      "c",
      "an",
      1303
    ],
    [
      "n",
      "ever</w>",
      1292
    ],
    [
      "tt",
      "p",
      1292
    ],
    [
      ":",
      "/",
      1290
    ],
    [
      ":/",
      "/",
      1289
    ],
    [
      "h",
      "ttp",
      1288
    ],
    [
      "all",
      "y</w>",
      1283
    ],
    [
      "se",
      ",</w>",
      1282
    ],
    [
      "t",
      "u",
      1274
    ],
    [
      "ur",
      "e</w>",
      1267
    ],
    [
      "://",
      "t.",
      1264
    ],
    [
      "t.",
      "co",
      1264
    ],
    [
      "://t.",
      "co",
      1264
    ],
    [
      "co",
      "/",
      1264
    ],
    [
      "en",
      "ce</w>",
      1248
    ],
    [
      "le",
      "t</w>",
      1247
    ],
    [
      "://t.co",
      "/",
      1264
    ],
    [
      "trum",
      "p</w>",
      1245
    ],
    [
      "m",
      "is",
      1238
    ],
    [
      "be",
      "fore</w>",
      1229
    ],
    [
      "k",
      "now</w>",
      1228
    ],
    [
      "mu",
      "ch</w>",
      1225
    ],
    [
      "li",
      "tt",
      1225
    ],
    [
      "tr",
      "u",
      1224
    ],
    [
      "s",
      "in",
      1218
    ],
    [
      "y",
      "s</w>",
      1211
    ],
    [
      "of",
      "f",
      1206
    ],
    [
      "c",
      "ri",
      1205
    ],
    [
      "it",
      "y</w>",
      1204
    ],
    [
      "ma",
      "ke</w>",
      1203
    ],
    [
      "wa",
      "y</w>",
      1203
    ],
    [
      "c",
      "or",
      1202
    ],
    [
      "se",
      "e</w>",
      1197
    ],
    [
      "c",
      "re",
      1196
    ],
    [
      "whe",
      "re</w>",
      1196
    ],
    [
      "ing",
      "s</w>",
      1188
    ],
    [
      "we",
      "ll",
      1187
    ],
    [
      "ther",
      "e",
      1180
    ],
    [
      "th",
      ",</w>",
      1178
    ],
    [
      "s",
      "en",
      1174
    ],
    [
      "r",
      "y</w>",
      1170
    ],
    [
      "th",
      "at",
      1170
    ],
    [
      "ro",
      "w",
      1170
    ],
    [
      "\u2019",
      "d</w>",
      1169
    ],
    [
      "b",
      "le</w>",
      1168
    ],
    [
      "!",
      "\u201d</w>",
      1168
    ],
    [
      "thes",
      "e</w>",
      1166
    ],
    [
      "fu",
      "l</w>",
      1162
    ],
    [
      "o",
      "l",
      1159
    ],
    [
      "\"\"",
      "\"",
      1159
    ],
    [
      "k",
      "s</w>",
      1157
    ],
    [
      "p",
      "i",
      1157
    ],
    [
      "h",
      "ou",
      1155
    ],
    [
      "an",
      "t",
      1154
    ],
    [
      "st",
      "er",
      1153
    ],
    [
      "an",
      "d,</w>",
      1152
    ],
    [
      "k",
      "now",
      1147
    ],
    [
      "sel",
      "f",
      1146
    ],
    [
      "gh",
      "t",
      1145
    ],
    [
      "f",
      "l",
      1142
    ],
    [
      "af",
      "ter</w>",
      1140
    ],
    [
      ":",
      "1",
      1137
    ],
    [
      "d",
      "ed</w>",
      1129
    ],
    [
      "him",
      ",</w>",
      1128
    ],
    [
      "g",
      "e</w>",
      1117
    ],
    [
      "e",
      "p",
      1112
    ],
    [
      "g",
      "o</w>",
      1111
    ],
    [
      "ma",
      "de</w>",
      1109
    ],
    [
      "ti",
      "me</w>",
      1109
    ],
    [
      "ing",
      ".</w>",
      1101
    ],
    [
      "\u201c",
      "i</w>",
      1101
    ],
    [
      "litt",
      "le</w>",
      1092
    ],
    [
      "an",
      "ce</w>",
      1092
    ],
    [
      "don",
      "al",
      1092
    ],
    [
      "\"\"\"",
      "@",
      1091
    ],
    [
      "f",
      "f",
      1088
    ],
    [
      "k",
      ",</w>",
      1083
    ],
    [
      "s",
      "he",
      1079
    ],
    [
      "s",
      ";</w>",
      1076
    ],
    [
      "di",
      "s",
      1069
    ],
    [
      "g",
      "a",
      1069
    ],
    [
      "f",
      "ai",
      1066
    ],
    [
      "v",
      "ing</w>",
      1066
    ],
    [
      "le",
      ",</w>",
      1065
    ],
    [
      "b",
      "re",
      1062
    ],
    [
      "st",
      ",</w>",
      1057
    ],
    [
      "it",
      "s</w>",
      1055
    ],
    [
      "ha",
      "r",
      1053
    ],
    [
      "re",
      "al",
      1049
    ],
    [
      "e",
      "ver",
      1049
    ],
    [
      "er",
      "s</w>",
      1047
    ],
    [
      "un",
      "to</w>",
      1039
    ],
    [
      "d",
      "re",
      1036
    ],
    [
      "pe",
      "op",
      1036
    ],
    [
      "p",
      "as",
      1031
    ],
    [
      "it",
      ",</w>",
      1031
    ],
    [
      "s",
      "hi",
      1026
    ],
    [
      "p",
      "a",
      1024
    ],
    [
      "l",
      "t</w>",
      1023
    ],
    [
      "to",
      "r",
      1023
    ],
    [
      "c",
      "ame</w>",
      1016
    ],
    [
      "to",
      "o",
      1016
    ],
    [
      "m",
      "ent",
      1016
    ],
    [
      "b",
      "ro",
      1010
    ],
    [
      "n",
      "ed</w>",
      1010
    ],
    [
      "s",
      "on",
      1006
    ],
    [
      "r",
      "u",
      1002
    ],
    [
      "d",
      "y</w>",
      999
    ],
    [
      "qu",
      "e",
      998
    ],
    [
      "ev",
      "en</w>",
      987
    ],
    [
      "t",
      "ing</w>",
      985
    ],
    [
      "p",
      "or",
      985
    ],
    [
      "w",
      "in",
      985
    ],
    [
      "at",
      "ed</w>",
      985
    ],
    [
      "c",
      "ar",
      984
    ],
    [
      "tw",
      "o</w>",
      980
    ],
    [
      "t",
      "re",
      972
    ],
    [
      "e",
      "l</w>",
      968
    ],
    [
      "n",
      "ing</w>",
      960
    ],
    [
      "c",
      "k</w>",
      959
    ],
    [
      "r",
      "ou",
      959
    ],
    [
      "ne",
      "w</w>",
      956
    ],
    [
      "som",
      "e",
      955
    ],
    [
      "it",
      "e</w>",
      954
    ],
    [
      "o",
      "ver</w>",
      953
    ],
    [
      "thou",
      "gh</w>",
      949
    ],
    [
      "us",
      ".</w>",
      945
    ],
    [
      "y",
      "et</w>",
      944
    ],
    [
      "da",
      "y</w>",
      944
    ],
    [
      "fir",
      "st</w>",
      941
    ],
    [
      "th",
      "an",
      940
    ],
    [
      "ac",
      "k</w>",
      939
    ],
    [
      "m",
      "er",
      938
    ],
    [
      "c",
      "er",
      935
    ],
    [
      "donal",
      "d",
      926
    ],
    [
      "ta",
      "ke</w>",
      925
    ],
    [
      "gi",
      "ve</w>",
      925
    ],
    [
      "i",
      "l",
      924
    ],
    [
      "mr",
      ".</w>",
      923
    ],
    [
      "a",
      ".</w>",
      919
    ],
    [
      "o",
      "ld</w>",
      919
    ],
    [
      "a",
      ",</w>",
      913
    ],
    [
      "e",
      "very</w>",
      910
    ],
    [
      "c",
      "our",
      905
    ],
    [
      "m",
      "at",
      905
    ],
    [
      "y",
      "ing</w>",
      901
    ],
    [
      "cha",
      "r",
      891
    ],
    [
      "you",
      ",</w>",
      888
    ],
    [
      "g",
      "en",
      888
    ],
    [
      "@",
      "real",
      882
    ],
    [
      "es",
      "s",
      881
    ],
    [
      "h",
      "on",
      881
    ],
    [
      "an",
      "s",
      879
    ],
    [
      "e",
      "ar",
      878
    ],
    [
      "ic",
      "e</w>",
      878
    ],
    [
      "it",
      ".</w>",
      876
    ],
    [
      "@real",
      "donald",
      873
    ],
    [
      "we",
      "ll</w>",
      871
    ],
    [
      "en",
      "d</w>",
      869
    ],
    [
      "be",
      "ing</w>",
      868
    ],
    [
      "st",
      "e",
      866
    ],
    [
      "si",
      "r",
      864
    ],
    [
      "lor",
      "d</w>",
      863
    ],
    [
      "d",
      "own</w>",
      862
    ],
    [
      "ta",
      "in",
      861
    ],
    [
      "en",
      "g",
      859
    ],
    [
      "w",
      "at",
      859
    ],
    [
      "i",
      "\u2019",
      858
    ],
    [
      "be",
      "g",
      857
    ],
    [
      "d",
      "d",
      857
    ],
    [
      "po",
      "s",
      854
    ],
    [
      "wi",
      "thou",
      854
    ],
    [
      "t",
      "ri",
      851
    ],
    [
      "ju",
      "st</w>",
      843
    ],
    [
      "li",
      "f",
      842
    ],
    [
      "ar",
      "y</w>",
      839
    ],
    [
      "f",
      "ac",
      838
    ],
    [
      "1",
      "</w>",
      833
    ],
    [
      "thin",
      "k</w>",
      833
    ],
    [
      "sa",
      "y</w>",
      831
    ],
    [
      "ha",
      "pp",
      830
    ],
    [
      "re",
      "ad",
      827
    ],
    [
      "v",
      "es</w>",
      827
    ],
    [
      "th",
      "ose</w>",
      826
    ],
    [
      "[",
      "_",
      824
    ],
    [
      "p",
      "la",
      823
    ],
    [
      "withou",
      "t</w>",
      822
    ],
    [
      "ti",
      "c",
      821
    ],
    [
      "mi",
      "ght</w>",
      820
    ],
    [
      "http",
      "s",
      820
    ],
    [
      "s",
      "://t.co/",
      820
    ],
    [
      "man",
      "y</w>",
      817
    ],
    [
      "https",
      "://t.co/",
      819
    ],
    [
      "ha",
      "th</w>",
      815
    ],
    [
      "me",
      ".</w>",
      813
    ],
    [
      "m",
      "y",
      811
    ],
    [
      "k",
      "in",
      810
    ],
    [
      "h",
      ",</w>",
      806
    ],
    [
      "ca",
      "use</w>",
      805
    ],
    [
      "th",
      "re",
      795
    ],
    [
      "@realdonald",
      "trump</w>",
      794
    ],
    [
      "her",
      "e</w>",
      794
    ],
    [
      "l",
      "y,</w>",
      792
    ],
    [
      "st",
      "re",
      792
    ],
    [
      "g",
      "ent",
      791
    ],
    [
      "ag",
      "e</w>",
      790
    ],
    [
      "in",
      "ter",
      790
    ],
    [
      "je",
      "ct</w>",
      789
    ],
    [
      "m",
      "en</w>",
      786
    ],
    [
      "g",
      "n",
      785
    ],
    [
      "de",
      "a",
      785
    ],
    [
      "spe",
      "a",
      784
    ],
    [
      "e",
      "p</w>",
      784
    ],
    [
      "d",
      ";</w>",
      784
    ],
    [
      "am",
      "p",
      782
    ],
    [
      "sh",
      "</w>",
      781
    ],
    [
      "g",
      "et</w>",
      780
    ],
    [
      "le",
      "s</w>",
      780
    ],
    [
      "2",
      "</w>",
      778
    ],
    [
      "w",
      "r",
      775
    ],
    [
      "h",
      "and",
      773
    ],
    [
      "re",
      ".</w>",
      773
    ],
    [
      "l",
      "y",
      771
    ],
    [
      "y",
      ";</w>",
      771
    ],
    [
      "en",
      "c",
      766
    ],
    [
      "c",
      "lo",
      765
    ],
    [
      "wh",
      "o",
      763
    ],
    [
      "ser",
      "v",
      759
    ],
    [
      "h",
      "or",
      757
    ],
    [
      "l",
      "ed</w>",
      755
    ],
    [
      "ce",
      ".</w>",
      755
    ],
    [
      "n",
      "ess</w>",
      751
    ],
    [
      "ce",
      "i",
      751
    ],
    [
      "ther",
      ",</w>",
      751
    ],
    [
      "l",
      "ong</w>",
      750
    ],
    [
      "er",
      ".</w>",
      750
    ],
    [
      "tt",
      "er</w>",
      750
    ],
    [
      "you",
      "n",
      749
    ],
    [
      "i",
      "ll",
      747
    ],
    [
      "s",
      "on</w>",
      746
    ],
    [
      "d",
      "r",
      744
    ],
    [
      "ar",
      "s</w>",
      743
    ],
    [
      "si",
      "on</w>",
      742
    ],
    [
      ")",
      "</w>",
      741
    ],
    [
      "in",
      "e</w>",
      739
    ],
    [
      "again",
      "st</w>",
      737
    ],
    [
      "e",
      "f",
      736
    ],
    [
      "con",
      "t",
      735
    ],
    [
      "se",
      ".</w>",
      735
    ],
    [
      "com",
      "p",
      733
    ],
    [
      "peop",
      "le</w>",
      733
    ],
    [
      "li",
      "c",
      732
    ],
    [
      "him",
      ".</w>",
      731
    ],
    [
      "w",
      "om",
      731
    ],
    [
      "p",
      "t</w>",
      730
    ],
    [
      "ou",
      "s",
      730
    ],
    [
      "ll",
      "ow",
      727
    ],
    [
      "ca",
      "p",
      726
    ],
    [
      "e",
      ";</w>",
      723
    ],
    [
      "b",
      "ar",
      722
    ],
    [
      "lo",
      "ve</w>",
      721
    ],
    [
      "t",
      "al",
      721
    ],
    [
      "b",
      "</w>",
      720
    ],
    [
      "se",
      "em",
      720
    ],
    [
      "s",
      "al",
      719
    ],
    [
      "w",
      "ent</w>",
      717
    ],
    [
      "o",
      ".</w>",
      717
    ],
    [
      "d",
      "ing</w>",
      716
    ],
    [
      "c",
      "as",
      714
    ],
    [
      "f",
      "re",
      713
    ],
    [
      "v",
      "al",
      710
    ],
    [
      "g",
      "ar",
      708
    ],
    [
      "th",
      "rou",
      708
    ],
    [
      "m",
      "ent</w>",
      707
    ],
    [
      "n",
      ",</w>",
      703
    ],
    [
      "ta",
      "in</w>",
      700
    ],
    [
      "l",
      "ess</w>",
      699
    ],
    [
      "on",
      ".</w>",
      698
    ],
    [
      "an",
      "y",
      697
    ],
    [
      "te",
      "ll</w>",
      695
    ],
    [
      "ple",
      "as",
      693
    ],
    [
      "no",
      "r</w>",
      692
    ],
    [
      "to",
      "o</w>",
      687
    ],
    [
      "_",
      "]</w>",
      687
    ],
    [
      "s",
      "s</w>",
      686
    ],
    [
      "the",
      "e</w>",
      685
    ],
    [
      "an",
      "s</w>",
      684
    ],
    [
      "he",
      "l",
      681
    ],
    [
      "ou",
      "ght</w>",
      681
    ],
    [
      "0",
      "</w>",
      681
    ],
    [
      "st",
      "er</w>",
      681
    ],
    [
      "c",
      "r",
      680
    ],
    [
      "se",
      "s</w>",
      680
    ],
    [
      "he",
      "av",
      679
    ],
    [
      "o",
      "d",
      678
    ],
    [
      "a",
      "in</w>",
      674
    ],
    [
      "li",
      "e",
      672
    ],
    [
      "he",
      "d</w>",
      672
    ],
    [
      "k",
      ".</w>",
      668
    ],
    [
      "in",
      "c",
      665
    ],
    [
      "u",
      "l",
      664
    ],
    [
      "w",
      "as",
      663
    ],
    [
      "gh",
      "t,</w>",
      660
    ],
    [
      "ti",
      "m",
      659
    ],
    [
      "for",
      "m",
      659
    ],
    [
      "t",
      "un",
      657
    ],
    [
      "bre",
      "a",
      655
    ],
    [
      "thou",
      "ght</w>",
      654
    ],
    [
      "be",
      "cause</w>",
      651
    ],
    [
      "ic",
      "</w>",
      649
    ],
    [
      "e",
      "d.</w>",
      649
    ],
    [
      "ch",
      ",</w>",
      649
    ],
    [
      "pu",
      "t</w>",
      646
    ],
    [
      "m",
      "en",
      645
    ],
    [
      "'",
      "s</w>",
      644
    ],
    [
      "c",
      "all",
      644
    ],
    [
      "youn",
      "g</w>",
      643
    ],
    [
      "whi",
      "le</w>",
      642
    ],
    [
      "-",
      "</w>",
      641
    ],
    [
      ":",
      "2",
      639
    ],
    [
      "w",
      "on",
      634
    ],
    [
      "ten",
      "ber",
      633
    ],
    [
      "pl",
      "ac",
      633
    ],
    [
      "gu",
      "ten",
      632
    ],
    [
      "gu",
      "tenber",
      632
    ],
    [
      "no",
      "thing</w>",
      632
    ],
    [
      "sti",
      "ll</w>",
      632
    ],
    [
      "him",
      "self</w>",
      631
    ],
    [
      "loo",
      "k</w>",
      629
    ],
    [
      "in",
      "de",
      628
    ],
    [
      "un",
      "der",
      628
    ],
    [
      "_",
      "</w>",
      626
    ],
    [
      "qu",
      "i",
      624
    ],
    [
      "n",
      "\u2019t</w>",
      623
    ],
    [
      "y",
      "e</w>",
      623
    ],
    [
      "su",
      "b",
      622
    ],
    [
      "m",
      "p",
      621
    ],
    [
      "d",
      "g",
      620
    ],
    [
      "se",
      "e",
      619
    ],
    [
      "c",
      "ur",
      618
    ],
    [
      "throu",
      "gh</w>",
      613
    ],
    [
      "well",
      ",</w>",
      611
    ],
    [
      "l",
      ",</w>",
      611
    ],
    [
      "ap",
      "pe",
      609
    ],
    [
      "u",
      "gh",
      608
    ],
    [
      "ri",
      "ght</w>",
      607
    ],
    [
      "le",
      "a",
      606
    ],
    [
      "he",
      "n",
      606
    ],
    [
      "t",
      "en</w>",
      604
    ],
    [
      "n",
      "at",
      603
    ],
    [
      "i",
      "s,</w>",
      602
    ],
    [
      "c",
      "t",
      601
    ],
    [
      "ne",
      "w",
      601
    ],
    [
      "un",
      "der</w>",
      601
    ],
    [
      "s",
      "ame</w>",
      600
    ],
    [
      "st",
      ".</w>",
      600
    ],
    [
      "es",
      "s,</w>",
      599
    ],
    [
      "h",
      "un",
      599
    ],
    [
      "v",
      "en",
      598
    ],
    [
      "a",
      "ch</w>",
      598
    ],
    [
      "\"\"",
      "\"</w>",
      597
    ],
    [
      "l",
      "ast</w>",
      597
    ],
    [
      "re",
      "tur",
      597
    ],
    [
      "l",
      "an",
      596
    ],
    [
      "s",
      "or",
      595
    ],
    [
      "d",
      "ow",
      594
    ],
    [
      "wh",
      "y</w>",
      594
    ],
    [
      "ent",
      ",</w>",
      593
    ],
    [
      "st",
      "ri",
      592
    ],
    [
      "too",
      "k</w>",
      591
    ],
    [
      "t",
      "on",
      591
    ],
    [
      "k",
      "en</w>",
      590
    ],
    [
      "b",
      "a",
      587
    ],
    [
      "le",
      ".</w>",
      587
    ],
    [
      "st",
      "a",
      583
    ],
    [
      "pro",
      "ject</w>",
      582
    ],
    [
      "p",
      "s</w>",
      582
    ],
    [
      "ent",
      "er</w>",
      582
    ],
    [
      "th",
      ".</w>",
      581
    ],
    [
      "s",
      "ur",
      581
    ],
    [
      "s",
      "ou",
      579
    ],
    [
      "go",
      "d</w>",
      578
    ],
    [
      "d",
      "ar",
      577
    ],
    [
      "wh",
      "om</w>",
      575
    ],
    [
      "sa",
      "w</w>",
      573
    ],
    [
      "com",
      "m",
      572
    ],
    [
      "p",
      "h",
      571
    ],
    [
      "lon",
      "g",
      568
    ],
    [
      "l",
      "d,</w>",
      568
    ],
    [
      "don",
      "\u2019t</w>",
      567
    ],
    [
      "si",
      "d",
      566
    ],
    [
      "f",
      "t</w>",
      565
    ],
    [
      "sai",
      "d,</w>",
      564
    ],
    [
      "st",
      "at",
      563
    ],
    [
      "man",
      ",</w>",
      563
    ],
    [
      "e",
      "ly</w>",
      563
    ],
    [
      "o",
      "ther",
      563
    ],
    [
      "v",
      "e,</w>",
      562
    ],
    [
      "po",
      "in",
      562
    ],
    [
      "f",
      "ound</w>",
      560
    ],
    [
      "wa",
      "ys</w>",
      559
    ],
    [
      "bu",
      "r",
      558
    ],
    [
      "t",
      "we",
      557
    ],
    [
      "b",
      "ack</w>",
      557
    ],
    [
      "le",
      "c",
      556
    ],
    [
      "v",
      "en</w>",
      554
    ],
    [
      "en",
      "ti",
      553
    ],
    [
      "e",
      "le",
      552
    ],
    [
      "b",
      "or",
      552
    ],
    [
      "x",
      "</w>",
      551
    ],
    [
      ".",
      "_]</w>",
      551
    ],
    [
      "\"\"",
      "</w>",
      550
    ],
    [
      "n",
      "a",
      549
    ],
    [
      "ation",
      "s</w>",
      548
    ],
    [
      "s",
      "we",
      547
    ],
    [
      "i\u2019",
      "ll</w>",
      544
    ],
    [
      "hou",
      "se</w>",
      542
    ],
    [
      "se",
      "t</w>",
      541
    ],
    [
      "s",
      "ing</w>",
      541
    ],
    [
      "h",
      "ow",
      540
    ],
    [
      "i",
      "d",
      539
    ],
    [
      "ch",
      "o",
      539
    ],
    [
      "it",
      "ed</w>",
      537
    ],
    [
      "ai",
      "d</w>",
      536
    ],
    [
      "gent",
      "le",
      536
    ],
    [
      "now",
      ",</w>",
      536
    ],
    [
      "p",
      "ur",
      536
    ],
    [
      "ar",
      "m",
      535
    ],
    [
      "ati",
      "on,</w>",
      534
    ],
    [
      "g",
      "l",
      534
    ],
    [
      "st",
      "ar",
      533
    ],
    [
      "e",
      "t",
      532
    ],
    [
      "bo",
      "o",
      531
    ],
    [
      "p",
      "ow",
      530
    ],
    [
      "trum",
      "p",
      527
    ],
    [
      "o",
      "ver",
      524
    ],
    [
      "o",
      ",</w>",
      524
    ],
    [
      "h",
      "op",
      524
    ],
    [
      "l",
      "y.</w>",
      523
    ],
    [
      "h",
      "om",
      523
    ],
    [
      "go",
      "t</w>",
      523
    ],
    [
      "l",
      "ar",
      521
    ],
    [
      "d",
      "s,</w>",
      520
    ],
    [
      "wor",
      "k</w>",
      515
    ],
    [
      "b",
      "er</w>",
      513
    ],
    [
      "a",
      "way</w>",
      511
    ],
    [
      "e",
      "st",
      510
    ],
    [
      "me",
      "m",
      510
    ],
    [
      "5",
      "</w>",
      508
    ],
    [
      "an",
      "other</w>",
      507
    ],
    [
      "ey",
      "es</w>",
      506
    ],
    [
      "en",
      ".</w>",
      504
    ],
    [
      "on",
      "s</w>",
      503
    ],
    [
      "s",
      "po",
      503
    ],
    [
      "o",
      "c",
      503
    ],
    [
      "d",
      "in",
      503
    ],
    [
      "thre",
      "e</w>",
      503
    ],
    [
      "er",
      "ic",
      503
    ],
    [
      "sa",
      "y",
      502
    ],
    [
      "6",
      "</w>",
      501
    ],
    [
      "wi",
      "ll",
      501
    ],
    [
      "f",
      "am",
      501
    ],
    [
      "b",
      "en",
      500
    ],
    [
      "a",
      "wa",
      500
    ],
    [
      "tr",
      "a",
      499
    ],
    [
      "coun",
      "tr",
      499
    ],
    [
      "of",
      "f</w>",
      499
    ],
    [
      "a",
      "h</w>",
      497
    ],
    [
      "w",
      "o",
      495
    ],
    [
      "r",
      "un",
      495
    ],
    [
      "ever",
      "y",
      495
    ],
    [
      "b",
      "es",
      494
    ],
    [
      "si",
      "l",
      494
    ],
    [
      "you",
      "r",
      493
    ],
    [
      "po",
      "or</w>",
      491
    ],
    [
      "an",
      ",</w>",
      490
    ],
    [
      "en",
      "ed</w>",
      490
    ],
    [
      "ac",
      "k",
      489
    ],
    [
      "loo",
      "ked</w>",
      488
    ],
    [
      "e",
      "i",
      488
    ],
    [
      "than",
      "k</w>",
      487
    ],
    [
      "gre",
      "at",
      486
    ],
    [
      "seem",
      "ed</w>",
      486
    ],
    [
      "ha",
      "l",
      485
    ],
    [
      "w",
      "al",
      485
    ],
    [
      "h",
      "and</w>",
      485
    ],
    [
      "an",
      "i",
      484
    ],
    [
      "er",
      "ed</w>",
      484
    ],
    [
      "sc",
      "en",
      483
    ],
    [
      "sh",
      "o",
      481
    ],
    [
      "i",
      ".</w>",
      481
    ],
    [
      "st",
      "u",
      480
    ],
    [
      "wh",
      "ose</w>",
      479
    ],
    [
      "re",
      "s</w>",
      478
    ],
    [
      "ag",
      "ain</w>",
      478
    ],
    [
      "c",
      "le",
      475
    ],
    [
      "gen",
      "er",
      474
    ],
    [
      "la",
      "w",
      474
    ],
    [
      "s",
      ":</w>",
      474
    ],
    [
      "al",
      "so</w>",
      473
    ],
    [
      "da",
      "y",
      472
    ],
    [
      "ex",
      "ce",
      471
    ],
    [
      "am",
      "eric",
      471
    ],
    [
      "t",
      "ro",
      470
    ],
    [
      "on",
      "g",
      470
    ],
    [
      "war",
      "d</w>",
      469
    ],
    [
      "l",
      "in",
      468
    ],
    [
      "s",
      "le",
      468
    ],
    [
      "ll",
      "y</w>",
      468
    ],
    [
      "th",
      "us</w>",
      467
    ],
    [
      "4",
      "</w>",
      467
    ],
    [
      "so",
      "l",
      466
    ],
    [
      "par",
      "t</w>",
      466
    ],
    [
      "ad",
      "v",
      466
    ],
    [
      "bo",
      "th</w>",
      466
    ],
    [
      "'",
      "t</w>",
      466
    ],
    [
      "al",
      "ways</w>",
      465
    ],
    [
      "3",
      "</w>",
      464
    ],
    [
      "go",
      "ing</w>",
      464
    ],
    [
      "de",
      "li",
      464
    ],
    [
      "u",
      "t",
      462
    ],
    [
      "&",
      "amp",
      462
    ],
    [
      "u",
      "s,</w>",
      462
    ],
    [
      "d",
      "ou",
      461
    ],
    [
      "gutenber",
      "g",
      459
    ],
    [
      "pl",
      "ace</w>",
      459
    ],
    [
      "wi",
      "th",
      456
    ],
    [
      "he",
      "ad</w>",
      456
    ],
    [
      "chi",
      "ld",
      455
    ],
    [
      "me",
      "di",
      455
    ],
    [
      "re",
      "cei",
      455
    ],
    [
      "hear",
      "d</w>",
      455
    ],
    [
      "ans",
      "wer",
      455
    ],
    [
      "ou",
      "t",
      453
    ],
    [
      "to",
      "ge",
      453
    ],
    [
      "on",
      "ce</w>",
      452
    ],
    [
      "her",
      ",</w>",
      452
    ],
    [
      "m",
      "om",
      451
    ],
    [
      "ma",
      "d",
      451
    ],
    [
      "to",
      "ld</w>",
      450
    ],
    [
      "lif",
      "e</w>",
      449
    ],
    [
      "th",
      "ing",
      449
    ],
    [
      "s",
      "!</w>",
      448
    ],
    [
      "us",
      "ed</w>",
      448
    ],
    [
      "s",
      "y",
      448
    ],
    [
      "b",
      "ri",
      447
    ],
    [
      "k",
      "i",
      446
    ],
    [
      "re",
      "as",
      446
    ],
    [
      "he",
      "a",
      446
    ],
    [
      "k",
      "ing",
      446
    ],
    [
      "ar",
      "i",
      445
    ],
    [
      "st",
      "and",
      444
    ],
    [
      "fo",
      "re",
      443
    ],
    [
      "them",
      ",</w>",
      443
    ],
    [
      "h",
      "um",
      443
    ],
    [
      "b",
      "loo",
      443
    ],
    [
      "l",
      "at",
      443
    ],
    [
      "be",
      "au",
      443
    ],
    [
      "http",
      "://t.co/",
      443
    ],
    [
      "be",
      "tter</w>",
      442
    ],
    [
      "read",
      "y</w>",
      442
    ],
    [
      "d",
      "ra",
      442
    ],
    [
      "war",
      "ds</w>",
      442
    ],
    [
      "str",
      "u",
      441
    ],
    [
      "st",
      "ed</w>",
      441
    ],
    [
      "w",
      "ant</w>",
      440
    ],
    [
      "re",
      "mem",
      439
    ],
    [
      "re",
      "p",
      439
    ],
    [
      "can",
      "not</w>",
      436
    ],
    [
      "fo",
      "o",
      435
    ],
    [
      "ha",
      "ving</w>",
      435
    ],
    [
      "fri",
      "end",
      434
    ],
    [
      "p",
      "ra",
      434
    ],
    [
      "con",
      "si",
      433
    ],
    [
      "he",
      "ar</w>",
      433
    ],
    [
      "fin",
      "d</w>",
      432
    ],
    [
      "self",
      ",</w>",
      432
    ],
    [
      "f",
      "er",
      432
    ],
    [
      "2",
      "0",
      432
    ],
    [
      "s",
      "un",
      432
    ],
    [
      "lor",
      "d,</w>",
      431
    ],
    [
      "mis",
      "s</w>",
      429
    ],
    [
      "ti",
      "on,</w>",
      429
    ],
    [
      "fa",
      "ther",
      429
    ],
    [
      "fri",
      "en",
      428
    ],
    [
      "str",
      "ang",
      428
    ],
    [
      "n",
      "am",
      428
    ],
    [
      "r",
      "om",
      427
    ],
    [
      "ag",
      "re",
      426
    ],
    [
      "be",
      "twe",
      426
    ],
    [
      "[_",
      "ex",
      425
    ],
    [
      "b",
      "le",
      424
    ],
    [
      "th",
      "ings</w>",
      423
    ],
    [
      "pu",
      "b",
      423
    ],
    [
      "al",
      "i",
      422
    ],
    [
      "fa",
      "ther</w>",
      422
    ],
    [
      "ro",
      "w</w>",
      421
    ],
    [
      "\u201c",
      "you</w>",
      421
    ],
    [
      "ll",
      "i",
      420
    ],
    [
      "n",
      ".</w>",
      419
    ],
    [
      "f",
      "ace</w>",
      419
    ],
    [
      "g",
      "ra",
      419
    ],
    [
      "for",
      "tun",
      419
    ],
    [
      "on",
      "e,</w>",
      418
    ],
    [
      "le",
      "ft</w>",
      418
    ],
    [
      "in",
      "ed</w>",
      418
    ],
    [
      "7",
      "</w>",
      417
    ],
    [
      "che",
      "d</w>",
      417
    ],
    [
      "betwe",
      "en</w>",
      416
    ],
    [
      "du",
      "c",
      416
    ],
    [
      "d",
      "one</w>",
      415
    ],
    [
      "ne",
      "i",
      415
    ],
    [
      "sir",
      ",</w>",
      414
    ],
    [
      "fe",
      "c",
      414
    ],
    [
      "s",
      "mi",
      414
    ],
    [
      "di",
      "sc",
      413
    ],
    [
      "g",
      "ed</w>",
      412
    ],
    [
      "di",
      "ff",
      412
    ],
    [
      "ma",
      "g",
      411
    ],
    [
      "n",
      "um",
      411
    ],
    [
      "pre",
      "sid",
      411
    ],
    [
      "fu",
      "ll</w>",
      410
    ],
    [
      "th",
      "en,</w>",
      410
    ],
    [
      "s",
      "am",
      410
    ],
    [
      "call",
      "ed</w>",
      410
    ],
    [
      "ti",
      "ll</w>",
      408
    ],
    [
      "ou",
      "ld",
      407
    ],
    [
      "ic",
      "i",
      407
    ],
    [
      "ke",
      "ep</w>",
      405
    ],
    [
      "ga",
      "ve</w>",
      404
    ],
    [
      "anc",
      "e,</w>",
      403
    ],
    [
      "ai",
      "r",
      402
    ],
    [
      "qu",
      "ite</w>",
      402
    ],
    [
      "you",
      ".</w>",
      401
    ],
    [
      "wha",
      "t",
      401
    ],
    [
      "al",
      "most</w>",
      401
    ],
    [
      "t",
      "y",
      401
    ],
    [
      "cha",
      "p",
      401
    ],
    [
      "ent",
      "ly</w>",
      401
    ],
    [
      "pos",
      "si",
      399
    ],
    [
      "se",
      "con",
      399
    ],
    [
      "in",
      ",</w>",
      399
    ],
    [
      "k",
      "es</w>",
      398
    ],
    [
      "to",
      "r</w>",
      398
    ],
    [
      "scen",
      "e</w>",
      398
    ],
    [
      "x",
      "t</w>",
      397
    ],
    [
      "st",
      "and</w>",
      397
    ],
    [
      "some",
      "thing</w>",
      395
    ],
    [
      "whe",
      "re",
      395
    ],
    [
      "i",
      "de",
      395
    ],
    [
      "be",
      "lie",
      393
    ],
    [
      "who",
      "le</w>",
      393
    ],
    [
      "on",
      "e",
      393
    ],
    [
      "de",
      "ar</w>",
      393
    ],
    [
      "spea",
      "k</w>",
      391
    ],
    [
      "g",
      "ri",
      389
    ],
    [
      "se",
      "en</w>",
      389
    ],
    [
      "&amp",
      ",</w>",
      388
    ],
    [
      "la",
      "d",
      388
    ],
    [
      "m",
      "ur",
      388
    ],
    [
      "no",
      ",</w>",
      387
    ],
    [
      "ll",
      "ow</w>",
      386
    ],
    [
      "so",
      ",</w>",
      386
    ],
    [
      "f",
      "ar</w>",
      386
    ],
    [
      "sin",
      "ce</w>",
      385
    ],
    [
      "n",
      "ame</w>",
      385
    ],
    [
      "l",
      "ing</w>",
      384
    ],
    [
      "p",
      "en",
      384
    ],
    [
      "es",
      ";</w>",
      384
    ],
    [
      "ent",
      ".</w>",
      383
    ],
    [
      "l",
      "ow",
      382
    ],
    [
      "\u201c",
      "and</w>",
      382
    ],
    [
      "\u2019",
      "ti",
      382
    ],
    [
      "ti",
      "s</w>",
      382
    ],
    [
      "8",
      "</w>",
      382
    ],
    [
      "or",
      ",</w>",
      382
    ],
    [
      "ro",
      "om",
      381
    ],
    [
      "loo",
      "king</w>",
      381
    ],
    [
      "es",
      "s.</w>",
      381
    ],
    [
      "pr",
      "om",
      381
    ],
    [
      "am",
      "ong</w>",
      380
    ],
    [
      "p",
      "al",
      380
    ],
    [
      "in",
      "i",
      378
    ],
    [
      "that",
      ",</w>",
      378
    ],
    [
      "my",
      "self</w>",
      378
    ],
    [
      "mr",
      "s.</w>",
      378
    ],
    [
      "c",
      "all</w>",
      378
    ],
    [
      "wor",
      "d</w>",
      378
    ],
    [
      "he",
      "re",
      377
    ],
    [
      "l",
      "s</w>",
      377
    ],
    [
      "ni",
      "ght</w>",
      376
    ],
    [
      "\u2014",
      "</w>",
      375
    ],
    [
      "h",
      "in",
      375
    ],
    [
      "there",
      "fore</w>",
      374
    ],
    [
      "y",
      "ed</w>",
      374
    ],
    [
      "br",
      "ought</w>",
      373
    ],
    [
      "belie",
      "ve</w>",
      373
    ],
    [
      "m",
      ".</w>",
      373
    ],
    [
      "m",
      "it",
      373
    ],
    [
      "pr",
      "in",
      372
    ],
    [
      "a",
      "th",
      372
    ],
    [
      "9",
      "</w>",
      372
    ],
    [
      "er",
      "s,</w>",
      371
    ],
    [
      "en",
      "ou",
      371
    ],
    [
      "jo",
      "h",
      371
    ],
    [
      "so",
      "on</w>",
      371
    ],
    [
      "\u2019ti",
      "s</w>",
      371
    ],
    [
      "s",
      "it",
      371
    ],
    [
      "d",
      "ly</w>",
      370
    ],
    [
      "tt",
      "ing</w>",
      370
    ],
    [
      "hear",
      "t</w>",
      370
    ],
    [
      "r",
      "en",
      369
    ],
    [
      "per",
      "ha",
      369
    ],
    [
      "da",
      "ugh",
      368
    ],
    [
      "ar",
      ",</w>",
      368
    ],
    [
      "is",
      "e</w>",
      368
    ],
    [
      "n",
      "er</w>",
      367
    ],
    [
      "f",
      "oun",
      367
    ],
    [
      "p",
      "hi",
      367
    ],
    [
      "ra",
      "ther</w>",
      366
    ],
    [
      "to",
      "w",
      366
    ],
    [
      "chap",
      "ter</w>",
      366
    ],
    [
      "i",
      "g",
      366
    ],
    [
      "e",
      "as",
      365
    ],
    [
      "tion",
      "s</w>",
      365
    ],
    [
      "co",
      "ver",
      364
    ],
    [
      "f",
      "ur",
      363
    ],
    [
      "cont",
      "in",
      362
    ],
    [
      ".",
      "\"</w>",
      362
    ],
    [
      "e",
      "ach</w>",
      362
    ],
    [
      "gh",
      "t.</w>",
      362
    ],
    [
      "fo",
      "llow",
      361
    ],
    [
      "ll",
      "ed</w>",
      361
    ],
    [
      "su",
      "c",
      360
    ],
    [
      "tim",
      "es</w>",
      359
    ],
    [
      "bo",
      "dy</w>",
      359
    ],
    [
      "ent",
      "s</w>",
      359
    ],
    [
      "!",
      "\"</w>",
      359
    ],
    [
      "l",
      ".</w>",
      359
    ],
    [
      "com",
      "e,</w>",
      358
    ],
    [
      "b",
      "est</w>",
      358
    ],
    [
      "su",
      "ff",
      358
    ],
    [
      "lea",
      "ve</w>",
      357
    ],
    [
      "a",
      "re",
      357
    ],
    [
      "0",
      "0",
      357
    ],
    [
      "di",
      "d",
      357
    ],
    [
      "ation",
      ".</w>",
      357
    ],
    [
      "is",
      "]</w>",
      357
    ],
    [
      "si",
      "g",
      357
    ],
    [
      "f",
      "al",
      357
    ],
    [
      "al",
      ",</w>",
      357
    ],
    [
      "enc",
      "e,</w>",
      356
    ],
    [
      "gi",
      "ven</w>",
      356
    ],
    [
      "vi",
      "ll",
      356
    ],
    [
      "c",
      "</w>",
      355
    ],
    [
      "at",
      "ten",
      354
    ],
    [
      "n",
      "or",
      354
    ],
    [
      "beg",
      "an</w>",
      354
    ],
    [
      "da",
      "y,</w>",
      354
    ],
    [
      "la",
      "u",
      354
    ],
    [
      "m",
      "s</w>",
      353
    ],
    [
      "no",
      "t",
      353
    ],
    [
      "li",
      "ght</w>",
      353
    ],
    [
      "as",
      "ked</w>",
      353
    ],
    [
      "tur",
      "ned</w>",
      353
    ],
    [
      "la",
      "dy</w>",
      351
    ],
    [
      "s",
      "ent</w>",
      351
    ],
    [
      "cri",
      "ed</w>",
      351
    ],
    [
      "pp",
      "ed</w>",
      351
    ],
    [
      "b",
      "an",
      350
    ],
    [
      "ch",
      "ang",
      349
    ],
    [
      "t",
      "ou",
      349
    ],
    [
      "di",
      "st",
      348
    ],
    [
      "at",
      "ing</w>",
      348
    ],
    [
      "vi",
      "e",
      348
    ],
    [
      "su",
      "dd",
      347
    ],
    [
      "contin",
      "u",
      346
    ],
    [
      "te",
      "m",
      346
    ],
    [
      "e",
      "lec",
      345
    ],
    [
      "sto",
      "od</w>",
      345
    ],
    [
      "re",
      "c",
      345
    ],
    [
      "is",
      "h</w>",
      344
    ],
    [
      "secon",
      "d</w>",
      344
    ],
    [
      "l",
      "and",
      344
    ],
    [
      "po",
      "li",
      343
    ],
    [
      "ever",
      ",</w>",
      343
    ],
    [
      "an",
      "ge",
      343
    ],
    [
      "s",
      "ure</w>",
      342
    ],
    [
      "d",
      "ro",
      342
    ],
    [
      "do",
      "es</w>",
      342
    ],
    [
      "re",
      "ally</w>",
      341
    ],
    [
      "ri",
      "ed</w>",
      341
    ],
    [
      "dou",
      "b",
      339
    ],
    [
      "m",
      "ed</w>",
      339
    ],
    [
      "sp",
      "ir",
      338
    ],
    [
      "o",
      "v",
      338
    ],
    [
      "a",
      "pp",
      337
    ],
    [
      "ho",
      "ld</w>",
      337
    ],
    [
      "gutenberg",
      "\u2122",
      336
    ],
    [
      "y",
      "!</w>",
      336
    ],
    [
      "x",
      "i",
      334
    ],
    [
      "it",
      "y,</w>",
      334
    ],
    [
      "the",
      "e,</w>",
      334
    ],
    [
      "b",
      "ra",
      334
    ],
    [
      "all",
      ",</w>",
      333
    ],
    [
      "at",
      "t",
      333
    ],
    [
      "g",
      "ir",
      331
    ],
    [
      "li",
      "fe",
      331
    ],
    [
      "ex",
      "pe",
      331
    ],
    [
      "ti",
      "es</w>",
      331
    ],
    [
      "v",
      "ir",
      330
    ],
    [
      "me",
      "an",
      330
    ],
    [
      "re",
      "ma",
      330
    ],
    [
      "sa",
      "y,</w>",
      329
    ],
    [
      "co",
      "ll",
      329
    ],
    [
      "re",
      "ad</w>",
      328
    ],
    [
      "d",
      ":</w>",
      328
    ],
    [
      "wh",
      "y,</w>",
      328
    ],
    [
      "d",
      "en",
      327
    ],
    [
      "..",
      ".</w>",
      326
    ],
    [
      "y",
      "es,</w>",
      326
    ],
    [
      "st",
      "ro",
      326
    ],
    [
      "min",
      "e</w>",
      326
    ],
    [
      "tt",
      "er",
      326
    ],
    [
      "l",
      "and</w>",
      325
    ],
    [
      "fe",
      "w</w>",
      325
    ],
    [
      "r",
      "ound</w>",
      324
    ],
    [
      "bu",
      "sin",
      324
    ],
    [
      "k",
      "new</w>",
      324
    ],
    [
      "fe",
      "lt</w>",
      324
    ],
    [
      "th",
      "i",
      323
    ],
    [
      "in",
      "st",
      322
    ],
    [
      "wor",
      "ld</w>",
      322
    ],
    [
      "la",
      "y</w>",
      322
    ],
    [
      "man",
      ".</w>",
      322
    ],
    [
      "ro",
      "om</w>",
      322
    ],
    [
      "j",
      "er",
      321
    ],
    [
      "ac",
      "t</w>",
      321
    ],
    [
      "re",
      "f",
      321
    ],
    [
      "c",
      "al",
      321
    ],
    [
      "wi",
      "f",
      321
    ],
    [
      "gutenberg\u2122",
      "</w>",
      320
    ],
    [
      "po",
      "si",
      320
    ],
    [
      "c",
      "lu",
      320
    ],
    [
      "s",
      "ma",
      320
    ],
    [
      "su",
      "p",
      320
    ],
    [
      "k",
      "e,</w>",
      320
    ],
    [
      "ll",
      ",</w>",
      319
    ],
    [
      "e",
      "mi",
      318
    ],
    [
      "ne",
      "xt</w>",
      318
    ],
    [
      "ow",
      "ed</w>",
      318
    ],
    [
      "vi",
      "si",
      318
    ],
    [
      "min",
      "d</w>",
      318
    ],
    [
      "..",
      ".",
      317
    ],
    [
      "si",
      "de</w>",
      317
    ],
    [
      "br",
      "ing</w>",
      317
    ],
    [
      "i",
      "li",
      316
    ],
    [
      "ch",
      "ing</w>",
      316
    ],
    [
      "to",
      "wards</w>",
      316
    ],
    [
      "tion",
      ".</w>",
      316
    ],
    [
      "r",
      "ai",
      316
    ],
    [
      "mon",
      "e",
      315
    ],
    [
      "ch",
      "ri",
      315
    ],
    [
      "wr",
      "it",
      314
    ],
    [
      "b",
      "it",
      313
    ],
    [
      "pr",
      "of",
      312
    ],
    [
      "hal",
      "f</w>",
      312
    ],
    [
      "shi",
      "p</w>",
      311
    ],
    [
      "it",
      "\u2019s</w>",
      311
    ],
    [
      "i",
      "l</w>",
      311
    ],
    [
      "ob",
      "am",
      311
    ],
    [
      "them",
      ".</w>",
      310
    ],
    [
      "b",
      "ed</w>",
      310
    ],
    [
      "s",
      "at",
      310
    ],
    [
      "shi",
      "p",
      310
    ],
    [
      ",",
      "\u2014",
      310
    ],
    [
      "that",
      "\u2019s</w>",
      308
    ],
    [
      "child",
      "r",
      308
    ],
    [
      "her",
      ".</w>",
      307
    ],
    [
      "\u2019",
      "ll</w>",
      307
    ],
    [
      "for",
      "th</w>",
      306
    ],
    [
      "dre",
      "s",
      306
    ],
    [
      "ic",
      "e,</w>",
      306
    ],
    [
      "th",
      "ir",
      305
    ],
    [
      "is",
      "h",
      305
    ],
    [
      "su",
      "pp",
      305
    ],
    [
      "ab",
      "o",
      304
    ],
    [
      "h",
      "us",
      304
    ],
    [
      "tur",
      "e</w>",
      303
    ],
    [
      "par",
      "ti",
      303
    ],
    [
      "ir",
      "e</w>",
      303
    ],
    [
      "ye",
      "ar",
      303
    ],
    [
      "af",
      "ter",
      303
    ],
    [
      "i",
      "ly</w>",
      303
    ],
    [
      "wor",
      "ds</w>",
      303
    ],
    [
      "o",
      "h,</w>",
      302
    ],
    [
      "que",
      "sti",
      302
    ],
    [
      "fe",
      "el",
      301
    ],
    [
      "t",
      "s,</w>",
      300
    ],
    [
      "le",
      "ar",
      300
    ],
    [
      "i",
      "v",
      300
    ],
    [
      "h",
      "our",
      299
    ],
    [
      "ye",
      "ars</w>",
      298
    ],
    [
      "re",
      "st</w>",
      298
    ],
    [
      "ev",
      "en",
      297
    ],
    [
      "li",
      "ed</w>",
      297
    ],
    [
      "der",
      "ed</w>",
      297
    ],
    [
      "b",
      "as",
      297
    ],
    [
      "bu",
      "t,</w>",
      296
    ],
    [
      "com",
      "es</w>",
      296
    ],
    [
      "do",
      "c",
      295
    ],
    [
      "po",
      "se</w>",
      295
    ],
    [
      "g",
      "er",
      295
    ],
    [
      "ar",
      "d</w>",
      295
    ],
    [
      "hop",
      "e</w>",
      295
    ],
    [
      "ex",
      "pres",
      294
    ],
    [
      "r",
      "an",
      294
    ],
    [
      "on",
      "e.</w>",
      294
    ],
    [
      "fai",
      "r</w>",
      293
    ],
    [
      "an",
      "ts</w>",
      293
    ],
    [
      "h",
      "ur",
      293
    ],
    [
      "th",
      "is",
      293
    ],
    [
      "d",
      "ang",
      293
    ],
    [
      "s",
      "ci",
      292
    ],
    [
      "ti",
      "me,</w>",
      292
    ],
    [
      "how",
      "ever,</w>",
      292
    ],
    [
      "sh",
      "u",
      292
    ],
    [
      "thou",
      "s",
      292
    ],
    [
      "d",
      "om",
      292
    ],
    [
      "c",
      "ro",
      291
    ],
    [
      "t",
      "y,</w>",
      291
    ],
    [
      "ar",
      "t</w>",
      291
    ],
    [
      "a",
      "st",
      291
    ],
    [
      "te",
      "d,</w>",
      290
    ],
    [
      "whi",
      "te</w>",
      290
    ],
    [
      "s",
      "k",
      290
    ],
    [
      "em",
      "p",
      290
    ],
    [
      "c",
      "ess",
      289
    ],
    [
      "any",
      "thing</w>",
      288
    ],
    [
      "ju",
      "st",
      288
    ],
    [
      "in",
      "di",
      288
    ],
    [
      "them",
      "sel",
      287
    ],
    [
      "la",
      "r</w>",
      287
    ],
    [
      "he",
      "ad",
      287
    ],
    [
      "e",
      "li",
      287
    ],
    [
      "j",
      "on",
      286
    ],
    [
      "\u201c",
      "the</w>",
      286
    ],
    [
      "y",
      "\u2019s</w>",
      286
    ],
    [
      "z",
      "ed</w>",
      285
    ],
    [
      "ic",
      "k",
      285
    ],
    [
      "ac",
      "c",
      284
    ],
    [
      "tru",
      "e</w>",
      284
    ],
    [
      "ck",
      ",</w>",
      284
    ],
    [
      "e",
      "th</w>",
      283
    ],
    [
      "st",
      "ra",
      282
    ],
    [
      "h",
      "an",
      282
    ],
    [
      "ag",
      "e,</w>",
      281
    ],
    [
      ".",
      "\u2019</w>",
      281
    ],
    [
      "d",
      "or",
      281
    ],
    [
      "pro",
      "te",
      280
    ],
    [
      "do",
      "th</w>",
      280
    ],
    [
      "e",
      "!</w>",
      280
    ],
    [
      "go",
      "od",
      280
    ],
    [
      "per",
      "i",
      280
    ],
    [
      "ca",
      "u",
      280
    ],
    [
      "hi",
      "ll",
      279
    ],
    [
      "co",
      "p",
      278
    ],
    [
      "e",
      "f</w>",
      278
    ],
    [
      "re",
      "spe",
      278
    ],
    [
      "je",
      "c",
      278
    ],
    [
      "f",
      "all",
      278
    ],
    [
      "wi",
      "sh</w>",
      277
    ],
    [
      "wi",
      "t",
      277
    ],
    [
      "g",
      "g",
      276
    ],
    [
      "v",
      "ic",
      276
    ],
    [
      "self",
      ".</w>",
      276
    ],
    [
      "of",
      "ten</w>",
      274
    ],
    [
      "h",
      "u",
      273
    ],
    [
      "is",
      "ra",
      273
    ],
    [
      "[",
      "is]</w>",
      273
    ],
    [
      "st",
      "ate</w>",
      273
    ],
    [
      "hel",
      "p</w>",
      272
    ],
    [
      "perha",
      "ps</w>",
      272
    ],
    [
      "m",
      "oun",
      272
    ],
    [
      "da",
      "ys</w>",
      272
    ],
    [
      "a",
      "red</w>",
      271
    ],
    [
      "no",
      "t,</w>",
      271
    ],
    [
      "em",
      "ent</w>",
      270
    ],
    [
      "li",
      "st",
      270
    ],
    [
      "d",
      "ge</w>",
      270
    ],
    [
      "z",
      "e",
      269
    ],
    [
      "at",
      "e,</w>",
      269
    ],
    [
      "c",
      "row",
      269
    ],
    [
      "t",
      "ab",
      268
    ],
    [
      "ou",
      "t,</w>",
      268
    ],
    [
      "sh",
      "ow</w>",
      268
    ],
    [
      "hand",
      "s</w>",
      268
    ],
    [
      "com",
      "ing</w>",
      268
    ],
    [
      "d",
      "\u2019",
      268
    ],
    [
      "he",
      ",</w>",
      268
    ],
    [
      "fu",
      "lly</w>",
      268
    ],
    [
      "fe",
      "ar</w>",
      268
    ],
    [
      "pres",
      "ent</w>",
      268
    ],
    [
      "whe",
      "ther</w>",
      267
    ],
    [
      "ta",
      "ken</w>",
      267
    ],
    [
      "ter",
      ",</w>",
      267
    ],
    [
      "p",
      "sal",
      267
    ],
    [
      "r",
      "up",
      266
    ],
    [
      "gh",
      "ts</w>",
      266
    ],
    [
      "new",
      "s</w>",
      266
    ],
    [
      "s",
      "ing",
      266
    ],
    [
      "ne",
      "ed</w>",
      266
    ],
    [
      "c",
      "ou",
      266
    ],
    [
      "cer",
      "tain</w>",
      266
    ],
    [
      "al",
      "ready</w>",
      265
    ],
    [
      "l",
      "ou",
      265
    ],
    [
      "si",
      "on",
      264
    ],
    [
      "m",
      "en,</w>",
      264
    ],
    [
      "dea",
      "th</w>",
      264
    ],
    [
      "again",
      ",</w>",
      264
    ],
    [
      "an",
      "ti",
      264
    ],
    [
      "as",
      "k</w>",
      263
    ],
    [
      "m",
      "ou",
      263
    ],
    [
      "ha",
      "m",
      262
    ],
    [
      "sh",
      "or",
      262
    ],
    [
      "w",
      "all",
      262
    ],
    [
      "per",
      "son",
      261
    ],
    [
      "ch",
      ".</w>",
      261
    ],
    [
      "i",
      "mag",
      261
    ],
    [
      "v",
      "e.</w>",
      261
    ],
    [
      "ac",
      "cor",
      260
    ],
    [
      "en",
      "ly</w>",
      260
    ],
    [
      "ap",
      "pro",
      259
    ],
    [
      "t",
      "ly</w>",
      259
    ],
    [
      "s",
      "?</w>",
      259
    ],
    [
      "1",
      ".",
      258
    ],
    [
      "go",
      "ver",
      258
    ],
    [
      "an",
      ".</w>",
      258
    ],
    [
      "d",
      "ri",
      257
    ],
    [
      "bi",
      "g</w>",
      257
    ],
    [
      "c",
      "e,</w>",
      257
    ],
    [
      "ha",
      "st</w>",
      257
    ],
    [
      "d",
      "!</w>",
      257
    ],
    [
      "com",
      "for",
      257
    ],
    [
      "pow",
      "er</w>",
      256
    ],
    [
      "ai",
      "r</w>",
      256
    ],
    [
      "fo",
      "re,</w>",
      256
    ],
    [
      "r",
      "us",
      256
    ],
    [
      ":",
      "3",
      256
    ],
    [
      "on",
      "d</w>",
      255
    ],
    [
      "c",
      "ir",
      255
    ],
    [
      "psal",
      "m</w>",
      255
    ],
    [
      "coun",
      "t</w>",
      254
    ],
    [
      "i",
      ",</w>",
      254
    ],
    [
      "fai",
      "r",
      254
    ],
    [
      "kin",
      "d</w>",
      252
    ],
    [
      "li",
      "ve</w>",
      252
    ],
    [
      "at",
      "s</w>",
      251
    ],
    [
      "ce",
      "p",
      251
    ],
    [
      "diff",
      "er",
      251
    ],
    [
      "toge",
      "ther</w>",
      251
    ],
    [
      "\u201c",
      "but</w>",
      250
    ],
    [
      "swe",
      "et</w>",
      250
    ],
    [
      "sto",
      "r",
      250
    ],
    [
      "ti",
      "ve</w>",
      250
    ],
    [
      "20",
      "1",
      250
    ],
    [
      "e",
      ":</w>",
      249
    ],
    [
      "n",
      "ess,</w>",
      248
    ],
    [
      "com",
      "ple",
      248
    ],
    [
      "s",
      ".\u201d</w>",
      248
    ],
    [
      "\u201c",
      "what</w>",
      248
    ],
    [
      "th",
      "en",
      248
    ],
    [
      "jo",
      "b</w>",
      248
    ],
    [
      "di",
      "sa",
      247
    ],
    [
      "we",
      "a",
      247
    ],
    [
      "f",
      "ic",
      247
    ],
    [
      "r",
      "as",
      246
    ],
    [
      "r",
      "on",
      246
    ],
    [
      "me",
      ";</w>",
      246
    ],
    [
      "mi",
      "stre",
      246
    ],
    [
      "ous",
      "ly</w>",
      245
    ],
    [
      "ex",
      "c",
      245
    ],
    [
      "ni",
      "ght",
      245
    ],
    [
      "y",
      "o",
      244
    ],
    [
      "n",
      "er",
      244
    ],
    [
      "con",
      "cer",
      244
    ],
    [
      "do",
      "or</w>",
      244
    ],
    [
      "por",
      "t",
      244
    ],
    [
      "se",
      "cre",
      244
    ],
    [
      "se",
      "d,</w>",
      243
    ],
    [
      "lo",
      "ve",
      243
    ],
    [
      "inde",
      "ed,</w>",
      243
    ],
    [
      "hi",
      "gh</w>",
      243
    ],
    [
      "be",
      "ar</w>",
      243
    ],
    [
      "re",
      "ly</w>",
      242
    ],
    [
      "ju",
      "dg",
      242
    ],
    [
      "am",
      ",</w>",
      242
    ],
    [
      "d",
      "on</w>",
      242
    ],
    [
      "z",
      "a",
      242
    ],
    [
      "c",
      "ke",
      241
    ],
    [
      "li",
      "ke",
      241
    ],
    [
      "sha",
      "lt</w>",
      241
    ],
    [
      "ar",
      "ri",
      241
    ],
    [
      "k",
      "ing,</w>",
      241
    ],
    [
      "a",
      "w",
      241
    ],
    [
      "o",
      "\u2019",
      241
    ],
    [
      "he",
      "re,</w>",
      241
    ],
    [
      "fi",
      "ed</w>",
      241
    ],
    [
      "y",
      ":</w>",
      241
    ],
    [
      "s",
      "at</w>",
      241
    ],
    [
      "know",
      "n</w>",
      240
    ],
    [
      "sp",
      "i",
      240
    ],
    [
      "un",
      "ti",
      240
    ],
    [
      "we",
      "l",
      240
    ],
    [
      "countr",
      "y</w>",
      239
    ],
    [
      "p",
      "ain",
      239
    ],
    [
      "ma",
      "ster</w>",
      239
    ],
    [
      "ck",
      ".</w>",
      239
    ],
    [
      "p",
      "ic",
      239
    ],
    [
      "s",
      "on,</w>",
      239
    ],
    [
      "fa",
      "v",
      238
    ],
    [
      "p",
      "at",
      238
    ],
    [
      "b",
      "s</w>",
      238
    ],
    [
      "num",
      "ber",
      238
    ],
    [
      "s",
      "per",
      238
    ],
    [
      "l",
      "d.</w>",
      238
    ],
    [
      "i",
      "ous</w>",
      238
    ],
    [
      "happ",
      "y</w>",
      238
    ],
    [
      "le",
      "ad",
      238
    ],
    [
      "be",
      "li",
      237
    ],
    [
      "c",
      "ted</w>",
      237
    ],
    [
      "pleas",
      "e</w>",
      237
    ],
    [
      "s",
      "of",
      237
    ],
    [
      "tr",
      "ou",
      237
    ],
    [
      "\u2019",
      "st</w>",
      237
    ],
    [
      "o",
      "d,</w>",
      236
    ],
    [
      "pro",
      "p",
      236
    ],
    [
      "in",
      ".</w>",
      236
    ],
    [
      "e",
      "u",
      235
    ],
    [
      "is",
      "hed</w>",
      235
    ],
    [
      "answer",
      "ed</w>",
      235
    ],
    [
      "be",
      "come</w>",
      234
    ],
    [
      "re",
      "l",
      234
    ],
    [
      "with",
      "in</w>",
      234
    ],
    [
      "mi",
      "d",
      234
    ],
    [
      "pub",
      "li",
      234
    ],
    [
      "d",
      "ur",
      234
    ],
    [
      "childr",
      "en</w>",
      234
    ],
    [
      "nei",
      "ther</w>",
      234
    ],
    [
      "op",
      "en</w>",
      234
    ],
    [
      "wom",
      "an</w>",
      234
    ],
    [
      "at",
      ",</w>",
      233
    ],
    [
      "sma",
      "ll</w>",
      233
    ],
    [
      "dra",
      "w",
      233
    ],
    [
      "it",
      "u",
      233
    ],
    [
      "k",
      "ings</w>",
      233
    ],
    [
      "enou",
      "gh</w>",
      233
    ],
    [
      "k",
      "s,</w>",
      232
    ],
    [
      "po",
      "sed</w>",
      232
    ],
    [
      "ar",
      "t",
      232
    ],
    [
      "ll",
      "ing</w>",
      232
    ],
    [
      "g",
      "la",
      232
    ],
    [
      "af",
      "fec",
      231
    ],
    [
      "he",
      "ld</w>",
      231
    ],
    [
      "cour",
      "se</w>",
      231
    ],
    [
      "gr",
      "ac",
      231
    ],
    [
      "th",
      "or",
      231
    ],
    [
      "recei",
      "ved</w>",
      231
    ],
    [
      "s",
      "us",
      231
    ],
    [
      "be",
      "hin",
      231
    ],
    [
      "d",
      "red</w>",
      231
    ],
    [
      "p",
      "e</w>",
      230
    ],
    [
      "g",
      "one</w>",
      230
    ],
    [
      "f",
      "our</w>",
      230
    ],
    [
      "fri",
      "end</w>",
      230
    ],
    [
      "oc",
      "cas",
      230
    ],
    [
      "occas",
      "i",
      230
    ],
    [
      "she",
      "d</w>",
      230
    ],
    [
      "b",
      "ac",
      230
    ],
    [
      "st",
      "er,</w>",
      230
    ],
    [
      "si",
      "r</w>",
      229
    ],
    [
      "mone",
      "y</w>",
      229
    ],
    [
      "th",
      "is,</w>",
      228
    ],
    [
      "la",
      "w</w>",
      228
    ],
    [
      "pas",
      "sed</w>",
      228
    ],
    [
      "joh",
      "n</w>",
      228
    ],
    [
      "fe",
      "ct</w>",
      228
    ],
    [
      "fe",
      "el</w>",
      228
    ],
    [
      "h",
      "and,</w>",
      227
    ],
    [
      "e",
      "g",
      227
    ],
    [
      "ei",
      "ther</w>",
      227
    ],
    [
      "ther",
      "e,</w>",
      227
    ],
    [
      "k",
      "ing.</w>",
      227
    ],
    [
      "vo",
      "l",
      226
    ],
    [
      "se",
      "ver",
      226
    ],
    [
      "in",
      "ten",
      226
    ],
    [
      "fi",
      "ve</w>",
      226
    ],
    [
      "le",
      "av",
      226
    ],
    [
      "de",
      "mo",
      226
    ],
    [
      "ment",
      ",</w>",
      225
    ],
    [
      "s",
      "s",
      225
    ],
    [
      "m",
      "es",
      224
    ],
    [
      "un",
      "c",
      224
    ],
    [
      "cl",
      "ai",
      224
    ],
    [
      "un",
      "t</w>",
      224
    ],
    [
      "b",
      "ir",
      224
    ],
    [
      "foun",
      "d",
      224
    ],
    [
      "run",
      "</w>",
      224
    ],
    [
      "\u201c",
      "it</w>",
      224
    ],
    [
      "won",
      "der",
      224
    ],
    [
      "e",
      "?</w>",
      224
    ],
    [
      "tur",
      "n</w>",
      223
    ],
    [
      "reas",
      "on</w>",
      223
    ],
    [
      "ch",
      "in",
      223
    ],
    [
      "af",
      "f",
      223
    ],
    [
      "per",
      "son</w>",
      223
    ],
    [
      "1",
      "0",
      222
    ],
    [
      "fe",
      "llow",
      222
    ],
    [
      "im",
      "medi",
      222
    ],
    [
      "presid",
      "ent</w>",
      222
    ],
    [
      "str",
      "ong</w>",
      222
    ],
    [
      "har",
      "d</w>",
      222
    ],
    [
      "te",
      "mp",
      222
    ],
    [
      "com",
      "man",
      221
    ],
    [
      "frien",
      "ds</w>",
      221
    ],
    [
      "fr",
      "an",
      221
    ],
    [
      "i",
      "i.</w>",
      221
    ],
    [
      "de",
      "s</w>",
      220
    ],
    [
      "it",
      "y.</w>",
      220
    ],
    [
      "as",
      "si",
      220
    ],
    [
      "la",
      "ugh",
      220
    ],
    [
      "mo",
      "ther",
      220
    ],
    [
      "hus",
      "b",
      220
    ],
    [
      "he",
      "\u2019s</w>",
      220
    ],
    [
      "th",
      "\u2019</w>",
      220
    ],
    [
      "or",
      "der</w>",
      220
    ],
    [
      "d",
      "?</w>",
      219
    ],
    [
      "lor",
      "d.</w>",
      219
    ],
    [
      "c",
      "al</w>",
      219
    ],
    [
      "de",
      "d,</w>",
      218
    ],
    [
      "ck",
      "ed</w>",
      218
    ],
    [
      "d",
      "am",
      218
    ],
    [
      "th",
      "ing,</w>",
      218
    ],
    [
      "s",
      "wor",
      218
    ],
    [
      "ha",
      "st",
      218
    ],
    [
      "mo",
      "ther</w>",
      218
    ],
    [
      "hun",
      "dred</w>",
      218
    ],
    [
      "hou",
      "se,</w>",
      217
    ],
    [
      "cer",
      "tain",
      217
    ],
    [
      "con",
      "sci",
      217
    ],
    [
      "off",
      "ic",
      217
    ],
    [
      "me",
      "ans</w>",
      217
    ],
    [
      "retur",
      "n</w>",
      217
    ],
    [
      "ton",
      "gu",
      217
    ],
    [
      "parti",
      "cu",
      216
    ],
    [
      "m",
      "ac",
      216
    ],
    [
      "nat",
      "ur",
      216
    ],
    [
      "an",
      "n",
      216
    ],
    [
      "thous",
      "and</w>",
      216
    ],
    [
      "su",
      "m",
      216
    ],
    [
      "consi",
      "der",
      215
    ],
    [
      "s",
      "es",
      215
    ],
    [
      "mor",
      "n",
      215
    ],
    [
      "ver",
      "s",
      215
    ],
    [
      "l",
      "ow</w>",
      215
    ],
    [
      "unti",
      "l</w>",
      215
    ],
    [
      "1",
      "1",
      215
    ],
    [
      "remem",
      "ber</w>",
      214
    ],
    [
      "pres",
      "ent",
      214
    ],
    [
      "y",
      "-",
      214
    ],
    [
      "ob",
      "ser",
      213
    ],
    [
      ")",
      ",</w>",
      213
    ],
    [
      "a",
      "h,</w>",
      213
    ],
    [
      "b",
      "ab",
      213
    ],
    [
      "stand",
      "ing</w>",
      213
    ],
    [
      "c",
      "y</w>",
      213
    ],
    [
      "le",
      "g",
      212
    ],
    [
      "m",
      "ir",
      212
    ],
    [
      "p",
      "ati",
      212
    ],
    [
      "cha",
      "m",
      212
    ],
    [
      "a",
      "z",
      212
    ],
    [
      "we",
      "e",
      212
    ],
    [
      "ch",
      "ur",
      212
    ],
    [
      "at",
      "ely</w>",
      212
    ],
    [
      "ac",
      "qu",
      212
    ],
    [
      "en",
      "ce.</w>",
      212
    ],
    [
      "i",
      "gn",
      211
    ],
    [
      "ing",
      "-",
      211
    ],
    [
      "boo",
      "k</w>",
      211
    ],
    [
      "cir",
      "c",
      211
    ],
    [
      "fu",
      "l",
      211
    ],
    [
      "st",
      "s</w>",
      210
    ],
    [
      "up",
      ",</w>",
      210
    ],
    [
      "in",
      "s</w>",
      210
    ],
    [
      "sle",
      "ep",
      210
    ],
    [
      "sc",
      "ar",
      210
    ],
    [
      "b",
      "ly</w>",
      210
    ],
    [
      "ma",
      "king</w>",
      209
    ],
    [
      "i",
      "'",
      209
    ],
    [
      "w",
      "er</w>",
      209
    ],
    [
      "al",
      "s</w>",
      209
    ],
    [
      "so",
      "lu",
      209
    ],
    [
      "do",
      "ing</w>",
      209
    ],
    [
      "sat",
      "is",
      209
    ],
    [
      "char",
      "ac",
      209
    ],
    [
      "er",
      "ing</w>",
      209
    ],
    [
      "it",
      ";</w>",
      209
    ],
    [
      "wi",
      "se</w>",
      209
    ],
    [
      "di",
      "sp",
      209
    ],
    [
      "al",
      ".</w>",
      209
    ],
    [
      "ter",
      "s</w>",
      208
    ],
    [
      "le",
      "tt",
      208
    ],
    [
      "con",
      "f",
      208
    ],
    [
      "strang",
      "e</w>",
      207
    ],
    [
      "comp",
      "ani",
      207
    ],
    [
      "go",
      "d,</w>",
      207
    ],
    [
      "so",
      "ci",
      207
    ],
    [
      "her",
      "self</w>",
      206
    ],
    [
      "dur",
      "ing</w>",
      206
    ],
    [
      "mom",
      "ent</w>",
      206
    ],
    [
      "again",
      ".</w>",
      206
    ],
    [
      "f",
      "le",
      206
    ],
    [
      "ter",
      "ri",
      206
    ],
    [
      "m",
      ",</w>",
      205
    ],
    [
      "li",
      "sh</w>",
      205
    ],
    [
      "is",
      "ed</w>",
      205
    ],
    [
      "rep",
      "lied</w>",
      205
    ],
    [
      "en",
      "ce",
      205
    ],
    [
      "ment",
      "s</w>",
      205
    ],
    [
      "b",
      "ow",
      205
    ],
    [
      "mar",
      "k</w>",
      204
    ],
    [
      "b",
      "ad</w>",
      204
    ],
    [
      "hom",
      "e</w>",
      204
    ],
    [
      "fe",
      "ll</w>",
      204
    ],
    [
      "pro",
      "vi",
      204
    ],
    [
      "w",
      "re",
      204
    ],
    [
      "e",
      "-",
      204
    ],
    [
      "li",
      "m",
      203
    ],
    [
      "z",
      "e</w>",
      203
    ],
    [
      "ni",
      "ght,</w>",
      203
    ],
    [
      "b",
      "on",
      203
    ],
    [
      "ent",
      "y</w>",
      203
    ],
    [
      "gr",
      "at",
      203
    ],
    [
      "lo",
      "st</w>",
      203
    ],
    [
      "da",
      "y.</w>",
      203
    ],
    [
      "t",
      "on</w>",
      203
    ],
    [
      "un",
      "ited</w>",
      203
    ],
    [
      "v",
      "es,</w>",
      202
    ],
    [
      "w",
      "an",
      202
    ],
    [
      "li",
      "ght",
      202
    ],
    [
      "i",
      "de</w>",
      202
    ],
    [
      "me",
      "et</w>",
      202
    ],
    [
      "hi",
      "gh",
      202
    ],
    [
      "min",
      "i",
      202
    ],
    [
      "y",
      "or",
      202
    ],
    [
      "fo",
      "x",
      202
    ],
    [
      "de",
      "f",
      202
    ],
    [
      "f",
      "lu",
      202
    ],
    [
      "there",
      "\u2019s</w>",
      201
    ],
    [
      "u",
      "re",
      201
    ],
    [
      "every",
      "thing</w>",
      201
    ],
    [
      "en",
      "jo",
      201
    ],
    [
      "st",
      "ing</w>",
      201
    ],
    [
      "wor",
      "ks</w>",
      200
    ],
    [
      "s",
      "ac",
      200
    ],
    [
      "row",
      "n</w>",
      200
    ],
    [
      "cover",
      "ed</w>",
      200
    ],
    [
      "s",
      "\u2014",
      200
    ],
    [
      "ar",
      "ing</w>",
      200
    ],
    [
      "vo",
      "ice</w>",
      200
    ],
    [
      "con",
      "st",
      199
    ],
    [
      "le",
      "ast</w>",
      199
    ],
    [
      "inde",
      "ed</w>",
      199
    ],
    [
      "y",
      "?</w>",
      199
    ],
    [
      "t",
      ";</w>",
      199
    ],
    [
      "wi",
      "l",
      199
    ],
    [
      "k",
      "e.</w>",
      199
    ],
    [
      "pra",
      "y</w>",
      199
    ],
    [
      "for",
      "m</w>",
      199
    ],
    [
      "n",
      "s</w>",
      198
    ],
    [
      "m",
      "r</w>",
      198
    ],
    [
      "did",
      "n\u2019t</w>",
      198
    ]
  ]
}